.	29791
▁	23005
,	14792
1	9460
0	6882
2	5452
9	5378
s	5179
▁в	4891
e	3736
▁est	3615
е	3467
а	3246
▁и	3025
▁in	2736
8	2735
5	2666
m	2656
3	2645
um	2449
▁et	2436
4	2387
7	2350
6	2339
и	2283
—	2245
▁(	2237
й	2147
i	2094
us	1963
▁на	1946
a	1890
-	1802
o	1755
:	1701
▁В	1594
▁с	1569
х	1506
м	1416
▁sunt	1371
я	1311
▁a	1304
▁не	1291
is	1273
▁anno	1259
ы	1255
о	1247
▁ad	1204
▁что	1154
)	1153
▁«	1042
у	1003
ом	953
▁года	950
ой	932
▁по	898
▁году	886
ая	857
c	833
▁non	790
ся	772
т	745
ов	730
▁из	693
▁С	674
es	674
).	663
▁de	660
▁к	636
▁Anno	625
▁cum	623
▁erat	603
▁о	601
ть	591
»	589
▁был	578
t	573
▁от	571
▁-	568
▁"	568
▁за	566
го	565
ю	562
▁как	536
?	530
ого	528
ет	526
▁его	501
▁он	496
▁In	496
rum	485
;	480
л	468
▁eius	468
que	462
▁это	454
▁se	453
ь	451
▁fuit	441
ую	438
▁для	433
ae	433
▁inter	430
▁per	420
▁ut	415
▁до	410
▁quae	402
▁die	400
▁sed	397
▁A	394
».	393
"	389
▁у	379
ми	379
ur	377
в	376
с	375
з	373
n	367
▁esse	360
▁qui	357
▁а	350
▁ab	349
▁ex	346
ей	335
▁quam	327
▁при	323
em	318
▁appellantur	314
ibus	312
y	310
▁но	308
▁pro	301
re	300
▁vel	298
▁было	295
р	293
ли	291
am	289
▁была	286
ка	286
ta	284
pud	284
ых	281
os	279
ами	277
ем	275
▁На	274
▁De	272
▁время	270
ый	266
ие	265
но	262
orum	261
it	261
▁П	258
▁под	258
▁так	256
▁По	255
бы	254
),	250
▁М	250
▁же	246
▁Incola	246
▁их	245
▁C	245
▁они	244
▁quod	243
▁annos	243
▁К	241
▁habet	241
▁были	237
▁iam	237
▁etiam	236
к	232
▁А	231
er	229
▁potest	227
▁S	224
▁то	222
▁И	222
англ	222
▁Hae	221
▁со	219
ий	219
ла	219
▁её	218
▁annum	218
▁лет	215
ки	213
▁P	212
▁re	211
unt	210
▁autem	210
▁I	208
u	208
▁О	207
▁про	206
н	205
quam	205
▁Это	202
на	201
ется	199
▁У	199
ная	198
▁eum	198
▁mortuus	198
ные	197
лись	196
▁homines	196
bus	195
ных	193
▁котор	192
▁во	191
▁год	191
ный	191
▁Die	191
▁anni	190
▁Он	189
▁Novi	188
vit	188
их	187
or	187
▁или	186
щ	185
ti	184
▁когда	183
▁Eboraci	183
▁tempore	183
ют	182
▁The	182
▁после	182
ое	180
́	180
.)	179
▁post	179
лась	178
▁г	178
▁factus	178
▁является	177
ст	176
ной	175
ri	175
ia	174
▁она	172
p	169
C	168
ter	167
ок	165
▁все	164
ия	164
ного	162
."	161
▁Ho	160
enses	160
ам	159
ni	159
▁res	159
▁Sed	158
▁вы	157
ку	157
tur	157
▁of	156
as	156
!	155
io	155
▁usque	155
▁раз	154
ах	153
at	153
то	152
▁Не	151
/	151
▁Ab	151
▁hoc	151
▁facta	151
▁также	150
▁более	150
g	149
д	147
ч	147
dem	147
лся	146
за	146
ен	146
tque	146
г	145
d	145
nt	144
▁Ianuarii	144
▁об	143
▁только	143
▁я	142
'	140
он	138
na	137
▁может	136
▁F	136
le	136
r	135
▁E	135
▁Но	133
▁того	132
ra	132
ые	131
ant	131
▁con	131
чень	130
f	130
▁ea	130
▁этого	129
▁ei	129
▁accepit	129
▁без	128
▁За	128
▁Т	128
▁свои	127
ным	127
▁стал	127
▁sua	127
ра	126
▁Ad	126
▁которые	125
ж	124
ются	124
▁Londinii	124
▁человек	123
▁Cum	122
ло	121
▁aut	121
▁Dioecesi	121
▁hae	121
▁eo	121
▁Ita	120
ться	119
▁ни	119
▁уже	119
▁p	119
▁II	117
tus	117
▁ac	116
▁contra	115
x	115
▁них	113
б	113
▁Post	113
▁circa	113
им	111
▁Et	111
▁января	110
му	110
en	110
li	110
▁Б	109
▁Я	109
▁D	109
▁чем	109
ым	109
alis	109
▁sub	109
▁quoque	109
▁erant	109
ии	108
ни	108
ле	108
▁opera	108
▁duo	108
▁ubi	108
▁qua	108
▁бы	107
▁который	107
да	107
ne	107
ской	107
▁этом	106
▁Р	106
▁G	106
pp	106
▁U	105
–	105
▁tres	105
▁ante	105
▁possunt	105
h	104
▁plus	104
▁том	103
▁где	103
ш	103
▁При	103
▁tamen	103
▁мы	102
лось	102
▁пере	102
ное	102
S	102
A	102
l	102
▁Так	101
▁Inter	101
▁нескольк	101
al	101
▁prima	101
ить	100
▁Его	100
▁ещё	99
▁быть	99
▁сам	98
▁O	98
▁около	98
▁ему	98
ную	98
▁получил	98
di	98
▁ipse	98
▁Quae	98
▁omnes	98
nis	97
et	97
▁primum	97
та	96
ре	96
de	96
▁L	95
tio	95
▁quo	95
С	94
▁H	94
▁B	94
▁pars	94
▁Maii	94
P	93
in	93
▁Etiam	93
▁будет	92
▁nomen	92
▁cuius	92
▁dies	92
не	91
▁эти	91
▁Si	91
▁Septembris	91
▁между	90
an	90
▁много	90
▁мая	90
▁pagina	90
▁causa	90
tum	90
▁сентября	89
▁тем	89
▁США	89
ро	89
▁Non	89
ica	89
▁Iunii	89
▁После	88
ди	88
▁Во	88
ее	88
b	88
▁Ex	88
ensis	88
▁saepe	88
▁Они	87
▁%	87
▁Все	87
▁Г	87
▁нас	87
даже	87
▁э	87
▁scripsit	87
если	86
z	86
ри	86
ium	86
▁Д	86
▁ли	86
%	86
ё	85
▁есть	85
ин	85
▁Press	85
ва	85
ит	85
▁декабря	85
▁publica	85
k	85
▁vita	85
▁si	85
▁quia	85
▁ob	85
▁natus	85
▁Decembris	85
erunt	85
же	84
от	84
▁него	84
ён	84
ча	84
▁Hi	84
ionem	84
▁lingua	84
▁the	83
▁and	83
▁себя	83
▁Re	83
ch	83
ского	83
verunt	83
чи	82
▁Как	82
ны	82
▁де	82
ев	82
▁Е	82
te	82
▁sit	82
▁praeses	82
▁secundum	82
ere	82
’	81
▁сайт	81
th	81
▁чере	81
▁три	81
▁Ei	81
▁Eo	81
▁paroeciae	81
▁Про	80
вою	80
▁V	80
▁город	80
▁me	80
ский	80
▁Qui	80
▁eam	80
▁п	79
об	79
co	79
▁T	79
ci	79
tis	79
ns	79
▁urbe	79
si	78
ма	78
▁основан	78
▁два	78
▁всё	78
ар	78
ская	78
А	78
▁condita	78
▁имеет	77
▁можно	77
ци	77
▁ноября	77
iae	77
▁Novembris	77
▁fecit	77
▁им	76
▁жизни	76
ения	76
▁M	76
ing	76
▁modo	76
▁Martii	76
▁Urbani	76
сь	75
st	75
ro	75
bat	75
▁habent	75
▁fere	75
▁Iulii	75
ut	74
▁марта	74
ном	74
▁Н	73
ис	73
ce	73
ские	73
Anglice	73
▁времени	72
M	72
во	72
▁Pro	72
▁своей	72
▁всех	72
▁Per	72
▁una	72
▁Quam	72
untur	72
▁habuit	72
▁solum	72
▁здесь	71
п	71
▁No	71
da	71
▁K	71
ent	71
▁c	71
▁N	71
ens	71
▁Quod	71
tionem	71
▁quattuor	71
▁До	70
ек	70
▁июля	70
▁часть	70
▁своё	70
▁февраля	70
▁своего	70
ор	70
ке	70
▁La	70
ius	70
▁huius	70
П	69
▁Из	69
га	69
▁города	69
▁один	69
ed	69
va	69
▁partes	69
▁fuerunt	69
▁alia	69
▁enim	69
▁Augusti	69
ф	68
ина	68
el	68
▁nihil	68
ve	68
▁sine	68
uit	68
▁против	67
цы	67
ными	67
▁над	67
▁Со	67
to	67
unc	67
▁dedit	67
numquam	67
▁Februarii	67
▁nunc	67
dam	66
▁От	66
▁н	66
▁Qua	66
▁Ibi	66
▁statu	66
тер	65
▁New	65
▁стала	65
би	65
ния	65
▁Ш	65
ici	65
cum	65
▁videtur	65
▁Вы	64
▁Она	64
ство	64
ль	64
ру	64
▁Ли	64
la	64
mus	64
ca	64
▁Ea	64
▁hic	64
▁scriptor	64
▁день	63
▁однако	63
▁всего	63
ко	63
ив	63
▁тысяч	63
are	63
▁f	63
ru	63
▁incolarum	63
▁urbs	63
▁кто	62
nes	62
жи	62
▁лишь	62
ан	62
ud	62
▁Nova	62
▁Situ	62
▁species	62
▁primo	62
▁тот	61
или	61
▁людей	61
▁вместе	61
ус	61
▁апреля	61
ние	61
▁nomine	61
ndum	61
▁Lutetiae	61
ntur	61
▁suam	61
▁Aprilis	61
▁bellum	61
сти	60
ля	60
М	60
▁своим	60
по	60
са	60
К	60
▁могут	60
ну	60
си	60
▁Ф	60
▁R	60
▁hodie	60
▁propter	60
▁годах	59
▁язык	59
w	59
H	59
▁некоторы	59
tionis	59
▁multa	59
▁Imperi	59
вер	58
▁других	58
ходится	58
вал	58
▁человека	58
▁Сам	58
▁Что	58
▁te	58
▁IV	58
де	58
D	58
pi	58
no	58
▁multi	58
▁Deinde	58
▁suo	58
▁Pater	58
ости	57
▁III	57
▁себе	57
▁перед	57
▁ne	57
ii	57
▁Omne	57
▁nec	57
▁libertate	57
▁меня	56
▁Co	56
ти	56
N	56
mi	56
T	56
▁quinque	56
▁'	56
num	56
▁sedes	56
▁consul	56
▁multos	56
▁Был	55
▁Если	55
И	55
▁ты	55
▁которая	55
▁нет	55
смотря	55
огда	55
▁июня	55
ков	55
tor	55
ba	55
ani	55
bi	55
▁mense	55
▁Tum	55
▁legatu	55
▁место	54
▁Э	54
▁Л	54
шёл	54
ил	54
&	54
▁–	54
▁Да	54
▁h	54
ят	54
atio	54
▁id	54
▁insula	54
▁Lingua	54
▁Multa	54
ты	53
▁Однако	53
ал	53
il	53
▁течение	53
че	53
ос	53
▁urbem	53
tae	53
▁an	53
▁Hodie	53
▁там	52
▁явля	52
▁момент	52
▁di	52
▁больше	52
▁октября	52
▁начал	52
▁название	52
▁W	52
ши	52
ana	52
▁Quid	52
▁esset	52
▁adhuc	52
▁primu	52
▁Postea	52
▁maxima	52
▁York	51
▁Когда	51
▁хотя	51
▁образом	51
V	51
фр	51
ец	51
ня	51
▁An	51
▁Ca	51
▁Se	51
mo	51
atur	51
▁tantum	51
▁postea	51
▁quidem	51
▁nata	51
batur	51
▁vide	51
bant	51
▁nova	51
▁sicut	51
▁super	51
▁люди	50
ение	50
ому	50
▁Нов	50
▁жизнь	50
Д	50
ход	50
▁истории	50
▁смерти	50
les	50
ба	50
bo	50
lo	50
▁Ma	50
▁At	50
▁Americae	50
tiones	50
▁quas	50
▁semper	50
▁eos	50
lerumque	50
B	49
▁буду	49
▁просто	49
▁перво	49
ду	49
род	49
▁августа	49
lis	49
ыми	49
ги	49
im	49
ic	49
▁состав	49
▁Quo	49
cus	49
sa	49
▁vir	49
tas	49
▁fuisse	49
▁Germania	49
▁multis	49
▁prae	49
▁hominum	49
▁interretialis	49
▁minister	49
▁nota	49
▁да	48
ях	48
▁Ка	48
ении	48
▁премьер	48
▁З	48
ию	48
ком	48
ma	48
▁quid	48
▁tota	48
▁muner	48
▁aliis	48
▁factum	48
▁pellicula	48
▁lud	48
▁hac	48
E	47
ум	47
когда	47
▁войны	47
▁всегда	47
▁Под	47
▁должен	47
до	47
on	47
ика	47
▁Z	47
▁val	47
▁forma	47
▁sex	47
Nomen	47
ndi	47
▁Tamen	47
▁Sunt	47
▁tam	47
уд	46
ед	46
▁принял	46
ца	46
▁opus	46
фе	46
ность	46
ша	46
▁пыта	46
ц	46
▁Ра	46
ас	46
▁которое	46
▁род	46
▁rerum	46
ver	46
ores	46
▁Est	46
▁Romae	46
arum	46
iones	46
▁ibi	46
anno	46
▁Secund	46
▁vi	46
▁deinde	46
▁Romani	46
tione	46
ист	45
лет	45
▁пор	45
ine	45
Т	45
id	45
ности	45
▁мире	45
ke	45
тель	45
ских	45
▁первый	45
ры	45
▁период	45
▁городе	45
ман	45
▁достаточно	45
°	45
▁Vide	45
lia	45
▁dicitur	45
▁liber	45
▁illo	45
ensi	45
O	44
ском	44
▁России	44
▁президент	44
▁суд	44
▁неё	44
▁перв	44
▁американск	44
▁годы	44
ox	44
фи	44
▁Х	44
▁качестве	44
▁Res	44
▁vitae	44
Б	43
▁тех	43
▁народ	43
стало	43
▁Северн	43
стоит	43
те	43
дер	43
лен	43
▁(«	43
В	43
▁видов	43
▁двух	43
(	43
▁многих	43
sque	43
ll	43
ходит	43
I	43
лат	43
cae	43
tes	43
▁Ne	43
▁Saep	43
▁sive	43
▁Unioni	43
ionis	43
▁linguae	43
▁magistratu	43
▁Prima	43
▁Italiae	43
▁Ioannes	43
ria	43
ян	42
▁умер	42
э	42
▁нём	42
тов	42
тор	42
мер	42
▁ин	42
▁X	42
оз	42
▁ей	42
com	42
▁J	42
▁части	42
▁Academia	42
▁Ut	42
▁fit	42
▁eis	42
▁momenti	42
▁duas	42
▁parte	42
gi	41
▁друг	41
▁Дл	41
тся	41
лов	41
▁Официальн	41
▁страны	41
cis	41
ск	41
лу	41
либо	41
али	41
па	41
▁Un	41
do	41
▁Americana	41
▁ita	41
▁offici	41
▁com	41
natus	41
▁...	40
▁стали	40
▁среди	40
О	40
▁Ж	40
»)	40
▁дома	40
▁Deus	40
é	40
ly	40
ес	40
ат	40
скоре	40
ран	40
▁Великобритании	40
нер	40
▁те	40
овые	40
un	40
▁Ver	40
po	40
nus	40
lu	40
ata	40
▁im	40
▁Nunc	40
▁matrimoni	40
▁planeta	40
▁vitam	40
▁pater	40
▁temporis	40
▁dicit	40
ebat	40
▁eorum	40
▁Civitat	40
ник	39
▁b	39
▁имеют	39
ад	39
аль	39
фа	39
▁пока	39
▁=	39
▁Франции	39
ями	39
оставляет	39
▁ним	39
▁американски	39
▁трёх	39
сть	39
▁территории	39
▁вынужден	39
кс	39
▁Unione	39
▁genera	39
▁constat	39
▁Multi	39
nenses	39
sci	39
ebant	39
▁persona	39
▁Iam	39
▁quem	39
▁mortem	39
licet	39
▁дней	38
ёт	38
▁д	38
▁случае	38
айт	38
▁нужно	38
▁делать	38
пу	38
▁Нью	38
ton	38
▁ничего	38
▁/	38
ше	38
чь	38
ста	38
▁различны	38
почти	38
лин	38
ar	38
▁империи	38
▁Man	38
ad	38
▁Le	38
")	38
▁urbis	38
vis	38
▁aedifici	38
▁milia	38
▁rex	38
▁Prim	38
▁sint	38
▁annis	38
▁Ecclesia	38
▁decem	38
▁varia	38
▁oppidum	38
?»	37
▁Об	37
▁писатель	37
▁населения	37
тен	37
L	37
▁именно	37
▁стр	37
▁честь	37
▁стороны	37
бр	37
ard	37
▁наук	37
▁d	37
▁вид	37
жа	37
▁Город	37
R	37
▁оста	37
пи	37
▁чего	37
spectus	37
пе	37
ик	37
место	37
▁co	37
alia	37
▁Nam	37
▁n	37
▁America	37
per	37
ā	37
▁dum	37
▁igitur	37
nisi	37
▁sententia	37
▁Sententia	37
▁familia	37
erat	37
▁officialis	37
▁electus	37
▁Cui	37
ер	36
▁расположен	36
гг	36
Н	36
ель	36
мо	36
ость	36
▁полностью	36
▁ре	36
▁языка	36
сс	36
▁Кон	36
ber	36
ul	36
▁vis	36
▁ha	36
▁Ipse	36
▁Mens	36
ntes	36
circiter	36
▁Octobris	36
▁coepit	36
▁sci	36
▁recessit	36
▁Praemi	36
▁большо	35
▁Лондон	35
▁Втор	35
▁мне	35
вин	35
ится	35
▁име	35
ена	35
▁конце	35
▁дела	35
уп	35
▁одной	35
▁Здесь	35
ут	35
▁свой	35
▁количество	35
▁Италии	35
▁таким	35
▁пре	35
▁mundi	35
▁б	35
ации	35
▁sum	35
▁Al	35
▁Ba	35
▁fecerunt	35
▁dioecesi	35
▁duxit	35
▁pecunia	35
▁habere	35
▁appellatur	35
▁situm	35
issima	35
▁Franciae	35
▁provincia	35
▁такой	34
▁Там	34
Р	34
▁Европе	34
▁зате	34
▁отца	34
ред	34
▁собой	34
▁Books	34
▁Те	34
цев	34
▁фильм	34
ха	34
▁должны	34
j	34
▁начала	34
▁университет	34
▁работы	34
▁рас	34
▁возможность	34
бл	34
гу	34
res	34
вед	34
ёр	34
▁известны	34
▁весь	34
▁VI	34
isse	34
pe	34
▁media	34
▁Universita	34
ari	34
▁via	34
▁unum	34
▁partem	34
▁terra	34
▁illa	34
▁dixit	34
▁serie	34
▁secunda	34
▁finem	34
▁mortua	34
ini	34
▁facere	34
endi	34
▁familiae	34
▁Francia	34
▁habetur	34
▁numerus	34
seu	34
ья	33
▁Me	33
ились	33
ское	33
ите	33
эту	33
нем	33
▁настояще	33
▁dis	33
▁многие	33
):	33
▁языке	33
▁одним	33
▁Ре	33
пер	33
министр	33
▁for	33
▁Ан	33
▁Умер	33
▁области	33
v	33
▁работа	33
▁гор	33
▁второй	33
▁быстро	33
ту	33
ясь	33
▁alias	33
нд	33
▁имя	33
▁две	33
▁Ла	33
▁Id	33
▁El	33
ven	33
nem	33
▁Italia	33
itur	33
ab	33
▁Ante	33
bit	33
▁mortu	33
▁ille	33
agina	33
▁Textus	33
▁Insula	33
▁milites	33
▁papa	33
itas	33
▁Americanus	33
▁officium	33
▁Anni	33
antur	33
▁parlament	33
▁regioni	33
ющий	32
▁официально	32
▁четыре	32
▁Ч	32
▁происходит	32
▁детей	32
сто	32
▁Кром	32
ники	32
ью	32
лю	32
ает	32
▁Та	32
▁игры	32
▁Многи	32
ali	32
▁создан	32
ова	32
▁Times	32
▁Германии	32
вор	32
нес	32
▁ко	32
▁дом	32
▁la	32
▁Де	32
▁потому	32
▁избран	32
▁одно	32
▁власти	32
ав	32
▁Пол	32
ati	32
▁Ар	32
▁Ar	32
G	32
▁Mar	32
be	32
▁poeta	32
ret	32
▁Am	32
▁Europa	32
tu	32
itatem	32
▁circum	32
Circa	32
▁iterum	32
▁neque	32
▁intra	32
dum	32
▁rem	32
▁explicat	32
▁societatis	32
▁potuit	32
iam	32
anenses	32
▁Iaponia	32
▁gratia	32
qui	32
▁suas	32
▁civitates	32
ве	31
▁известно	31
▁книг	31
▁Эти	31
▁самом	31
▁союз	31
▁месте	31
▁котором	31
▁Национальн	31
▁годов	31
tri	31
au	31
▁Po	31
▁мог	31
ров	31
изм	31
ись	31
▁Первы	31
вы	31
▁процесс	31
▁собственн	31
▁to	31
первых	31
▁часто	31
ать	31
▁Японии	31
овать	31
▁мир	31
ак	31
мы	31
▁пришло	31
Х	31
▁острова	31
▁позже	31
▁ш	31
▁at	31
▁вступил	31
сон	31
▁Russia	31
endo	31
gen	31
gr	31
Л	31
man	31
▁Ali	31
vi	31
ura	31
ea	31
▁Liber	31
▁Su	31
▁illi	31
▁parva	31
▁significat	31
▁suum	31
▁minus	31
▁factionis	31
▁homo	31
cu	31
▁honore	31
▁vivunt	31
▁сделать	30
▁говорит	30
▁первым	30
▁сказал	30
▁этим	30
▁широко	30
▁менее	30
//	30
▁партии	30
ась	30
▁появи	30
▁сильно	30
вольно	30
▁стран	30
▁находил	30
иться	30
дать	30
▁Сан	30
кой	30
▁университета	30
су	30
▁впервые	30
▁Ю	30
ans	30
▁состоя	30
▁кон	30
▁Го	30
▁Sa	30
▁historia	30
nae	30
cia	30
tra	30
▁populi	30
▁Russiae	30
▁tu	30
▁tum	30
▁mult	30
▁iuris	30
▁pugna	30
▁necesse	30
avit	30
centum	30
▁primi	30
▁Iesu	30
▁Numer	30
▁pedilusor	30
▁aetate	30
▁ecclesia	30
▁paen	30
itatis	30
▁отношения	29
его	29
De	29
▁Джон	29
Я	29
найти	29
мен	29
▁Ин	29
▁какой	29
▁благодар	29
ент	29
▁становится	29
▁ними	29
▁объявил	29
▁Александр	29
оэтому	29
▁ma	29
вёл	29
▁включа	29
▁поскольку	29
стро	29
мат	29
▁работал	29
ими	29
ды	29
стер	29
ющие	29
▁пост	29
Ф	29
▁Ле	29
▁пред	29
вар	29
▁одна	29
▁Can	29
za	29
ван	29
од	29
инг	29
ck	29
ion	29
}	29
est	29
anus	29
men	29
ha	29
▁libri	29
▁op	29
ces	29
cul	29
atim	29
▁Civitate	29
▁variis	29
▁numeri	29
▁constituta	29
▁multae	29
▁quibus	29
▁cui	29
▁posse	29
▁prope	29
▁nomina	29
▁caput	29
▁Praeterea	29
▁politica	29
duc	29
▁Bostoniae	29
▁septem	29
▁Бог	28
гл	28
ился	28
▁армии	28
ника	28
▁другие	28
▁Южно	28
?"	28
бер	28
▁открыт	28
▁вер	28
▁Paul	28
▁км	28
ье	28
▁Населен	28
ден	28
уз	28
▁партия	28
▁отец	28
ировать	28
▁назад	28
▁Англии	28
▁Con	28
▁Испании	28
ву	28
ган	28
▁сохрани	28
эн	28
ул	28
ov	28
скую	28
ays	28
he	28
▁самым	28
ант	28
▁Wi	28
ist	28
ell	28
chi	28
▁мира	28
onis	28
▁“	28
lag	28
ho	28
tem	28
▁Petr	28
entes	28
▁habitant	28
ula	28
ienses	28
▁Vi	28
ione	28
▁maior	28
▁Archidioecesi	28
▁auxili	28
ergo	28
▁vera	28
▁successit	28
▁terrae	28
▁omnia	28
atus	28
▁nonnulla	28
▁mundo	28
tica	28
ex	28
▁primam	28
▁Anglica	28
cta	28
▁Caput	28
▁utitur	28
▁мо	27
▁Кор	27
▁решение	27
▁пять	27
▁Br	27
▁Мак	27
▁Их	27
▁поэтому	27
вр	27
▁сразу	27
▁Па	27
▁сделал	27
▁Эта	27
▁Позже	27
▁наибол	27
уль	27
▁семья	27
одного	27
á	27
▁возможно	27
▁Некоторы	27
ten	27
▁политик	27
▁помощи	27
▁тыс	27
▁позволя	27
▁Ди	27
▁написал	27
ска	27
овал	27
▁Mac	27
ел	27
▁вышл	27
▁Мор	27
▁viv	27
кан	27
▁роман	27
U	27
▁motus	27
▁французский	27
K	27
▁века	27
con	27
▁Cur	27
ndo	27
▁Britannia	27
▁usu	27
lin	27
▁Germaniae	27
trix	27
▁can	27
ris	27
▁Sovietica	27
▁Iuli	27
arii	27
▁numero	27
uerunt	27
▁Aegypti	27
▁Europae	27
▁linguam	27
▁facit	27
vere	27
▁maximi	27
▁Primus	27
▁ipsi	27
▁nominatus	27
▁Municipium	27
▁Urb	27
▁Plus	27
▁creata	27
▁scripta	27
▁imperator	27
▁saeculo	27
▁exercitus	27
▁fieri	27
▁rebus	27
▁musica	27
ebantur	27
genus	27
▁Sin	27
▁mea	26
колько	26
▁нам	26
▁проект	26
▁деле	26
▁СССР	26
▁обще	26
▁Америке	26
▁вопрос	26
▁пар	26
▁составлял	26
▁военно	26
▁Бо	26
▁пяти	26
▁множество	26
▁Mari	26
▁Австралии	26
▁долго	26
вид	26
▁Са	26
мор	26
▁Li	26
▁сейчас	26
▁Перво	26
fi	26
▁большинство	26
тел	26
кон	26
▁стать	26
ctus	26
▁местны	26
▁наше	26
▁прошл	26
▁постоянно	26
ry	26
лей	26
▁University	26
ско	26
итал	26
▁Or	26
кл	26
▁слова	26
▁Bo	26
пол	26
▁выпущен	26
▁World	26
яя	26
pa	26
▁Vol	26
go	26
one	26
граф	26
om	26
ol	26
ale	26
cal	26
▁He	26
▁ap	26
▁mihi	26
▁fabrica	26
▁move	26
▁Val	26
▁Societa	26
▁venit	26
averunt	26
▁militum	26
▁Europaeae	26
▁factio	26
ismus	26
▁verba	26
imus	26
rtim	26
hi	26
▁nulla	26
▁propria	26
▁km	26
lem	26
▁loco	26
▁totum	26
▁publicae	26
▁triginta	26
▁sui	26
▁Legat	26
▁natura	26
ec	25
▁„	25
▁Затем	25
!»	25
net	25
округ	25
У	25
Йорк	25
▁Ор	25
ции	25
▁сын	25
▁имени	25
▁число	25
▁London	25
▁теперь	25
прав	25
▁назван	25
F	25
▁ранее	25
rit	25
▁особенно	25
▁серии	25
▁удалось	25
▁открыл	25
▁Пре	25
рин	25
▁группы	25
▁То	25
▁потом	25
дел	25
Г	25
▁футболист	25
▁произошло	25
▁степени	25
раз	25
▁Мал	25
мон	25
▁сегодня	25
tyle	25
▁использует	25
▁провинции	25
ге	25
▁История	25
▁новый	25
тар	25
▁наши	25
▁Robert	25
▁vol	25
читается	25
icis	25
ром	25
▁Com	25
ler	25
▁чел	25
”	25
▁Tra	25
▁Maria	25
▁Europaea	25
rig	25
▁Museum	25
enda	25
▁ven	25
nam	25
ella	25
▁certa	25
▁bene	25
▁libro	25
ales	25
▁situs	25
▁milliones	25
atum	25
▁par	25
▁tibi	25
▁summa	25
▁Homines	25
▁schola	25
▁probationem	25
▁data	25
▁Factio	25
▁tria	25
▁quos	25
▁magis	25
rae	25
▁ultima	25
oc	25
▁agit	25
▁cinematographic	25
▁epocha	25
▁uno	25
▁Bell	25
▁vic	25
▁al	24
ана	24
▁такое	24
▁Том	24
▁ratione	24
sti	24
▁воз	24
ается	24
▁Част	24
том	24
▁International	24
▁Ни	24
уче	24
це	24
▁Y	24
зи	24
▁кор	24
▁должность	24
иков	24
▁считают	24
▁скончался	24
▁ней	24
▁наблюда	24
▁помощью	24
▁Марк	24
ели	24
▁жить	24
▁знает	24
▁Чере	24
▁начали	24
▁Ха	24
▁этому	24
▁книги	24
начале	24
▁Dei	24
▁статус	24
▁главн	24
▁хорошо	24
cer	24
▁английский	24
ками	24
▁институт	24
▁Ro	24
спо	24
ур	24
X	24
▁Вид	24
displ	24
лист	24
ун	24
▁остаётся	24
▁Historia	24
ства	24
▁Больш	24
▁игр	24
▁solem	24
tam	24
iana	24
ge	24
iva	24
▁For	24
fer	24
▁generis	24
▁aqua	24
▁duodecim	24
▁edita	24
▁aliquo	24
▁civium	24
▁novum	24
▁domu	24
▁Bibliotheca	24
▁incendi	24
▁Britanniarum	24
▁senator	24
▁urbes	24
▁libros	24
▁morbo	24
▁belli	24
▁secundam	24
▁principali	24
▁nominis	24
▁longa	24
▁utuntur	24
▁socialis	24
▁aliquando	24
▁creatus	24
▁muse	24
▁Fili	24
▁usitat	24
▁urbi	24
▁iuxt	24
▁porta	24
▁привел	23
ир	23
▁надо	23
▁некоторо	23
ъ	23
▁каждый	23
▁начало	23
▁Art	23
▁Media	23
▁независимость	23
▁Имеет	23
▁вес	23
▁Таким	23
▁прожива	23
▁Тем	23
жу	23
▁тогда	23
ики	23
▁образования	23
▁Три	23
пл	23
зов	23
ез	23
ают	23
▁должн	23
▁cura	23
енно	23
▁John	23
оп	23
▁орден	23
▁языков	23
нос	23
▁компания	23
▁ста	23
▁любо	23
▁жителей	23
▁членом	23
▁член	23
▁результате	23
▁дня	23
▁поэт	23
▁компании	23
илась	23
▁обнаружен	23
▁активно	23
вшихся	23
йский	23
▁Бен	23
вшись	23
▁Company	23
▁Canada	23
дали	23
стра	23
▁{\	23
▁журнал	23
ция	23
▁Пров	23
▁Ch	23
рис	23
▁Тр	23
▁мест	23
▁Ni	23
▁Gu	23
ским	23
▁Sp	23
pl	23
dia	23
ō	23
ense	23
▁hora	23
▁adhibetur	23
▁novem	23
▁propositum	23
▁disc	23
▁imagine	23
bantur	23
▁sodalis	23
▁sic	23
▁omnibus	23
▁alii	23
▁pertinet	23
▁Nationalis	23
▁initium	23
▁praemi	23
▁Nihil	23
▁nos	23
▁sola	23
▁omni	23
▁cultura	23
mentum	23
▁linea	23
▁Tabula	23
▁antiqua	23
tores	23
▁mater	23
▁scholam	23
▁Michael	23
▁cur	23
▁ludi	23
▁fratres	23
▁Foederatarum	23
▁multo	23
▁fines	23
▁praecipu	23
▁publicus	23
▁команд	22
про	22
жен	22
▁получи	22
▁причин	22
ций	22
The	22
ять	22
▁Ta	22
▁практически	22
▁значительно	22
mon	22
▁брак	22
▁Вер	22
▁факт	22
вшиеся	22
▁помощь	22
▁собственны	22
▁Оба	22
▁готов	22
нг	22
▁вновь	22
▁система	22
▁ряд	22
рон	22
ём	22
тра	22
▁решил	22
▁Мар	22
▁Возможно	22
▁миллионов	22
▁Du	22
аш	22
▁обе	22
▁всем	22
исп	22
▁кроме	22
▁месяцев	22
▁выборах	22
вшийся	22
cher	22
ней	22
▁бывши	22
▁конца	22
ki	22
▁которым	22
▁песни	22
рос	22
мет	22
▁церковь	22
▁мол	22
▁выше	22
▁do	22
▁Tu	22
nd	22
▁Mor	22
▁права	22
port	22
▁Anna	22
▁scientia	22
▁Os	22
der	22
mina	22
ras	22
▁("	22
log	22
tro	22
arium	22
▁Is	22
▁puer	22
▁gentes	22
▁viri	22
▁praefectus	22
▁vero	22
▁proconsul	22
▁antea	22
▁uxorem	22
▁fini	22
▁suis	22
ista	22
ebatur	22
▁vici	22
▁fortasse	22
icum	22
▁animalia	22
▁studuit	22
▁Propter	22
▁aliae	22
▁praese	22
▁materia	22
olim	22
duae	22
itus	22
sunt	22
▁habebat	22
▁magna	22
▁his	22
▁mundanum	22
▁filia	22
▁unus	22
▁imperi	22
▁Primi	22
▁librum	22
▁quando	22
▁incepit	22
▁potestatem	22
▁Francica	22
▁oppidi	22
▁leges	22
▁Tempor	22
▁Раз	21
▁консул	21
тур	21
▁Новы	21
▁конечно	21
ольшинство	21
▁гр	21
▁почему	21
▁философии	21
▁des	21
▁пят	21
▁Albert	21
▁удар	21
рат	21
ятся	21
▁вне	21
шь	21
руж	21
дель	21
▁прав	21
▁Кар	21
▁News	21
еш	21
▁остров	21
▁Мож	21
▁орган	21
▁построен	21
▁любовь	21
овой	21
ала	21
ила	21
▁французск	21
▁Initi	21
▁данным	21
▁лес	21
▁школе	21
▁говорить	21
олько	21
▁системы	21
▁Vita	21
ице	21
▁одном	21
ерено	21
▁общество	21
коло	21
▁роль	21
▁Явля	21
▁относительно	21
тан	21
▁альбом	21
▁текст	21
▁вида	21
▁$	21
лон	21
ировал	21
▁нового	21
▁рода	21
она	21
дра	21
▁торгов	21
▁Pa	21
▁Mi	21
иды	21
▁доме	21
бар	21
ям	21
▁Среди	21
лер	21
▁Би	21
nda	21
ty	21
▁перевод	21
son	21
gal	21
cy	21
!"	21
▁trans	21
pro	21
tar	21
vin	21
▁Australia	21
▁extra	21
▁Condit	21
ndas	21
▁actrix	21
▁vivit	21
▁invenit	21
▁menses	21
pul	21
▁machina	21
▁iurisprudentia	21
▁parent	21
▁minim	21
sibi	21
▁societa	21
▁laboravit	21
▁patre	21
▁Christiana	21
▁Iu	21
▁doctor	21
▁vivere	21
▁adeptu	21
▁puella	21
liquid	21
▁systema	21
▁Angliae	21
▁prius	21
▁locum	21
▁eiusdem	21
▁spati	21
▁regione	21
▁dare	21
ente	21
▁verbi	21
▁quomodo	21
▁Antoni	21
▁optim	21
▁effectu	21
▁homine	21
▁cursu	21
▁habitat	21
▁oeconomica	21
▁Magna	21
▁dux	21
▁право	20
▁форме	20
вести	20
▁острове	20
▁Суд	20
▁тому	20
▁знаю	20
▁книге	20
станов	20
▁дело	20
org	20
▁организация	20
ano	20
▁Paris	20
▁Боле	20
▁школы	20
▁самой	20
▁целью	20
▁полно	20
▁национальны	20
▁боя	20
▁люб	20
▁места	20
▁таких	20
ющих	20
▁лучше	20
чин	20
▁So	20
▁материал	20
иль	20
ено	20
▁годом	20
▁Бр	20
orem	20
▁День	20
▁пол	20
▁Martin	20
▁выбор	20
▁клуб	20
▁видел	20
ление	20
▁семьи	20
▁слишком	20
▁мать	20
▁пути	20
▁ма	20
тельный	20
▁население	20
▁связи	20
▁означает	20
▁политическ	20
▁крайне	20
▁участвовал	20
еле	20
▁попытк	20
бол	20
лич	20
▁цен	20
▁порт	20
▁ф	20
▁войска	20
▁transit	20
▁стандарт	20
▁назначен	20
▁научны	20
раж	20
бор	20
▁труд	20
▁приход	20
ng	20
ka	20
▁Пред	20
▁создал	20
ация	20
▁ar	20
sset	20
▁король	20
▁mathematica	20
▁unde	20
▁historiae	20
iit	20
▁Th	20
▁Car	20
fa	20
▁Ha	20
▁Tur	20
dus	20
▁milit	20
▁alter	20
ja	20
▁episcop	20
▁actor	20
▁Anglice	20
▁dic	20
▁anim	20
▁dicunt	20
▁filios	20
▁candidatu	20
▁oper	20
▁origine	20
▁pecuniam	20
▁tabula	20
▁quis	20
xit	20
▁Parlamentum	20
▁simul	20
atione	20
▁Biographia	20
▁Corea	20
▁Ergo	20
ina	20
▁Carolu	20
▁scientiae	20
▁culturae	20
▁multas	20
▁accusatu	20
▁publici	20
▁socia	20
▁Provincia	20
▁liberi	20
▁Iunio	20
▁Familia	20
entem	20
▁viginti	20
▁tractat	20
aria	20
▁faciunt	20
▁terrarum	20
menta	20
▁occupa	20
▁aestima	20
▁more	20
▁nocte	20
▁planta	20
▁stat	20
ationis	20
▁Hispania	20
index	20
lect	20
▁incolae	20
▁Dum	20
▁facti	20
▁Бер	19
▁состоял	19
▁речь	19
▁Ц	19
▁участие	19
▁мировой	19
▁Теперь	19
▁само	19
дон	19
▁номер	19
▁тур	19
▁хотел	19
▁Европейск	19
▁Один	19
▁существует	19
▁часов	19
▁Книга	19
▁бог	19
▁Рим	19
▁парламент	19
учи	19
▁взят	19
▁Google	19
▁Ду	19
W	19
давать	19
▁актриса	19
ческий	19
прос	19
нс	19
ата	19
ницы	19
▁национальн	19
является	19
▁пара	19
начала	19
▁Sanct	19
стве	19
▁событий	19
▁Ба	19
сен	19
▁британск	19
▁создани	19
▁работу	19
пар	19
▁программ	19
чные	19
▁метод	19
▁Куб	19
▁Ча	19
▁созда	19
▁книгу	19
▁важны	19
вис	19
▁Marc	19
ходятся	19
чик	19
чен	19
▁британски	19
▁теле	19
▁человеческ	19
министром	19
▁свет	19
▁организации	19
остью	19
▁To	19
▁Индии	19
ников	19
▁Bar	19
овый	19
одну	19
рак	19
вших	19
▁Карл	19
▁Ru	19
▁основе	19
▁идёт	19
▁прибыл	19
олог	19
▁астроном	19
▁титул	19
нов	19
▁Дом	19
енные	19
▁карт	19
ющая	19
▁ди	19
▁языком	19
ν	19
бу	19
▁Sol	19
пы	19
▁названием	19
▁испански	19
ek	19
огласно	19
▁Marti	19
▁Ро	19
▁список	19
▁делает	19
leg	19
▁Gra	19
▁Thomas	19
▁Go	19
bul	19
▁Num	19
▁habita	19
bilis	19
▁Min	19
▁nam	19
ill	19
▁Saecul	19
▁Lo	19
▁universita	19
▁su	19
▁Quando	19
▁magister	19
pta	19
▁Foederatae	19
▁Sua	19
▁nun	19
▁carcere	19
▁ius	19
▁Pars	19
▁Ille	19
▁iis	19
▁putatur	19
▁Sic	19
itate	19
▁aedificata	19
▁societate	19
▁arma	19
dit	19
▁praesenti	19
▁Ubi	19
▁mane	19
▁incipit	19
quorum	19
▁divulgata	19
▁suos	19
ismi	19
▁meruit	19
▁Latine	19
▁fabula	19
▁exercitu	19
▁exstant	19
▁medio	19
▁Inde	19
▁Opera	19
nibus	19
▁studebat	19
▁femina	19
▁accidit	19
Francogallice	19
▁continua	19
entia	19
▁rei	19
▁novam	19
▁ministri	19
▁Septentrionalis	19
fici	19
tribus	19
▁discipuli	19
▁ministro	19
▁Anglia	19
▁Universitate	19
▁consilium	19
▁paul	19
дит	18
неопр	18
▁Bal	18
▁снова	18
ера	18
▁закрыт	18
▁предлага	18
▁гора	18
▁проходил	18
няя	18
▁хочет	18
▁ночь	18
юю	18
▁использовать	18
ница	18
▁остался	18
▁здание	18
▁основны	18
▁интерес	18
▁Европы	18
▁ответ	18
уди	18
▁Совет	18
▁итоге	18
▁Фа	18
▁осуществля	18
▁моря	18
▁выборы	18
▁история	18
рус	18
итель	18
▁протяж	18
полне	18
▁храм	18
ейчас	18
ева	18
▁игра	18
▁времена	18
▁легко	18
▁вернулся	18
▁слово	18
▁свободно	18
форм	18
▁характер	18
ены	18
▁дел	18
▁экономическ	18
▁долларов	18
▁правительство	18
▁культуры	18
▁исторически	18
▁книга	18
▁обычно	18
▁кино	18
▁млн	18
nter	18
pri	18
▁Quin	18
рия	18
ог	18
▁Бу	18
▁As	18
▁выпуск	18
З	18
▁Сто	18
▁версии	18
▁художник	18
▁издан	18
▁тре	18
▁силы	18
▁штат	18
лы	18
гн	18
▁Бе	18
▁университете	18
▁совершенно	18
зы	18
▁Им	18
▁та	18
шего	18
▁любви	18
ставить	18
op	18
▁пос	18
▁Ман	18
▁humani	18
▁Ко	18
▁Mus	18
▁договор	18
▁Род	18
ü	18
тора	18
▁метров	18
нн	18
▁nostra	18
▁насчитывает	18
▁Latina	18
▁Les	18
zi	18
▁Nation	18
▁Sub	18
ac	18
▁Ag	18
▁Pe	18
tr	18
▁Editio	18
▁Ben	18
ola	18
nata	18
aginta	18
▁linguis	18
onem	18
▁Unio	18
iensis	18
▁vescuntur	18
▁filius	18
▁album	18
▁bona	18
▁regiones	18
▁Iesus	18
▁mulier	18
▁nationalis	18
nu	18
▁scholae	18
▁textu	18
▁imprim	18
▁facile	18
▁satis	18
▁bibliotheca	18
▁gravi	18
▁factione	18
▁salt	18
▁potuerunt	18
abat	18
▁Di	18
▁habentur	18
▁foed	18
icam	18
decim	18
▁legati	18
▁humana	18
▁Gulielmus	18
▁Institut	18
ticae	18
▁cepit	18
▁Parlament	18
▁libera	18
▁victoria	18
▁numerum	18
▁Americani	18
▁Erat	18
▁Iaponiae	18
▁Indiae	18
actis	18
▁gradus	18
▁parti	18
▁CFA	18
▁successor	18
▁praefectura	18
gens	18
▁personae	18
ensem	18
▁fugit	18
▁ultim	18
▁usus	18
▁turma	18
▁mercatus	18
▁labor	18
ndam	18
▁domus	18
▁magno	18
icae	18
norum	18
▁diu	18
▁imperatoris	18
▁дал	17
▁вот	17
▁Бога	17
бит	17
▁состоянии	17
▁эта	17
▁приводит	17
ley	17
▁прямо	17
новых	17
▁форму	17
▁Roma	17
▁меньше	17
▁мере	17
▁You	17
▁живё	17
▁например	17
▁совет	17
▁самостоятельно	17
▁составил	17
рев	17
▁Каждый	17
▁приходится	17
▁знал	17
сот	17
мае	17
▁поход	17
▁путём	17
эй	17
▁получили	17
▁эпизод	17
Есть	17
стан	17
▁работе	17
▁куда	17
▁сына	17
▁профессор	17
▁столь	17
нул	17
▁оказал	17
▁нов	17
▁государственны	17
илось	17
▁nobis	17
▁Между	17
▁называют	17
▁проблемы	17
▁телефон	17
сит	17
казалась	17
▁обо	17
▁рождения	17
езд	17
▁основном	17
▁школу	17
ическая	17
▁родился	17
▁Ма	17
лит	17
▁Название	17
енный	17
нию	17
шу	17
▁президента	17
▁слов	17
▁доктор	17
фер	17
▁сюжет	17
...»	17
▁Мо	17
▁общества	17
▁ж	17
▁кар	17
▁Windows	17
▁Ми	17
▁окончил	17
▁бо	17
▁полу	17
лом	17
ует	17
▁развития	17
▁Кр	17
ний	17
vel	17
мар	17
▁стране	17
тельно	17
бег	17
три	17
▁взял	17
▁английск	17
▁окончательно	17
бо	17
▁Pan	17
▁специально	17
▁правило	17
ega	17
fr	17
виду	17
▁дни	17
▁Ис	17
▁Дж	17
▁Гор	17
▁выступил	17
вшая	17
▁искусства	17
▁другой	17
ины	17
▁Олимпийски	17
▁работать	17
▁исследования	17
▁patria	17
▁семейства	17
▁Music	17
овых	17
▁движение	17
▁искусств	17
▁Университет	17
red	17
▁Fre	17
щё	17
▁Final	17
▁col	17
▁Mu	17
elli	17
des	17
▁VII	17
▁Patria	17
▁Mo	17
edi	17
▁artis	17
▁tra	17
▁ego	17
▁Novum	17
▁Te	17
rus	17
▁plures	17
aliter	17
▁mare	17
▁altera	17
▁Vis	17
▁popul	17
▁suscep	17
anum	17
▁militavit	17
▁bello	17
▁septentrionali	17
▁matre	17
▁late	17
▁Proposit	17
▁conf	17
▁praeside	17
▁servi	17
▁naves	17
▁Systema	17
▁Nonnulli	17
▁Cal	17
▁comitia	17
▁musicae	17
▁feminae	17
▁velut	17
▁idem	17
▁arbore	17
▁aedifica	17
▁Urbe	17
▁historiam	17
rii	17
▁Contra	17
▁ambo	17
alem	17
▁Israel	17
▁plen	17
▁num	17
▁maximum	17
▁societat	17
▁annorum	17
▁confirmat	17
sse	17
ator	17
▁nonnulli	17
▁Sancti	17
▁societatem	17
▁Duo	17
▁administrav	17
▁autocinet	17
retur	17
▁asteroidum	17
spectum	17
▁vicit	17
▁Municipia	17
▁theoria	17
▁finivit	17
cula	17
▁mon	17
▁Philipp	17
▁quodam	17
rat	17
▁vesti	17
▁insulae	17
▁inventa	17
▁Prae	17
▁Mortuus	17
▁navis	17
▁provinciae	17
▁magnitudine	17
▁usum	17
▁Anglicus	17
iani	17
▁mun	17
▁Britannica	17
▁Bello	17
▁necati	17
▁coeperunt	17
▁провел	16
ff	16
▁тебе	16
▁del	16
▁проконсул	16
▁Азии	16
▁рассказывает	16
▁семь	16
▁версия	16
▁суда	16
йте	16
▁Международны	16
▁граждан	16
кие	16
▁принят	16
ходе	16
ическое	16
ешь	16
▁план	16
▁Други	16
▁внутри	16
▁пе	16
▁мост	16
▁центр	16
▁представляет	16
▁этап	16
▁обраща	16
▁Ты	16
▁обоих	16
▁Pacific	16
▁Пап	16
▁XVI	16
▁стар	16
▁Оста	16
▁средне	16
при	16
▁Ак	16
▁ed	16
▁снят	16
▁XX	16
▁брат	16
▁выгляд	16
▁виде	16
▁дальнейшем	16
примерно	16
▁встреча	16
▁оп	16
вшие	16
ид	16
ип	16
▁округа	16
▁письма	16
▁вам	16
слу	16
▁содержит	16
▁лиц	16
вшим	16
▁duce	16
▁Ме	16
рез	16
▁ЮНЕСКО	16
кра	16
▁минут	16
▁море	16
▁второ	16
▁легиона	16
▁сил	16
дут	16
In	16
▁предыдущи	16
▁островов	16
▁Именно	16
сп	16
изма	16
▁временем	16
▁очередь	16
▁Президент	16
▁спас	16
▁Ту	16
лан	16
мент	16
вание	16
▁Последни	16
▁свободы	16
рен	16
первые	16
кий	16
▁нем	16
лица	16
кр	16
▁приблизительно	16
ках	16
▁издание	16
▁император	16
▁японски	16
ёв	16
▁церкви	16
▁Джо	16
▁Кто	16
▁одновременно	16
ast	16
▁неизвестно	16
▁ман	16
▁странах	16
▁должно	16
чел	16
дов	16
▁Пер	16
▁Her	16
▁Dis	16
▁орбит	16
▁спустя	16
исты	16
▁счита	16
▁бес	16
▁новы	16
▁небольшо	16
▁официальны	16
нии	16
land	16
▁силу	16
▁Ло	16
▁Nat	16
▁Без	16
▁работ	16
▁итальянский	16
▁Il	16
уществует	16
▁Mariae	16
▁Database	16
▁Inc	16
ath	16
▁Джордж	16
ющее	16
▁Ga	16
▁Fo	16
var	16
▁generalis	16
gent	16
idae	16
ya	16
ies	16
▁temporibus	16
▁Ka	16
▁sensu	16
▁adept	16
▁li	16
▁naturae	16
▁Cr	16
▁Pi	16
▁advers	16
▁Vir	16
lon	16
▁Hamburg	16
▁Graeca	16
▁(-	16
▁meus	16
oli	16
▁liberos	16
▁appellata	16
▁toto	16
▁Brevi	16
▁labore	16
▁Ioanne	16
▁philosophia	16
▁Bulgaria	16
▁litteris	16
▁exempla	16
▁cit	16
▁educationis	16
▁casu	16
▁oppid	16
▁metra	16
▁coniuncta	16
▁leg	16
▁credunt	16
▁laborat	16
erit	16
▁proprius	16
nos	16
▁operis	16
tiae	16
▁inveniuntur	16
▁Hispanica	16
▁tenuit	16
▁primis	16
tatem	16
▁octo	16
▁denuo	16
eris	16
▁Maior	16
▁Francisc	16
rent	16
▁amat	16
▁solent	16
▁muta	16
verat	16
▁fungebatur	16
dere	16
▁regina	16
▁Pellicula	16
▁terram	16
▁verum	16
rem	16
▁minor	16
▁imagin	16
osa	16
▁Paulus	16
▁similes	16
▁ag	16
▁aliqua	16
▁Lu	16
▁hominis	16
▁Syria	16
▁aquae	16
▁mortuo	16
ationem	16
▁dat	16
▁Oppid	16
▁nescimus	16
▁Praefectu	16
▁quadr	16
▁poti	16
▁Sancta	16
arius	16
▁titulo	16
▁socii	16
▁particip	16
▁civitatis	16
simus	16
▁orientali	16
▁Ludovic	16
▁gesta	16
▁flumen	16
▁minima	16
▁interfuit	16
▁жил	15
нут	15
▁народа	15
▁домой	15
▁Нет	15
▁Эд	15
▁тебя	15
▁прежде	15
▁следует	15
▁опубликован	15
▁Было	15
▁принято	15
▁присоедини	15
▁располага	15
▁находи	15
shi	15
corum	15
▁раздел	15
▁Ecce	15
▁отношении	15
▁Су	15
▁разделен	15
ток	15
начать	15
аться	15
▁Ему	15
▁Скончал	15
Е	15
▁главны	15
▁премии	15
▁чём	15
нее	15
▁Libri	15
ходят	15
▁волн	15
коп	15
ft	15
▁смог	15
дан	15
▁родители	15
▁последний	15
▁начинает	15
▁возрасте	15
▁сер	15
▁мой	15
вший	15
▁цвет	15
▁Ос	15
▁противника	15
▁депутат	15
▁животных	15
▁Швеции	15
▁Дании	15
▁Nor	15
▁Gai	15
столько	15
бин	15
▁ту	15
русск	15
▁трудно	15
логи	15
▁da	15
▁государство	15
▁следующий	15
▁Че	15
▁ООН	15
▁группа	15
▁другим	15
mar	15
▁maxime	15
▁Ну	15
▁Пере	15
▁систему	15
▁говорят	15
ению	15
▁сделано	15
чный	15
явился	15
лли	15
рд	15
▁Премьер	15
▁произ	15
чных	15
ирует	15
▁астероид	15
▁Америки	15
▁академи	15
▁David	15
▁первого	15
▁линии	15
▁брата	15
▁плат	15
▁действия	15
точн	15
▁Россия	15
▁большинств	15
ёл	15
иц	15
▁спор	15
▁студентов	15
▁Союз	15
▁мало	15
▁Catholica	15
▁разработан	15
dis	15
сы	15
▁научно	15
▁сказать	15
▁анти	15
▁современны	15
by	15
гар	15
истов	15
кам	15
эт	15
undi	15
▁персонаж	15
▁могл	15
▁VIII	15
▁Лондоне	15
▁случай	15
гин	15
лиз	15
▁страна	15
чной	15
▁современно	15
▁сезона	15
▁сделан	15
▁пл	15
ссе	15
▁раза	15
▁Ti	15
▁изуча	15
▁ра	15
▁Ку	15
▁no	15
ием	15
▁точно	15
ner	15
▁старше	15
▁теории	15
ада	15
▁Sta	15
▁tan	15
▁запад	15
ang	15
▁Long	15
▁India	15
иан	15
▁San	15
ez	15
▁speciali	15
ker	15
nom	15
изации	15
▁Dr	15
▁Mun	15
▁Bu	15
ub	15
fe	15
ones	15
▁Index	15
ju	15
pre	15
modo	15
▁Col	15
cos	15
tius	15
illa	15
▁fi	15
▁militia	15
idis	15
▁Tit	15
int	15
▁v	15
▁certe	15
▁cor	15
tales	15
▁audi	15
▁car	15
hanc	15
▁pertinent	15
▁singuli	15
▁Gallia	15
▁sc	15
▁nupsit	15
▁solu	15
▁vigil	15
▁eventus	15
▁iurisconsultus	15
culum	15
▁diei	15
▁administrativa	15
modum	15
▁vocatur	15
▁uxor	15
▁spectacul	15
▁divisa	15
▁Hac	15
▁fructu	15
▁domi	15
▁rationem	15
▁locu	15
▁patri	15
▁dicuntur	15
issime	15
ior	15
▁Dia	15
▁repraesentat	15
▁pueri	15
▁tri	15
▁egit	15
▁Papa	15
▁sita	15
▁orbe	15
rius	15
Italiane	15
viam	15
▁grave	15
▁cog	15
▁totius	15
▁Democratica	15
▁maiores	15
ologia	15
▁Imperator	15
▁erit	15
▁hominibus	15
▁tempus	15
▁scriptura	15
nte	15
▁Hungaria	15
endas	15
▁Gener	15
▁Lipsiae	15
▁norma	15
▁Societate	15
▁deos	15
▁editio	15
▁epistula	15
▁divorti	15
▁religione	15
▁televisifica	15
▁certi	15
▁Camera	15
▁magni	15
▁praesidi	15
▁electione	15
eger	15
▁Olympia	15
▁religionis	15
▁libertat	15
▁Omni	15
▁ampli	15
▁Lacu	15
▁ca	15
▁mille	15
▁navi	15
sit	15
▁Ap	15
▁debet	15
▁Historiae	15
▁Gradu	15
▁consulat	15
tiva	15
ура	14
▁восемь	14
ило	14
▁Мэри	14
▁Cre	14
▁Автор	14
▁оказывается	14
▁государства	14
▁Пар	14
стически	14
▁вечер	14
▁использование	14
▁философ	14
▁бежал	14
▁Буд	14
мене	14
став	14
▁сентябре	14
▁выходит	14
▁связан	14
▁заключа	14
▁Филипп	14
▁пожар	14
▁музей	14
бежать	14
▁тела	14
▁независимости	14
▁городов	14
▁Сер	14
▁дорог	14
▁пишет	14
▁образование	14
▁лично	14
своему	14
▁необходимо	14
▁впоследствии	14
*	14
▁мужчин	14
▁получает	14
▁немецки	14
▁которому	14
под	14
ось	14
▁занимал	14
▁посту	14
ски	14
ющего	14
▁диск	14
▁служил	14
ew	14
▁правительства	14
▁библиотека	14
▁сестра	14
может	14
▁значит	14
ень	14
▁успех	14
▁стреми	14
таки	14
сенью	14
▁союза	14
▁доступ	14
▁папа	14
▁условиях	14
▁войне	14
двумя	14
▁Cha	14
▁вызывает	14
▁семи	14
▁типа	14
▁создание	14
▁проекта	14
▁Atlantic	14
▁астероидов	14
▁звание	14
уют	14
▁треть	14
▁California	14
▁мм	14
шел	14
▁отставку	14
▁генерал	14
▁голов	14
щих	14
▁христианск	14
▁Мария	14
▁Перед	14
клон	14
тон	14
▁ради	14
▁провинция	14
▁Be	14
▁оружие	14
гал	14
▁машин	14
▁восточно	14
▁Species	14
▁зло	14
▁Анна	14
▁защит	14
▁степень	14
let	14
▁древне	14
book	14
▁многочисленны	14
▁производства	14
овая	14
▁всю	14
▁даёт	14
▁форм	14
▁сложны	14
▁представител	14
▁сме	14
▁праздник	14
▁Отец	14
▁другом	14
▁исключительно	14
▁We	14
▁месяца	14
ak	14
лав	14
здо	14
▁Роберт	14
▁дети	14
▁получен	14
▁Извест	14
▁Бра	14
▁обязан	14
▁Аль	14
ица	14
ивает	14
▁произведения	14
▁корабля	14
ализм	14
▁желание	14
вшего	14
ива	14
ному	14
▁осталось	14
стей	14
NE	14
▁Angel	14
▁римски	14
ированны	14
нием	14
▁Франко	14
▁социальны	14
ланд	14
▁Mungo	14
▁Act	14
▁происхождение	14
▁планеты	14
▁XIX	14
нных	14
ически	14
▁влияние	14
Э	14
▁Лю	14
▁матери	14
mann	14
▁происхождения	14
end	14
уса	14
▁баз	14
держа	14
▁математик	14
▁Smith	14
сер	14
ват	14
▁актёр	14
wi	14
▁значение	14
▁используют	14
▁класса	14
иты	14
▁относит	14
▁кол	14
▁потеря	14
▁Известны	14
▁Hu	14
▁Pol	14
▁pu	14
▁Adult	14
▁Nu	14
▁Theatr	14
vol	14
▁u	14
▁Ri	14
▁Mur	14
▁Henricu	14
▁Scientiarum	14
ram	14
▁св	14
cit	14
▁Alfred	14
ianum	14
▁r	14
tos	14
ito	14
▁Ob	14
ore	14
▁Africa	14
▁ordinarius	14
▁million	14
▁Ra	14
▁Maxima	14
▁Hitler	14
▁Vasingtoniae	14
duxit	14
tici	14
▁littera	14
▁exact	14
▁populo	14
▁morte	14
▁scribere	14
diu	14
▁animo	14
▁Internationalis	14
▁pari	14
▁ordini	14
tina	14
▁brevi	14
▁signum	14
▁reliquit	14
▁ipsa	14
▁dormi	14
▁participavit	14
▁studia	14
▁externa	14
▁colonia	14
▁ludis	14
▁putant	14
▁Fer	14
certo	14
▁Belli	14
▁legem	14
▁summ	14
▁Russici	14
▁datur	14
▁mortis	14
▁Estonia	14
▁internationalis	14
cumque	14
▁Februari	14
▁dictator	14
▁maiore	14
▁Constitutio	14
▁consistit	14
▁patriam	14
lat	14
▁vult	14
▁has	14
ulus	14
tia	14
▁programma	14
▁difficili	14
')	14
▁Electione	14
▁tulit	14
bu	14
▁faci	14
▁consilii	14
▁Britannicae	14
▁mariti	14
▁Maio	14
▁Palati	14
▁Ucraina	14
▁factiones	14
▁Guinea	14
▁Concili	14
Consilii	14
▁mm	14
municipium	14
▁Ac	14
▁fuerit	14
▁designat	14
▁Hispaniae	14
▁titul	14
▁Graecia	14
▁promot	14
▁comitatu	14
▁notiones	14
▁Africae	14
▁gradum	14
▁publicavit	14
▁classis	14
▁rec	14
▁nominat	14
clinatio	14
▁certamin	14
▁Ambo	14
▁superior	14
▁universitatis	14
▁concess	14
▁obiit	14
▁Regni	14
▁professor	14
rati	14
▁('	14
▁constitutione	14
▁incola	14
unda	14
eret	14
▁profect	14
tium	14
▁inimic	14
▁Nota	14
▁commercii	14
opolitan	14
▁Illa	14
▁conditum	14
▁numeros	14
atenses	14
▁aequ	14
▁Romana	14
▁disciplina	14
ă	14
tico	14
▁nuncupat	14
▁foli	14
▁itinera	14
▁Lebedev	14
▁Oxoniae	14
▁Ioannis	14
▁territori	14
▁videre	14
▁regio	14
▁Foederatis	14
▁pauca	14
uli	14
▁posita	14
▁potestate	14
▁людям	13
▁видит	13
▁руки	13
▁определённы	13
▁записи	13
▁масс	13
▁птиц	13
шки	13
▁словам	13
▁скоро	13
▁отвечает	13
▁Science	13
Всё	13
▁зим	13
▁большим	13
▁Стр	13
эм	13
▁частей	13
▁денег	13
▁деньги	13
дом	13
▁популяр	13
▁элемент	13
▁живут	13
▁восстановлен	13
▁долг	13
▁стол	13
▁американц	13
▁каждого	13
▁меч	13
ленн	13
▁Британск	13
▁уверен	13
▁глав	13
оса	13
▁мнению	13
▁форма	13
ировали	13
▁супруг	13
данной	13
kin	13
▁Tres	13
▁ipsum	13
▁It	13
▁соответственно	13
▁женщин	13
ывать	13
▁Кажд	13
правляется	13
хор	13
зор	13
▁кого	13
▁сюда	13
аясь	13
▁выс	13
▁един	13
куда	13
▁переехал	13
▁отцом	13
▁гол	13
▁начинается	13
▁St	13
▁on	13
▁предложен	13
▁совместно	13
▁выборов	13
▁вариант	13
▁деятельности	13
лёт	13
▁Начал	13
За	13
▁точки	13
▁просты	13
▁часы	13
альный	13
▁помо	13
▁особо	13
▁финансово	13
▁разные	13
▁большую	13
▁Сегодня	13
▁успешно	13
▁имел	13
▁зем	13
▁науки	13
пуск	13
ывают	13
▁числе	13
▁полны	13
▁куп	13
известен	13
▁многим	13
▁политически	13
▁считает	13
▁требует	13
▁иностранны	13
▁отправил	13
▁частью	13
▁отверг	13
▁Guardian	13
▁ушёл	13
▁названия	13
ологии	13
▁вернуться	13
▁страх	13
▁выпуска	13
▁журнала	13
▁способ	13
▁середин	13
Не	13
▁бежать	13
▁Инди	13
▁отличие	13
▁принимает	13
▁Ван	13
▁XVII	13
▁каждой	13
кров	13
▁предела	13
оль	13
▁заявил	13
вил	13
▁Бур	13
▁покинул	13
▁рейтинг	13
вать	13
▁историю	13
▁ожида	13
▁закон	13
▁основно	13
▁последн	13
hen	13
▁занима	13
▁Мен	13
▁g	13
▁нельзя	13
▁па	13
▁Эл	13
▁Рас	13
▁возник	13
▁Гомер	13
▁постепенно	13
▁феврале	13
▁букв	13
▁Ру	13
ления	13
▁числа	13
▁Life	13
▁частности	13
▁события	13
▁приказ	13
ers	13
геро	13
▁литературы	13
▁городом	13
▁Министерств	13
mp	13
▁Air	13
▁сторона	13
▁временно	13
▁никако	13
▁мед	13
▁марте	13
низ	13
▁авто	13
λ	13
▁сравнени	13
▁памяти	13
ируют	13
▁Сал	13
▁Кол	13
▁gr	13
è	13
ович	13
▁программы	13
тори	13
▁All	13
▁рабочих	13
▁Академи	13
ko	13
▁акт	13
▁короля	13
▁du	13
▁fo	13
▁школа	13
▁такого	13
▁изменения	13
▁срок	13
▁Петр	13
▁электро	13
▁sacra	13
▁игрок	13
▁религиозн	13
▁Gar	13
▁считал	13
μ	13
▁Фи	13
▁фильма	13
▁lup	13
▁организован	13
▁заставил	13
▁почт	13
▁имена	13
▁вас	13
тельные	13
▁символ	13
▁sal	13
hel	13
гер	13
old	13
▁Уильям	13
▁Fantasy	13
▁удаётся	13
uch	13
▁штата	13
▁СМИ	13
▁ora	13
▁Consilium	13
маг	13
ende	13
▁Christian	13
tine	13
▁Sur	13
ish	13
▁Constantin	13
▁Mer	13
mini	13
script	13
ivo	13
ese	13
▁Iulia	13
onia	13
ē	13
ī	13
▁Bi	13
qua	13
▁Ser	13
oria	13
▁Frater	13
▁quin	13
▁cert	13
pus	13
▁Cant	13
▁morbi	13
▁impetu	13
▁litteras	13
▁lacu	13
▁secundo	13
▁lege	13
▁fas	13
▁aeroplan	13
▁officia	13
▁Germani	13
diderunt	13
▁Monaci	13
▁grad	13
▁filium	13
▁actio	13
▁pellicul	13
meri	13
▁Septentrionali	13
▁politicam	13
▁nationes	13
▁societates	13
atu	13
▁volunt	13
▁nationali	13
▁Io	13
▁Potest	13
▁finita	13
▁simplici	13
▁recepit	13
▁Australiae	13
▁conventu	13
▁Parent	13
▁area	13
▁Lud	13
▁cognoscere	13
▁Universitatis	13
▁Sovieticae	13
▁declaravit	13
▁somni	13
▁continet	13
▁Romanus	13
▁frater	13
▁prosper	13
▁imperatore	13
▁Kalend	13
actiones	13
▁Suecia	13
▁filias	13
▁Sueciae	13
▁effici	13
▁editione	13
administrationis	13
▁son	13
▁facto	13
▁Dominica	13
▁subiect	13
▁Regi	13
▁mori	13
▁Mare	13
▁quart	13
▁asteroides	13
▁ire	13
riter	13
Theodisce	13
▁regi	13
▁energia	13
▁tempora	13
visse	13
▁religio	13
▁diversi	13
▁tua	13
▁flumin	13
▁Praeses	13
▁amba	13
▁democratia	13
tibus	13
▁hi	13
▁creavit	13
▁medicina	13
▁diari	13
▁Regio	13
▁Vexill	13
▁Vindobonae	13
▁petivit	13
▁clar	13
▁Aprili	13
▁nonnumquam	13
▁Romam	13
▁Ianuario	13
▁impera	13
arch	13
▁communia	13
▁essent	13
ita	13
▁decessit	13
▁fund	13
▁medium	13
▁illam	13
▁certamen	13
▁orbital	13
▁stati	13
▁docuit	13
▁constitut	13
▁insequenti	13
▁superficie	13
▁decenni	13
▁deposit	13
cedit	13
▁statistica	13
▁liberat	13
endum	13
▁reditus	13
▁dissoluta	13
▁regem	13
▁Italiam	13
▁expugnaverunt	13
mittere	13
▁plurimi	13
▁soli	13
larum	13
torum	13
missa	13
▁festa	13
▁Britannicus	13
▁Russica	13
▁ratio	13
▁compositor	13
▁coact	13
▁sese	13
▁serv	13
▁coll	13
▁magistratus	13
▁Pompei	13
▁scientific	13
▁exercit	13
▁Georgi	13
▁domo	13
▁solet	13
▁videntur	13
▁Лу	12
ا	12
▁друзей	12
▁жив	12
▁применя	12
“	12
▁ведёт	12
▁представлен	12
▁Потом	12
▁имела	12
▁недель	12
▁равно	12
▁продолжа	12
▁включает	12
▁немедленно	12
▁См	12
▁американским	12
емый	12
▁остаться	12
▁случилось	12
▁евро	12
▁районе	12
еще	12
▁чрезвычайно	12
▁Чи	12
▁переход	12
▁Африка	12
▁академии	12
выше	12
▁основал	12
▁исследовател	12
▁Homo	12
▁Год	12
▁следующем	12
▁Франция	12
▁результат	12
куп	12
юсь	12
▁Хи	12
▁концов	12
▁июле	12
▁молитв	12
▁смысл	12
нь	12
нт	12
▁Medic	12
зе	12
▁единственным	12
▁занимают	12
▁данны	12
▁Эстонии	12
▁линия	12
▁использовал	12
▁крупны	12
йся	12
▁жела	12
кер	12
тый	12
▁фон	12
▁рад	12
шение	12
▁Сын	12
▁став	12
▁Королевск	12
▁Всемирн	12
▁ч	12
▁ноябре	12
▁последних	12
▁финал	12
▁годами	12
▁Люб	12
▁писал	12
▁распространен	12
▁принимать	12
менить	12
▁занимает	12
▁внимание	12
▁сред	12
▁Ги	12
ида	12
ического	12
разных	12
▁длин	12
нят	12
▁единственный	12
ань	12
строительство	12
▁объявлен	12
▁Иван	12
ску	12
▁итальянск	12
ling	12
мир	12
▁ответил	12
▁музыкальн	12
▁священник	12
▁Серия	12
▁легат	12
едо	12
▁Ри	12
ey	12
▁Hal	12
▁неожиданно	12
▁погиб	12
▁присвоен	12
▁парламентски	12
каз	12
▁королевско	12
▁природы	12
кри	12
хан	12
▁Турции	12
ологически	12
дание	12
▁восстанови	12
▁On	12
▁Фу	12
▁могла	12
зывается	12
▁Фор	12
цов	12
▁епископ	12
▁выход	12
▁Союза	12
▁историк	12
▁страница	12
▁жертв	12
▁упоминани	12
ves	12
uk	12
ивается	12
бывает	12
▁развитие	12
▁упоминается	12
▁военн	12
▁x	12
▁Тан	12
▁женщины	12
▁пожара	12
▁здания	12
ним	12
▁Томас	12
рожден	12
эл	12
▁звёзд	12
▁Берлин	12
▁целом	12
▁Ид	12
тоже	12
тона	12
▁братьев	12
▁приняти	12
▁House	12
бил	12
ита	12
▁Ай	12
▁Studi	12
▁Римско	12
▁часа	12
енной	12
▁давно	12
▁Lex	12
По	12
Во	12
енная	12
▁Гар	12
прежнем	12
▁знаменит	12
▁декабре	12
▁смогл	12
▁предмет	12
▁шаг	12
▁задач	12
▁уничтожен	12
▁Ск	12
▁пользова	12
порт	12
▁глаза	12
▁Дэвид	12
ä	12
SCO	12
▁Los	12
ū	12
▁приём	12
▁облада	12
▁предыдуще	12
▁музыки	12
▁см	12
▁цел	12
▁православн	12
▁Первая	12
τ	12
▁Архив	12
▁исключение	12
▁linguarum	12
жени	12
▁занимался	12
▁трех	12
▁William	12
ace	12
▁семье	12
▁просьб	12
▁четырёх	12
▁другими	12
▁каким	12
▁тип	12
▁область	12
▁Ад	12
бри	12
▁новым	12
▁Arabi	12
▁Восточно	12
▁условия	12
▁остава	12
беж	12
▁пап	12
▁сери	12
▁comes	12
▁состоянию	12
▁раньше	12
▁Мил	12
▁рамк	12
▁Бар	12
▁выпустил	12
▁Publishers	12
XVIII	12
▁Dar	12
tari	12
▁родов	12
phe	12
▁показывает	12
▁ужас	12
og	12
новой	12
стати	12
bri	12
нова	12
▁средства	12
▁Аг	12
ике	12
▁vincere	12
▁Fest	12
▁Sonic	12
ive	12
▁°	12
▁Интервью	12
DU	12
▁Im	12
tim	12
▁Qu	12
юн	12
tionibus	12
▁Alexand	12
onica	12
▁pa	12
▁Ci	12
las	12
inus	12
vo	12
▁App	12
▁systematis	12
ua	12
▁Cor	12
▁Mater	12
ev	12
▁Vic	12
▁filio	12
ham	12
▁grege	12
▁Christi	12
▁deus	12
etur	12
partim	12
▁erra	12
▁habuerunt	12
▁divisione	12
▁finis	12
▁exist	12
▁datum	12
▁pelliculae	12
▁rege	12
▁iussu	12
umquam	12
▁Varia	12
▁Illo	12
aph	12
▁observa	12
▁constitu	12
▁amic	12
▁Aliae	12
▁Europaeam	12
▁Aliqua	12
functus	12
▁socialem	12
▁statio	12
▁senatu	12
▁memoria	12
pons	12
▁ten	12
verit	12
▁affectus	12
▁Eum	12
▁futur	12
▁suffragio	12
▁incarcerat	12
▁historica	12
▁Nemo	12
▁postulat	12
▁Stephan	12
▁verborum	12
▁vixit	12
▁itaque	12
▁Dania	12
▁misit	12
▁Mal	12
▁agere	12
▁pugnavit	12
▁monte	12
▁celebratur	12
▁superiore	12
ortasse	12
▁editum	12
▁primae	12
▁proprietate	12
▁simile	12
bis	12
ates	12
nomen	12
▁tradit	12
▁Italicus	12
▁sodales	12
▁videri	12
▁nemo	12
▁condidit	12
▁describit	12
ndae	12
▁arte	12
▁manus	12
ponere	12
riam	12
missus	12
endam	12
oris	12
▁Britanniae	12
tura	12
▁poena	12
▁similis	12
▁exemplum	12
▁corpora	12
▁Illi	12
▁Milite	12
niam	12
▁educatio	12
▁opiniones	12
cam	12
▁inde	12
phi	12
▁condit	12
▁consecut	12
▁iudici	12
erant	12
tudo	12
ivum	12
▁fine	12
▁tribu	12
▁Via	12
▁proeli	12
▁Asia	12
▁Labor	12
ctum	12
▁Belgia	12
▁Nederlandia	12
▁zona	12
notum	12
▁cantu	12
▁vendit	12
▁longe	12
▁reperie	12
▁cena	12
▁matur	12
▁pace	12
tulit	12
▁confect	12
lica	12
▁socius	12
▁Praeside	12
▁minores	12
▁tenebant	12
▁tertia	12
▁Terra	12
▁Societatis	12
▁civitate	12
▁mur	12
▁auctor	12
▁lit	12
▁acceperunt	12
▁proposita	12
▁moderatore	12
▁Nonnulla	12
▁solis	12
▁studio	12
▁mythistoria	12
▁Georgia	12
▁spectator	12
▁consilio	12
▁praeter	12
▁Austriac	12
▁agricultura	12
lae	12
▁bomba	12
▁pervenit	12
▁hodierna	12
▁repertus	12
DG	12
▁castell	12
▁счёт	11
▁решили	11
▁земле	11
▁истинн	11
▁аль	11
▁der	11
▁понимает	11
ину	11
▁Хе	11
▁утверждает	11
▁може	11
▁Остальные	11
▁браке	11
▁кажд	11
▁дли	11
▁шесть	11
▁сезоне	11
цам	11
▁нужда	11
▁термин	11
▁водой	11
Вояджер	11
даётся	11
▁север	11
▁района	11
▁захвачен	11
▁южно	11
▁Bre	11
▁Cap	11
▁немного	11
▁игре	11
▁Первоначально	11
▁интервью	11
▁Super	11
друг	11
казались	11
▁пример	11
▁другое	11
▁внутренне	11
▁вообще	11
▁Где	11
▁пал	11
▁плохо	11
▁позволил	11
▁видео	11
▁всём	11
▁др	11
▁парк	11
▁внешне	11
▁зас	11
▁наконец	11
▁боев	11
Пр	11
▁приходит	11
▁порядке	11
▁сельск	11
▁встречается	11
▁норм	11
▁владе	11
▁секунд	11
▁повышени	11
▁борьбе	11
▁Италия	11
▁солдат	11
▁библиотеки	11
падает	11
ением	11
▁Друг	11
▁делают	11
▁Известно	11
▁Бор	11
▁языки	11
▁службу	11
▁иначе	11
заб	11
вшей	11
▁Советско	11
жим	11
▁момента	11
▁приказа	11
▁Бразилии	11
▁код	11
▁вод	11
▁полага	11
вшими	11
▁воды	11
Ч	11
▁сбор	11
▁плот	11
▁Почт	11
ования	11
ине	11
верх	11
▁редки	11
▁Игра	11
▁относят	11
▁письмо	11
▁объявлено	11
▁Лет	11
bar	11
▁способность	11
рта	11
▁Израиль	11
▁Совета	11
▁Don	11
▁похож	11
▁CD	11
▁Davis	11
▁вопросов	11
▁похожи	11
▁мил	11
▁испанск	11
▁никто	11
▁книгах	11
родной	11
▁Луи	11
▁мои	11
гад	11
▁управление	11
умер	11
▁охот	11
▁Доктор	11
▁средств	11
▁последнее	11
▁Ast	11
нет	11
зер	11
▁иск	11
▁стоит	11
пул	11
▁Je	11
▁веков	11
цу	11
оло	11
фы	11
▁приключени	11
▁Австрии	11
▁Публи	11
▁центре	11
унд	11
▁подписал	11
ибо	11
▁служит	11
ерб	11
▁охран	11
▁смен	11
▁класс	11
▁путь	11
▁опыт	11
▁подход	11
государственного	11
лог	11
следствие	11
▁ведь	11
▁покида	11
▁Язык	11
фо	11
▁уйти	11
▁сыграл	11
так	11
▁власть	11
▁выступа	11
▁окончани	11
▁войск	11
ати	11
▁парламента	11
▁Павел	11
эр	11
▁Европейски	11
MA	11
казывать	11
▁международн	11
▁чемпионат	11
▁созданны	11
▁Смит	11
анда	11
▁сенат	11
▁Фильм	11
▁обратно	11
рес	11
▁просит	11
▁Семь	11
▁Гу	11
▁представлял	11
▁Ste	11
▁Рей	11
vide	11
▁alta	11
▁апреле	11
▁первоначально	11
▁смерть	11
кот	11
▁обмен	11
▁Главны	11
▁выходил	11
ической	11
▁Mod	11
▁действий	11
ال	11
▁Гер	11
▁лидер	11
▁демократическ	11
▁другу	11
иш	11
▁использован	11
рова	11
▁дворе	11
▁музыкант	11
▁запрет	11
▁римлян	11
ο	11
▁стары	11
писан	11
▁Grand	11
▁Слов	11
▁битв	11
др	11
▁Це	11
▁женщина	11
▁границ	11
▁неделю	11
▁миллиона	11
▁вызвал	11
▁остальные	11
▁motu	11
▁Domus	11
▁получал	11
▁Ал	11
▁информации	11
ич	11
▁Тор	11
▁штате	11
J	11
▁сражения	11
▁поставил	11
▁Hall	11
▁трав	11
дела	11
BC	11
▁данные	11
▁тело	11
▁вершин	11
▁исполнени	11
▁инструмент	11
рик	11
▁арест	11
▁зрения	11
▁данных	11
елл	11
▁Film	11
дя	11
ющихся	11
▁Родился	11
▁IX	11
audi	11
▁Мин	11
Петербург	11
▁городски	11
чески	11
▁XIV	11
los	11
▁немецк	11
▁Париже	11
вания	11
▁Тро	11
▁аппарат	11
ряд	11
емой	11
▁Окончил	11
▁Are	11
▁танк	11
числен	11
▁правил	11
▁Гр	11
▁высоки	11
ctu	11
▁определен	11
Le	11
▁En	11
▁Вмест	11
▁YouTube	11
▁Na	11
▁Мер	11
ron	11
▁erect	11
▁priori	11
ges	11
cle	11
▁оба	11
бож	11
▁Eva	11
Non	11
aris	11
▁популярность	11
▁Simon	11
ицы	11
▁композитор	11
tre	11
▁Государственн	11
▁Port	11
полит	11
▁значения	11
▁National	11
▁Cursu	11
▁Dixi	11
▁XII	11
ix	11
lum	11
▁Astronomi	11
Latin	11
▁Victor	11
▁iure	11
▁bella	11
lan	11
ides	11
▁Una	11
▁Bor	11
sch	11
▁Statio	11
▁Ph	11
▁Rai	11
ult	11
▁Loc	11
opia	11
aut	11
ier	11
▁Monte	11
entur	11
▁Mon	11
gel	11
sen	11
uber	11
Graece	11
▁bonum	11
▁carne	11
actum	11
▁potes	11
git	11
▁Austria	11
▁manent	11
▁feria	11
▁nationis	11
▁crescit	11
▁Voyage	11
▁novo	11
▁comprehendit	11
▁Turc	11
▁mot	11
▁popularis	11
▁inveni	11
▁Iter	11
▁difficultate	11
▁centesimae	11
▁categoria	11
▁Templ	11
▁progress	11
▁Britannicum	11
dica	11
▁ver	11
▁negavit	11
vul	11
▁rota	11
▁cives	11
▁imp	11
▁accepta	11
lexi	11
▁marito	11
▁Europam	11
▁obtinuit	11
▁Item	11
▁disputat	11
▁ir	11
▁ministra	11
▁Solum	11
▁accipere	11
▁color	11
abantur	11
▁aucta	11
▁civita	11
▁municipali	11
▁patris	11
▁Sch	11
rata	11
▁expugna	11
▁modis	11
▁aequa	11
▁Attamen	11
▁Comiti	11
▁Dioecese	11
▁vocat	11
▁soror	11
▁Luna	11
▁fest	11
▁praecept	11
▁mensis	11
▁Islamica	11
▁autonoma	11
▁pot	11
▁organ	11
nensis	11
▁saepi	11
▁districtus	11
▁edidit	11
via	11
▁pelliculas	11
▁vicini	11
cea	11
▁iniit	11
▁uti	11
▁formae	11
pel	11
▁Dua	11
▁televisione	11
▁luna	11
▁apert	11
▁crescebat	11
▁His	11
▁exempli	11
▁nunti	11
▁Legioni	11
▁Habet	11
▁securitati	11
▁discipulu	11
▁circuli	11
▁quaestiones	11
cas	11
▁narrat	11
▁Series	11
▁comp	11
mel	11
▁manu	11
▁compara	11
▁fabulae	11
▁Zelandia	11
▁sinistra	11
▁necat	11
▁descriptum	11
cedere	11
▁Austriae	11
▁regnum	11
▁functio	11
▁regimin	11
▁invenire	11
▁migravit	11
cipit	11
▁Fel	11
▁Equ	11
▁pretio	11
▁undecim	11
▁iussit	11
ava	11
▁posset	11
▁publicata	11
▁instrumentum	11
▁institutum	11
▁Universitatem	11
▁universitate	11
▁comiti	11
▁copias	11
▁scientifica	11
▁mansit	11
▁industria	11
▁pen	11
▁fru	11
▁quarta	11
urus	11
▁Decembri	11
artem	11
▁interfect	11
▁Foederali	11
▁univers	11
▁Helvetiae	11
▁Canadae	11
▁dona	11
▁flor	11
▁longi	11
▁transi	11
▁gessit	11
oeconomiae	11
turam	11
▁mandat	11
ndos	11
lusit	11
ora	11
rocini	11
▁conveniunt	11
nas	11
▁oculo	11
▁iura	11
▁instituta	11
cii	11
▁Americam	11
▁alios	11
initio	11
▁licet	11
▁regula	11
▁nationem	11
▁possit	11
▁dissolut	11
▁grammatica	11
▁mensura	11
▁filii	11
▁partibus	11
▁Meridionalis	11
▁civitatem	11
▁feli	11
cessit	11
▁aperta	11
nuntiavit	11
▁discipulorum	11
▁regis	11
▁administratione	11
atores	11
sae	11
▁regno	11
▁consilia	11
▁oeconomia	11
umque	11
▁primaria	11
▁modi	11
▁Nationale	11
▁seriei	11
▁praecipua	11
▁Americano	11
▁facultate	11
▁regna	11
▁scriptri	11
▁auge	11
▁saepissime	11
▁monstrat	11
▁Mel	11
яп	10
▁приехал	10
▁Van	10
▁грех	10
рв	10
▁количества	10
▁Земле	10
▁Хот	10
На	10
▁ресторан	10
▁близко	10
▁планет	10
шив	10
▁смертн	10
▁Henr	10
▁клуба	10
▁конец	10
▁защиты	10
плоть	10
▁Дат	10
▁формы	10
▁Avi	10
▁обнаружил	10
▁узнал	10
крыл	10
▁дороги	10
▁труда	10
▁введен	10
▁пользу	10
▁крест	10
▁Bur	10
▁Сколько	10
ались	10
▁абсолютно	10
▁экземпляров	10
▁остальных	10
лег	10
Южная	10
▁Институт	10
▁политики	10
▁потребовал	10
▁доверя	10
▁экономики	10
▁понял	10
▁утверждал	10
▁Африки	10
▁Значит	10
▁природе	10
ющими	10
▁военных	10
▁писать	10
▁проводить	10
нёс	10
▁Ей	10
▁отказался	10
▁Весь	10
▁Musica	10
▁Европу	10
▁боль	10
▁действительно	10
логическ	10
▁Первым	10
▁ядерно	10
▁Бостон	10
▁отдел	10
▁транс	10
▁яко	10
мак	10
чем	10
▁составляю	10
▁бизнес	10
▁серьёзны	10
строить	10
жели	10
▁цвета	10
▁принадлежит	10
▁фраз	10
▁слав	10
▁Библиотека	10
▁классы	10
фина	10
▁частны	10
▁последовал	10
▁неизвестны	10
тный	10
angu	10
▁правда	10
▁жител	10
нни	10
▁сфер	10
▁Парижск	10
▁Конституция	10
▁Мел	10
▁членов	10
ическим	10
▁сезон	10
Й	10
дал	10
▁английском	10
▁связаны	10
бирают	10
▁вещи	10
▁занял	10
▁велик	10
▁ряда	10
▁контрол	10
▁доступны	10
ирования	10
▁соглашается	10
her	10
▁Почему	10
▁внезапно	10
▁известна	10
▁ведущи	10
▁действие	10
▁правильно	10
▁фонд	10
▁Пан	10
уст	10
правлен	10
ёс	10
gas	10
▁фигур	10
▁альбома	10
▁Fa	10
ting	10
▁света	10
▁предпринима	10
▁American	10
▁принесл	10
▁комет	10
▁Япония	10
▁Мать	10
раст	10
▁принцип	10
▁управления	10
▁системе	10
phis	10
▁начина	10
▁Цвет	10
даёт	10
ируется	10
▁Остров	10
▁Мон	10
▁социально	10
▁согласи	10
▁называл	10
▁мнение	10
▁чу	10
▁самое	10
▁Владимир	10
▁находит	10
▁эксперимент	10
▁встречаются	10
▁адрес	10
▁реали	10
▁крупно	10
▁отрасл	10
▁живо	10
▁Дев	10
▁хозяйство	10
▁Лишь	10
▁опубликовал	10
▁теори	10
ирован	10
ound	10
▁солдаты	10
▁говорил	10
ческой	10
линг	10
тир	10
▁итог	10
▁вероятно	10
▁разрешени	10
▁объясн	10
▁участников	10
смотр	10
твор	10
▁Вероятно	10
▁картины	10
город	10
▁микро	10
▁диссертаци	10
бул	10
вая	10
пущен	10
▁вести	10
▁Воз	10
▁уровня	10
▁способны	10
▁Германия	10
▁Фр	10
▁темы	10
▁меж	10
▁растений	10
щие	10
мин	10
▁посеща	10
▁собак	10
▁OS	10
▁крупнейши	10
▁zebra	10
тельной	10
▁финансовы	10
▁двадцат	10
▁согласно	10
▁Уж	10
тва	10
▁Play	10
▁соверша	10
емых	10
▁Дети	10
▁продаж	10
оны	10
Ш	10
▁представителей	10
▁Gi	10
ниц	10
▁выиграл	10
▁телесериал	10
IA	10
▁Люди	10
▁имеется	10
▁действовать	10
▁признал	10
▁яв	10
нин	10
▁Церковь	10
▁звук	10
▁верну	10
▁фильме	10
ori	10
▁Аб	10
стрем	10
▁открытия	10
▁оставал	10
▁Велик	10
▁шоу	10
▁трудов	10
тие	10
▁предложил	10
pla	10
▁предложение	10
▁бур	10
значально	10
▁Египта	10
▁выступал	10
▁Император	10
▁природны	10
▁обязанности	10
▁Вене	10
▁канал	10
▁син	10
▁тро	10
▁Senatu	10
вяз	10
▁подверга	10
нкт	10
▁поиска	10
▁знак	10
▁тут	10
▁ссыл	10
▁Га	10
мысл	10
яют	10
▁деятельность	10
чев	10
▁зарабатыва	10
▁арестован	10
▁автор	10
движ	10
▁Выпуск	10
▁фотографии	10
▁обязательно	10
нис	10
▁Андре	10
▁освободи	10
▁война	10
ировано	10
▁лодк	10
▁единственн	10
▁возможности	10
юр	10
▁фронт	10
▁следующе	10
▁Эли	10
▁Bea	10
Мари	10
▁My	10
▁положение	10
▁названы	10
ford	10
▁продолжает	10
▁стадион	10
▁продолжал	10
▁обратил	10
▁корабли	10
▁Парти	10
▁всему	10
▁запреща	10
TA	10
▁потерял	10
▁астронавт	10
▁называемы	10
▁разговор	10
словно	10
▁Гри	10
▁надежда	10
▁образ	10
рован	10
▁Ста	10
нском	10
Да	10
▁сами	10
▁решает	10
▁Следующи	10
▁взрыв	10
▁Nin	10
▁режим	10
▁дочь	10
▁нему	10
vici	10
▁январе	10
▁Chi	10
▁выбран	10
▁целы	10
▁красны	10
▁братья	10
▁создава	10
ката	10
▁Эр	10
▁Pont	10
▁переговоры	10
▁officina	10
▁скорее	10
▁бел	10
▁российски	10
▁исследований	10
▁ранни	10
▁аэропорт	10
фин	10
▁Джа	10
▁поддержку	10
▁пуст	10
▁южн	10
▁Ев	10
илл	10
▁Regnum	10
▁списк	10
▁Марии	10
▁Gulielmi	10
IS	10
▁политической	10
▁автомобиля	10
▁выставка	10
▁марк	10
▁фото	10
овский	10
▁команды	10
ори	10
▁Лев	10
υ	10
ς	10
▁океан	10
▁звезды	10
▁особ	10
▁индекс	10
ивать	10
▁каса	10
▁Кур	10
▁Pu	10
▁участк	10
▁новое	10
▁сети	10
▁императора	10
▁круг	10
▁стиле	10
▁казн	10
graph	10
▁литературно	10
lima	10
ушки	10
▁Америку	10
▁Society	10
▁независимо	10
▁Charles	10
▁План	10
▁Лебедев	10
▁память	10
▁монастыря	10
▁понима	10
бот	10
лик	10
мыш	10
вен	10
▁Arc	10
▁Анти	10
forma	10
нести	10
▁кра	10
▁minu	10
▁бою	10
кова	10
▁последнего	10
▁Saturn	10
йского	10
▁комп	10
▁перешл	10
▁убива	10
▁курс	10
▁posterior	10
уэ	10
▁существование	10
▁доход	10
▁Anti	10
▁спорт	10
▁записан	10
▁хотели	10
▁носит	10
q	10
′	10
▁Q	10
▁orbis	10
▁общи	10
avi	10
▁mod	10
нская	10
стон	10
▁занимать	10
▁армия	10
▁магистр	10
▁Ром	10
gue	10
▁Isaac	10
▁Public	10
▁мин	10
▁Gl	10
▁NASA	10
▁Земли	10
icas	10
▁pre	10
▁sol	10
plan	10
▁Hy	10
art	10
▁cap	10
▁Sam	10
â	10
▁Parti	10
▁gen	10
spec	10
▁imperium	10
▁Ur	10
eg	10
▁po	10
ando	10
▁Rex	10
▁Sel	10
hr	10
etum	10
▁Mala	10
▁Eu	10
atae	10
chol	10
▁Fine	10
▁Claudi	10
▁nucle	10
chem	10
usque	10
▁Cer	10
▁Hab	10
α	10
▁Augustus	10
▁Rem	10
▁Harri	10
ivi	10
dicis	10
▁videt	10
▁persuas	10
▁limit	10
▁separa	10
▁divisio	10
▁ludit	10
▁aeroportu	10
▁nesci	10
▁portus	10
▁Norvegia	10
▁advenit	10
ag	10
▁accessit	10
▁tuus	10
▁refertur	10
▁notus	10
▁Unita	10
▁revera	10
▁adhibita	10
▁Navi	10
gia	10
▁regit	10
▁industriae	10
▁Pugna	10
▁proprium	10
▁loquuntur	10
amus	10
▁vola	10
vir	10
▁regni	10
▁adversari	10
▁visitavit	10
▁opinio	10
biles	10
publica	10
▁Romaniae	10
▁nati	10
▁centesimas	10
▁incept	10
▁iter	10
▁creat	10
▁Ministeri	10
▁commune	10
▁studios	10
▁deleta	10
diae	10
ulenses	10
▁fuga	10
▁celeriter	10
▁administer	10
nov	10
riis	10
ensibus	10
▁versus	10
▁Brasiliae	10
▁titulus	10
▁Civ	10
▁invenitur	10
▁diploma	10
▁hort	10
▁Interd	10
▁libere	10
erent	10
▁tredecim	10
▁eas	10
▁ceperunt	10
▁singula	10
▁atomica	10
▁Graece	10
dens	10
▁Fabula	10
▁lusor	10
▁eventu	10
▁incita	10
▁Moscuae	10
▁principio	10
occidentalis	10
▁rapid	10
▁internationali	10
▁pass	10
legata	10
▁Americanum	10
▁distribu	10
▁specie	10
▁Exercitu	10
▁Quem	10
▁continent	10
▁gener	10
▁fidem	10
ertamen	10
▁Ego	10
▁libris	10
▁nominantur	10
▁pos	10
▁rediit	10
▁cantor	10
▁Olim	10
▁indicat	10
▁Fon	10
mento	10
▁medi	10
▁cael	10
▁decreta	10
▁monumenta	10
▁plura	10
▁moneta	10
▁Praecipu	10
▁factu	10
▁televisioni	10
▁Ecclesiae	10
Fere	10
▁Plerumque	10
▁capitalis	10
gu	10
liquando	10
▁Bis	10
▁rar	10
▁gymnasi	10
▁causis	10
▁capite	10
▁dictatura	10
▁naturalis	10
▁element	10
rg	10
ologiae	10
▁Europaeo	10
▁redire	10
anae	10
▁mono	10
▁corpus	10
dhuc	10
▁paroecia	10
tani	10
▁exp	10
▁damnatu	10
▁ordinem	10
▁duravit	10
▁Aegyptu	10
▁gubernationis	10
ulae	10
▁agunt	10
▁scriptum	10
non	10
▁insulis	10
▁Neo	10
▁hui	10
▁grati	10
ibusque	10
omalia	10
▁constituit	10
pit	10
▁dicere	10
▁homini	10
▁sepultus	10
▁sustine	10
ssima	10
▁fict	10
▁Iuven	10
▁captus	10
▁unda	10
▁proprieta	10
▁Nobelian	10
▁democratica	10
▁privat	10
ismum	10
▁dubita	10
▁Cuba	10
▁Franco	10
▁aquam	10
▁Scientiae	10
▁Ultima	10
▁Iudaei	10
▁humanae	10
▁secundaria	10
▁diarii	10
▁linguistica	10
▁hor	10
▁dura	10
mata	10
▁Berolini	10
▁perfecta	10
▁proxim	10
▁circul	10
▁claus	10
▁nominavit	10
▁constant	10
▁Iudaeis	10
▁Polonia	10
▁sp	10
misit	10
▁Mag	10
▁silva	10
▁vestig	10
▁pleb	10
toria	10
▁efficere	10
ierunt	10
▁aves	10
▁illud	10
▁novis	10
▁oeconomicae	10
entibus	10
cla	10
▁utrum	10
▁urbana	10
▁Francicae	10
▁stationes	10
▁Consili	10
▁Nationali	10
▁Novo	10
▁firma	10
▁exper	10
▁genere	10
▁nominatur	10
▁fabulas	10
▁flav	10
▁musicus	10
gressus	10
▁Francicus	10
iano	10
▁Anglicae	10
rentur	10
▁aula	10
▁Ordini	10
▁mentio	10
▁copiae	10
▁Lutetia	10
▁regimen	10
▁longum	10
▁Germanic	10
▁figura	10
▁incert	10
▁militari	10
dinae	10
▁советск	9
awa	9
▁мной	9
▁провозгласил	9
▁Мус	9
уна	9
▁расс	9
друзья	9
à	9
▁Michel	9
▁тюрьме	9
▁завтрак	9
▁привязан	9
▁первом	9
ney	9
▁Тот	9
емся	9
ывает	9
▁ребёнка	9
▁запрос	9
▁товарищей	9
▁туда	9
▁словами	9
▁голоса	9
▁написани	9
▁установил	9
▁традиции	9
▁считать	9
?)	9
▁Wiki	9
ыне	9
▁началась	9
▁magnum	9
▁продан	9
▁Пал	9
▁сорок	9
▁l	9
▁ясно	9
▁Храм	9
▁самому	9
ваться	9
▁ситуации	9
▁Большой	9
Хилл	9
нибудь	9
▁случаев	9
=	9
▁противник	9
▁Edition	9
▁доктора	9
▁собира	9
▁выбрал	9
▁оппозици	9
▁высше	9
Ar	9
La	9
▁венгерск	9
▁границе	9
▁Запад	9
▁молод	9
▁девушка	9
▁важно	9
▁пьес	9
яются	9
джа	9
▁шест	9
Y	9
транспорт	9
▁авиа	9
▁пострадал	9
нения	9
▁Майк	9
▁открыта	9
▁сут	9
ow	9
▁радио	9
▁Гл	9
▁gloria	9
▁ведут	9
▁модель	9
▁Иоанна	9
▁историческ	9
▁общественно	9
▁свободны	9
▁носител	9
▁Конституции	9
▁придёт	9
▁признать	9
▁тяжёлы	9
▁Who	9
▁Ган	9
▁награждён	9
▁Причин	9
▁знать	9
▁Boe	9
▁Административны	9
▁архитектор	9
▁удач	9
▁all	9
▁Благо	9
ходить	9
▁вечно	9
▁Единственны	9
▁второе	9
▁представлени	9
▁Конечно	9
▁Пут	9
нев	9
▁заметил	9
▁нашёл	9
▁определённо	9
▁референдум	9
▁десят	9
▁решения	9
лина	9
▁верить	9
▁монастыр	9
▁контракт	9
▁услови	9
▁космическ	9
▁близ	9
ающим	9
ance	9
▁интересно	9
▁кризис	9
льд	9
провод	9
▁Sun	9
▁приняты	9
▁общественн	9
▁Жен	9
AS	9
▁русско	9
▁родителей	9
▁проживал	9
дала	9
▁Библии	9
тура	9
нского	9
▁собор	9
▁лучши	9
ново	9
▁веке	9
▁друга	9
▁депутатов	9
▁Вселенной	9
▁utri	9
▁приветстви	9
демократическ	9
арх	9
▁переписи	9
▁площади	9
▁больш	9
▁Основн	9
▁увеличен	9
▁Наш	9
СС	9
▁ЕС	9
▁фактически	9
▁правител	9
▁читать	9
▁комнат	9
▁кажется	9
▁административно	9
▁Mars	9
▁Август	9
шла	9
▁Роман	9
▁меша	9
▁открыть	9
лён	9
▁Следующ	9
год	9
шей	9
стил	9
ёз	9
▁Tre	9
▁Канады	9
▁высоко	9
▁памятник	9
▁Ново	9
овое	9
▁Boy	9
ступил	9
▁обсерватории	9
ители	9
▁объединени	9
казания	9
▁Север	9
▁Ур	9
▁морски	9
▁начинают	9
▁Риме	9
▁писателя	9
усть	9
▁концерт	9
▁последни	9
▁делит	9
строен	9
▁собрание	9
▁заработ	9
▁отношение	9
эва	9
▁Apple	9
▁ассоциации	9
▁поло	9
▁активны	9
▁ночью	9
▁Компани	9
▁правления	9
▁следующи	9
▁дружб	9
▁Августа	9
▁подготовк	9
▁победа	9
▁вперёд	9
▁причине	9
▁прекрати	9
изи	9
▁меньшинств	9
▁борьбы	9
▁детски	9
▁домов	9
▁украински	9
▁оказалось	9
▁Франк	9
див	9
▁Consta	9
▁ботаник	9
▁контакт	9
фици	9
▁указ	9
▁развод	9
▁Instituti	9
▁моно	9
▁Тип	9
▁болезни	9
▁Бан	9
▁неоднократно	9
▁вызов	9
двое	9
▁сыновей	9
▁влия	9
▁цивилизаци	9
мото	9
сказ	9
▁Марин	9
▁ме	9
▁коммуны	9
▁центром	9
учить	9
министра	9
▁ошибки	9
Q	9
льный	9
▁Великий	9
▁Нептун	9
▁Солнца	9
▁Great	9
нец	9
▁бывше	9
▁старт	9
LM	9
тели	9
нный	9
▁императорск	9
▁искать	9
▁миров	9
▁позиция	9
▁кардинал	9
▁сериала	9
▁сообщ	9
▁Centr	9
осс	9
▁оригинально	9
▁Жан	9
являлся	9
жат	9
▁Нобелевск	9
кул	9
▁климат	9
▁специальны	9
енного	9
▁навсегда	9
ностью	9
▁взросл	9
держал	9
▁административны	9
▁франк	9
▁Жизнь	9
▁Чу	9
ступает	9
▁нужны	9
▁использу	9
▁желания	9
▁автономн	9
▁Cons	9
▁Ju	9
ющей	9
▁кандидата	9
▁домашни	9
▁прошлом	9
▁Лондона	9
уме	9
▁Ци	9
▁отправля	9
▁случайно	9
ациона	9
▁Mis	9
▁английским	9
▁торговли	9
▁Бельгии	9
▁ими	9
▁уровень	9
▁завоевал	9
▁Начина	9
▁Лен	9
▁Список	9
▁возвращается	9
▁революции	9
юксембург	9
▁жёстк	9
▁пес	9
▁городской	9
▁хотим	9
▁Москве	9
▁октябре	9
▁флот	9
учиться	9
▁Тур	9
▁хранит	9
▁дальше	9
▁образован	9
▁Каролин	9
ος	9
▁датиру	9
▁получают	9
ticum	9
▁мужско	9
▁физик	9
▁языках	9
▁Human	9
Cl	9
▁Will	9
международный	9
▁кабинет	9
ведение	9
▁безопасности	9
▁позволи	9
▁Глав	9
изация	9
▁энергии	9
▁отличается	9
▁пары	9
▁образуют	9
▁Испания	9
рн	9
▁телеканал	9
▁Star	9
▁упомина	9
▁Фер	9
▁German	9
▁измерени	9
▁шум	9
▁согласился	9
▁следовал	9
▁тест	9
▁вещь	9
▁отдельны	9
вре	9
цами	9
▁божеств	9
▁Intel	9
ل	9
▁Российско	9
▁чаще	9
зия	9
▁Фе	9
▁Rand	9
ux	9
▁миру	9
▁певица	9
▁играть	9
▁убедить	9
▁газ	9
▁Unit	9
▁Digital	9
▁Пу	9
кад	9
inae	9
▁Кан	9
▁Украины	9
▁улице	9
▁прекрасно	9
▁строго	9
ходила	9
ö	9
аются	9
▁отзыв	9
▁Антони	9
▁содержат	9
▁сборн	9
▁высот	9
Щ	9
▁градус	9
▁флаг	9
▁Rock	9
▁бан	9
▁mi	9
▁dialect	9
▁писательница	9
▁удовлетвор	9
▁космически	9
▁преодоле	9
▁Британско	9
▁Эй	9
▁редко	9
▁Основан	9
▁политику	9
коль	9
▁бомб	9
никами	9
▁Mira	9
▁Rossi	9
▁увидел	9
nat	9
dge	9
▁рассматривал	9
▁Lege	9
▁проблема	9
▁рынк	9
▁Wa	9
▁FDP	9
▁Arthur	9
▁монет	9
▁situ	9
oda	9
▁экономически	9
▁Гай	9
ubi	9
▁Magic	9
▁Simil	9
▁съезд	9
▁секрет	9
▁Tam	9
▁высш	9
▁отправляют	9
una	9
und	9
die	9
rch	9
ong	9
▁продолжение	9
▁Dol	9
▁Vo	9
▁ныне	9
▁хит	9
▁Motu	9
ather	9
▁Tho	9
▁Dec	9
▁Buddhism	9
▁Ora	9
▁san	9
▁позиции	9
▁Lin	9
nger	9
ago	9
ania	9
▁Statu	9
▁Dor	9
веб	9
▁Ros	9
▁corporis	9
▁Sex	9
▁vener	9
▁collegii	9
▁vicesim	9
amp	9
▁RAI	9
▁Roman	9
▁Plat	9
▁Cast	9
han	9
▁Fama	9
ensium	9
▁Association	9
opoli	9
long	9
▁equ	9
lab	9
▁form	9
rop	9
side	9
▁continu	9
▁pluri	9
star	9
▁Adam	9
▁reperta	9
▁Puella	9
▁Iacob	9
▁fugere	9
ndecim	9
▁proba	9
▁necessarium	9
▁malum	9
▁Summa	9
▁aliquam	9
▁indica	9
▁audir	9
▁Ven	9
▁palati	9
▁viae	9
▁meo	9
▁scimus	9
▁Finnia	9
▁aestiva	9
▁vocabul	9
▁adhibentur	9
▁fugi	9
▁investiga	9
▁caes	9
▁respondit	9
▁inquit	9
▁scribitur	9
▁domini	9
▁exerc	9
▁ger	9
▁academia	9
▁Han	9
▁meum	9
▁credit	9
▁Publica	9
tenses	9
isque	9
▁simili	9
latio	9
▁editor	9
ugu	9
▁Tale	9
▁censu	9
▁Quis	9
arvae	9
▁Plurimi	9
▁male	9
▁minuta	9
oleo	9
▁cancellari	9
▁mercatu	9
▁Maximi	9
▁exemplar	9
▁Er	9
▁classes	9
▁aerari	9
menti	9
Estonic	9
▁Comitatus	9
▁Circul	9
▁corruptio	9
▁dollariorum	9
▁probabili	9
▁indice	9
▁Uxor	9
▁recupera	9
▁scholas	9
▁quinto	9
▁communitate	9
▁gubernatione	9
▁sodali	9
▁approba	9
▁ferr	9
▁Interret	9
▁Sigl	9
▁Nulla	9
▁dividitur	9
▁monstra	9
▁medicus	9
cor	9
missio	9
▁iac	9
libus	9
▁Pon	9
▁Bene	9
▁technologia	9
▁discrim	9
▁ignotu	9
▁annu	9
ictus	9
▁nuper	9
▁scient	9
▁Generalis	9
▁suffectu	9
▁pra	9
aga	9
▁Opus	9
▁Socialis	9
▁Albania	9
▁affecta	9
gni	9
▁fama	9
▁Turciae	9
▁ambula	9
▁usi	9
▁intelleg	9
▁naturali	9
▁pecuniaria	9
▁possint	9
▁definitione	9
▁castra	9
▁priore	9
▁alibi	9
▁studentes	9
▁dicta	9
▁pact	9
▁signa	9
▁servata	9
▁recta	9
▁prohibe	9
▁pedi	9
▁guberna	9
▁custodi	9
Biblia	9
▁Francogallica	9
▁carceri	9
▁Maiore	9
▁coloni	9
▁paci	9
▁Orientalis	9
zat	9
▁Asiam	9
▁Medi	9
▁Carolo	9
tate	9
▁litterari	9
▁conscientia	9
▁experientia	9
▁Magnitud	9
regnavit	9
▁Graecis	9
▁Russicus	9
▁accider	9
▁tropic	9
gui	9
▁Iaponici	9
▁crimina	9
▁bis	9
▁Obi	9
ellenses	9
▁endemica	9
▁absolutam	9
ultimus	9
▁actus	9
▁praebet	9
▁Bra	9
▁scala	9
▁civile	9
▁magistri	9
▁armis	9
▁campi	9
▁nov	9
▁architect	9
▁Carolina	9
▁pericul	9
▁Romanis	9
▁negotia	9
▁pest	9
Latine	9
▁dantur	9
▁cancr	9
atis	9
▁mund	9
▁man	9
▁certaminibus	9
ulos	9
▁apostolica	9
▁charta	9
▁honori	9
imago	9
▁regia	9
▁orbita	9
▁litterarum	9
▁filiam	9
▁Factione	9
▁iuven	9
▁indici	9
▁aliqui	9
▁uxore	9
▁ipso	9
▁versio	9
▁obiect	9
▁potestas	9
▁Europaeis	9
▁scaena	9
tioni	9
olo	9
▁Aquae	9
▁laborant	9
▁nostri	9
▁vo	9
▁quare	9
rium	9
nit	9
▁pedes	9
smi	9
▁Vel	9
▁causas	9
▁apparet	9
▁Luci	9
▁vasta	9
▁fung	9
▁descripta	9
▁anima	9
▁Olympic	9
▁episcopus	9
llae	9
▁substantia	9
▁periodico	9
▁relatione	9
▁volumin	9
positione	9
▁Soci	9
▁Faction	9
▁propaga	9
▁tribunu	9
▁Mol	9
▁mathematicus	9
▁insulas	9
▁laborem	9
▁director	9
ire	9
▁licuit	9
▁dicti	9
▁salv	9
burg	9
▁Hispani	9
▁Asteroide	9
▁feminin	9
▁tradita	9
▁public	9
itae	9
▁Poloniae	9
▁debit	9
▁Germanica	9
▁necessaria	9
▁locution	9
▁Nicolaus	9
▁Augusto	9
mortuus	9
▁operarii	9
▁Publi	9
narum	9
▁reges	9
▁Veneri	9
▁constructa	9
▁fabulam	9
bro	9
▁ethn	9
dentes	9
▁Dicit	9
▁Civitatis	9
▁laborare	9
▁septim	9
▁televisifici	9
▁copi	9
▁adult	9
▁Russicae	9
dal	9
▁generale	9
▁Veter	9
▁pauc	9
▁Eboracum	9
▁conserva	9
▁versato	9
▁contraria	9
▁activ	9
▁existima	9
▁Dieta	9
▁ampl	9
▁Gubernatio	9
abili	9
▁rector	9
▁habe	9
▁Nazisti	9
▁picta	9
ticus	9
разил	8
уха	8
▁пок	8
▁Аллах	8
▁мер	8
▁назначил	8
▁Перси	8
▁ребёнком	8
▁красно	8
дно	8
▁любит	8
▁ума	8
▁ранен	8
▁читател	8
▁Тони	8
парад	8
▁опаса	8
▁советски	8
▁месяц	8
▁играх	8
▁играл	8
▁аэропорта	8
▁Построен	8
▁разрушен	8
▁уменьш	8
▁издательство	8
▁бесконечно	8
▁географи	8
ческих	8
▁мальчика	8
▁совсем	8
▁спутников	8
▁Springer	8
атом	8
▁немцы	8
▁склад	8
ризрак	8
▁Международн	8
чего	8
▁Энн	8
▁тво	8
▁данного	8
chan	8
▁изучен	8
▁Daily	8
▁elegi	8
▁Зеландии	8
▁Lan	8
пустить	8
▁Хан	8
▁комм	8
▁Человек	8
▁Рима	8
▁стороне	8
▁обвинения	8
▁кому	8
Solo	8
▁Скотт	8
▁плен	8
▁получени	8
ключён	8
▁Allen	8
▁собран	8
▁готовы	8
▁использова	8
▁альтернатив	8
кая	8
▁проблем	8
▁земель	8
▁участия	8
▁Основны	8
онные	8
▁ворота	8
▁Благодар	8
▁аят	8
▁Web	8
▁Rus	8
▁вино	8
▁Сборник	8
▁Иран	8
▁умирает	8
ухо	8
▁стади	8
▁Fin	8
▁группе	8
▁аэродром	8
▁Питер	8
▁вопросы	8
▁коллекции	8
альные	8
▁Прост	8
▁анализ	8
▁рассматрива	8
▁вероятность	8
▁сообщение	8
▁попал	8
▁Милан	8
▁лат	8
деление	8
ьте	8
▁компьютерны	8
губ	8
▁приносит	8
▁брака	8
счёт	8
▁вступ	8
▁легенд	8
▁Западно	8
▁Украине	8
дается	8
▁футбольны	8
▁Тай	8
телям	8
▁написанны	8
ером	8
▁совета	8
рели	8
▁молоды	8
уше	8
грега	8
▁наве	8
▁банк	8
▁семейств	8
▁сумм	8
▁Имеют	8
▁будто	8
▁Unwin	8
▁кратк	8
ложен	8
▁казалось	8
▁думаю	8
▁Перв	8
▁поэта	8
▁Fire	8
▁Григори	8
▁XIII	8
▁лошади	8
▁чуж	8
▁видя	8
▁продолжают	8
▁реформ	8
▁жестоко	8
▁Virginia	8
▁Pluto	8
▁Музей	8
▁посещени	8
▁Вып	8
▁повод	8
▁положения	8
кина	8
ложил	8
▁скандал	8
▁восстание	8
▁Верхн	8
▁секретар	8
▁Institute	8
▁сумел	8
▁раб	8
▁решают	8
▁союзник	8
▁necessari	8
ящие	8
▁газет	8
▁порядка	8
▁личны	8
▁государственн	8
▁дерево	8
▁рост	8
верен	8
▁граф	8
▁Красно	8
▁демонстраци	8
▁сильны	8
▁своем	8
ноги	8
▁идеал	8
▁поражение	8
▁английски	8
▁выражен	8
▁большие	8
двига	8
▁заставля	8
▁танц	8
▁соответству	8
▁Работа	8
ight	8
BS	8
▁будем	8
▁квартир	8
▁Альберт	8
▁поз	8
▁отчёт	8
вир	8
▁Японск	8
▁уда	8
▁окруж	8
▁наклон	8
▁рассчитыва	8
▁региона	8
енко	8
▁королева	8
▁Tor	8
▁латинск	8
▁угроз	8
▁Хер	8
▁практик	8
лева	8
▁живых	8
▁Эль	8
▁лиш	8
юда	8
tana	8
льные	8
▁уступ	8
жение	8
▁представить	8
▁шведски	8
▁Израиле	8
▁арабски	8
иска	8
▁села	8
▁Ам	8
▁Король	8
▁Ази	8
▁девя	8
▁пункта	8
фт	8
езжает	8
▁Award	8
▁персонажей	8
▁объём	8
▁сенатором	8
▁методы	8
▁Младш	8
▁Время	8
▁состояние	8
▁слуша	8
▁успеха	8
▁Член	8
▁дивизии	8
▁молодёж	8
▁Гал	8
▁Джеймс	8
▁оправда	8
▁инженер	8
▁непосредственно	8
▁поступ	8
▁диктатуры	8
▁Мас	8
▁село	8
▁каменн	8
▁серьёзно	8
▁преоблада	8
▁трети	8
итов	8
▁событие	8
▁Лан	8
брет	8
▁отправи	8
▁музея	8
▁поддержива	8
несли	8
▁магазин	8
▁товаров	8
▁знают	8
▁Обще	8
▁изучения	8
есь	8
▁религии	8
▁Юго	8
Восточн	8
▁августе	8
▁сдела	8
▁монарх	8
▁бой	8
▁фестивал	8
Sen	8
▁следующим	8
▁реклам	8
▁Провинци	8
▁муниципалитет	8
▁жена	8
▁ограничен	8
▁помещен	8
онная	8
▁Египет	8
▁Закон	8
Натал	8
▁роз	8
▁возглавил	8
▁спокойно	8
▁преимуществ	8
десят	8
▁Королевств	8
▁деревне	8
▁дости	8
▁старши	8
▁Мартин	8
ступить	8
пин	8
▁естественно	8
▁Работал	8
▁Origin	8
▁конституци	8
▁колони	8
конгресс	8
▁прост	8
▁Кад	8
dom	8
▁Publications	8
▁Джексон	8
▁попыта	8
▁выхода	8
чью	8
доль	8
▁район	8
ern	8
убит	8
▁Корее	8
▁эры	8
▁Эдвард	8
▁популярно	8
▁пита	8
▁Фрэнк	8
▁Урана	8
▁открыто	8
угл	8
▁аналитическ	8
▁выдвину	8
час	8
▁станови	8
яет	8
▁товарищ	8
canis	8
▁выросл	8
▁обита	8
▁Генрих	8
▁гречески	8
▁запрещены	8
▁вторым	8
▁переп	8
▁назвал	8
торы	8
яется	8
▁опасно	8
▁тяжело	8
▁Тим	8
дёт	8
думать	8
▁посетил	8
▁Францию	8
Мо	8
▁Ol	8
▁Венеции	8
▁присутствовал	8
▁колледж	8
▁частично	8
▁закона	8
▁признан	8
▁Земля	8
Слава	8
фор	8
▁вооружен	8
евой	8
▁зна	8
▁Green	8
очка	8
▁захвати	8
▁Брю	8
▁территориях	8
▁столько	8
▁известность	8
▁одинаковы	8
▁газеты	8
▁размер	8
етти	8
»),	8
▁округ	8
▁Gro	8
Palaeo	8
▁pag	8
▁proprio	8
оров	8
▁Виктор	8
▁классическ	8
▁прогресс	8
▁либерал	8
▁модели	8
▁эмигрировал	8
▁Стивен	8
▁Sal	8
майор	8
▁Сил	8
▁поддержки	8
▁успел	8
▁горно	8
ball	8
ящий	8
▁корабль	8
▁римск	8
▁последовательн	8
▁эпизодов	8
▁фирм	8
▁производство	8
▁Лук	8
▁шести	8
▁точк	8
▁Герман	8
▁Массачусетс	8
цем	8
▁всеми	8
▁изначально	8
▁поле	8
▁лицо	8
▁Обе	8
▁внутрь	8
▁консула	8
улы	8
нав	8
мана	8
пресс	8
▁Система	8
Gr	8
ref	8
▁you	8
леб	8
▁поздне	8
love	8
▁Ислам	8
▁доказательств	8
▁Ирак	8
▁Bill	8
▁Борис	8
▁сан	8
▁privata	8
▁Met	8
▁Clar	8
вилл	8
▁возвращают	8
олков	8
▁исследовательск	8
▁Росси	8
▁видимо	8
▁центрально	8
▁осень	8
▁возглавлял	8
▁факультет	8
▁вирус	8
▁Open	8
▁Newton	8
▁Орден	8
▁коллекци	8
▁риск	8
▁Французск	8
▁волк	8
бывают	8
▁обуча	8
▁женск	8
▁Ху	8
▁бал	8
▁внешни	8
▁общественны	8
▁рекорд	8
▁Групп	8
▁компанией	8
▁уход	8
енс	8
тельным	8
▁появление	8
авета	8
▁стихи	8
▁боевы	8
▁театр	8
▁систем	8
поминает	8
▁отказывается	8
▁территория	8
▁Сант	8
слой	8
▁Time	8
▁Book	8
▁отвеча	8
▁непри	8
▁учебн	8
▁Cass	8
tter	8
альной	8
▁площадь	8
κ	8
ьной	8
▁корпус	8
▁Вил	8
▁гибели	8
▁индийски	8
▁Amor	8
▁написать	8
▁Stor	8
▁проведён	8
IE	8
▁времён	8
▁Лор	8
град	8
▁ограничени	8
ётся	8
ui	8
▁Liv	8
▁основ	8
овка	8
hon	8
▁регион	8
▁диалект	8
юго	8
▁необходимость	8
▁доби	8
▁Roy	8
▁Francisco	8
ейши	8
льский	8
▁миллион	8
▁ваше	8
▁смысле	8
▁Республик	8
правление	8
ание	8
▁singulari	8
нат	8
▁Columbia	8
▁Up	8
▁Propri	8
▁Benedict	8
▁And	8
▁Пе	8
▁legi	8
▁#	8
▁Face	8
▁Валь	8
▁поколени	8
▁West	8
▁объедин	8
скоп	8
ино	8
▁империя	8
▁Fro	8
ρ	8
▁Radio	8
ib	8
▁Creat	8
▁замеча	8
stat	8
▁Арт	8
▁позицию	8
▁Croatia	8
кин	8
▁политическим	8
▁пройти	8
мэн	8
кв	8
душ	8
слав	8
▁победы	8
▁сет	8
▁Strategi	8
нье	8
▁студент	8
▁обучени	8
▁Island	8
▁Central	8
▁Ash	8
▁появля	8
▁Son	8
zon	8
▁Har	8
pere	8
▁Records	8
▁благотворительн	8
▁domestica	8
▁Africana	8
▁Помпе	8
ини	8
▁Центр	8
лос	8
ulli	8
▁sat	8
ifera	8
▁Minor	8
▁Brit	8
▁Faber	8
▁Весно	8
antis	8
▁ecclesiae	8
cker	8
▁universi	8
▁Tandem	8
▁Audi	8
▁цикл	8
▁Causa	8
▁Doctor	8
▁persecut	8
▁Optim	8
▁malo	8
Epist	8
▁Pis	8
▁Mux	8
PD	8
▁Sac	8
▁Ann	8
dex	8
▁infinita	8
▁Urani	8
▁Unde	8
▁gesti	8
▁ludere	8
tone	8
▁Evangeli	8
▁fil	8
▁poterant	8
▁amicitia	8
▁artium	8
▁placet	8
▁tract	8
▁Verba	8
▁evenit	8
▁Helvetia	8
▁iacet	8
▁destruct	8
▁humili	8
▁Indica	8
currit	8
▁regionem	8
▁independentia	8
▁ostendit	8
▁ait	8
▁”	8
▁voce	8
▁facie	8
▁ludos	8
cavit	8
▁usitata	8
▁volebat	8
▁Secunda	8
ratus	8
▁significant	8
▁Nec	8
▁aere	8
▁Alia	8
▁descripsit	8
▁foeder	8
▁emenda	8
▁pe	8
▁contribu	8
uria	8
▁servos	8
▁radiophonica	8
▁valebat	8
▁nexu	8
▁Cred	8
▁Numero	8
▁valore	8
cott	8
▁eruditi	8
▁loc	8
▁Vicipaedia	8
▁unica	8
▁vinum	8
▁vendere	8
▁Sara	8
Arabice	8
▁conservat	8
▁viator	8
venire	8
▁aeroplani	8
▁Sovietic	8
▁ostentat	8
xta	8
▁Puer	8
iudicium	8
▁Dic	8
▁caelo	8
▁creati	8
▁Iulian	8
▁certavit	8
▁coniugi	8
▁Solis	8
▁perdidit	8
▁maioritat	8
▁termin	8
missione	8
▁facili	8
▁notissim	8
▁breve	8
▁fu	8
▁propinqu	8
▁rari	8
ntem	8
▁infra	8
▁Gregori	8
▁Octobre	8
entiae	8
mine	8
stor	8
▁docebat	8
▁constitutio	8
▁historici	8
▁culturali	8
▁poemat	8
▁principia	8
▁Feminae	8
▁omnem	8
▁amant	8
▁electa	8
▁Sar	8
▁nominata	8
▁reliqu	8
▁Rege	8
▁Orig	8
▁ethica	8
▁suffect	8
▁Vladimir	8
▁Franciam	8
▁differentia	8
▁veri	8
▁accusa	8
▁Terrae	8
▁clara	8
▁formam	8
▁Patre	8
▁indigena	8
æ	8
▁familias	8
▁liberis	8
ndis	8
▁Indi	8
▁Partes	8
▁militaria	8
▁oportet	8
▁perfecit	8
▁patron	8
▁affirma	8
▁notione	8
▁defendit	8
▁Regn	8
▁Phil	8
posuit	8
▁utebantur	8
▁adfect	8
▁divitias	8
▁Occidentalis	8
▁iuvenes	8
▁ars	8
▁Alexandr	8
▁ingeniaria	8
▁Daniae	8
▁Hispanice	8
▁sorore	8
▁Fact	8
▁canale	8
ioni	8
▁uni	8
▁Ucraini	8
▁abolit	8
▁agitur	8
▁appellavit	8
▁visa	8
▁Iacobus	8
▁Suprem	8
▁corona	8
▁medica	8
▁Clara	8
finitum	8
▁Florida	8
▁traditionali	8
▁fon	8
▁revertebat	8
▁nominibus	8
▁recusa	8
▁vendita	8
▁pictura	8
▁sedecim	8
▁spe	8
▁fundament	8
▁vexat	8
▁canta	8
▁astronauta	8
▁mora	8
▁Alc	8
▁pond	8
▁venerunt	8
▁opific	8
▁invit	8
▁Urs	8
▁Access	8
▁rube	8
▁rubr	8
▁diviti	8
rog	8
▁Iac	8
ticam	8
▁exstinct	8
▁station	8
▁Consociatio	8
▁fuerat	8
▁Henric	8
▁aedificatum	8
▁veter	8
issimi	8
▁facultates	8
▁religiones	8
▁Men	8
didit	8
▁gregi	8
▁studium	8
▁inventor	8
▁ductu	8
▁fiunt	8
▁Gall	8
▁Iudae	8
▁incipiunt	8
▁praebuit	8
▁decennii	8
ponitur	8
▁adulti	8
▁argent	8
▁pluvia	8
▁separata	8
▁Littera	8
▁Hiberni	8
▁Cicero	8
▁parv	8
▁peculiar	8
▁evolu	8
ducere	8
▁cultu	8
▁information	8
▁militaris	8
▁Multo	8
▁appellati	8
▁progressus	8
▁philosophica	8
titudo	8
▁relinqu	8
▁aliena	8
▁mercator	8
▁monarchia	8
▁Caesar	8
▁composuit	8
▁casus	8
▁Declaratio	8
▁orta	8
▁laud	8
▁meliore	8
▁interrete	8
▁Corneli	8
▁Praesen	8
▁uter	8
physica	8
▁communis	8
▁argentaria	8
▁maximo	8
▁agr	8
▁chiliometra	8
▁tabulat	8
▁Persic	8
vulgo	8
▁communi	8
▁hodierno	8
▁manet	8
nses	8
▁exeunte	8
▁alio	8
▁faciat	8
▁quaestio	8
▁describ	8
▁vident	8
viginti	8
▁quotannis	8
▁dulci	8
▁religiosa	8
▁Australis	8
▁condicione	8
▁fonte	8
▁compon	8
▁auctoritate	8
▁frustra	8
super	8
▁atmosphaera	8
▁centrum	8
migravit	8
▁except	8
lissa	8
oniae	8
▁recusavit	8
▁classi	8
▁Plato	8
▁viros	8
▁Archiepiscop	8
▁lex	8
▁systemate	8
▁definit	8
▁unic	8
▁unius	8
▁Populari	8
▁artifici	8
▁Decembre	8
▁Iuni	8
▁Samoa	8
▁Foeder	8
▁accipit	8
▁Certamin	8
▁victu	8
▁Archi	8
▁lati	8
▁nulli	8
▁capi	8
▁oeconomici	8
▁volu	8
▁functione	8
rip	8
▁carmin	8
▁ori	8
gnati	8
▁Bon	8
▁spectat	8
▁legislat	8
▁scrib	8
▁aestimatur	8
ús	8
▁vicissi	8
▁antiquo	8
▁astronomus	8
▁suc	8
▁supra	8
▁Oxonii	8
▁stabili	8
▁oeconomicam	8
bas	8
▁autonomia	8
▁continere	8
▁solutione	8
Germanice	8
▁philosophus	8
▁Constantinopoli	8
▁voluit	8
▁моей	7
мужем	7
▁пришл	7
▁престол	7
▁наследник	7
▁Potter	7
▁Сенат	7
▁необходимы	7
▁социал	7
▁Мат	7
▁зовут	7
▁Albin	7
▁Организаци	7
енных	7
▁сохранилось	7
▁Стен	7
▁Австрия	7
▁сложност	7
▁завод	7
▁Ши	7
▁таком	7
▁идею	7
родолжительность	7
▁утром	7
▁зарегистрирован	7
▁Бел	7
▁плач	7
▁Archive	7
▁Норвегии	7
▁Термин	7
ошли	7
$	7
Как	7
▁узна	7
▁задержа	7
▁пророк	7
тав	7
▁поклон	7
▁устройства	7
ER	7
▁статей	7
▁неза	7
▁металл	7
▁утрачен	7
▁оставил	7
последствии	7
▁взрослых	7
▁промышленн	7
▁Обита	7
▁колонии	7
озвращение	7
▁Калифорния	7
▁египетск	7
▁готовит	7
▁Источник	7
▁Einstein	7
▁признак	7
Генерал	7
▁Одни	7
▁Harmon	7
▁Richard	7
▁Позднее	7
▁партий	7
▁вспоминает	7
▁режиссёра	7
▁подчеркну	7
▁распределени	7
▁полиция	7
▁решить	7
▁горд	7
зади	7
▁Румынии	7
▁Lip	7
▁формально	7
▁завершен	7
▁сторону	7
▁энциклопеди	7
▁испытыва	7
▁Нес	7
▁Шекспира	7
▁Дю	7
шил	7
▁пойти	7
▁существовать	7
▁одни	7
▁девушки	7
▁Два	7
▁Syn	7
▁Пит	7
▁теннис	7
▁Коммунистическ	7
▁Издательство	7
▁мужчина	7
▁Правда	7
▁пожертвова	7
оследнее	7
▁горы	7
▁ждал	7
евые	7
▁Иисус	7
тин	7
▁What	7
▁Март	7
▁Клуб	7
▁марок	7
жил	7
▁Оп	7
▁Джей	7
▁Евангели	7
▁Зап	7
▁тюрьму	7
нтерпретаци	7
▁Continuum	7
▁Publishing	7
▁Group	7
▁рано	7
▁архиепископ	7
▁наступление	7
▁властей	7
▁медаль	7
тат	7
▁побег	7
▁Американск	7
lett	7
▁технологий	7
▁Избран	7
▁давлением	7
▁Ye	7
▁miser	7
▁распространя	7
▁формат	7
▁романа	7
▁патрици	7
▁прошло	7
▁показан	7
▁ежедневно	7
▁судьбы	7
▁источник	7
▁кем	7
бель	7
▁Африке	7
леты	7
▁Генеральн	7
тес	7
▁тридцат	7
▁звания	7
▁продолжил	7
▁покупа	7
▁коротко	7
hort	7
way	7
▁Сибири	7
▁здоров	7
▁Жена	7
▁Зна	7
▁воде	7
▁уничтожить	7
▁страниц	7
▁Гав	7
анский	7
▁надпись	7
▁миллиард	7
▁лечение	7
▁звезда	7
▁богаты	7
▁поддержал	7
▁благо	7
тарной	7
▁цель	7
▁классическо	7
рок	7
▁развивается	7
▁Micro	7
▁городах	7
▁Старший	7
ляет	7
Алжир	7
▁урок	7
▁Военн	7
▁свод	7
▁церковн	7
вия	7
▁страницы	7
▁бразильски	7
туш	7
▁курит	7
▁периодически	7
онный	7
▁ФИФА	7
▁олимпийск	7
▁результаты	7
люби	7
▁похоже	7
▁Американско	7
▁занят	7
▁libertas	7
▁Сид	7
арк	7
▁погибших	7
▁заключённы	7
▁коммунист	7
ических	7
▁голос	7
▁местн	7
▁Средне	7
▁Болгарии	7
▁пр	7
▁обре	7
ечение	7
Общество	7
▁решени	7
▁разделя	7
▁взгляд	7
▁Кэт	7
▁министра	7
▁муж	7
долго	7
▁покрыт	7
▁одержал	7
▁победу	7
▁опасны	7
▁развелись	7
▁полна	7
▁Наконец	7
▁христианство	7
самые	7
▁Обычн	7
▁записыва	7
▁отправлен	7
миссии	7
▁соглашение	7
▁освобождени	7
▁FIFA	7
▁проведен	7
▁денежны	7
▁рег	7
▁рубежом	7
▁Mul	7
▁Fiction	7
▁ежегодно	7
▁души	7
▁оставля	7
очно	7
▁пообещал	7
▁стану	7
▁Наполеон	7
▁проб	7
▁парламентск	7
лова	7
▁Альфред	7
▁Нор	7
вич	7
▁изобража	7
умеет	7
▁Review	7
▁принимал	7
фаль	7
▁plant	7
▁газета	7
▁Marin	7
▁капитан	7
▁успехом	7
▁письме	7
▁голову	7
ивают	7
▁Много	7
ало	7
Ö	7
▁провинцией	7
ключает	7
▁тайны	7
▁лев	7
▁электронн	7
ацию	7
▁статьи	7
▁поселения	7
▁Максим	7
▁армию	7
▁осенью	7
уществуют	7
▁Linux	7
евич	7
▁занять	7
▁собаки	7
каль	7
▁желез	7
звали	7
люб	7
анская	7
▁отда	7
▁Проект	7
▁сила	7
▁трениров	7
▁открывает	7
▁стиль	7
▁одежды	7
юль	7
▁архитектур	7
▁кап	7
▁литературны	7
▁Monthly	7
▁перевода	7
▁длительны	7
ителей	7
▁нашли	7
▁Климат	7
которое	7
дня	7
▁сестры	7
▁хо	7
▁отметил	7
средством	7
▁спортивно	7
категори	7
ring	7
▁убить	7
“.	7
▁свое	7
▁использования	7
▁свидетельств	7
▁секс	7
эст	7
эс	7
▁сравнительно	7
▁постановк	7
▁опера	7
▁государств	7
▁поступил	7
Ё	7
пред	7
▁собра	7
АР	7
близи	7
▁называем	7
▁Теле	7
передач	7
гранич	7
очки	7
▁мысли	7
▁Распространен	7
▁налог	7
▁триумф	7
▁музыку	7
▁сильнее	7
▁Disney	7
▁бесп	7
кажет	7
▁автомобилей	7
рама	7
▁Ти	7
▁именем	7
Гол	7
▁палат	7
▁War	7
▁Нидерланды	7
▁говорили	7
▁Эв	7
▁Ряд	7
▁конституции	7
▁необычно	7
▁привлека	7
▁вина	7
▁рассказа	7
▁народов	7
видев	7
▁легче	7
▁вошл	7
▁попросил	7
▁обознача	7
▁мудр	7
▁крупным	7
акту	7
▁Издан	7
ара	7
▁ситуацию	7
▁контроль	7
oro	7
яли	7
▁Пят	7
▁Mem	7
▁Ник	7
▁провести	7
▁традиционн	7
▁ответа	7
▁Str	7
укр	7
▁зрел	7
обби	7
▁островах	7
▁Иосиф	7
атт	7
▁Space	7
пла	7
▁обед	7
▁гостей	7
▁фамили	7
▁Богу	7
▁Тит	7
▁ресурсов	7
вое	7
▁войсками	7
▁Кореи	7
▁рака	7
▁разреш	7
▁гимн	7
▁Точн	7
▁описани	7
ческая	7
▁верхн	7
остей	7
▁гости	7
▁замок	7
личаются	7
▁деревянн	7
▁знакомы	7
▁мистер	7
▁Наибол	7
▁chr	7
▁знали	7
▁Барбар	7
сылает	7
▁посмотреть	7
▁прекращени	7
▁Войн	7
▁заверши	7
▁премия	7
▁температур	7
▁Педр	7
▁отношени	7
таж	7
▁девиз	7
президент	7
▁предприяти	7
▁соответств	7
▁улица	7
▁Канон	7
▁брос	7
▁спрашивает	7
▁рука	7
▁Великобритания	7
▁прожил	7
▁Дэн	7
▁причинам	7
арьер	7
▁возвраща	7
▁Май	7
▁назва	7
actio	7
▁Germanicae	7
▁Молод	7
▁литературе	7
▁упал	7
жды	7
▁Pre	7
▁американские	7
▁дожд	7
▁Использова	7
▁центральн	7
▁руководител	7
▁Прусси	7
▁Отлич	7
структур	7
▁набор	7
▁Now	7
▁Theoria	7
▁маленьк	7
▁постоянны	7
пан	7
индивидуальн	7
▁хотят	7
▁Николай	7
▁Love	7
▁Атлантическ	7
▁благодарность	7
▁называ	7
▁Дэ	7
▁вернулись	7
ближе	7
тинг	7
▁дизайн	7
▁разрабатыва	7
▁Information	7
▁впечатление	7
▁Кубк	7
▁сингл	7
▁Мир	7
ога	7
▁Изуча	7
▁музыкальны	7
▁дат	7
▁написано	7
mble	7
▁переведен	7
КА	7
▁налогов	7
▁диалог	7
▁проповед	7
▁наличи	7
▁подпис	7
tendo	7
▁Стефан	7
йти	7
▁Penguin	7
вард	7
ория	7
▁документов	7
апа	7
▁восточных	7
▁моё	7
▁юрист	7
▁Union	7
▁сосредоточен	7
HP	7
▁рук	7
▁Мей	7
▁Virtu	7
▁Library	7
▁воду	7
▁запрещен	7
▁старик	7
могает	7
▁фамилии	7
▁туман	7
▁отсутствие	7
анная	7
▁вос	7
▁низк	7
щий	7
▁юг	7
▁Aqua	7
▁Regia	7
менять	7
▁способом	7
летних	7
ули	7
▁руководство	7
▁Хиро	7
▁новую	7
▁Интерес	7
большая	7
▁большом	7
▁обеспечи	7
▁побережь	7
▁Йо	7
ожен	7
▁христиан	7
исса	7
▁Монте	7
▁превраща	7
▁статья	7
▁версий	7
Праздник	7
▁объяснени	7
ания	7
▁желает	7
▁роли	7
▁элементов	7
▁националист	7
▁Shi	7
▁Валери	7
▁Архи	7
тюр	7
осуда	7
▁единиц	7
▁стихов	7
▁развед	7
▁гласит	7
▁bal	7
▁Andr	7
▁Front	7
▁Людовик	7
▁некоторым	7
▁France	7
▁Descripti	7
вой	7
▁основания	7
▁Великой	7
днажды	7
▁равны	7
▁FishBase	7
▁столице	7
галь	7
▁восток	7
▁группу	7
▁Вал	7
▁свободу	7
▁Of	7
▁Carl	7
▁учёб	7
▁причина	7
▁Internationale	7
▁проводит	7
▁существовал	7
▁Юри	7
π	7
▁королевски	7
▁генерала	7
▁Бал	7
▁землетрясени	7
▁Солнечно	7
Рус	7
жный	7
Playboy	7
TV	7
▁Землю	7
▁Одно	7
▁провал	7
▁периода	7
▁учрежден	7
падение	7
▁немцев	7
одержит	7
▁королём	7
пасть	7
нист	7
▁черт	7
▁продал	7
▁атмосфер	7
▁сколь	7
▁Мисси	7
▁противоположн	7
▁защища	7
▁Mons	7
▁реакци	7
▁следы	7
media	7
бат	7
▁предприятия	7
▁приговор	7
стречается	7
MS	7
ола	7
▁Dom	7
▁жюри	7
▁подтвердил	7
одные	7
▁Истин	7
▁модул	7
▁десяти	7
лес	7
>	7
▁возраста	7
▁экспорт	7
▁Участник	7
▁Гражданск	7
запад	7
▁Охот	7
▁Преми	7
▁партию	7
▁Special	7
▁отмечают	7
▁топ	7
▁Bri	7
креп	7
▁Anglo	7
▁западно	7
▁Зеландия	7
ющаяся	7
▁этике	7
▁бренд	7
▁Arctic	7
▁поведени	7
▁семью	7
▁наруша	7
▁Син	7
monium	7
▁христиански	7
▁прохождени	7
▁запущен	7
украин	7
▁протест	7
вел	7
Fi	7
днем	7
▁Ministr	7
▁зрителей	7
▁Маг	7
▁Today	7
▁Реч	7
ингтон	7
ческую	7
▁функции	7
▁знаком	7
▁костюм	7
▁описыва	7
▁автономи	7
▁Pag	7
▁устраивает	7
▁Сталин	7
нимают	7
сона	7
▁Русски	7
▁службе	7
▁Биография	7
Jones	7
▁част	7
гай	7
▁наследия	7
▁проводи	7
▁широки	7
▁сообщения	7
▁журналист	7
vec	7
знаёт	7
▁XV	7
Би	7
▁Санкт	7
▁Eb	7
▁правительственн	7
▁Philosophia	7
▁понять	7
био	7
▁покинут	7
▁\	7
▁маршрут	7
▁Белл	7
▁достига	7
▁Кру	7
▁использовали	7
▁текста	7
▁коллеги	7
▁ближайши	7
▁сама	7
▁SA	7
ambi	7
▁традиционны	7
▁гражданско	7
▁математическо	7
▁Stan	7
▁Nar	7
aka	7
▁пик	7
▁Mil	7
кому	7
▁спортсмен	7
▁Роз	7
▁футбольн	7
▁описан	7
▁республики	7
▁продолжали	7
▁generali	7
▁Aut	7
видимо	7
▁неудач	7
ku	7
DE	7
▁Бол	7
Temp	7
▁мнения	7
▁Дэвис	7
▁одежду	7
▁популярны	7
▁Кост	7
▁автомобиль	7
▁вооружённы	7
▁дебют	7
▁положительны	7
▁кг	7
▁собирать	7
▁отправить	7
несен	7
▁встретил	7
читал	7
▁вернуть	7
чий	7
▁императором	7
hol	7
казатель	7
▁Academic	7
скими	7
▁Артур	7
▁нападения	7
▁монах	7
свящён	7
встреч	7
▁Лун	7
▁произошл	7
▁свободное	7
▁немало	7
▁Garden	7
▁Почтов	7
▁Mill	7
▁земли	7
полис	7
▁уровне	7
▁pol	7
ique	7
▁состояния	7
▁труп	7
▁Флоренци	7
герцог	7
▁Акт	7
▁Arg	7
bon	7
▁Leg	7
▁двор	7
тической	7
▁Quadr	7
▁новом	7
▁Boston	7
анской	7
▁Ян	7
PR	7
▁Ford	7
▁Collegium	7
▁Fat	7
GE	7
daf	7
iformes	7
aceae	7
▁основн	7
▁подводн	7
chen	7
▁Harry	7
cast	7
▁Ke	7
rt	7
ß	7
▁Professor	7
▁вражеск	7
▁Samuel	7
▁Лар	7
▁Frank	7
▁Minister	7
▁Ko	7
▁albi	7
▁главе	7
▁Pap	7
▁сезонов	7
▁antiqui	7
bert	7
erson	7
▁Sha	7
▁Fr	7
▁добро	7
▁Zi	7
▁King	7
▁скот	7
▁Jesu	7
▁Poli	7
▁Константинополь	7
▁African	7
▁Nave	7
▁pl	7
▁Tri	7
▁Galli	7
▁Communi	7
▁Data	7
▁{	7
▁libell	7
▁традиция	7
▁Pen	7
▁Plu	7
TE	7
▁hereditat	7
▁Hill	7
▁местах	7
off	7
▁reformat	7
▁Laurenti	7
▁мыс	7
▁Tar	7
▁Mont	7
▁деятель	7
▁dir	7
ob	7
mont	7
his	7
car	7
▁Natura	7
Ultim	7
▁Ger	7
▁Imp	7
▁von	7
don	7
dium	7
▁Franklin	7
▁Macmillan	7
ursa	7
▁equit	7
▁Alba	7
ntis	7
televis	7
▁Iudaic	7
illi	7
▁recte	7
▁spera	7
▁putantur	7
?'	7
▁profer	7
▁Asiae	7
▁Aev	7
▁calendarium	7
▁habes	7
▁geographica	7
▁Americanae	7
▁Septembrem	7
▁Armenia	7
strata	7
▁infantem	7
▁clade	7
▁captiv	7
▁veste	7
▁philosoph	7
▁Rebell	7
iustitia	7
ilius	7
Quid	7
vos	7
▁interretiali	7
▁acceptum	7
▁Aetat	7
simi	7
▁Mercuri	7
bdicavit	7
▁Zelandiae	7
▁divis	7
▁politicae	7
▁Britanni	7
▁indaga	7
▁memoriae	7
avis	7
▁eliger	7
▁custodia	7
▁historic	7
▁carmen	7
▁servitutem	7
▁convenit	7
▁ludo	7
▁seriem	7
▁voluntaria	7
▁Anglici	7
▁fide	7
▁vico	7
▁Par	7
▁damna	7
▁nato	7
▁educationem	7
▁quaeris	7
ssimo	7
▁iuvenis	7
▁suprem	7
▁inf	7
▁luc	7
▁Computatr	7
numerantur	7
▁experimentum	7
▁mentis	7
▁indu	7
▁durat	7
▁reipublicae	7
▁veniunt	7
▁inaugurat	7
▁solvend	7
▁occulta	7
▁dubio	7
▁saecula	7
▁scaenic	7
Russice	7
▁adiit	7
▁sociales	7
▁cursum	7
▁gre	7
▁inscriptione	7
▁musicum	7
▁Museo	7
▁horas	7
▁seditione	7
▁Certe	7
▁excogitat	7
gitur	7
▁instituti	7
▁proximo	7
tini	7
▁expuls	7
▁episodi	7
▁scit	7
▁occasione	7
▁repraesentant	7
nense	7
▁patrici	7
▁domibus	7
▁Africam	7
▁flores	7
▁celebra	7
▁parlamentari	7
▁scripto	7
▁mutare	7
▁stella	7
▁reddit	7
cris	7
▁Orienti	7
▁mala	7
▁victor	7
▁originali	7
▁oeconomic	7
▁diversae	7
▁Romania	7
▁Aedifici	7
iga	7
▁chirurgia	7
▁Anglicam	7
▁intro	7
▁pauper	7
▁consecuta	7
▁supplici	7
▁Forma	7
▁method	7
▁significa	7
▁cupi	7
▁praes	7
liga	7
osum	7
▁Schola	7
▁varie	7
▁Calendari	7
▁periodici	7
▁habitus	7
cordi	7
▁dormit	7
▁Gramma	7
▁captivi	7
estate	7
▁ineunte	7
▁Romanorum	7
▁moderni	7
▁politici	7
▁philosophiae	7
▁legitur	7
▁natio	7
▁eventa	7
▁amici	7
▁Oc	7
▁capere	7
feri	7
▁parvi	7
▁gubernationem	7
▁territorii	7
▁nullo	7
▁tele	7
▁aequali	7
▁sororem	7
▁Quattuor	7
▁dubi	7
▁programmatis	7
▁successu	7
▁luce	7
▁stude	7
▁posteriore	7
▁amorem	7
▁Gad	7
▁Gab	7
ophoni	7
▁decennium	7
etti	7
▁Proxima	7
▁appellatus	7
▁architecturae	7
▁Membr	7
▁equestr	7
▁creatum	7
▁emere	7
▁Eurovision	7
evolutionis	7
▁micro	7
▁gradu	7
▁diurnis	7
▁collegi	7
▁censura	7
▁Neapoli	7
▁actione	7
▁Discipul	7
▁hebdomades	7
▁bestia	7
dua	7
▁tantummodo	7
▁versione	7
del	7
▁Para	7
▁quoniam	7
▁Britannico	7
ingens	7
▁classem	7
▁fratre	7
concili	7
▁censor	7
terna	7
uae	7
▁Cuvait	7
▁superat	7
erius	7
▁Ips	7
▁debuit	7
▁victima	7
▁dimidi	7
▁nobiles	7
posuerunt	7
▁divulgatus	7
▁dictaturam	7
▁defini	7
▁Havai	7
▁Protestant	7
scriptio	7
▁semi	7
▁definitio	7
ntiam	7
▁possidet	7
▁creare	7
▁somn	7
▁decret	7
▁Praesidi	7
▁pan	7
▁probat	7
▁habitavit	7
▁psychologia	7
▁appellari	7
▁electronica	7
▁vacan	7
▁Exempl	7
▁Peruvia	7
▁differe	7
▁integr	7
ricis	7
▁coniuncti	7
▁Ocean	7
▁Ceter	7
essa	7
▁molest	7
▁novimus	7
▁Versio	7
▁Scipio	7
▁Caesare	7
▁Magni	7
▁marina	7
orium	7
lassi	7
torium	7
▁ceteri	7
▁specierum	7
▁nuntiat	7
simili	7
▁antiqu	7
▁creditur	7
▁Iosephus	7
▁hiem	7
▁domina	7
▁hos	7
▁argumentum	7
▁vestiment	7
▁sole	7
▁Angliam	7
▁explana	7
ologica	7
ordo	7
▁Dicitur	7
▁notio	7
▁exitu	7
▁Andrea	7
▁Ordine	7
▁vidit	7
▁Erfordiae	7
▁Constantius	7
▁Argentina	7
▁locis	7
fecit	7
▁secu	7
▁singul	7
▁confid	7
▁variae	7
burgi	7
mutationes	7
▁Ars	7
▁revolutione	7
▁sexu	7
▁visitant	7
▁fundat	7
▁Femina	7
▁decer	7
▁numerat	7
▁error	7
▁habitabat	7
▁Iaponiam	7
▁librorum	7
▁aetatis	7
avisse	7
▁Convent	7
▁complur	7
▁Consociationi	7
▁declaraverunt	7
▁Graeci	7
▁Londinium	7
▁Minore	7
▁ponder	7
▁intravit	7
▁servatur	7
▁magistro	7
▁petrolei	7
▁educat	7
signavit	7
▁climat	7
ibiles	7
▁litterae	7
▁potentia	7
▁Londini	7
ades	7
▁Incol	7
▁nescitur	7
▁coniunctio	7
part	7
▁mente	7
▁maximae	7
▁Matri	7
Iaponice	7
ivus	7
▁vige	7
▁Foed	7
▁merces	7
▁Aequ	7
▁Periege	7
▁plurima	7
lorum	7
▁syn	7
▁optima	7
▁producit	7
▁diversa	7
▁visus	7
▁festu	7
▁amicis	7
▁Mahomet	7
▁alium	7
▁dextra	7
▁feminis	7
giae	7
ologus	7
alae	7
▁auct	7
▁nigra	7
stellam	7
▁massae	7
▁consist	7
▁motum	7
▁pleri	7
▁appellatum	7
▁indicia	7
▁Lit	7
▁Orientali	7
endae	7
▁opinioni	7
▁Christianos	7
▁octav	7
▁Observatori	7
▁inclusa	7
▁deserta	7
▁imita	7
▁Bengalica	7
▁Hindustanica	7
▁argumenti	7
▁oriente	7
▁Soli	7
▁Portus	7
▁occidente	7
▁litteraria	7
▁dierum	7
▁Olympici	7
▁excogitavit	7
▁educatione	7
▁Op	7
rationis	7
▁dant	7
AUT	7
▁ordin	7
etta	7
▁oppugna	7
▁revocat	7
▁miles	7
▁dua	7
ducit	7
▁Indici	7
▁furor	7
▁interrogat	7
▁honor	7
▁Decem	7
ūs	7
iaci	7
▁Romano	7
▁amoris	7
▁citat	7
gae	7
▁distincta	7
▁virtut	7
▁crea	7
An	7
▁horologi	7
▁Fac	7
▁congressu	7
▁Hui	7
▁divisi	7
▁exspect	7
▁Mexici	7
ulo	7
▁Georgius	7
▁Artium	7
▁instrument	7
▁saeculi	7
▁obscura	7
▁interretiale	7
▁Novembre	7
▁peregrin	7
▁publicum	7
▁elect	7
▁missi	7
▁Ak	7
toris	7
▁discipulos	7
▁muliere	7
▁Massachusettae	7
▁pactione	7
▁enarrat	7
▁Septem	7
▁Britannici	7
▁secretari	7
▁lunae	7
▁feminas	7
▁Iustin	7
▁declara	7
▁Idem	7
▁quaestione	7
merci	7
▁fundamenta	7
▁Antiqui	7
▁patet	7
▁Belgica	7
▁meridie	7
unitatibus	7
▁visitat	7
idarum	7
▁poesis	7
ntibus	7
▁proprias	7
▁Christophor	7
▁meridiana	7
▁habitationi	7
▁studiis	7
▁typ	7
▁amore	7
▁conatur	7
▁secundus	7
hac	7
▁indicem	7
▁product	7
▁Sina	7
▁mari	7
▁cult	7
▁sociali	7
▁eae	7
▁vesper	7
iens	7
▁circulo	7
▁exemplari	7
▁problemata	7
tissimus	7
▁ducere	7
▁fungitur	7
▁audit	7
▁Indice	7
▁structura	7
▁propi	7
▁ignoto	7
mali	7
▁Euron	7
▁dimissus	7
▁Polonic	7
litatem	7
▁oritur	7
▁pat	7
▁logica	7
▁Pinacotheca	7
▁innotuit	7
tatis	7
Confoederationis	7
▁attribut	7
▁Planta	7
▁politicus	7
▁centr	7
▁portum	7
▁рассказы	6
▁арабск	6
араб	6
▁Иб	6
лялся	6
▁языками	6
▁послани	6
▁Вам	6
tive	6
▁дво	6
▁Адам	6
Что	6
▁Оригинальн	6
▁написаны	6
▁выража	6
идет	6
▁какого	6
одстве	6
▁продолжать	6
▁календарь	6
▁опасность	6
▁Раст	6
▁Республикан	6
▁поставлен	6
▁Bod	6
▁Viking	6
инья	6
▁учёт	6
▁хвата	6
▁Нептуна	6
▁случи	6
▁Армении	6
▁предполага	6
▁заявление	6
▁комиссии	6
незапно	6
▁услыша	6
▁шотландски	6
▁Mes	6
▁Хорватии	6
▁движения	6
▁алгоритм	6
▁отдельно	6
▁Вануату	6
▁искал	6
▁строительств	6
НО	6
СТ	6
▁Например	6
ледовательно	6
▁повыш	6
▁ВВ	6
▁самолёт	6
▁фильмах	6
▁наблюдение	6
трое	6
ича	6
▁собственном	6
▁путешествие	6
▁обеспечени	6
водят	6
▁умереть	6
▁мальчик	6
▁европейски	6
▁австралийск	6
▁Рождеств	6
▁Фонд	6
уэрто	6
▁предани	6
▁номера	6
▁понимал	6
▁Парламент	6
▁действу	6
спорт	6
Это	6
▁находят	6
▁общий	6
▁явление	6
▁прорыв	6
боро	6
▁разве	6
▁происходило	6
▁|	6
▁кажды	6
▁визит	6
ставил	6
▁могу	6
▁Хью	6
arth	6
▁Дел	6
▁Предполага	6
▁Казалось	6
чести	6
▁парка	6
▁Der	6
▁сбежал	6
▁окна	6
▁надежд	6
▁данном	6
▁неп	6
▁Terenti	6
▁везде	6
▁очевидно	6
животное	6
ступать	6
▁Команд	6
▁мяч	6
▁Сара	6
▁веществ	6
дент	6
стройка	6
▁полном	6
▁метро	6
▁Mos	6
▁поднима	6
▁укра	6
▁Appleton	6
▁светл	6
▁связыва	6
▁телевизионн	6
▁объяснить	6
зелёны	6
▁греческо	6
▁споры	6
▁Получ	6
▁зависел	6
▁нужна	6
▁существуют	6
▁культур	6
▁классов	6
▁получать	6
▁поддержке	6
▁республикан	6
▁восстания	6
▁заключен	6
▁Всемирны	6
оро	6
▁результатов	6
▁верят	6
▁версию	6
▁находящи	6
▁грани	6
▁поздно	6
▁произведение	6
▁сцене	6
▁сна	6
ений	6
▁рыб	6
Движение	6
усу	6
▁требова	6
▁созна	6
▁намерева	6
▁человеку	6
▁законо	6
проект	6
▁семейн	6
▁разреша	6
▁законодательно	6
▁планете	6
▁старого	6
ительное	6
▁редактор	6
▁международно	6
▁деревья	6
прода	6
▁преступлений	6
▁совершен	6
имость	6
▁звезд	6
▁реш	6
могут	6
▁сообщества	6
▁голосов	6
▁участвова	6
щего	6
uff	6
▁Народ	6
▁внимания	6
▁Услов	6
▁выполнени	6
▁получив	6
Письма	6
den	6
▁Johnson	6
▁карты	6
▁кооператив	6
есса	6
▁ресурсы	6
▁обсужда	6
▁порядок	6
▁Работы	6
▁Хорошо	6
▁писателей	6
▁попробова	6
▁глава	6
▁Bank	6
▁австралийски	6
▁Румыния	6
▁Зим	6
▁полон	6
▁водо	6
▁показать	6
▁Константина	6
▁церемони	6
▁Ташкент	6
▁наоборот	6
▁мечта	6
▁увидеть	6
казать	6
▁проявля	6
масштаб	6
▁Двор	6
▁вторжени	6
▁счастливы	6
▁думают	6
▁зданий	6
вела	6
TO	6
US	6
еожиданно	6
▁Silva	6
▁сомнени	6
ibo	6
▁скажет	6
связ	6
▁Появи	6
собенно	6
▁запись	6
RA	6
▁северно	6
▁чум	6
▁Старо	6
▁выполнил	6
▁Вашингтон	6
“»	6
▁Дей	6
▁Аре	6
▁помнит	6
▁распущен	6
▁службы	6
▁блок	6
▁музыка	6
▁критики	6
▁Итальянско	6
▁сердце	6
▁Дет	6
▁лежит	6
▁потерпел	6
▁сохранени	6
льной	6
▁карьере	6
▁описывает	6
▁Путин	6
▁двигать	6
▁исследование	6
▁пояса	6
▁вопроса	6
▁планетой	6
▁корон	6
▁идей	6
ствует	6
▁выйти	6
▁явлени	6
▁косм	6
▁полагают	6
▁грамот	6
▁лож	6
▁управля	6
▁директор	6
▁Карлос	6
Мексика	6
▁мексикански	6
▁вещей	6
аче	6
▁моего	6
▁подтвержден	6
▁гриппа	6
▁заключил	6
▁Стал	6
▁врача	6
оценк	6
▁партнёр	6
▁волки	6
▁движени	6
▁ноябрь	6
▁предположение	6
▁обладают	6
одель	6
▁упор	6
▁посл	6
▁замен	6
▁автобус	6
▁социальной	6
▁домашне	6
▁кандидатов	6
▁Венер	6
▁шведск	6
▁автоматически	6
обла	6
умерла	6
▁крик	6
▁индейцев	6
▁Holt	6
▁последней	6
▁введён	6
▁алфавит	6
pson	6
SDA	6
▁робот	6
ment	6
▁любом	6
▁Лич	6
▁медицине	6
▁архитектурны	6
▁ниже	6
▁дан	6
▁оркестр	6
наружи	6
ís	6
▁изд	6
▁участву	6
▁промышленности	6
▁Важн	6
▁жива	6
ology	6
▁долги	6
▁страж	6
▁завис	6
dra	6
▁защитил	6
▁владел	6
▁территорию	6
▁поселен	6
гут	6
ich	6
▁Штатов	6
▁дискуссии	6
▁живот	6
▁Пик	6
ческое	6
Действие	6
четвер	6
▁сказано	6
▁признание	6
гель	6
▁звер	6
▁платы	6
▁радиостанци	6
▁напротив	6
▁достижения	6
▁скорость	6
▁Третий	6
▁лето	6
▁связанны	6
▁недостатк	6
▁Обам	6
делу	6
▁подо	6
Equ	6
▁Гамбург	6
▁прерва	6
▁привлеч	6
▁речи	6
Cha	6
▁инженери	6
▁перс	6
цвет	6
▁объектов	6
▁тропически	6
▁требования	6
▁выполнить	6
▁Гондурас	6
▁Расположен	6
▁подростк	6
▁японского	6
Old	6
▁оперы	6
▁англичан	6
▁женщиной	6
бором	6
▁высоким	6
▁календар	6
▁императриц	6
▁Класс	6
▁противопоставля	6
▁разработк	6
▁обеспечения	6
▁Выбор	6
▁члена	6
РО	6
▁совершил	6
▁учебны	6
▁Congregatio	6
Institutione	6
▁Существ	6
▁судьба	6
▁связь	6
▁Кот	6
рим	6
▁европейско	6
▁проводил	6
▁писем	6
сполняет	6
▁Ливан	6
gin	6
▁закончил	6
ложить	6
▁величин	6
оваться	6
рист	6
▁бельгийск	6
▁Кош	6
▁Guard	6
▁Две	6
▁Твер	6
▁поэм	6
▁участник	6
▁психологи	6
знание	6
▁замет	6
▁скр	6
▁человеком	6
▁деревни	6
▁решительн	6
▁деревн	6
▁слаб	6
▁телевизионны	6
▁коров	6
подлинно	6
▁опасности	6
цел	6
▁рок	6
ённом	6
▁безд	6
перт	6
кас	6
▁сегодняшний	6
▁Mé	6
енок	6
▁опять	6
▁сумасшедши	6
▁последующе	6
▁пациент	6
▁Москва	6
▁Magazine	6
ugg	6
▁Греци	6
▁принадлежат	6
▁запланирован	6
butterfly	6
house	6
▁счастью	6
▁разум	6
▁эпох	6
▁Против	6
▁пассажир	6
▁выполнять	6
▁борту	6
▁развито	6
▁слабо	6
Ви	6
▁избрал	6
▁супер	6
работ	6
▁матчах	6
▁старым	6
▁Бат	6
щения	6
ольд	6
иф	6
▁министерство	6
▁North	6
▁духов	6
▁тысячелети	6
▁модификаци	6
▁промежутк	6
▁Брюссель	6
печатан	6
ключ	6
▁шагов	6
▁взаимодействи	6
▁команде	6
▁Облада	6
▁последствий	6
▁Ближ	6
▁сборную	6
▁сочл	6
▁хватает	6
▁Имел	6
▁Генри	6
кладыва	6
игр	6
▁июне	6
▁чисто	6
▁учеников	6
▁никаки	6
▁боро	6
ядерны	6
▁третьего	6
▁договора	6
▁Святого	6
▁побед	6
рабатыва	6
▁яд	6
▁Капитан	6
▁родно	6
▁австрийск	6
▁машину	6
МО	6
КВ	6
▁передан	6
▁индийск	6
▁представлена	6
▁очка	6
льность	6
нной	6
рук	6
▁Советски	6
CA	6
▁Рен	6
▁Latinae	6
▁Italicae	6
▁Hungaricae	6
ково	6
▁тай	6
▁хорошим	6
▁парижск	6
▁Rap	6
▁Sons	6
вский	6
▁выделя	6
Blood	6
▁нагрузк	6
▁первичн	6
▁Цезарь	6
▁социалистическ	6
ctionibus	6
▁Сборн	6
▁Тар	6
▁снаружи	6
▁комитет	6
▁Day	6
▁посёлок	6
▁бои	6
▁значительным	6
кого	6
▁Развит	6
бен	6
▁турнир	6
▁Соединённы	6
▁получило	6
▁камер	6
▁спорит	6
▁началу	6
▁руководством	6
лево	6
летне	6
▁Принц	6
▁обычны	6
▁System	6
▁последующи	6
▁общем	6
▁пресс	6
куплен	6
▁основыва	6
▁Pontific	6
нсен	6
▁Свято	6
▁Одна	6
▁признаёт	6
▁Зам	6
вып	6
▁исчезновени	6
▁фанат	6
▁любимы	6
▁дверь	6
▁дух	6
▁дяд	6
▁Лоу	6
▁Отч	6
▁архив	6
▁дают	6
▁норвежск	6
▁портал	6
ik	6
гнут	6
llen	6
▁превыша	6
▁комисси	6
Cato	6
акция	6
▁расту	6
▁зрителям	6
▁весёл	6
▁Кант	6
▁правительстве	6
адмирал	6
▁станции	6
tha	6
брать	6
▁избега	6
▁русского	6
▁завет	6
▁необходим	6
▁обратить	6
емена	6
▁радость	6
ô	6
▁выполнение	6
ериал	6
▁пить	6
▁час	6
▁документа	6
штурм	6
▁пошл	6
▁верны	6
▁столицы	6
▁магистра	6
▁режиссёр	6
<	6
▁отряд	6
▁здоровья	6
▁целиком	6
▁страну	6
▁уменьшен	6
▁Вест	6
uka	6
европейских	6
▁десятк	6
▁ранены	6
станет	6
▁действительност	6
шко	6
▁Mend	6
падения	6
▁математике	6
▁своеобразн	6
лизе	6
Последн	6
▁картина	6
▁Ter	6
▁ген	6
▁поддерживает	6
▁мужчины	6
▁королев	6
▁Sunday	6
нид	6
▁духа	6
родным	6
Вы	6
▁террорист	6
▁разруши	6
▁Кристиан	6
▁галактик	6
▁должности	6
АТ	6
▁препарат	6
▁квадратн	6
▁видеть	6
▁случаях	6
IC	6
▁максимально	6
▁миним	6
▁пропаганд	6
▁Little	6
▁XI	6
▁оккупирова	6
▁мемориал	6
СР	6
уется	6
▁собственное	6
▁Считается	6
ческом	6
▁composition	6
истое	6
▁растение	6
ехать	6
▁сформирован	6
▁двенадцать	6
▁конфликта	6
▁свидетел	6
▁мастерск	6
▁ISBN	6
▁+	6
▁Марио	6
▁хиндустани	6
▁числ	6
ительным	6
▁закончи	6
▁perpetua	6
▁Вильгельм	6
▁Democratic	6
▁ситуация	6
▁принц	6
▁плавани	6
ствия	6
▁предшественник	6
▁организаций	6
▁источники	6
▁исполнил	6
▁Швейцарии	6
▁History	6
▁part	6
▁Gene	6
▁водител	6
▁знаем	6
▁клиент	6
▁Петра	6
▁технически	6
▁поля	6
▁автобиографи	6
▁информацию	6
пеш	6
▁Australian	6
▁площадк	6
▁актёров	6
▁воли	6
▁Центрально	6
СА	6
▁Мадрид	6
мическая	6
▁волост	6
▁населённы	6
▁достойно	6
▁клин	6
▁цели	6
▁групп	6
fami	6
▁выполня	6
▁ваш	6
▁волосы	6
▁невозможно	6
jo	6
▁наград	6
голов	6
▁изотоп	6
зависимости	6
▁Крит	6
ником	6
▁диплом	6
▁поражения	6
▁расстояние	6
дован	6
▁колониально	6
▁свойства	6
▁пригласил	6
▁последовател	6
труктура	6
▁протестант	6
▁съе	6
▁clarissim	6
ң	6
Corpus	6
▁scriptorum	6
ходов	6
▁русский	6
▁качества	6
▁слез	6
▁Роль	6
▁песен	6
▁Gen	6
▁крыш	6
▁фильму	6
▁угол	6
▁Corporation	6
▁Ким	6
▁Джона	6
▁semina	6
▁карьеры	6
давали	6
▁забыли	6
▁Сицилии	6
rion	6
НК	6
▁Пётр	6
▁загадк	6
▁частн	6
▁пра	6
▁Ант	6
▁убеди	6
класс	6
альных	6
▁способен	6
анского	6
тонн	6
нти	6
физики	6
▁Иуд	6
▁выступление	6
▁торжественно	6
▁команду	6
▁лета	6
▁типичн	6
▁губернатор	6
▁High	6
▁настоящи	6
▁Тир	6
▁Сирии	6
▁требованиям	6
чку	6
▁fidel	6
бъём	6
▁Церкви	6
▁Казахстан	6
▁культурно	6
▁режиссёром	6
▁холод	6
лена	6
▁составлен	6
▁требовали	6
▁производ	6
▁Manu	6
▁Snow	6
▁Сол	6
▁вооружённ	6
▁полицейск	6
▁Риг	6
▁Соломоновы	6
▁героев	6
▁драма	6
▁Flore	6
овесть	6
стоян	6
дата	6
▁отрицательн	6
▁восстановлени	6
▁Куз	6
▁борьбу	6
▁Острова	6
▁школах	6
▁законов	6
▁Миха	6
▁роста	6
бал	6
ающее	6
▁включил	6
жан	6
▁организаци	6
▁Club	6
gramma	6
▁градусов	6
▁оборот	6
▁SS	6
▁учился	6
▁Мухаммед	6
▁королевства	6
▁ночи	6
▁Patrici	6
▁полёт	6
▁Ord	6
▁оригинальны	6
щихся	6
zy	6
▁глубок	6
нса	6
▁соединя	6
▁путешестви	6
тики	6
▁Кай	6
▁сцен	6
▁международны	6
▁беж	6
▁преступно	6
▁потребности	6
Вера	6
торая	6
uga	6
▁боли	6
▁природа	6
торых	6
▁окрестност	6
▁улиц	6
▁автомобили	6
▁которыми	6
▁Медиа	6
▁президентски	6
ология	6
▁Статья	6
▁личности	6
▁Game	6
▁скрывает	6
маль	6
▁поняти	6
▁исчезает	6
етта	6
▁училище	6
▁чувство	6
▁Поп	6
▁подобных	6
образ	6
▁детства	6
▁Saxo	6
▁знания	6
▁неизбежно	6
▁говоря	6
▁Night	6
▁Диа	6
▁представляют	6
onald	6
▁местом	6
▁консулом	6
▁Канада	6
▁Naz	6
▁derogat	6
▁южны	6
▁Instrument	6
▁цифров	6
▁исповед	6
▁практика	6
▁распространил	6
Ц	6
▁включен	6
▁Взя	6
▁появлени	6
дных	6
▁имели	6
▁Daniel	6
▁задачи	6
анные	6
▁Тер	6
▁общин	6
идел	6
▁каталог	6
▁проведения	6
PE	6
ирование	6
▁трудом	6
▁ГДР	6
▁игру	6
▁Христо	6
трон	6
вых	6
местной	6
▁объясняет	6
▁Comic	6
елло	6
▁хозяев	6
▁тираж	6
▁Wolf	6
▁Castro	6
▁Kant	6
▁тес	6
▁агрессив	6
▁Священн	6
▁певец	6
▁Италию	6
▁Иоанн	6
▁fore	6
▁Char	6
▁Образован	6
▁обеспечива	6
▁обряд	6
▁характеристик	6
много	6
▁проповедь	6
▁сопровождал	6
▁атаки	6
зир	6
▁скульптур	6
▁рынок	6
nidae	6
▁Williams	6
енский	6
▁Ranking	6
тремя	6
▁восточны	6
▁Ly	6
▁Odysse	6
изатор	6
следую	6
▁медиа	6
▁Tot	6
ателей	6
▁неудачно	6
▁ISO	6
▁реальность	6
▁Botanic	6
▁финск	6
▁Брэ	6
TAN	6
▁разочаровани	6
▁Квинт	6
ший	6
▁ново	6
стоять	6
▁заведения	6
▁сос	6
▁недостаточно	6
▁Международно	6
▁уж	6
▁мелки	6
▁Центральн	6
gener	6
▁усили	6
typ	6
▁стены	6
▁проверк	6
▁сложно	6
▁отношений	6
ведения	6
▁nimi	6
▁Польши	6
▁могло	6
▁реки	6
▁мероприятия	6
▁Юлий	6
▁источниках	6
▁Черн	6
oides	6
▁Trum	6
▁Show	6
▁полёта	6
танция	6
▁дву	6
▁Dream	6
▁атомн	6
офицер	6
pala	6
▁Telef	6
▁улучшения	6
хер	6
▁Sto	6
▁Republic	6
цизм	6
▁организм	6
тры	6
▁Ген	6
▁Sala	6
освящен	6
▁подобн	6
▁Taylor	6
▁Stud	6
▁справ	6
▁пала	6
▁Гус	6
▁Tw	6
еста	6
▁экономике	6
▁полиции	6
▁Внутренн	6
▁прочи	6
существования	6
▁mal	6
▁компьютерн	6
▁способствовал	6
кли	6
грамм	6
ФИ	6
действовал	6
▁братом	6
▁Auto	6
▁Var	6
▁Sid	6
▁BMW	6
▁place	6
▁Gallery	6
upe	6
dul	6
▁Philosoph	6
▁River	6
▁операции	6
▁Honori	6
▁Od	6
▁Harp	6
дано	6
ón	6
▁Capr	6
▁XXVII	6
▁конкурс	6
▁крупные	6
air	6
rensis	6
nig	6
▁Tom	6
▁глубоко	6
get	6
▁Ich	6
▁Ren	6
ilii	6
▁Persona	6
ulen	6
▁Theodor	6
Capital	6
▁Luca	6
▁Vedanta	6
▁Regina	6
ville	6
▁стоял	6
itani	6
HT	6
▁Hungarica	6
▁Esperantic	6
▁Поми	6
▁Black	6
▁река	6
consul	6
▁Russ	6
▁Principi	6
▁amor	6
ulis	6
▁Modern	6
kar	6
▁Jo	6
▁Meta	6
▁Suetonius	6
▁Norris	6
Critic	6
▁tot	6
▁Christ	6
▁Fu	6
cli	6
plex	6
▁Gri	6
llo	6
yan	6
▁hostes	6
iecit	6
▁senti	6
▁scriptae	6
discretiva	6
▁vitupera	6
▁Revolution	6
▁quantum	6
▁infans	6
▁opinione	6
▁meam	6
▁exstat	6
▁permitt	6
▁lectore	6
▁Conf	6
icitur	6
▁oras	6
▁oblivi	6
▁muro	6
▁introducta	6
civis	6
▁permulti	6
▁mundiale	6
▁proteger	6
speciebus	6
vium	6
▁Bern	6
cepit	6
▁attinet	6
▁satellite	6
▁capti	6
▁argumento	6
▁appellat	6
▁hodierni	6
umina	6
▁aliquis	6
▁fora	6
▁potio	6
▁exclus	6
▁Exemplum	6
▁Magnum	6
▁vendidit	6
▁Ort	6
▁desin	6
▁Septembri	6
▁restaurat	6
▁Iaponica	6
▁Studia	6
vocant	6
▁petit	6
▁continente	6
▁explorator	6
Administratio	6
parati	6
Dollari	6
▁nave	6
divi	6
▁gubernator	6
ponte	6
▁armat	6
▁fides	6
▁parit	6
▁sexus	6
▁prec	6
Salve	6
▁Theodisca	6
▁null	6
▁consensu	6
▁Amba	6
▁efficit	6
▁obscur	6
▁veniam	6
▁edict	6
▁propheta	6
▁reserva	6
▁caec	6
epit	6
paucis	6
▁normali	6
rio	6
▁scitur	6
▁Obama	6
▁instituit	6
▁chiliometro	6
▁boni	6
ensum	6
▁Divi	6
▁divina	6
▁Argument	6
gnoscuntur	6
▁Igitur	6
▁receperunt	6
▁moderator	6
▁adiuva	6
▁dulce	6
ites	6
▁puncto	6
▁solutu	6
▁Christus	6
▁radiophon	6
▁expecta	6
▁infanti	6
▁Necess	6
▁originis	6
▁accept	6
▁magica	6
▁dividuntur	6
▁iustitiae	6
osis	6
▁coniunctione	6
▁absolut	6
▁consultus	6
▁omne	6
▁praeceptum	6
▁argumenta	6
▁designatio	6
▁solebat	6
▁scire	6
sequi	6
▁stellae	6
▁mir	6
▁cibo	6
licta	6
▁crimini	6
▁Communitate	6
▁tumultu	6
▁Scholae	6
orio	6
▁distan	6
▁interdict	6
▁stimul	6
▁punct	6
▁commuta	6
▁maioris	6
]	6
▁Ioseph	6
▁Bella	6
▁Zona	6
earum	6
▁vectigal	6
▁fel	6
legere	6
▁Hav	6
utumno	6
▁iunior	6
▁altissim	6
▁permuta	6
▁Tibi	6
▁significatione	6
▁Gregorian	6
▁missus	6
Sclavon	6
▁Virginiae	6
▁Pliniu	6
▁eff	6
▁Algeri	6
▁Marco	6
sentiunt	6
▁Flavia	6
▁Russicum	6
▁Ov	6
tudinem	6
▁affecti	6
▁astronomi	6
▁tertio	6
▁mili	6
▁Resolutione	6
▁invasione	6
▁Pueri	6
▁principes	6
▁prohibit	6
▁tale	6
▁formata	6
▁millimetra	6
Urbis	6
▁meridionalis	6
▁Nau	6
▁repper	6
▁mutatur	6
iores	6
▁aggress	6
▁putat	6
▁test	6
▁unionis	6
▁ortus	6
▁Chiliae	6
▁Tant	6
▁stadi	6
▁quinquaginta	6
▁intellectu	6
▁Magistr	6
▁refect	6
▁Pedilusori	6
gressi	6
▁deae	6
▁parlamentaria	6
▁poterat	6
▁event	6
▁Turcia	6
▁Imagine	6
▁relinquer	6
locutio	6
▁Gerard	6
▁cellular	6
▁systemat	6
▁Fru	6
▁accesserunt	6
▁Ratio	6
▁reduc	6
▁paginarum	6
▁loci	6
▁libe	6
▁respondere	6
▁villa	6
▁fundata	6
▁infantes	6
▁theologi	6
▁Valentiae	6
▁fluvi	6
signaverunt	6
▁consola	6
▁secur	6
▁Coloniae	6
▁Mythistoria	6
▁Soror	6
cipere	6
▁centena	6
▁facienda	6
▁dicata	6
▁adulteri	6
▁familiari	6
▁Pop	6
▁magnitudinis	6
▁vestimenta	6
▁Pagi	6
▁architectura	6
▁considera	6
▁subspecies	6
▁Has	6
▁aliorum	6
▁Nigeria	6
▁Francisci	6
▁Christianis	6
▁gubernatio	6
▁commutat	6
▁Anglico	6
▁Margarita	6
latus	6
▁cetera	6
▁magistrum	6
olenses	6
▁periti	6
▁programmatur	6
▁Petropolitana	6
▁commerciale	6
▁reperitur	6
▁URSS	6
▁subscript	6
▁locata	6
▁nepo	6
▁praeterea	6
▁curia	6
▁proclamavit	6
▁qualitate	6
▁triumph	6
▁astronomica	6
▁Tota	6
▁cladem	6
▁removit	6
runt	6
inum	6
▁Meridionale	6
▁metu	6
▁repugna	6
▁Oeconomia	6
▁Imag	6
▁themat	6
▁Inveni	6
▁processus	6
▁Scotia	6
▁cellula	6
▁marit	6
▁habitabant	6
editionis	6
▁soni	6
▁Singul	6
▁quantitate	6
▁designata	6
ilis	6
▁Nazista	6
▁Luxemburgi	6
▁Septembre	6
varia	6
▁picturae	6
▁facultat	6
▁Rect	6
▁Flavi	6
▁litora	6
▁Libya	6
▁programmata	6
▁cotidie	6
▁Jackson	6
colo	6
▁advenerunt	6
antia	6
▁apta	6
▁Oeconomica	6
▁terrestre	6
▁detecta	6
▁Rhod	6
aetas	6
▁Senatus	6
▁camera	6
▁lapide	6
▁Kel	6
▁genti	6
ë	6
▁isti	6
▁consules	6
▁aestate	6
▁interesse	6
▁Indonesia	6
▁Francice	6
▁quinta	6
▁rhetorica	6
▁Symphonia	6
▁radic	6
▁ripa	6
▁praedic	6
▁capta	6
▁negoti	6
▁foedera	6
▁Patri	6
▁Altera	6
▁Iovem	6
feliciter	6
▁parat	6
fugi	6
▁continuo	6
▁classica	6
▁dimension	6
▁triumphavit	6
▁person	6
▁habebant	6
▁vulgare	6
▁Aristo	6
▁Nero	6
▁principium	6
▁postremo	6
▁agnoscit	6
▁servat	6
▁Aedificia	6
▁amabat	6
currere	6
▁Effect	6
▁occidentale	6
stantia	6
▁praepara	6
iectus	6
▁communista	6
▁interpreta	6
▁praeceptor	6
ι	6
quod	6
▁Italica	6
▁Deum	6
▁credere	6
▁solari	6
▁Aegypto	6
▁mixt	6
pond	6
▁fautor	6
▁causae	6
▁Duodecim	6
▁alicui	6
▁administr	6
gere	6
visset	6
▁frequentabat	6
▁dederunt	6
▁celebrata	6
▁proclamat	6
▁Croatiae	6
▁insigni	6
▁minore	6
irciter	6
▁aurum	6
▁possent	6
▁vivendi	6
Cu	6
▁cecidit	6
▁dependen	6
▁Lusor	6
▁incerta	6
▁lign	6
▁Dominus	6
▁accipiunt	6
▁ducis	6
▁electi	6
▁rebell	6
▁princeps	6
▁Gli	6
▁investigat	6
▁ordines	6
▁principale	6
▁sceler	6
▁communistica	6
▁Iudic	6
▁Vesper	6
▁Sicilia	6
▁locos	6
▁vidi	6
▁desidera	6
▁coniung	6
▁confirma	6
▁operibus	6
▁Sole	6
renses	6
▁arc	6
ginta	6
▁exercitation	6
▁officinae	6
▁exercet	6
▁Indiana	6
▁humano	6
▁retinuit	6
▁sustenta	6
egit	6
▁Sinistra	6
▁Atheniens	6
▁sumptu	6
scripserunt	6
▁Villa	6
▁membrum	6
trum	6
▁hebdomad	6
▁locut	6
▁occidit	6
▁translat	6
neum	6
▁divulga	6
▁summi	6
▁Lituania	6
▁afflict	6
▁collaps	6
▁finalis	6
tinuerunt	6
▁NON	6
▁Graec	6
▁religion	6
▁praefect	6
clus	6
▁clama	6
lanities	6
▁relat	6
signe	6
▁antiquis	6
▁iri	6
▁debilita	6
▁favor	6
▁Pecunia	6
abor	6
▁principalem	6
▁Montis	6
▁includ	6
▁Socrates	6
▁symptoma	6
▁ducta	6
▁puni	6
▁Eboraco	6
▁culpa	6
▁aegrot	6
rtii	6
▁publico	6
ustra	6
discos	6
▁inferior	6
Notitia	6
▁pruden	6
▁Cechia	6
▁accipi	6
theca	6
aeque	6
▁quinquenni	6
▁rational	6
▁signo	6
▁Hodiern	6
▁operari	6
▁causidic	6
▁Esse	6
ortae	6
asque	6
▁veneno	6
▁antiquissima	6
▁eques	6
▁productione	6
▁plera	6
▁Bavariae	6
▁stellarum	6
▁consequ	6
▁tragoedia	6
▁aranea	6
▁conatu	6
▁Insul	6
▁Salomonis	6
populares	6
▁proxima	6
▁Exempla	6
▁scriptis	6
▁occupat	6
▁crevit	6
ον	6
▁tabul	6
▁signat	6
▁reliquerunt	6
▁nation	6
tionum	6
▁saecul	6
▁dimidia	6
▁periculos	6
opolis	6
▁Cantabrigiae	6
▁amare	6
▁Made	6
▁iube	6
▁fabulis	6
▁mythologia	6
▁duobus	6
▁legisfera	6
▁colon	6
bris	6
▁Hispanici	6
▁Programma	6
▁constru	6
▁bil	6
▁possibile	6
▁Latinus	6
▁templum	6
▁ordinari	6
▁mons	6
▁Venetiola	6
▁credidit	6
▁Pace	6
▁valere	6
▁aperi	6
▁vulgo	6
▁Medio	6
▁convenerunt	6
posita	6
▁strateg	6
▁dolore	6
▁Bun	6
▁Popul	6
▁passu	6
▁instrumenta	6
▁abbreviat	6
▁conspectu	6
▁copia	6
▁animal	6
libet	6
▁secession	6
▁beat	6
▁ostend	6
rite	6
▁conscriptu	6
▁Metropoli	6
▁serva	6
▁tertiu	6
▁crescere	6
bor	6
▁astronomo	6
▁Statione	6
▁communitati	6
▁glob	6
Di	6
▁RDG	6
▁sultan	6
▁fecer	6
▁meridio	6
esti	6
▁rursus	6
▁terri	6
ulum	6
▁parvis	6
unicam	6
▁comprehendunt	6
opes	6
▁Hispanicus	6
▁Augustin	6
▁carmina	6
▁impetra	6
▁lact	6
▁Eduard	6
▁Sign	6
▁suffici	6
▁acerrim	6
▁peritus	6
▁incepta	6
▁Sodali	6
▁Batav	6
▁Linea	6
▁atom	6
▁integra	6
terminat	6
▁amicos	6
▁chemic	6
▁maxim	6
▁principis	6
▁habebatur	6
▁receptori	6
quid	6
acta	6
ccidentali	6
▁redd	6
▁visita	6
▁pertinere	6
alus	6
▁Hort	6
▁hosti	6
▁Indiam	6
▁pugnare	6
▁terrestr	6
▁Liberalis	6
▁imperiali	6
▁Cont	6
▁Legione	6
▁Alexandria	6
▁accurat	6
▁quint	6
▁negat	6
▁insidia	6
▁volatu	6
▁faciend	6
▁exporta	6
▁Adept	6
▁civitatibus	6
▁дошл	5
▁Влад	5
▁женой	5
▁truth	5
ступления	5
▁Хар	5
▁гармони	5
валь	5
▁исход	5
▁смертью	5
▁Primer	5
ложение	5
▁пиво	5
▁пиратов	5
▁глобальн	5
▁состоянием	5
▁Мол	5
▁мясо	5
▁Прош	5
ерт	5
сидеть	5
ошибочн	5
▁недел	5
▁Тиб	5
▁Тебе	5
стройки	5
▁Head	5
Ж	5
▁отправилась	5
▁Окончательн	5
▁скажу	5
▁нравится	5
George	5
▁Сред	5
казал	5
▁избирательно	5
▁Гран	5
▁произведений	5
гляд	5
▁улучши	5
многие	5
▁жертвам	5
▁размести	5
▁Гвинеи	5
▁аргумент	5
▁обещал	5
ved	5
▁Тут	5
▁Цен	5
▁вижу	5
забыв	5
▁применени	5
алкогольн	5
камни	5
▁принёс	5
▁нынешне	5
втором	5
Нет	5
Таймс	5
ENT	5
▁убежден	5
▁запах	5
▁Труд	5
▁хуже	5
▁пряч	5
▁приведен	5
▁Америка	5
лиан	5
проче	5
писал	5
▁японск	5
▁культура	5
▁разно	5
▁музее	5
учше	5
▁континенте	5
▁Ангел	5
▁ремонт	5
▁денежно	5
изацию	5
▁Погиб	5
Рико	5
▁особенности	5
▁вклад	5
▁информационно	5
▁изменений	5
чём	5
▁суммы	5
▁Кир	5
естник	5
▁публик	5
▁рабов	5
▁гром	5
▁осозна	5
сякий	5
▁отказом	5
Герой	5
▁полёты	5
▁просят	5
▁помог	5
мся	5
Никол	5
▁отлично	5
▁Теодор	5
▁Histoire	5
▁Оно	5
▁католически	5
▁Правительство	5
▁матч	5
▁румын	5
▁Сё	5
йдет	5
▁God	5
▁Музыка	5
▁Tauris	5
▁трижды	5
▁сожалению	5
▁концу	5
авить	5
▁Никто	5
▁частиц	5
пов	5
▁говорится	5
▁угрожа	5
▁Animal	5
▁Необходим	5
▁Twitter	5
ticarum	5
▁инициатив	5
▁самостоятельн	5
▁Корея	5
▁музыкой	5
абон	5
яне	5
▁школ	5
▁чудесны	5
▁воздушно	5
▁продажу	5
▁Джули	5
быть	5
▁одиночеств	5
▁Гитлер	5
▁найдены	5
Century	5
▁корми	5
арти	5
диктатора	5
▁Edit	5
▁Российск	5
▁сеть	5
бирать	5
▁способами	5
▁предложения	5
▁звон	5
▁убегает	5
▁спектр	5
екает	5
▁избирателей	5
▁обвинён	5
▁выставлен	5
▁выве	5
▁обид	5
▁Патри	5
▁образовательны	5
ведений	5
▁Channel	5
▁опубликовано	5
▁построено	5
▁требованию	5
вий	5
▁Административно	5
административн	5
▁выставке	5
план	5
Pac	5
kard	5
▁Положени	5
▁казни	5
know	5
▁законодательств	5
▁однополы	5
▁заключение	5
▁Господи	5
▁Латинск	5
▁fortis	5
▁Барт	5
▁мощны	5
soft	5
зведён	5
▁Alston	5
rosi	5
▁пищи	5
▁будущем	5
▁образовал	5
▁спросил	5
▁Романов	5
▁Испанск	5
Город	5
▁автономны	5
▁муниципальн	5
▁Девушк	5
▁Югославии	5
▁сад	5
живает	5
▁Кипр	5
▁удостоен	5
▁руко	5
▁Окончательно	5
Мастер	5
мона	5
▁районов	5
▁уделя	5
▁обработк	5
▁салон	5
▁Letters	5
▁Joseph	5
▁орбиту	5
▁ферм	5
имся	5
▁зоны	5
▁оккупации	5
▁Дальн	5
▁Гарри	5
дви	5
▁Дело	5
▁Жела	5
▁добра	5
▁честн	5
▁называть	5
▁осужден	5
▁Knopf	5
▁щит	5
▁возникаю	5
▁Различают	5
▁Мирово	5
ивший	5
▁погибает	5
▁камень	5
▁хирургическ	5
▁присоединил	5
▁огня	5
▁NBC	5
уре	5
Франциско	5
▁Наука	5
▁Кал	5
▁недавно	5
▁Доминики	5
▁протокол	5
▁усилия	5
солнечн	5
▁календаря	5
▁Карт	5
▁Эт	5
▁обстановку	5
▁Ката	5
▁послужил	5
▁стенах	5
▁вверх	5
▁утверждаю	5
▁экзамен	5
▁Sant	5
▁галере	5
▁прозвище	5
▁поддержк	5
▁думали	5
▁проблемой	5
▁карлика	5
mark	5
▁аспект	5
▁пассажиров	5
▁забыл	5
езопасности	5
вшую	5
▁вывода	5
▁директором	5
▁выдающ	5
▁всп	5
▁идти	5
▁пешком	5
▁unitas	5
▁многом	5
▁Калифорнийск	5
cephalo	5
▁Социал	5
озрева	5
сыпа	5
▁Утро	5
▁Албании	5
▁пережива	5
медленно	5
▁Современны	5
▁осадков	5
рейс	5
▁исполнител	5
▁библиографи	5
▁имущество	5
▁мужа	5
▁жены	5
▁Перевод	5
▁принципа	5
▁веры	5
▁севере	5
альное	5
▁поздни	5
▁Южн	5
▁Сэм	5
▁защиту	5
▁подразумевает	5
▁Гот	5
▁Котор	5
▁требовал	5
▁быстрее	5
▁пяте	5
▁Капит	5
▁сочетани	5
одители	5
▁труды	5
▁Плутон	5
▁Аргентин	5
▁просмотр	5
▁настойчив	5
▁реальных	5
реагир	5
▁добить	5
здании	5
▁военные	5
▁подразделения	5
▁выбира	5
▁третьей	5
Ы	5
▁подтверди	5
ГУ	5
паж	5
▁мя	5
▁центра	5
▁регионах	5
▁Евросоюз	5
▁Деб	5
▁предполагает	5
лощадь	5
▁Джек	5
звонков	5
▁покупк	5
▁присяг	5
▁акцент	5
▁красив	5
▁Место	5
▁Plan	5
▁контекст	5
▁далеко	5
▁Govern	5
▁небо	5
▁землю	5
▁десятилетия	5
▁пуга	5
▁Район	5
▁астрономии	5
▁Сидне	5
Австралия	5
морской	5
▁праздн	5
▁devot	5
▁сокращен	5
▁Браун	5
▁поводу	5
▁изменил	5
аси	5
▁Herald	5
▁убийстве	5
покалипсис	5
▁поднял	5
▁служба	5
ливый	5
▁пользовал	5
▁концепци	5
▁эволюции	5
ованно	5
▁носили	5
▁Мост	5
▁прекрасны	5
▁видно	5
▁Колумби	5
▁управлял	5
жалован	5
▁бакалавр	5
▁умерли	5
▁слава	5
▁публично	5
▁жду	5
▁Валенсии	5
▁изменя	5
▁приток	5
▁размера	5
▁минимальн	5
▁документы	5
▁добива	5
▁сознания	5
▁мудрость	5
▁утеша	5
арий	5
▁колеба	5
▁юстиции	5
▁отказать	5
▁награду	5
▁профессиональны	5
истик	5
▁интенсивн	5
▁среднем	5
▁раскрыт	5
▁Барак	5
▁присягу	5
▁приближённы	5
▁лошадь	5
▁классификации	5
берта	5
▁Отечество	5
КП	5
▁событием	5
▁магнит	5
▁пропуск	5
▁гимназии	5
▁Швеция	5
▁забыть	5
▁секретарём	5
▁Сената	5
▁Пен	5
▁испанском	5
смотрит	5
▁Берт	5
▁Октябрьск	5
▁лад	5
▁Мод	5
инга	5
▁канале	5
▁коммунизм	5
лоп	5
сирот	5
▁драматически	5
▁Ост	5
▁Theater	5
!..	5
▁Тэ	5
▁заменен	5
▁ненави	5
▁учреждения	5
▁исполня	5
▁женился	5
Walker	5
▁Страниц	5
▁достижени	5
▁превратил	5
▁Мэй	5
ставлял	5
▁профессором	5
▁ждёт	5
член	5
брал	5
альными	5
▁Верховн	5
▁переносит	5
ито	5
▁Bin	5
Ӗ	5
молча	5
▁медицины	5
▁католическ	5
▁Вокруг	5
▁ожидая	5
▁глазах	5
ократ	5
▁Деклараци	5
овсе	5
верно	5
▁вруча	5
татус	5
▁посёлка	5
▁программа	5
▁уходит	5
▁Пример	5
uz	5
▁Перу	5
▁сделк	5
хард	5
▁капитал	5
▁Штат	5
▁войну	5
▁достигает	5
▁Альберта	5
йтесь	5
линов	5
лённые	5
бирался	5
▁Стран	5
▁Сар	5
ённые	5
▁коротки	5
▁эволюционно	5
▁основание	5
▁опасаясь	5
▁озвучива	5
читает	5
▁лучш	5
ившись	5
озера	5
звонок	5
▁переселени	5
творить	5
▁угодно	5
▁Литвы	5
▁торговл	5
▁состояла	5
▁библиотек	5
▁охотник	5
▁Голландии	5
эфир	5
▁звуча	5
▁общение	5
принцесса	5
чёт	5
▁спит	5
орядок	5
▁пунктов	5
▁езди	5
▁препятстви	5
▁землетрясения	5
против	5
▁спасти	5
▁противо	5
▁Лиз	5
▁Tab	5
▁Chang	5
▁страдал	5
▁башни	5
▁конструк	5
▁далёко	5
▁премий	5
▁Чарльз	5
▁опубликованны	5
▁учения	5
▁Алис	5
▁Турция	5
рывает	5
▁колонн	5
стояла	5
Йорке	5
МА	5
нформация	5
▁заметить	5
▁охранник	5
▁парень	5
▁любил	5
▁Принял	5
▁командование	5
ведён	5
▁курсы	5
потребление	5
▁сердца	5
▁Universal	5
анг	5
▁кофе	5
▁Васили	5
▁сказала	5
▁идея	5
ута	5
▁Граф	5
▁переименован	5
▁хозяйства	5
▁Комментарии	5
▁границы	5
▁промежут	5
ующий	5
▁королевств	5
игра	5
▁остановил	5
▁пищев	5
ясным	5
▁массу	5
▁жестоки	5
▁Востоке	5
▁праздновани	5
▁весной	5
▁Канаду	5
▁Брать	5
▁действую	5
▁обоснова	5
▁Индонезии	5
lobal	5
▁Program	5
текает	5
▁едят	5
▁Beatles	5
▁медицински	5
▁конституционн	5
▁глаз	5
финансирования	5
енца	5
▁Вечн	5
▁Ав	5
▁трек	5
▁кораблей	5
▁Республике	5
▁Панам	5
▁пенсию	5
▁внук	5
▁восьм	5
нский	5
▁вратарь	5
▁двора	5
▁признания	5
▁регулярно	5
▁Постепенно	5
мятеж	5
▁Юпитера	5
▁лошадей	5
▁будь	5
губернатором	5
Пол	5
▁релиз	5
▁коммуна	5
▁Мот	5
▁Боев	5
ряды	5
▁кинофильм	5
▁французов	5
▁дороге	5
▁съёмо	5
▁издател	5
▁образец	5
▁сохранивш	5
▁соединение	5
▁Малы	5
▁Украинск	5
▁Британи	5
▁призвал	5
▁охоты	5
▁допуск	5
▁Основател	5
считали	5
▁встречаться	5
▁Победы	5
▁прибыль	5
▁детск	5
Π	5
▁Эрл	5
Защит	5
▁окружающ	5
астрономически	5
▁таблицы	5
▁Бывш	5
▁Социалистическ	5
▁текстов	5
▁маркетинг	5
▁отсутствовал	5
▁региональных	5
▁Рам	5
▁призван	5
▁Dalmati	5
основателей	5
▁Liveright	5
▁матча	5
▁возраст	5
▁самоуправление	5
▁Авто	5
▁повести	5
▁Европа	5
▁руководств	5
▁дуэт	5
▁неправильно	5
▁охват	5
▁Scribner	5
▁женщину	5
▁глухи	5
▁Valentin	5
энд	5
▁формировани	5
▁покой	5
▁реч	5
чок	5
▁сумма	5
testant	5
сель	5
▁Данн	5
▁гордость	5
▁Фестивал	5
▁Dam	5
▁Lane	5
▁матчей	5
▁культурны	5
▁герои	5
▁двенадцати	5
▁означать	5
бивает	5
▁чудовищ	5
▁Мисс	5
▁Petroni	5
▁египтян	5
пак	5
▁отменён	5
▁хол	5
▁держав	5
▁одиночны	5
айд	5
ьё	5
▁статистики	5
▁Египт	5
▁Тихо	5
▁океана	5
▁этническ	5
▁Тёмн	5
▁уста	5
▁идеологи	5
ишь	5
­	5
▁изображения	5
▁отнес	5
▁относи	5
▁Рабочи	5
▁подряд	5
▁предпринял	5
бек	5
▁Администраци	5
централизованн	5
▁исполнилось	5
▁Господ	5
▁фашистск	5
▁требование	5
льном	5
▁Код	5
EE	5
▁председател	5
▁выразил	5
▁Dun	5
▁Цар	5
▁диагности	5
ныне	5
▁Создател	5
▁Альбом	5
▁Греции	5
▁Добавлен	5
▁классификаци	5
▁младши	5
▁крестьян	5
▁удовольствие	5
▁полковник	5
▁родину	5
ляется	5
▁открыва	5
▁Hand	5
▁Тома	5
▁построе	5
консервативн	5
▁Facts	5
▁высокого	5
▁Данны	5
▁действующ	5
▁мелкие	5
▁открытое	5
▁результата	5
▁нуждаются	5
▁Дель	5
▁Занимал	5
▁сотни	5
▁поток	5
Коста	5
▁оказать	5
▁Добры	5
▁Статисти	5
▁подтвержда	5
▁обслуживани	5
Италия	5
▁выгод	5
▁Nex	5
▁Ведь	5
▁рублей	5
племени	5
ёд	5
▁заинтересован	5
▁страдает	5
▁сосед	5
Commercial	5
штаб	5
▁экземпляр	5
производств	5
▁батальон	5
ful	5
▁песн	5
▁золота	5
▁пароли	5
▁Интернет	5
▁временны	5
▁твой	5
▁начальн	5
▁устроить	5
▁профсоюз	5
▁предварительны	5
▁убиты	5
изирован	5
▁могил	5
▁существо	5
▁наш	5
▁Смерть	5
▁Владел	5
▁султан	5
▁цирк	5
▁двойн	5
▁крепость	5
▁погибли	5
▁туристов	5
▁Журнал	5
Liber	5
▁кисло	5
▁Пин	5
▁Mr	5
IR	5
▁свидетельству	5
▁способности	5
едва	5
▁попадает	5
няет	5
▁датирован	5
говаривает	5
▁столицу	5
▁каза	5
▁размерам	5
▁Кали	5
▁законы	5
▁хороши	5
▁собирают	5
▁идеи	5
▁самим	5
▁содержание	5
▁привыкл	5
▁формирова	5
ваны	5
▁Марс	5
▁сенатора	5
▁кариб	5
мал	5
▁Бель	5
▁удержа	5
▁крас	5
▁развивать	5
оси	5
▁Тру	5
▁действиях	5
▁помощник	5
провозглашён	5
ринцип	5
▁умеренн	5
▁судебн	5
▁встречает	5
music	5
▁Nos	5
▁Isa	5
▁композици	5
▁уроки	5
▁гитар	5
минирован	5
▁необитаем	5
ялся	5
berg	5
▁счет	5
▁предел	5
▁наступа	5
▁золот	5
▁математика	5
▁копия	5
▁случа	5
▁отсутствует	5
▁калькуттско	5
▁Основным	5
▁горожан	5
▁происходя	5
▁ограниченны	5
кья	5
▁отража	5
▁имён	5
унда	5
▁Six	5
▁thr	5
▁Glacie	5
▁путе	5
▁освеща	5
▁рабочий	5
▁банком	5
▁Матч	5
▁лицензи	5
Библия	5
▁Метод	5
▁существенно	5
▁Пьер	5
▁прости	5
▁младш	5
▁поручен	5
▁типографи	5
▁почтово	5
▁швейцарск	5
▁кинофестиваль	5
ПО	5
▁пользователей	5
▁напряжённ	5
▁Участвовал	5
▁турнира	5
▁дед	5
▁мелод	5
▁Бельгия	5
▁границу	5
▁Сенатор	5
▁зале	5
▁религия	5
▁Али	5
▁Arabia	5
▁Palgrave	5
▁высокая	5
▁женский	5
▁скота	5
▁Дмитри	5
▁сход	5
▁машина	5
▁Airbus	5
win	5
▁операционн	5
сир	5
▁поединк	5
▁Дз	5
▁Электро	5
▁Palm	5
▁Выступа	5
▁держа	5
▁Кенне	5
▁происхождени	5
▁примером	5
▁зебра	5
▁однажды	5
▁вдохновл	5
▁чай	5
▁глубин	5
ыступал	5
▁польски	5
▁шкал	5
▁звуки	5
▁предположен	5
▁Симпсон	5
▁Моррис	5
▁исчез	5
Энциклопедия	5
иций	5
▁обыкновен	5
▁Римский	5
▁australe	5
▁Кат	5
Quo	5
▁Бир	5
живают	5
▁уезд	5
▁приходил	5
▁правительством	5
▁Новости	5
▁Официально	5
▁спокоен	5
▁коллег	5
▁Brown	5
▁рак	5
▁фабрик	5
▁стрел	5
▁млрд	5
троительство	5
ишель	5
▁уничтожил	5
▁Radi	5
▁Stat	5
Джер	5
▁Hyp	5
▁характеризу	5
▁хвост	5
▁страстн	5
руку	5
▁берег	5
▁Калифорнии	5
▁расста	5
▁тайн	5
▁советник	5
плыв	5
▁подписан	5
материальн	5
▁Богом	5
▁каких	5
▁заключения	5
▁номинаци	5
▁призыва	5
владения	5
▁лучших	5
▁поиск	5
▁различи	5
▁столкновени	5
▁живущ	5
▁письменно	5
циально	5
▁отдельным	5
▁эффективно	5
Blackwell	5
▁чувствует	5
▁ждать	5
▁утвердил	5
▁помогл	5
▁Нижн	5
▁селе	5
иана	5
счет	5
вость	5
▁массовы	5
▁берега	5
▁Легенд	5
▁случаи	5
▁Скорее	5
▁музейны	5
круг	5
▁Филиппин	5
▁Вопрос	5
ографическ	5
▁длинн	5
анный	5
▁соревнования	5
▁эндемик	5
▁обычного	5
▁Way	5
▁выяснить	5
▁создателе	5
ynast	5
▁Leo	5
▁оплакива	5
ьных	5
Saxon	5
▁развива	5
▁Симфони	5
▁Кришн	5
attan	5
▁Call	5
▁Женщины	5
▁отличи	5
▁мечтает	5
▁заметно	5
▁Создан	5
берт	5
▁кубическ	5
▁Testi	5
▁участи	5
▁значительны	5
▁распа	5
арка	5
▁стекл	5
▁Католическ	5
▁всяк	5
▁организова	5
чится	5
казах	5
▁вокзала	5
▁образцы	5
чист	5
▁изобретения	5
Homeri	5
▁Latinis	5
▁Монт	5
▁института	5
▁направил	5
▁Израиля	5
▁трубк	5
▁преподава	5
▁рассказывают	5
▁зуб	5
▁вариаци	5
▁Rat	5
▁заголовк	5
очек	5
▁Порт	5
edu	5
▁Уор	5
▁полезн	5
▁определит	5
соф	5
▁миф	5
▁Островов	5
▁огнём	5
▁Сири	5
▁установить	5
▁придет	5
иня	5
▁поверхность	5
▁Ричард	5
вернут	5
▁грамматики	5
▁воздействие	5
Каль	5
▁огромно	5
ческого	5
▁теологи	5
▁резко	5
▁процессе	5
▁демократии	5
хождения	5
▁собрании	5
подобный	5
▁Открыто	5
▁пьян	5
▁доктрин	5
▁Екатерин	5
▁оценкам	5
▁пришла	5
▁Bart	5
NES	5
▁землевладельц	5
▁Hunt	5
▁Wo	5
асси	5
▁помнят	5
▁трудности	5
▁Сост	5
летни	5
рках	5
▁Indian	5
▁спрашива	5
▁массово	5
▁линий	5
▁Федерации	5
езии	5
▁картин	5
▁чувства	5
▁присутству	5
▁Лауре	5
▁развита	5
▁песню	5
▁арен	5
имлян	5
▁Movie	5
древн	5
▁злы	5
▁предназначен	5
▁Природ	5
▁истину	5
▁остр	5
▁царство	5
эффект	5
суждения	5
лайн	5
▁специалистов	5
▁преобразован	5
▁вызыва	5
▁Юн	5
носят	5
▁колхоз	5
вне	5
▁Ламб	5
▁Октавиан	5
▁спутник	5
▁взаим	5
▁собственность	5
▁владельц	5
▁записал	5
▁Фредерик	5
гт	5
наследовал	5
▁Politic	5
▁солнечно	5
▁КО	5
▁Лили	5
king	5
▁Свет	5
▁Sega	5
▁законодател	5
▁препода	5
NG	5
невидим	5
АП	5
▁Наибольш	5
▁рукописи	5
▁указывают	5
обо	5
▁озеро	5
▁преступление	5
анна	5
ством	5
▁расформирова	5
▁жалуют	5
нское	5
▁верит	5
▁утверждён	5
▁Quart	5
▁испытывал	5
▁чита	5
площ	5
▁врага	5
▁Ridge	5
▁вышедши	5
▁заместител	5
нц	5
Урал	5
▁копий	5
ушка	5
побежда	5
▁выступлени	5
▁Фёдор	5
лыж	5
▁нарко	5
▁продав	5
▁реке	5
▁внутренн	5
▁Англия	5
▁Норвегия	5
stituto	5
▁ранне	5
шоу	5
бург	5
▁велика	5
▁Един	5
▁включающ	5
▁Третье	5
▁завода	5
алов	5
▁постанов	5
ильо	5
▁Mile	5
▁Марокко	5
▁оператор	5
▁задаче	5
▁галерее	5
▁помогать	5
Ю	5
▁oratione	5
творчества	5
▁Prime	5
▁событиях	5
▁Album	5
▁Пока	5
▁Formula	5
▁Современн	5
▁страда	5
▁падение	5
▁смотрел	5
▁Дома	5
▁сахар	5
▁доклад	5
▁Народн	5
▁комплекс	5
БА	5
#	5
етт	5
▁приблизи	5
▁Толкина	5
идж	5
▁спин	5
▁населя	5
▁философски	5
▁Дек	5
ondalles	5
No	5
▁Хат	5
▁указыва	5
рона	5
▁помогают	5
▁заявления	5
▁осад	5
▁Classica	5
▁ожидания	5
опис	5
▁Тяжел	5
▁She	5
pler	5
американск	5
▁победил	5
▁перспектив	5
упом	5
▁окружен	5
▁Эст	5
▁шахт	5
▁Premi	5
▁помеша	5
▁Сур	5
▁гаранти	5
▁очередн	5
▁негативн	5
▁Democra	5
Stat	5
▁выполнен	5
▁номером	5
▁назначает	5
▁означало	5
овала	5
▁Добр	5
▁Rox	5
mitte	5
▁Protect	5
настоящем	5
▁отрица	5
▁демократ	5
▁поверхности	5
▁распространение	5
opor	5
achia	5
▁регистр	5
▁Андже	5
▁Natali	5
▁Корейск	5
▁мастеров	5
ффи	5
▁лини	5
▁Зал	5
рол	5
▁сестёр	5
++	5
▁Language	5
▁превращ	5
▁избира	5
▁книжн	5
▁издания	5
PA	5
афф	5
▁авторы	5
топлен	5
объектив	5
дли	5
▁активности	5
▁Пет	5
▁морск	5
▁итальянского	5
▁Грин	5
▁создаёт	5
ранее	5
бай	5
ницей	5
араллельн	5
▁государ	5
▁morale	5
держание	5
▁цит	5
▁наследство	5
▁убеждения	5
▁Чили	5
▁крем	5
▁производить	5
▁Барб	5
▁Мур	5
▁дисциплин	5
▁местности	5
▁реально	5
▁подал	5
▁Моз	5
ринадлежит	5
▁одиночку	5
libr	5
реал	5
vals	5
▁высказыва	5
льман	5
▁Routledge	5
Евровидени	5
▁учёных	5
▁результатам	5
▁Луци	5
ucius	5
▁винов	5
▁поиски	5
▁Metal	5
▁гражданство	5
▁произош	5
▁свободен	5
▁End	5
етер	5
▁обучения	5
▁Ас	5
гиз	5
▁Оскар	5
▁Donald	5
▁Columb	5
▁Lib	5
фим	5
▁плане	5
▁товар	5
lot	5
винов	5
▁объект	5
менеджер	5
атериал	5
▁слушал	5
рата	5
▁маркиз	5
▁Kerr	5
▁Родина	5
▁птицы	5
▁оружия	5
▁комикс	5
▁Австри	5
ou	5
аундтрек	5
миро	5
▁Павл	5
▁христиане	5
▁заказ	5
▁недели	5
▁Бах	5
▁современном	5
нко	5
▁лауреат	5
тных	5
тви	5
▁Francis	5
▁еврейск	5
▁отмечал	5
م	5
ن	5
▁Roger	5
▁наций	5
Motor	5
▁Stanley	5
▁Costa	5
кратно	5
▁испанцев	5
▁броне	5
▁исключ	5
ε	5
комедия	5
фон	5
▁тома	5
▁находя	5
▁велико	5
▁Шир	5
▁Pent	5
зоне	5
▁Сон	5
▁Kar	5
lton	5
uce	5
▁окружающе	5
▁run	5
▁mo	5
▁британским	5
▁след	5
▁profundi	5
▁Henri	5
▁растения	5
inde	5
Nov	5
▁Squa	5
▁ансамбл	5
sha	5
▁fab	5
▁macro	5
ничтож	5
штейн	5
▁украшен	5
▁GNU	5
NI	5
▁легион	5
▁Tria	5
ln	5
▁Серби	5
▁обращен	5
Stra	5
▁Fields	5
▁пространство	5
труб	5
валось	5
▁Rod	5
▁Дар	5
▁Encyclopedia	5
▁Spirit	5
rcan	5
▁LA	5
фильм	5
▁Коль	5
▁James	5
▁Studios	5
▁comput	5
Wesley	5
▁Ent	5
овым	5
▁mort	5
сайт	5
Транс	5
▁tax	5
▁рецептор	5
▁Pad	5
▁Михаил	5
▁Kain	5
▁Fratre	5
jan	5
iles	5
Tu	5
▁medico	5
▁Дай	5
▁производитель	5
▁театре	5
▁Адепт	5
char	5
ket	5
▁Goeth	5
тые	5
EF	5
▁Изд	5
▁Gó	5
поезд	5
▁приказу	5
▁Bab	5
▁SG	5
▁Vanuatu	5
▁decima	5
▁Mc	5
bunt	5
▁Йоханн	5
Windows	5
►	5
▁Boni	5
▁Chu	5
▁Никола	5
▁Dan	5
▁associat	5
▁Down	5
vic	5
▁Cambri	5
▁Pali	5
▁natali	5
metri	5
▁Mason	5
Dixon	5
▁Colonia	5
▁Agrippin	5
▁Humb	5
▁взгляды	5
▁Psychologica	5
▁Marina	5
stein	5
▁Analy	5
▁Onc	5
▁нейрон	5
tti	5
vet	5
II	5
▁Red	5
▁Mia	5
scop	5
▁actu	5
▁Cara	5
▁testa	5
▁rustic	5
▁relativ	5
Rabbi	5
▁Rich	5
▁Bud	5
ographic	5
▁Monument	5
▁Historica	5
mari	5
▁Hard	5
▁Pomacanth	5
▁ostenta	5
▁Mors	5
▁Abraham	5
▁progenie	5
▁maioribus	5
rp	5
▁Hor	5
▁debes	5
▁peccat	5
▁time	5
▁mor	5
▁victa	5
▁cognovit	5
▁tui	5
Proprieta	5
▁Philadelphiae	5
▁meridionali	5
▁reposit	5
▁cru	5
▁descriptione	5
▁Poema	5
▁tuam	5
illic	5
▁decerne	5
▁applica	5
▁Homerum	5
▁munition	5
▁commercial	5
▁passim	5
▁planet	5
▁Nicaragua	5
▁amica	5
▁adiuvat	5
▁Genera	5
▁Portu	5
▁reformatione	5
cibus	5
istica	5
▁puto	5
▁importa	5
tissima	5
▁homicidi	5
arios	5
▁trucida	5
▁absoluta	5
▁natum	5
▁vix	5
grapho	5
▁elegerunt	5
iarum	5
▁Canadensi	5
▁attingit	5
▁Nunquam	5
▁Vara	5
▁Jar	5
▁dolor	5
▁Islam	5
▁Casu	5
▁positum	5
▁Lenin	5
▁proposuit	5
▁Septemtrional	5
▁tuo	5
▁Arabes	5
▁symphonia	5
▁Venetiae	5
▁restitut	5
▁far	5
▁Londiniensi	5
▁necari	5
▁cad	5
▁templ	5
▁scio	5
▁referri	5
▁disputation	5
▁propositione	5
Magister	5
▁petere	5
▁Basileae	5
▁acta	5
▁discesserunt	5
▁interpretation	5
▁subiectum	5
▁verbo	5
bla	5
▁privatis	5
▁resurrecti	5
▁archiepiscopus	5
theatrum	5
▁revers	5
▁computatori	5
▁Au	5
▁fortuna	5
▁revenit	5
▁Austriam	5
latum	5
▁zoolog	5
▁sentit	5
▁praef	5
▁complet	5
▁repetunda	5
▁Romanae	5
▁debetur	5
▁inveniri	5
▁statuit	5
Urb	5
alibus	5
▁effigie	5
▁incidit	5
oratio	5
▁Ignot	5
▁patriae	5
▁Iugoslavia	5
▁Simul	5
ricus	5
▁sedet	5
▁coniungit	5
▁cognomin	5
▁civi	5
▁spatio	5
▁Energia	5
▁agricola	5
▁Lau	5
ή	5
▁Siberia	5
▁Genu	5
▁gubernant	5
▁natione	5
▁declarata	5
veniunt	5
▁habitare	5
▁vario	5
pupa	5
▁dissolv	5
▁frigida	5
▁appropinquav	5
▁ascender	5
▁dixi	5
▁Vidi	5
veri	5
▁referend	5
▁fenestr	5
▁omnium	5
▁programmat	5
▁laureatus	5
▁Electio	5
▁Quisqu	5
▁ordine	5
▁numera	5
▁Martyr	5
▁municipii	5
▁facultas	5
▁rarissim	5
▁Rabbi	5
▁Matrem	5
▁periodic	5
▁proscript	5
▁problema	5
▁Mediterraneum	5
▁Superiore	5
▁bibere	5
▁masculin	5
▁Krypt	5
▁guberni	5
▁castr	5
uth	5
▁insurgent	5
ocuit	5
modi	5
▁dives	5
▁tribunal	5
▁Summ	5
▁Nederlandiae	5
sidere	5
▁reponere	5
▁eunt	5
▁politico	5
▁len	5
▁praepositi	5
iusta	5
suscit	5
▁Invent	5
▁haberi	5
▁structurae	5
▁consci	5
▁igni	5
▁crisi	5
derunt	5
▁Script	5
▁portae	5
▁desist	5
▁Mexicanus	5
▁lac	5
▁stirps	5
▁sollicit	5
▁obsid	5
▁narr	5
▁exstructa	5
▁Elizabetha	5
▁Episcop	5
Qui	5
escitur	5
▁quotidian	5
▁Franc	5
▁Benga	5
▁illum	5
▁redintegra	5
▁Fide	5
▁Mariam	5
▁Latinum	5
▁robot	5
▁Park	5
▁Numeri	5
▁arbor	5
▁Anglicis	5
▁dicens	5
▁Caribic	5
▁Protagora	5
▁statione	5
▁succe	5
scribuntur	5
▁Arabica	5
▁vehementi	5
organism	5
▁civili	5
▁dissertatio	5
▁geographia	5
▁epistola	5
▁commemorat	5
▁Americanis	5
▁tradidit	5
sexuales	5
▁solutio	5
▁possibili	5
pur	5
▁collect	5
▁acut	5
▁putabant	5
▁Pot	5
▁veni	5
▁calci	5
▁calcula	5
▁fame	5
▁occid	5
▁circuitu	5
▁litore	5
▁adiung	5
Stutgar	5
▁bono	5
▁Barbara	5
▁Civili	5
▁transporta	5
▁distinct	5
▁Fora	5
▁Iust	5
▁Congressus	5
▁familiis	5
▁Epistulae	5
▁dramat	5
▁adiuvare	5
▁inductu	5
propter	5
▁Ligur	5
▁botanic	5
▁tribuni	5
▁placuit	5
annis	5
▁evolv	5
▁physi	5
▁fla	5
▁taxinomia	5
▁basi	5
▁terrestri	5
▁congregation	5
▁vires	5
▁Ist	5
~	5
▁fabricata	5
▁Sat	5
▁Asiatic	5
▁enumera	5
▁Maz	5
▁evolutionaria	5
▁biographia	5
▁posside	5
abula	5
▁vino	5
▁videbatur	5
▁mineral	5
▁intellig	5
▁Meridiana	5
▁potione	5
▁studere	5
▁Moneta	5
▁cup	5
▁Eric	5
▁commercium	5
▁canes	5
▁tuis	5
▁Moscovia	5
tissimum	5
▁moderna	5
▁Neptunus	5
▁solvere	5
▁respons	5
▁animadvertit	5
▁Kenia	5
▁defect	5
▁comitat	5
▁spiritus	5
▁aëroplan	5
▁differentiae	5
ono	5
▁Fors	5
▁Elisabetha	5
▁voc	5
ferentiae	5
▁Dil	5
▁Mortu	5
▁Administr	5
▁mutata	5
▁Aeth	5
▁lucr	5
▁tumul	5
▁hymnus	5
▁editus	5
▁Orch	5
▁Birmania	5
▁Arb	5
▁analytica	5
▁conversus	5
▁poster	5
▁herb	5
▁augebat	5
▁consor	5
▁Homin	5
▁oculi	5
▁classico	5
▁scelest	5
▁mercede	5
▁Pakistania	5
▁peten	5
▁manifestation	5
clama	5
▁apparu	5
▁privilegi	5
▁conat	5
▁civitat	5
▁hereditate	5
ambia	5
▁Parlamentari	5
▁adfuit	5
▁vetus	5
▁chemica	5
▁Conc	5
▁vincunt	5
▁paeninsula	5
▁divulgatum	5
▁Fridericus	5
▁consequitur	5
▁Philippin	5
▁Nata	5
▁insigne	5
▁versat	5
▁Somalia	5
▁Regioni	5
▁Autonom	5
vastavit	5
▁Normanni	5
▁nazista	5
▁grandi	5
▁campo	5
▁additae	5
▁genuit	5
▁morb	5
duxerunt	5
tulerunt	5
▁Semper	5
▁pisces	5
▁gente	5
▁Caesaris	5
▁Nazistae	5
▁vocantur	5
toribus	5
▁migrat	5
▁macula	5
▁impedi	5
▁Div	5
▁producti	5
▁monstr	5
▁maris	5
atoribus	5
▁adopta	5
▁Islandia	5
▁solo	5
▁victores	5
▁fundavit	5
▁Reliquia	5
▁coniungunt	5
▁disceptatione	5
▁vivebat	5
▁condition	5
▁vincit	5
▁contendit	5
varium	5
▁incol	5
zo	5
▁depict	5
▁collectione	5
▁communicationis	5
▁alumn	5
▁redit	5
▁Iura	5
▁stipendi	5
▁iudice	5
▁philologi	5
▁amplificaverunt	5
metrum	5
▁Basili	5
▁navali	5
▁utroque	5
▁Prag	5
▁mathematici	5
▁vas	5
antiquitate	5
▁Romul	5
habitaverunt	5
▁dignitat	5
▁Prote	5
▁princip	5
▁negotii	5
▁adiuvit	5
▁electronic	5
▁sectio	5
▁magnam	5
▁Finit	5
▁Civitas	5
plum	5
▁pertinebat	5
▁finitima	5
▁sor	5
▁consociat	5
▁Regula	5
▁Fig	5
▁consecratu	5
yth	5
▁laet	5
▁convertit	5
▁incurs	5
▁Memoria	5
▁identitate	5
▁mutat	5
▁Coniuncti	5
▁urbani	5
▁colorem	5
▁metalli	5
▁ficticia	5
▁Machina	5
unquam	5
▁Stalin	5
▁sublat	5
▁scribit	5
▁universitatibus	5
▁viris	5
▁vulnerati	5
▁finitur	5
liber	5
▁cane	5
▁praesente	5
▁alt	5
▁uncia	5
▁crebr	5
▁dialectos	5
▁massa	5
nario	5
▁dedicat	5
▁Secu	5
▁aliquant	5
▁ascendit	5
▁computation	5
ó	5
olloqui	5
▁aliquas	5
▁agnosc	5
▁Israël	5
cidit	5
▁Ebora	5
▁quadrat	5
▁nucleare	5
▁Eugenius	5
▁Italianus	5
▁Detri	5
▁crepund	5
ariam	5
orient	5
▁studii	5
▁recipere	5
▁sepulcr	5
▁hymn	5
▁effuger	5
▁sinu	5
▁Duces	5
▁intervall	5
▁martyri	5
▁novi	5
▁Simpson	5
▁Hug	5
▁pugnam	5
▁plurimo	5
▁tabulas	5
▁libra	5
▁vetit	5
▁Punic	5
amavit	5
▁parum	5
▁Shelley	5
ilio	5
▁demonstrat	5
▁Trans	5
▁lux	5
▁turri	5
▁movit	5
▁Norvegiae	5
▁editori	5
▁instructa	5
▁Graeciae	5
▁vivebant	5
▁disserit	5
gnante	5
ð	5
▁Iaponicus	5
▁express	5
▁dominatione	5
▁inventus	5
iret	5
▁Proeli	5
▁proposito	5
▁Bruxella	5
▁femininum	5
▁unione	5
▁monasterio	5
viae	5
▁peregrinator	5
▁auctore	5
▁Vulpe	5
▁casei	5
▁Protestantism	5
▁greges	5
▁formula	5
▁abrogata	5
▁sane	5
imae	5
▁Praese	5
▁capt	5
▁Russi	5
▁Magistratu	5
▁dimisit	5
▁defendend	5
▁genetica	5
▁faciant	5
▁Preti	5
▁possumus	5
unde	5
▁longitudine	5
▁Francic	5
icere	5
maria	5
rnamenta	5
▁Cy	5
▁Maxim	5
▁multitudine	5
▁explicar	5
tula	5
▁pecu	5
▁demonstrar	5
▁naviga	5
▁moles	5
rimen	5
▁Amici	5
bili	5
▁bulla	5
▁controversia	5
▁Auxim	5
nn	5
▁interreti	5
▁sepult	5
▁Sudania	5
▁laev	5
▁Mundan	5
▁saevi	5
▁Ucrainica	5
▁Iaponice	5
▁Fortuna	5
▁aëro	5
portus	5
▁Ker	5
û	5
▁administeri	5
▁spectant	5
▁modul	5
▁movent	5
▁frequentia	5
▁admira	5
▁accepimus	5
▁Organizatio	5
▁vet	5
▁disser	5
ionibus	5
▁socialistica	5
fluit	5
▁Atropatene	5
▁tractant	5
venisse	5
▁brevis	5
ventum	5
▁idone	5
▁vulner	5
▁aedi	5
▁Pelliculae	5
▁specta	5
▁computatralis	5
▁fac	5
▁temperatura	5
▁sever	5
▁Iovis	5
▁apostol	5
iales	5
▁habeat	5
Sextus	5
▁nostr	5
▁barbar	5
▁excusa	5
actionis	5
▁doctrinae	5
▁effect	5
▁navem	5
▁pauci	5
▁perfectum	5
vor	5
▁administrabat	5
▁Stella	5
▁reperti	5
▁eliguntur	5
▁coniunxit	5
facies	5
▁educator	5
rationibus	5
▁Afric	5
▁Misen	5
▁unita	5
▁Gubernator	5
ello	5
▁conditor	5
▁putaverunt	5
▁animalium	5
▁tractavi	5
dicti	5
▁tempera	5
▁Berg	5
▁Aeneae	5
▁Mundi	5
▁monasteri	5
esco	5
▁Batavi	5
stitut	5
▁Incolarum	5
▁incrementum	5
▁victimae	5
▁Praecipua	5
▁consociata	5
▁reporta	5
▁curavit	5
▁iuri	5
▁divo	5
cessu	5
▁fluit	5
▁poëta	5
▁veritate	5
▁Scriptura	5
▁Sag	5
▁preti	5
▁adolesce	5
▁cantion	5
▁revoc	5
tricem	5
escens	5
▁Toki	5
▁cognovimus	5
▁ignota	5
▁possessor	5
▁Morbo	5
linea	5
▁comminat	5
▁Astronomica	5
▁praetorio	5
▁sanguine	5
▁nuda	5
▁manuscript	5
▁confirmavit	5
▁Sab	5
▁discere	5
▁aurea	5
▁exhibet	5
▁constitution	5
▁meli	5
▁Canali	5
▁deposita	5
▁Dominic	5
▁circ	5
▁submers	5
▁Ioann	5
▁ediderunt	5
▁Pulitzeranum	5
▁Argentaria	5
▁Austro	5
▁athletica	5
▁incipi	5
derent	5
▁fluvius	5
▁Iraci	5
▁moenia	5
▁Bibliorum	5
▁qualitas	5
▁rationum	5
▁Gubernatore	5
▁oblat	5
▁administratio	5
▁dollari	5
▁Sicu	5
▁additi	5
▁lector	5
▁progredi	5
▁breves	5
litas	5
▁collocat	5
▁conversa	5
▁nummi	5
▁impell	5
▁Vindobona	5
▁carboni	5
▁Epistula	5
▁conclavi	5
▁dividi	5
▁praefectum	5
▁reliqua	5
▁Monasteri	5
▁quaerere	5
▁sapien	5
▁anniversari	5
▁Bruxellis	5
▁cel	5
▁Statunitens	5
▁administri	5
creverunt	5
▁peract	5
sequebatur	5
▁Circuitu	5
aliarum	5
▁Aliquo	5
▁Conservativ	5
▁Christiani	5
▁conclusio	5
▁sphaera	5
▁nationale	5
▁aequilibri	5
▁Tiberi	5
▁Turcis	5
yrus	5
▁Servitu	5
▁Theba	5
▁librari	5
▁Fur	5
▁realitat	5
▁delinea	5
▁pyramide	5
▁Venus	5
lari	5
▁Rhen	5
▁elementa	5
▁restitu	5
▁Crimaea	5
▁mei	5
▁Administeri	5
▁Australi	5
▁usore	5
▁cav	5
▁Null	5
▁cerebr	5
▁laur	5
▁Med	5
▁Oeconomic	5
▁mamma	5
▁gasi	5
▁scientiam	5
▁imperat	5
▁Prope	5
▁delecta	5
▁Kim	5
▁detriment	5
▁constellatio	5
▁sax	5
▁accusat	5
▁oporte	5
▁alba	5
▁pictore	5
▁Olympi	5
veniret	5
▁Patriarcha	5
▁digit	5
▁Italico	5
▁generati	5
▁continuata	5
▁Vocabul	5
▁Observatorio	5
▁oppress	5
▁falsa	5
▁Graecum	5
vola	5
tendit	5
▁Auctor	5
▁Conventu	5
▁coalitio	5
▁computatrali	5
▁nonnullos	5
acu	5
▁Uniti	5
EA	5
verbum	5
▁accedit	5
▁tenet	5
▁hodiernum	5
▁Berolinensi	5
hebdomadale	5
▁formis	5
▁don	5
▁voluntatem	5
▁triangul	5
▁distinguit	5
▁catholica	5
▁defendere	5
▁Pauca	5
š	5
▁aequatio	5
atomi	5
Florentiae	5
▁facinor	5
abatur	5
▁Educatio	5
ecund	5
▁Albi	5
▁hiemali	5
▁pom	5
▁Principali	5
▁Mexicopoli	5
▁praesens	5
stul	5
▁asteroid	5
▁expeditione	5
▁seminari	5
▁humanista	5
solvi	5
▁fossa	5
▁italic	5
▁coronatus	5
▁posteri	5
▁stigma	5
▁игрово	4
▁превосходств	4
Но	4
▁четырнадцат	4
лис	4
▁встречи	4
▁вспомнил	4
ON	4
▁хаос	4
довольствие	4
▁видите	4
▁temporum	4
▁Христа	4
▁правду	4
▁ложь	4
▁Орган	4
▁технологии	4
▁Слав	4
▁христианин	4
▁потребность	4
Тысяч	4
▁затрудн	4
▁ответить	4
▁выслуша	4
думал	4
разделение	4
нники	4
▁сообщил	4
▁революционны	4
ровно	4
▁дивизион	4
озит	4
▁жену	4
▁слабе	4
▁Книги	4
▁пробу	4
▁подвидов	4
олиция	4
борка	4
▁девочка	4
▁Clo	4
▁Where	4
▁придумал	4
▁Филадельфия	4
+	4
Bus	4
▁направление	4
▁Знак	4
▁Финляндии	4
▁обширны	4
▁провозглашен	4
▁погибло	4
▁Описание	4
▁Мятеж	4
▁убедиться	4
▁рассматривается	4
▁Хорвати	4
крест	4
▁пах	4
▁удивляется	4
▁болгарск	4
▁традиционный	4
▁мусульмане	4
▁прогулк	4
▁Долго	4
СК	4
▁цветк	4
▁собирались	4
▁Никарагуа	4
▁Объединённы	4
▁stylo	4
▁scribent	4
▁желани	4
▁приобретен	4
▁творчество	4
▁справедливо	4
▁внешней	4
▁содействи	4
Univ	4
▁Ваше	4
▁британц	4
глуб	4
▁Потеря	4
▁эквивалент	4
▁приравн	4
▁осужд	4
▁предоставил	4
▁выбирать	4
▁губернатора	4
▁реформатор	4
▁животные	4
▁разоруж	4
ходящего	4
▁собрал	4
▁графу	4
ровень	4
▁инф	4
▁чёр	4
▁Графи	4
▁спешит	4
▁Секс	4
▁дискриминаци	4
молился	4
▁Господь	4
▁съёмки	4
▁прочь	4
▁авиакомпани	4
Air	4
▁Airlines	4
▁Blue	4
долю	4
▁выжить	4
▁ТВ	4
убийство	4
везён	4
▁истин	4
▁Бенедикт	4
что	4
▁уровнем	4
▁корни	4
▁смотреть	4
▁приемлемы	4
▁уезжает	4
▁деньгами	4
▁бойкотирова	4
▁длина	4
▁полное	4
сериале	4
▁воспитание	4
▁дорож	4
▁свободе	4
▁пошли	4
▁Марти	4
▁публиковал	4
▁Varro	4
▁Hot	4
▁Ленина	4
нтернационал	4
▁испытание	4
▁рыцар	4
крытия	4
▁нечего	4
начальнико	4
▁слух	4
▁Супер	4
▁привози	4
▁ассоциаци	4
▁электронны	4
▁навод	4
▁Сви	4
▁тщательно	4
▁огромны	4
Cro	4
▁Макк	4
▁Февраль	4
▁экз	4
▁фараон	4
вещательн	4
амма	4
убе	4
▁торжеств	4
положить	4
▁Девиз	4
щей	4
▁Божи	4
▁Господн	4
▁самолёта	4
▁исполни	4
Профессор	4
▁остав	4
▁научн	4
▁подобны	4
▁отмечает	4
▁убили	4
▁Эстонск	4
▁образова	4
▁сотруднича	4
▁бизнесом	4
▁операция	4
▁листв	4
летнем	4
▁настал	4
ветеран	4
▁театра	4
▁объявляет	4
▁голодовк	4
▁незаконны	4
▁сокращени	4
▁сотрудников	4
▁Москвы	4
▁прекраща	4
▁преступления	4
▁Волк	4
▁Австрали	4
▁приговорён	4
▁людьми	4
▁строк	4
▁стихотворения	4
earth	4
▁Всеобщ	4
просить	4
▁Свободно	4
free	4
▁Liba	4
▁возможны	4
▁открытым	4
▁Спи	4
онга	4
зубы	4
агистр	4
▁маленькие	4
▁позициях	4
▁Шер	4
▁правильн	4
▁прием	4
▁воспитыва	4
▁продают	4
▁начинали	4
▁Исаак	4
▁ислама	4
▁положени	4
▁Сеут	4
илья	4
▁соответствующе	4
▁одобрен	4
▁сборные	4
▁плод	4
▁столиц	4
▁проголосовал	4
▁завершил	4
▁импульс	4
▁Маргарита	4
фронта	4
лялись	4
▁корм	4
uring	4
▁обсерватория	4
▁выведен	4
▁Атом	4
▁слушател	4
▁предупреждает	4
▁барон	4
▁пожелал	4
▁дурно	4
▁Востока	4
▁ожидал	4
▁расследование	4
▁уходят	4
▁Африку	4
▁Nightwish	4
▁Написал	4
▁Рэнд	4
▁Хаус	4
▁сборник	4
▁араб	4
▁Dominum	4
▁разговарива	4
уководство	4
▁Саму	4
▁отцу	4
▁жильё	4
▁автомобильн	4
▁остры	4
Итог	4
опускает	4
▁комментарии	4
▁коррекци	4
▁отвечал	4
▁мужеств	4
▁Доход	4
▁душу	4
▁новости	4
▁гумани	4
▁вводи	4
▁григорианск	4
▁приоритет	4
▁задание	4
▁заботи	4
▁убийства	4
▁Крестьян	4
▁телевидения	4
високосны	4
▁лунно	4
▁продвига	4
линий	4
▁эпидемия	4
▁экстренн	4
▁меры	4
▁SE	4
▁Учител	4
▁ограничива	4
▁авиаци	4
▁Кн	4
▁лестнице	4
▁Участ	4
▁Фла	4
▁недовольств	4
▁Прус	4
▁хобби	4
▁помню	4
▁расти	4
▁родственнико	4
▁проспект	4
▁забывает	4
▁выступления	4
▁провинци	4
ческим	4
▁Завета	4
▁предупреждение	4
▁%)	4
▁студийн	4
чувству	4
▁комфорт	4
▁Бабочки	4
▁днём	4
▁Гальб	4
▁увлечени	4
▁четвёрто	4
▁показа	4
▁резолюцию	4
▁израильски	4
▁Ливана	4
▁Thunder	4
▁Mouth	4
▁Семилетн	4
▁принес	4
▁исследовал	4
▁Густав	4
▁caritas	4
ROM	4
▁Русско	4
▁кла	4
озунг	4
прямой	4
около	4
▁пролив	4
▁паспорт	4
▁настоящий	4
▁Словакии	4
▁именами	4
▁обстоятельств	4
▁согласны	4
ппи	4
▁завещани	4
▁приданое	4
▁Похож	4
▁членство	4
▁заявлял	4
▁юге	4
данное	4
▁Нидерландах	4
жать	4
▁заставлял	4
глашает	4
▁кошмар	4
▁произошедше	4
▁критически	4
▁скрыть	4
▁достоинств	4
▁передачи	4
▁удивлени	4
ляция	4
▁Крайн	4
▁задума	4
▁отметив	4
▁Пове	4
▁будуще	4
▁эпидеми	4
жке	4
коммуникационны	4
▁вымышленны	4
▁спросили	4
▁крупнейше	4
▁зависи	4
▁направля	4
▁романти	4
чемпион	4
▁семей	4
▁чуд	4
▁геологическ	4
▁экспедиция	4
все	4
грипп	4
▁плену	4
▁Эйнштейн	4
специальн	4
уруг	4
▁Рели	4
▁чётко	4
▁декабр	4
активист	4
▁незнакомы	4
▁бре	4
▁стене	4
СЕ	4
▁уважени	4
▁Ирландия	4
▁демократи	4
▁прислуг	4
▁суров	4
▁Свой	4
ственна	4
▁покрытие	4
▁огонь	4
▁конь	4
популя	4
правки	4
▁обновлени	4
▁хранения	4
▁Фотографи	4
▁Ганди	4
▁существовало	4
urricul	4
▁Tru	4
рете	4
▁Общества	4
▁Албани	4
РЕ	4
водитель	4
▁событиями	4
▁Psalt	4
erium	4
▁Every	4
▁Великобритани	4
рещение	4
▁финальн	4
▁турнире	4
▁вопросами	4
▁Tribune	4
▁ежедневн	4
защит	4
▁конфликт	4
▁Юга	4
▁посвящен	4
▁Paleo	4
▁реестр	4
▁Regis	4
▁Иерусалим	4
▁Весел	4
▁передал	4
▁суток	4
▁Болгария	4
технология	4
▁Partei	4
коммунистическ	4
▁печати	4
онфедеративны	4
▁расположение	4
▁лежал	4
▁разумеет	4
▁Valencian	4
▁рассказ	4
▁бумажн	4
▁заменить	4
▁Финляндия	4
▁Золот	4
пустя	4
▁тюрьмы	4
▁умерших	4
берём	4
▁воспоминаниям	4
▁компьютера	4
▁предупреди	4
▁психологическо	4
▁мечты	4
успешно	4
▁парламенте	4
hieme	4
▁голода	4
▁величина	4
пса	4
▁очевидны	4
▁Соло	4
▁феврал	4
▁проверить	4
▁Номер	4
▁возведен	4
▁дочер	4
евая	4
▁промышленность	4
▁бедн	4
▁Муниципалитет	4
▁сохраняет	4
▁Нужн	4
трясение	4
наблюдений	4
игают	4
вшееся	4
▁редактором	4
▁компанию	4
▁наступления	4
▁дальнейш	4
употребления	4
▁цифры	4
▁судебны	4
▁транспортн	4
▁строительн	4
▁Япон	4
▁зла	4
▁Нигери	4
▁Христиан	4
▁приемны	4
совершеннолетни	4
▁необходимым	4
оний	4
▁Толкин	4
td	4
▁уникальны	4
▁выжил	4
▁сидя	4
злететь	4
▁снима	4
▁Маргар	4
▁внешность	4
кола	4
▁войн	4
▁десятилетий	4
▁Land	4
▁указан	4
▁сомнева	4
▁назначение	4
▁образа	4
▁полуфинал	4
▁офис	4
▁республикой	4
ико	4
▁специалист	4
▁анатоми	4
▁страшны	4
Реги	4
▁дружелюб	4
▁Macintosh	4
▁подлинны	4
▁Продан	4
▁Лист	4
▁пятый	4
▁установлен	4
бэк	4
▁десятков	4
▁малы	4
SS	4
▁детьми	4
▁отказ	4
▁отличить	4
▁пережить	4
мало	4
▁семинар	4
▁Seminarii	4
▁приходят	4
▁теряет	4
▁престиж	4
▁оказа	4
▁мобильны	4
▁нище	4
▁весел	4
▁юниор	4
▁Кел	4
▁Entertainment	4
▁убил	4
▁Pione	4
▁уравнени	4
экономическ	4
▁Флорида	4
▁диски	4
корол	4
едж	4
▁прежне	4
▁отставк	4
Звёздны	4
▁Мариан	4
▁близки	4
▁функция	4
▁файлов	4
▁Off	4
▁рек	4
▁Дост	4
▁розыск	4
▁лингвист	4
▁развитии	4
▁паник	4
▁мотивам	4
▁Factbook	4
▁международным	4
Прогресс	4
▁остально	4
▁недоста	4
▁Иисуса	4
цепи	4
▁заявля	4
▁Активн	4
▁Балкан	4
▁заверш	4
▁вымира	4
ОВ	4
ницу	4
▁Папу	4
▁Гвинея	4
▁живопись	4
▁Узнав	4
▁рассказать	4
▁пен	4
▁Изобрет	4
▁капиталистическ	4
▁Шотландии	4
▁точного	4
отвращение	4
▁хирург	4
▁отказалась	4
▁Heinemann	4
▁диагноз	4
▁уникальн	4
▁Шарлотт	4
otte	4
▁Adventure	4
▁лингвистически	4
интересно	4
▁поначалу	4
▁произойти	4
▁благоприятны	4
▁Natural	4
▁Pr	4
▁Rac	4
▁бутылк	4
▁примеру	4
пехот	4
нуждает	4
▁льв	4
▁хр	4
▁остальное	4
▁размере	4
▁candid	4
▁упразднён	4
Проща	4
бращение	4
Союз	4
▁перенесл	4
▁узнав	4
▁lepidoptera	4
▁Канарски	4
▁прибыти	4
▁жили	4
▁Флавий	4
▁указани	4
▁посадк	4
▁отличия	4
▁Дуб	4
окола	4
▁Чёрн	4
▁подверг	4
▁Master	4
▁Гая	4
▁возрождени	4
▁Вена	4
▁Кавказ	4
▁Продаж	4
▁Хос	4
▁лиге	4
▁возвращения	4
▁Сирия	4
царит	4
▁использующ	4
римечательно	4
▁Korea	4
▁Asian	4
▁напряжен	4
▁ничто	4
▁Зимбабве	4
▁Касс	4
▁упрека	4
▁армянско	4
olfi	4
▁выиграть	4
▁поясн	4
▁Проблем	4
пишу	4
▁Român	4
▁Гру	4
БР	4
▁берёт	4
▁сооружени	4
▁представителя	4
тельных	4
▁завяза	4
▁вандал	4
▁Белорусси	4
▁замка	4
▁протеста	4
▁старин	4
полков	4
▁набра	4
▁кровь	4
▁музыке	4
Die	4
tage	4
▁шли	4
▁ссоры	4
▁напрямую	4
▁симфони	4
▁оружием	4
▁пойман	4
▁Упомина	4
подтверждён	4
▁пробы	4
It	4
▁Аргентины	4
▁Хэм	4
▁литератур	4
онеты	4
▁номинал	4
▁подтверждени	4
▁Фердинанд	4
▁Ара	4
▁соперник	4
станций	4
▁психологическ	4
▁коммерческ	4
▁Игор	4
▁Кры	4
▁австр	4
▁доверие	4
▁Стив	4
▁Теоретическ	4
Действительно	4
▁отечественн	4
оличество	4
▁устанавлива	4
▁полагается	4
ативно	4
▁писателем	4
исследовательск	4
▁похоронен	4
адки	4
▁озер	4
▁Парламентски	4
▁запас	4
правила	4
▁революцию	4
▁глупы	4
ленда	4
▁Шив	4
▁дипломатическ	4
▁Сент	4
ческими	4
▁канон	4
Об	4
▁коалици	4
▁Османско	4
▁посетителей	4
▁позитивн	4
▁действующим	4
▁переходит	4
дежда	4
▁Дания	4
▁воински	4
▁неизвестным	4
▁Морд	4
▁Уайт	4
▁псевдоним	4
▁публикаци	4
▁понятия	4
▁рассмотре	4
▁Development	4
кации	4
сесс	4
▁минуту	4
▁словар	4
▁Эдуард	4
Allah	4
▁Клауд	4
▁комическ	4
▁отлича	4
▁игроков	4
ò	4
▁управляющи	4
▁инстанци	4
Voice	4
▁спасен	4
▁раунд	4
▁канадск	4
▁счёте	4
▁Хей	4
стречаются	4
чились	4
▁написанное	4
▁Гречески	4
▁количестве	4
▁объёма	4
▁сравни	4
▁среду	4
▁деятельностью	4
льянс	4
подоб	4
▁детстве	4
▁глас	4
▁дядя	4
▁армией	4
▁социальн	4
▁дистанци	4
▁отведен	4
▁ошибкой	4
▁штаба	4
elesti	4
маньяк	4
▁USA	4
▁Каст	4
▁Ban	4
▁Боже	4
▁Православн	4
мусульман	4
омбо	4
▁старом	4
▁дворце	4
▁вырази	4
▁сгорел	4
▁ослабл	4
▁шлюпк	4
половину	4
щерб	4
▁Рег	4
требуют	4
▁возврат	4
▁записей	4
кома	4
▁соревновани	4
▁колес	4
▁готовить	4
рка	4
▁космос	4
▁Мунго	4
▁останк	4
▁Lady	4
▁Красны	4
▁Крест	4
ременно	4
есть	4
▁смелост	4
▁Сул	4
шему	4
ступенчат	4
▁подавлен	4
▁узнала	4
▁вулканическ	4
ушения	4
▁продукт	4
▁толпа	4
анку	4
_	4
▁ставится	4
оскольку	4
PDF	4
конференции	4
▁найдено	4
ласть	4
▁спад	4
▁Китае	4
geograph	4
▁пройд	4
▁продолжительны	4
▁небе	4
пись	4
▁показало	4
▁жизненн	4
▁Погибл	4
▁смерт	4
▁современников	4
▁счастье	4
▁изгна	4
▁Стары	4
▁Харпер	4
мута	4
▁Египте	4
▁специализирова	4
▁Редактор	4
▁Вьетнам	4
▁кошка	4
инка	4
puma	4
беру	4
▁либералов	4
▁заслуживает	4
Нов	4
▁парадокс	4
▁Режиссёр	4
Троицк	4
▁оставили	4
резки	4
▁Нидерландов	4
▁England	4
нициатор	4
▁дам	4
▁Создание	4
▁Достаточно	4
▁далек	4
▁Неапол	4
▁Билл	4
▁присужден	4
▁фильмом	4
▁математики	4
▁теорем	4
▁Advent	4
▁расстройств	4
▁подавляющ	4
Industria	4
овывает	4
▁Кок	4
?»)	4
▁моряки	4
▁americanus	4
▁Крупнейш	4
▁насчитыва	4
Beaut	4
▁направлении	4
▁кричит	4
▁Арави	4
▁счете	4
▁Тереза	4
▁ускор	4
▁Описан	4
▁дистанции	4
▁Reason	4
▁невредим	4
▁срочно	4
▁опор	4
▁приобрёл	4
▁слом	4
▁слежк	4
▁деталь	4
▁медали	4
разрешен	4
▁хозяина	4
▁Соответственно	4
▁рождение	4
info	4
▁справа	4
▁Ant	4
▁агент	4
▁совещани	4
▁Нидерланд	4
▁уверены	4
▁деклар	4
▁реформы	4
▁Зача	4
▁турки	4
▁живым	4
▁почв	4
ite	4
тагонист	4
▁Cir	4
туристическ	4
▁взгляда	4
▁сочинения	4
▁планета	4
▁Francorum	4
NO	4
▁соотношени	4
▁дневное	4
▁вечерне	4
форд	4
▁упоминает	4
▁English	4
оведение	4
▁священником	4
opsis	4
ource	4
штраф	4
▁заняли	4
▁Писани	4
▁обв	4
▁страной	4
▁диктатором	4
▁ополченц	4
▁оборон	4
▁мод	4
▁Кро	4
▁высади	4
▁Ава	4
▁Nijhoff	4
▁посольств	4
▁любы	4
дикт	4
▁колоссальн	4
айш	4
▁словах	4
чувствовали	4
▁душ	4
▁Оксфорд	4
▁College	4
чены	4
▁Раб	4
anny	4
▁Oxford	4
▁раскрыл	4
▁структуры	4
тивны	4
▁туп	4
▁определён	4
▁фашист	4
▁Ул	4
▁редакции	4
▁Варшав	4
▁граждански	4
OS	4
▁Адамс	4
▁вычисл	4
анты	4
▁действующи	4
▁участниц	4
▁Чж	4
▁творения	4
▁приобрета	4
▁ложны	4
▁обязанностей	4
▁возобновили	4
▁Полно	4
▁Sor	4
▁лечения	4
▁восхождени	4
▁Лин	4
▁Брук	4
Индиана	4
▁принадлежащ	4
полняется	4
▁чувствовал	4
вес	4
берге	4
▁ABC	4
▁волю	4
▁ушли	4
▁сопротивления	4
▁минуты	4
▁largitionum	4
▁Дармштадт	4
▁вторг	4
▁сталкива	4
▁консенсус	4
▁Текст	4
▁Mai	4
▁воздуха	4
▁почётны	4
▁Mary	4
▁отказыва	4
▁обещание	4
▁Верну	4
▁Бесс	4
▁согласен	4
▁застав	4
▁Говорит	4
▁пищу	4
▁метра	4
▁сэр	4
▁прекрасн	4
ough	4
▁Шелли	4
▁потенциально	4
▁вперед	4
▁Башн	4
▁голосом	4
▁Rosa	4
▁virgini	4
▁Фрэнсис	4
одекс	4
▁симметри	4
▁ограничи	4
▁догад	4
▁лёгк	4
▁Результат	4
▁Опера	4
▁Энрик	4
▁рисовал	4
▁Kill	4
▁командир	4
▁ранг	4
▁зафиксирован	4
▁видимости	4
люблен	4
spiel	4
▁запуска	4
▁построи	4
ronto	4
▁долин	4
▁восточн	4
▁обруши	4
▁Roland	4
▁присутстви	4
▁изгнани	4
▁Меркурий	4
▁расстояни	4
▁километров	4
▁capitale	4
▁фу	4
▁фунтов	4
▁Мем	4
▁плит	4
▁детям	4
Любов	4
псо	4
кспорт	4
МС	4
греч	4
χ	4
ό	4
▁ангел	4
юре	4
▁Success	4
огрев	4
▁Средиземномор	4
ндекс	4
▁Хор	4
▁Dig	4
▁общины	4
ращён	4
▁самая	4
▁Анд	4
▁лисиц	4
▁захватыва	4
Колумб	4
▁кампания	4
▁спал	4
▁самоуправлени	4
▁евреев	4
▁повсеместно	4
▁светски	4
▁проходивш	4
▁воспринима	4
адиоактивны	4
▁разума	4
▁продавались	4
▁слабый	4
зма	4
▁миль	4
▁Wiley	4
brotula	4
▁ухажива	4
▁оценива	4
▁Кил	4
хранител	4
▁белк	4
▁Дес	4
▁illustris	4
▁родились	4
▁Уорд	4
▁страшно	4
▁пакистанск	4
▁депрессии	4
▁железнодорожн	4
▁обвинение	4
аббат	4
тяну	4
▁Местны	4
▁Руф	4
▁процедур	4
менялась	4
▁Шар	4
▁navigation	4
▁Прежде	4
▁внутренние	4
▁уб	4
▁дневн	4
▁Libr	4
▁Publici	4
▁Цицерон	4
▁patient	4
ступление	4
▁поспешн	4
▁круглый	4
▁устав	4
▁клоун	4
▁обязанность	4
▁Латвии	4
▁устраивал	4
▁стреля	4
▁полномочи	4
▁тотальн	4
Демократическо	4
шлю	4
▁форт	4
▁Японией	4
▁мечт	4
▁получивши	4
▁отравлен	4
asting	4
▁studi	4
▁Внешне	4
rhetoric	4
▁эллиптическ	4
▁Представители	4
Эпизо	4
▁молодеж	4
ённость	4
▁упразднена	4
▁корпуса	4
▁урегулирова	4
олучил	4
▁Кем	4
▁Леонард	4
▁королю	4
▁Сигизмунд	4
▁телевидение	4
▁русские	4
▁клятву	4
▁обстоятельства	4
▁федеральны	4
▁отмени	4
▁полную	4
▁март	4
▁питаются	4
▁заключи	4
▁арабы	4
▁пещер	4
ОУ	4
удобно	4
▁сочинений	4
▁яз	4
▁Verus	4
▁государственном	4
▁назначи	4
нович	4
▁наблюдения	4
▁Telegraph	4
▁устойчив	4
▁иллюзи	4
▁Тема	4
АО	4
башкир	4
▁Числ	4
образным	4
▁Бавари	4
▁классифицир	4
без	4
▁дорогу	4
стоящие	4
▁горизонт	4
▁Георг	4
▁предусмотрен	4
▁изображений	4
▁Journal	4
жителем	4
▁Парижа	4
юш	4
▁грамматика	4
▁сохраня	4
▁направления	4
▁Одесс	4
▁Statistic	4
▁слож	4
▁Solom	4
▁автора	4
ror	4
▁Eclips	4
бригад	4
▁Proso	4
▁Штаб	4
оказывают	4
▁девушк	4
фель	4
▁трога	4
▁поверить	4
баптист	4
▁сцены	4
rner	4
▁Георги	4
▁зако	4
леба	4
▁бактери	4
▁служа	4
Го	4
▁лёгки	4
▁график	4
настоящие	4
▁написанн	4
▁Игрок	4
▁решать	4
плохие	4
▁Domini	4
▁огне	4
▁философия	4
▁Аполлон	4
канун	4
▁грехов	4
▁пункты	4
▁уступил	4
▁анонсирован	4
hard	4
▁артист	4
винен	4
▁старейши	4
▁смертельно	4
Pop	4
▁интернет	4
▁переписк	4
▁Следу	4
▁преми	4
▁прибытия	4
▁африкански	4
сегда	4
▁неизмен	4
▁Ilias	4
▁Яд	4
▁цитат	4
▁заболел	4
▁показателей	4
▁саммит	4
▁Хельсинки	4
▁Давид	4
▁популярным	4
▁сн	4
▁Никаки	4
эйл	4
▁Луну	4
предположительно	4
???	4
▁выбрать	4
▁важнее	4
▁Road	4
▁мастер	4
частный	4
▁Джесси	4
problem	4
▁пейзаж	4
▁реализова	4
▁шт	4
▁Мира	4
▁преподавателе	4
осторожно	4
восток	4
▁планировалось	4
▁медицинск	4
▁работой	4
▁погребени	4
▁воинов	4
жесточён	4
▁повел	4
▁бесплатным	4
▁протестующи	4
▁религи	4
▁Форма	4
▁livi	4
▁порядк	4
bury	4
▁Сербии	4
лига	4
▁голод	4
▁Finlandia	4
етрополи	4
▁сыновья	4
▁разнообраз	4
▁Прощай	4
▁шутк	4
▁август	4
▁Саш	4
▁живопис	4
▁опер	4
▁Atri	4
▁Carcer	4
▁Chamber	4
▁сокруш	4
блюд	4
▁повторяют	4
▁послал	4
▁Бело	4
▁East	4
служив	4
улет	4
▁единственной	4
▁переезд	4
▁электрически	4
▁представля	4
вятого	4
▁Симмах	4
▁Франциск	4
▁изображен	4
▁нацистск	4
▁запрещена	4
Кевин	4
Antiqu	4
▁Rosae	4
▁Aurea	4
несут	4
▁демонстрир	4
▁ребята	4
▁разнообразие	4
▁пустын	4
▁интервенции	4
▁Андерсон	4
▁колония	4
▁виноват	4
▁ребенк	4
▁Экономическ	4
▁дождя	4
ддис	4
▁собирался	4
▁Cartesi	4
▁Кристин	4
▁отчаянии	4
ённой	4
omic	4
аля	4
▁химически	4
▁Конвенци	4
▁хороший	4
▁Най	4
▁обрати	4
▁разрушено	4
рофиль	4
енным	4
▁системой	4
бросить	4
▁решений	4
▁сведениям	4
▁заклинани	4
▁разряд	4
▁шерсть	4
▁Титан	4
▁пророчества	4
▁подавлени	4
сима	4
▁противостояни	4
▁бродяг	4
▁разновидност	4
▁собственности	4
▁автором	4
▁агентства	4
бретение	4
▁раскрыва	4
▁приготовления	4
▁Горд	4
▁Карп	4
▁счастья	4
Камп	4
▁стих	4
▁порта	4
▁консол	4
▁Collection	4
ряду	4
▁претор	4
▁Вячеслав	4
▁остановиться	4
▁подчинённ	4
▁наименьше	4
▁длительное	4
▁Симон	4
руга	4
ливо	4
лави	4
▁открыти	4
Перепис	4
льшая	4
▁Жорж	4
▁пир	4
▁эльф	4
селенной	4
▁КНДР	4
▁Внешн	4
▁близким	4
▁предшествующи	4
▁транспортны	4
▁ранних	4
▁задни	4
▁двери	4
▁крыль	4
▁снабжа	4
унь	4
▁Esp	4
zione	4
▁лунны	4
ражение	4
оборудован	4
▁килограмм	4
▁скучает	4
▁споров	4
▁Кубани	4
▁stil	4
▁Хозяин	4
▁целях	4
▁растительн	4
▁Алк	4
▁невероятно	4
▁Ним	4
▁почте	4
▁Take	4
▁заняла	4
▁лодок	4
▁вступал	4
renda	4
▁Аляск	4
голландски	4
▁Pulitzer	4
▁Открыт	4
▁испытания	4
суффект	4
ionale	4
▁бесплатно	4
меняет	4
▁юридическ	4
▁государством	4
▁губернии	4
▁масл	4
равоохран	4
▁Хрони	4
ография	4
онно	4
Harm	4
▁Макс	4
▁золоты	4
▁Бельги	4
▁Парфений	4
▁Pennac	4
анка	4
▁остановлен	4
бби	4
▁опуст	4
▁воинам	4
▁сбил	4
▁бирж	4
FC	4
▁заняты	4
▁Тайна	4
▁Leon	4
▁видеоклип	4
▁коммуникации	4
▁компакт	4
▁составляющи	4
▁Палат	4
hog	4
▁ураган	4
▁властью	4
добав	4
▁пересмотреть	4
▁проигры	4
▁субъект	4
LGPL	4
▁механизм	4
▁Вино	4
▁искусство	4
▁оригинала	4
▁подкреплени	4
▁предпочита	4
▁Kra	4
▁Ниже	4
▁коммерчески	4
▁помогал	4
ιν	4
ά	4
▁Салливан	4
▁закончились	4
▁напомина	4
▁публику	4
▁пласти	4
ковые	4
ø	4
▁Канад	4
▁признава	4
▁тяжёл	4
читывая	4
▁говорю	4
▁Bernard	4
▁давн	4
▁Четвёрто	4
▁эндемичны	4
force	4
глашени	4
хождении	4
▁Commons	4
▁легенде	4
▁крови	4
▁выяснилось	4
▁valencianes	4
▁Кид	4
▁Театральн	4
консул	4
▁лицом	4
▁ирони	4
▁Tal	4
▁душе	4
▁производител	4
полож	4
▁Кастро	4
▁аборт	4
▁Новом	4
▁восхища	4
▁Фридрих	4
▁Bristol	4
▁поклонников	4
▁Ward	4
▁Теоре	4
▁видим	4
▁канцлер	4
▁Ата	4
▁даст	4
▁отводи	4
дачи	4
▁тепло	4
▁тигр	4
релла	4
▁успешным	4
▁гробниц	4
дающие	4
▁Основ	4
▁вулкан	4
▁овладел	4
▁Брон	4
▁сообщениям	4
▁халат	4
▁Matrix	4
▁взрослого	4
▁Русь	4
▁дополнительны	4
▁дополнительно	4
▁Германией	4
▁оставила	4
нтон	4
▁обороны	4
▁добавлен	4
▁Посел	4
учка	4
исследователей	4
▁исчезли	4
▁завоевания	4
Салют	4
VA	4
ridae	4
консерватор	4
▁персидски	4
▁XXI	4
▁Импери	4
▁Dionysiu	4
Диониси	4
▁Базел	4
▁возбужд	4
▁захват	4
▁максимальн	4
▁XXX	4
▁цикла	4
▁Нагасаки	4
▁продвижени	4
▁разговоры	4
осман	4
шедший	4
▁автоматическо	4
▁студенческ	4
▁Heterop	4
явление	4
▁propaganda	4
осов	4
▁сведения	4
▁бомбардировк	4
▁сторонник	4
▁Forbes	4
енсов	4
▁Тиберия	4
ополь	4
▁кольц	4
▁Руководи	4
▁испытуем	4
нке	4
▁почтовых	4
▁понимании	4
▁вагон	4
▁свойственн	4
▁Ариа	4
▁Прай	4
▁Настоящи	4
▁жила	4
▁потомки	4
▁организовал	4
▁тяг	4
▁нефти	4
▁царств	4
▁груз	4
орт	4
▁Конкорд	4
▁дворца	4
▁историей	4
▁пирамида	4
ссамбле	4
▁символизиру	4
▁Игр	4
оязычны	4
▁пользователя	4
▁избави	4
▁существующ	4
▁Турк	4
▁−	4
▁мораль	4
▁Acad	4
▁растёт	4
▁Цель	4
▁Ассоциаци	4
▁расце	4
▁лагерь	4
ставлена	4
▁населённ	4
▁корпорация	4
етыре	4
▁кантона	4
▁воспринял	4
▁Mid	4
▁лент	4
▁группой	4
▁Виктора	4
▁Secret	4
▁Мехико	4
давала	4
▁перевести	4
▁НА	4
ировании	4
▁воспроизв	4
▁самц	4
▁проведени	4
▁численность	4
▁получит	4
▁разработал	4
▁пневмони	4
▁Левин	4
▁формула	4
▁формальн	4
удивительн	4
ованы	4
▁экзамены	4
▁слабость	4
▁Leipzig	4
▁Teubner	4
▁громко	4
▁несчастн	4
▁Адольф	4
▁китайск	4
тягива	4
wood	4
сообществ	4
rich	4
▁вопросу	4
▁Синд	4
департамент	4
ированно	4
жка	4
▁Аристотель	4
kk	4
▁повесть	4
onius	4
▁признает	4
▁Guitar	4
▁четыр	4
ün	4
▁схватк	4
Putnam	4
▁Грей	4
▁Писа	4
▁капитана	4
▁Уран	4
El	4
ador	4
▁кафедр	4
родом	4
дны	4
▁шансы	4
зывал	4
▁прес	4
▁Dog	4
прогрессивн	4
▁варвар	4
▁Pure	4
▁Олимпиад	4
▁Chick	4
▁питания	4
▁Eri	4
▁преследования	4
▁Wilhelm	4
▁совместны	4
▁Bert	4
▁Божествен	4
▁Соединен	4
▁возможным	4
▁Cardinalium	4
▁награждени	4
люсти	4
▁преступника	4
▁вере	4
kr	4
▁показали	4
well	4
▁Буква	4
▁атакова	4
▁силой	4
▁Клод	4
ьего	4
anger	4
▁полигон	4
▁достойн	4
польск	4
▁приближ	4
▁Почётн	4
▁Пиро	4
▁Glas	4
fon	4
▁приятн	4
лера	4
ГБ	4
▁Temple	4
▁германски	4
Украина	4
▁Card	4
▁болельщиков	4
▁AP	4
Malv	4
‘	4
девает	4
▁небольш	4
▁мишен	4
▁степ	4
▁требуется	4
▁строит	4
▁скепти	4
мён	4
▁пластинк	4
Scar	4
▁Кэр	4
▁City	4
▁Боливи	4
▁Ливи	4
▁сходств	4
▁Краснодар	4
▁зме	4
▁ребёно	4
▁Bio	4
▁secta	4
▁берегу	4
▁табак	4
Грузия	4
▁штатов	4
▁наибольши	4
▁методов	4
▁Кристал	4
▁протека	4
▁Broad	4
▁Константин	4
▁оставлен	4
▁жертвоприношени	4
▁Рон	4
usand	4
▁Майл	4
▁Мороз	4
▁комедийн	4
▁прерыва	4
▁школьно	4
▁руководи	4
text	4
▁критик	4
брасыва	4
▁графа	4
▁гео	4
▁порист	4
▁аналогичны	4
▁распозна	4
▁Сахар	4
anch	4
▁ошибка	4
дящи	4
▁Пим	4
▁миссионеры	4
▁Шп	4
айер	4
▁девизом	4
▁Auxili	4
Butterfly	4
▁Concordi	4
▁обозначен	4
▁Beethoven	4
▁еженедельно	4
RG	4
▁неожиданн	4
▁кампании	4
техники	4
▁гра	4
▁стадо	4
▁поселение	4
▁добродетели	4
▁Диоклетиан	4
▁Понт	4
▁боеприпас	4
▁древесин	4
Жизнь	4
▁Учёны	4
▁тверд	4
даты	4
▁информа	4
▁ничем	4
▁архипелаг	4
американско	4
▁цифр	4
угольник	4
доса	4
▁достигл	4
▁обитаем	4
свет	4
▁Серге	4
▁числом	4
Victim	4
тти	4
орье	4
вента	4
янки	4
▁хозяин	4
▁распространённы	4
арп	4
▁Kom	4
▁изображение	4
Z	4
▁Жа	4
▁Уилл	4
▁Biograph	4
▁Гэ	4
apse	4
учителем	4
▁Dive	4
▁развиты	4
▁Мексики	4
▁поглощен	4
▁Gone	4
ЕР	4
▁пожалуй	4
▁привычк	4
▁рассвет	4
ответственности	4
▁непрерывн	4
rovi	4
▁alienum	4
▁медсестр	4
▁Irving	4
▁миром	4
▁Games	4
▁затмение	4
▁принятие	4
NA	4
RI	4
▁Альби	4
▁Обер	4
ывали	4
▁проектов	4
шара	4
двигатель	4
▁Trek	4
▁учреждений	4
▁Lind	4
кую	4
▁исчезла	4
▁nobilis	4
▁показал	4
▁программист	4
▁Dru	4
▁riv	4
▁несущи	4
▁Action	4
▁Specialis	4
▁определ	4
вывод	4
▁утверждают	4
▁Rain	4
Венецианск	4
▁объектом	4
▁Silmarillion	4
aps	4
▁национализирова	4
▁нарушение	4
▁очков	4
▁Уокер	4
▁гуманист	4
▁диапазон	4
▁полка	4
▁Salon	4
янь	4
▁Ближайши	4
▁gentium	4
▁справочник	4
▁Paradis	4
▁далее	4
рождает	4
▁Atla	4
▁Foundation	4
▁Rowling	4
нбасс	4
▁Mytholog	4
▁мифологии	4
▁Missou	4
▁Разум	4
▁Mass	4
▁Addison	4
ival	4
▁преподавани	4
RE	4
писать	4
▁Полу	4
буквально	4
▁латинско	4
omsk	4
▁первенств	4
▁империей	4
лишён	4
▁Festival	4
рна	4
ердикт	4
nc	4
▁серьёзное	4
▁Наслед	4
egacy	4
ár	4
▁Zeppelin	4
▁войнах	4
▁открытии	4
▁Endemic	4
▁Optima	4
▁паст	4
Č	4
▁Czech	4
цкий	4
▁экзопланета	4
avia	4
▁Ход	4
▁добрый	4
▁Венесуэла	4
▁Schw	4
▁recentior	4
▁отсутств	4
▁жажд	4
▁лаборатории	4
▁католик	4
▁праздника	4
▁Крас	4
▁могущественн	4
▁потерянн	4
▁Simpl	4
▁Польск	4
°)	4
▁диаметр	4
ways	4
▁Texa	4
▁Мик	4
PS	4
▁Черногории	4
ganda	4
▁гигант	4
▁Hotel	4
Карло	4
▁ракеты	4
▁MathWorld	4
▁Octo	4
▁экономист	4
▁Link	4
▁баллов	4
▁Bat	4
▁Watt	4
▁территорий	4
▁Salvi	4
▁допрос	4
▁черепах	4
Demo	4
radical	4
▁liberale	4
▁rock	4
▁известным	4
▁передне	4
▁экспедиции	4
Holmiae	4
Gra	4
▁рельеф	4
▁молоко	4
актически	4
Ubuntu	4
▁боковы	4
▁Chemi	4
▁Emirat	4
▁Magno	4
▁Каталони	4
▁передать	4
▁платформы	4
▁Circuit	4
▁Fra	4
▁Fran	4
▁солнце	4
▁характерны	4
▁Aga	4
эксп	4
SF	4
▁осуществлени	4
▁предлог	4
▁скрыва	4
live	4
▁Пост	4
furt	4
▁Lor	4
▁Arbor	4
▁школьны	4
рняка	4
IL	4
▁любовник	4
▁психолог	4
▁superciliosa	4
▁video	4
▁Паш	4
▁последствия	4
PN	4
Con	4
▁Cell	4
▁Ed	4
▁Metropolitan	4
▁умны	4
▁Крив	4
▁Johanna	4
▁Meyer	4
ersdorf	4
▁perfect	4
amy	4
Norman	4
enii	4
▁Arm	4
bre	4
▁Java	4
консалтинг	4
lepha	4
▁Ran	4
cond	4
▁Chicago	4
NT	4
эру	4
Homo	4
▁Proto	4
▁предварительно	4
▁мероприяти	4
▁психиатр	4
▁акул	4
▁Hannover	4
▁Bibli	4
▁European	4
Leopold	4
▁Quintus	4
▁Aureli	4
▁Symmachu	4
▁Otto	4
▁Za	4
▁Arnold	4
▁Tele	4
▁Chrys	4
Tiberius	4
▁Commenta	4
▁Bonifacius	4
rgate	4
gun	4
▁Matth	4
ọ	4
▁Plane	4
▁выясняется	4
▁Чак	4
▁Din	4
wan	4
▁Thema	4
▁Саксонии	4
Flash	4
▁Gib	4
Religio	4
▁Apert	4
▁Bel	4
γ	4
Shock	4
rrational	4
niger	4
▁Radic	4
▁Perit	4
▁Zoolog	4
▁Colli	4
Кролик	4
dux	4
tyri	4
vocat	4
▁Cameron	4
▁Seattl	4
▁Offici	4
pagi	4
▁Lang	4
▁adhiber	4
▁valet	4
scribere	4
▁adiutor	4
▁salutis	4
▁familiare	4
▁Musa	4
▁tuum	4
▁Bernae	4
Iosephi	4
▁natu	4
▁delet	4
▁sin	4
▁Technologiae	4
▁Religion	4
▁Termin	4
▁diminut	4
▁definir	4
▁eram	4
▁Aeroportu	4
▁Millennium	4
gilla	4
finit	4
▁separati	4
▁Charta	4
servare	4
▁pendet	4
▁periculo	4
▁omnis	4
▁comoedia	4
▁Shakesperii	4
▁benign	4
▁coniectu	4
▁matutina	4
▁Commission	4
▁Nocte	4
▁melior	4
▁septentrionale	4
▁Scotic	4
▁Repert	4
▁dimica	4
▁Sapor	4
▁honorat	4
▁sacrific	4
▁promiss	4
ibra	4
venit	4
▁plane	4
pacto	4
morph	4
▁impressus	4
▁appe	4
▁venantur	4
▁cinemat	4
▁odor	4
▁percentatio	4
▁Elegiae	4
▁proposuerunt	4
rumque	4
Cultura	4
▁domicili	4
odio	4
▁constituerunt	4
▁Europaei	4
▁interiore	4
▁Californiae	4
tidi	4
▁collig	4
▁conditore	4
▁Element	4
▁periodo	4
▁supplement	4
raefatio	4
▁matri	4
▁period	4
▁Statua	4
▁Armeniae	4
▁afficit	4
irati	4
▁solebant	4
▁Homeru	4
ltitudo	4
▁habui	4
▁profite	4
▁novit	4
▁Plera	4
▁opposition	4
▁longitud	4
▁dabat	4
angeli	4
▁orationibus	4
dinum	4
▁Occidentalem	4
ἀ	4
vill	4
▁pav	4
▁margine	4
▁tecti	4
▁contig	4
▁iuvat	4
▁tigr	4
▁periegeticae	4
▁mammalia	4
▁vert	4
▁Quaestion	4
▁Testament	4
silva	4
▁Montem	4
▁Ferrivia	4
▁rapta	4
▁aspici	4
▁futuri	4
▁Quant	4
▁agri	4
Finnice	4
▁composit	4
▁transmitt	4
▁Ang	4
legatione	4
▁colores	4
▁Mexican	4
▁conflictu	4
▁Sardinia	4
▁Vaticana	4
▁gravissim	4
▁qu	4
obiectum	4
▁carent	4
▁communicati	4
▁tecum	4
▁pede	4
▁confecit	4
Mediolani	4
▁gerebat	4
ifficile	4
vend	4
cursio	4
▁Finni	4
▁temp	4
▁veritas	4
aec	4
▁laudat	4
▁legis	4
▁permiss	4
▁Beati	4
▁misericordia	4
▁immortali	4
▁Ber	4
▁possidebat	4
▁gust	4
▁orphan	4
▁loquendi	4
▁dubitant	4
▁legenda	4
▁Fort	4
▁Therm	4
▁Parisiensis	4
▁universitates	4
▁adoptat	4
▁articulo	4
▁praesentat	4
▁Cypr	4
▁indig	4
▁monast	4
▁renovata	4
▁Pictura	4
▁observatoriu	4
▁galaxia	4
▁Brasiliensis	4
σ	4
▁Extremi	4
▁populari	4
▁emi	4
▁propinqua	4
▁cursuali	4
▁negare	4
▁testud	4
legisse	4
▁refert	4
▁milliardi	4
▁Hieme	4
▁destinata	4
▁alien	4
ersa	4
▁solit	4
▁magisque	4
▁Atti	4
▁Product	4
▁domesticus	4
▁gross	4
▁declarat	4
▁Ierusalem	4
▁humanitate	4
▁gam	4
▁Licin	4
▁timere	4
▁neglect	4
▁Mult	4
▁Naturalis	4
▁Hafniae	4
▁invad	4
▁repudiavit	4
pidi	4
▁veterrim	4
▁Alma	4
▁Constitutionis	4
matica	4
minutum	4
▁figuri	4
▁aperuit	4
▁Sylla	4
▁nerv	4
▁provenit	4
▁Feriae	4
▁Galba	4
▁Septentrionale	4
recenti	4
▁Successor	4
▁declaration	4
▁promulgata	4
▁inducta	4
Quin	4
▁renuntiavit	4
▁Rudolph	4
▁Communista	4
▁ferunt	4
▁Actio	4
▁Slovaciae	4
▁regionales	4
▁prodit	4
amico	4
▁requirit	4
▁Christianitatis	4
▁investiganda	4
▁confer	4
▁consentiunt	4
sitan	4
▁elabora	4
▁nepote	4
▁abdicaverunt	4
▁Ulixe	4
▁appellant	4
▁defunct	4
▁Putin	4
▁Sper	4
▁divulgavit	4
paraverunt	4
▁disputationem	4
brem	4
▁medici	4
▁persuadet	4
▁cerebrum	4
▁vivens	4
onio	4
▁putavit	4
potente	4
▁administrator	4
▁monetari	4
▁agricolarum	4
▁spiritum	4
▁expedition	4
▁particeps	4
iformibus	4
▁apparuit	4
▁intue	4
▁genuer	4
▁relativitat	4
▁speciale	4
▁illustrat	4
▁fasciculi	4
iecerunt	4
▁Pho	4
▁revertit	4
centr	4
▁libras	4
▁aestimavit	4
▁merce	4
▁Candidat	4
▁Suecica	4
▁Portugalliae	4
▁Prince	4
loquens	4
▁conantur	4
▁contagio	4
▁trad	4
▁Referend	4
▁Gandhi	4
▁contextu	4
▁Ottavae	4
toriis	4
▁reducta	4
▁orchestra	4
nau	4
▁conductore	4
▁Ian	4
▁celeberrim	4
▁conclusit	4
▁Müller	4
▁disputand	4
▁exire	4
▁consonantes	4
▁Campan	4
▁attesta	4
▁emit	4
▁scriba	4
▁Communistica	4
traxerunt	4
▁heres	4
▁meta	4
Fund	4
▁nesciebat	4
eptus	4
▁plani	4
▁Valentiana	4
herius	4
▁antiquam	4
▁occasu	4
▁substitui	4
▁descrip	4
▁perierunt	4
buntur	4
▁rud	4
▁oves	4
▁normativ	4
▁computatr	4
▁adfirmat	4
▁demonstra	4
▁professionali	4
▁velocita	4
acter	4
▁apparent	4
▁Angelopoli	4
▁referuntur	4
entacul	4
▁referentia	4
▁hebdomada	4
Via	4
▁prospectus	4
▁invic	4
▁nativ	4
▁docet	4
▁Atropatenic	4
▁incusat	4
▁Pice	4
▁civilis	4
▁desideri	4
▁Territori	4
▁Socialism	4
ession	4
▁Tennesia	4
▁sancta	4
phyl	4
▁theatra	4
▁liceat	4
▁Facil	4
▁apparere	4
▁Caeci	4
disti	4
▁varii	4
patr	4
rice	4
▁Turma	4
Ch	4
▁Modo	4
▁venditur	4
▁cra	4
▁Meridio	4
▁infinit	4
▁coniectura	4
▁cat	4
▁Atheni	4
hara	4
▁Venetia	4
▁edend	4
▁somnia	4
itati	4
▁Sodalitat	4
▁propositio	4
▁universalis	4
▁dividunt	4
▁Maia	4
▁prior	4
▁Sul	4
▁prompt	4
▁Linco	4
▁Herodotus	4
▁coniunxerunt	4
▁Kir	4
▁Tan	4
ide	4
▁divid	4
▁sapiente	4
▁demissione	4
▁manere	4
manserunt	4
▁temporali	4
pariense	4
▁laboraverunt	4
▁Poeni	4
▁foederali	4
Administrationis	4
▁Slavi	4
▁Balcaniae	4
▁televisifico	4
▁musicis	4
▁altior	4
▁expressa	4
▁conversi	4
▁obligatori	4
▁vilic	4
▁Francico	4
▁gign	4
odon	4
▁ingenios	4
▁isto	4
ntium	4
▁inest	4
▁sabbat	4
Cur	4
▁Antiquitate	4
▁Iudaicae	4
▁intestin	4
▁inventione	4
▁confecta	4
▁selectione	4
▁ambitu	4
▁leone	4
▁confundend	4
▁propositis	4
▁Regione	4
▁adoptavit	4
▁vehicul	4
▁desiit	4
▁alcohol	4
▁discess	4
Ioh	4
lente	4
▁recrea	4
▁Agricultura	4
▁vectore	4
▁impediment	4
▁Caucasi	4
▁nationibus	4
▁cacao	4
▁Hunn	4
▁invaserunt	4
▁victi	4
▁facilis	4
lentia	4
▁Secretari	4
▁Commentarius	4
▁Etenim	4
▁Fan	4
▁Praemia	4
spicere	4
vig	4
▁cardinali	4
▁Saxoniae	4
▁Uran	4
▁noto	4
▁naturales	4
▁algorithm	4
▁positio	4
▁curare	4
▁errores	4
▁praetore	4
▁Morali	4
▁cuique	4
▁discrimini	4
▁intention	4
ollocatio	4
▁gaudent	4
▁congrega	4
▁utilit	4
▁athleta	4
▁lucta	4
▁canit	4
▁albo	4
▁edunt	4
▁heredita	4
▁coniuration	4
▁protagonista	4
simile	4
▁effugit	4
jad	4
ynthi	4
praese	4
▁revolutionaria	4
▁poësi	4
▁Nauru	4
lemma	4
▁probari	4
▁damno	4
Suecic	4
▁Neptunum	4
▁heroi	4
capitane	4
▁nummo	4
severa	4
▁detect	4
servat	4
▁Moldavia	4
lla	4
▁epigrammata	4
▁Anthologia	4
▁attribuit	4
▁paucae	4
▁celebrabantur	4
▁Orthodoxa	4
ilitaris	4
▁calendari	4
▁vestibus	4
▁servitu	4
▁abole	4
icus	4
▁valle	4
ì	4
▁astronomic	4
▁commentario	4
orbi	4
scripsit	4
postolorum	4
ribus	4
▁Italiana	4
imam	4
▁cadit	4
▁duode	4
▁legiones	4
▁inferiori	4
▁vocabuli	4
▁orator	4
oidei	4
▁lacrima	4
▁perpetuo	4
▁moribus	4
▁dualis	4
▁Prussia	4
▁Civile	4
▁Iohanne	4
▁Venit	4
▁Scriptor	4
▁election	4
▁Singapura	4
▁stagn	4
▁duplicat	4
▁adveni	4
▁debere	4
▁Barac	4
▁Stult	4
▁barbari	4
▁piscium	4
▁impar	4
▁Redit	4
▁minora	4
▁calid	4
▁fossi	4
▁congruunt	4
▁domestico	4
▁parentibus	4
▁ethnici	4
▁suffragi	4
▁destinati	4
▁collega	4
▁disputa	4
▁extr	4
▁compag	4
▁Russicam	4
▁lucra	4
▁insomnia	4
▁Huius	4
fascista	4
▁telephoni	4
▁Event	4
▁deditionem	4
▁Iraniae	4
▁opponit	4
▁Capitis	4
▁navigavit	4
▁ultr	4
▁dialog	4
aguntur	4
▁cerni	4
landiae	4
▁demonstratione	4
huc	4
▁conferre	4
▁exstabat	4
▁coepta	4
▁specimin	4
▁dialogo	4
▁minuti	4
▁Aeta	4
▁coepi	4
▁Iustitiae	4
▁Praefect	4
icissim	4
▁dicat	4
▁computatro	4
▁hereditatem	4
▁scholis	4
▁adest	4
▁rarae	4
Dic	4
▁Mantua	4
▁regendi	4
▁conloqui	4
▁fing	4
▁theorema	4
▁Agricola	4
siliens	4
▁Morg	4
▁foederati	4
▁Quinta	4
▁interfuerunt	4
▁pirata	4
▁archivi	4
▁legit	4
▁despera	4
▁Soviet	4
▁locali	4
▁Caroli	4
▁mors	4
▁docta	4
▁soci	4
▁superavit	4
▁nequ	4
▁Borussiam	4
▁Text	4
▁Ovidi	4
▁cant	4
▁aerem	4
▁suprema	4
▁Britannicis	4
▁Tol	4
▁interroga	4
▁Nederlandicus	4
▁triumphali	4
▁ingredi	4
▁supple	4
rici	4
▁pronuntiat	4
▁Anglicum	4
▁praetor	4
▁fisc	4
▁faciebat	4
▁physici	4
▁electric	4
▁Greg	4
▁occurrit	4
fixa	4
bulen	4
▁fecis	4
▁capitul	4
▁rectum	4
coloniam	4
▁bonus	4
▁gerere	4
▁suscip	4
tractatur	4
crevit	4
▁consum	4
▁beneficentiae	4
servandam	4
▁Persi	4
Gymnasium	4
▁postula	4
▁explora	4
xerit	4
▁extendit	4
▁Fasci	4
▁composita	4
▁Mongoli	4
▁inane	4
▁formalis	4
▁medicamenta	4
▁protein	4
▁gerend	4
▁Fabrici	4
alen	4
▁lobi	4
▁felix	4
▁Ianuari	4
trahere	4
▁conclav	4
▁Indianensi	4
andri	4
▁elementi	4
▁fune	4
▁nutri	4
▁Urbes	4
▁rete	4
▁intrare	4
▁praeclar	4
▁aqui	4
▁pergit	4
▁clausa	4
▁longitudinis	4
▁Tul	4
ş	4
▁choro	4
▁Gulielmo	4
▁Copia	4
▁Longitud	4
▁Seditio	4
▁iuveni	4
▁itineri	4
▁glacia	4
▁narratio	4
volant	4
▁scientificae	4
▁flamma	4
▁Natio	4
▁subtropic	4
▁evers	4
iecti	4
▁Rhenum	4
▁nominabatur	4
▁Peters	4
▁technic	4
▁autobiographi	4
▁dimissione	4
▁compl	4
▁candidat	4
▁moderat	4
edit	4
▁discrepa	4
▁Fier	4
▁degit	4
▁alimenta	4
▁extensi	4
▁Porta	4
▁animae	4
▁addere	4
onsistit	4
▁Neptun	4
▁Lup	4
▁exportat	4
▁vicari	4
ucae	4
ficiunt	4
▁Ampli	4
▁licentia	4
▁debuerunt	4
▁religiosis	4
▁rumor	4
▁erudi	4
▁Cunct	4
sotopi	4
▁frequenta	4
▁necessario	4
▁emitte	4
ficere	4
▁illu	4
▁universitati	4
▁porro	4
▁conservata	4
▁evolutionem	4
▁teli	4
iste	4
▁directione	4
▁imple	4
▁aegr	4
▁pulmonum	4
▁febr	4
▁Tempus	4
▁Servi	4
▁sententiis	4
▁permanet	4
▁scribi	4
▁nox	4
▁consulari	4
▁Magdalena	4
▁vertit	4
editionem	4
▁appell	4
ographi	4
▁Oriente	4
▁Bolivia	4
▁cunicul	4
▁conduci	4
▁percipi	4
▁possimus	4
▁Maximilian	4
▁epidemia	4
▁frequentissim	4
▁memora	4
abet	4
▁foramin	4
▁inceperunt	4
▁consiliari	4
▁venatori	4
▁Locutio	4
▁reddita	4
▁Rad	4
▁responde	4
nomina	4
▁Barbar	4
▁modern	4
▁Viridi	4
▁navicula	4
▁dictu	4
▁monachus	4
rens	4
▁centrali	4
▁diuturn	4
▁politicum	4
▁membra	4
▁Francogallia	4
▁alea	4
▁Hass	4
▁congru	4
▁Superioris	4
gentem	4
▁Porro	4
▁navibus	4
▁classifica	4
▁moment	4
▁Duca	4
▁pessima	4
▁Baccalaure	4
▁chor	4
▁Iaponensis	4
rica	4
iunxit	4
▁sacerdos	4
▁ferriviaria	4
andro	4
sistebat	4
▁regiminis	4
▁Iapon	4
▁ocean	4
▁habitae	4
cursu	4
▁idea	4
▁formant	4
lingua	4
▁opposuit	4
▁propriis	4
▁Cantuari	4
▁nasc	4
▁rubri	4
▁magistrat	4
▁insigniter	4
▁discit	4
homi	4
▁pittaci	4
▁orig	4
▁Viri	4
Italice	4
▁theoriam	4
▁mera	4
▁impossibil	4
▁scriptus	4
▁metrorum	4
▁sinus	4
▁Catholic	4
rologium	4
▁Capitoli	4
▁licebat	4
▁Stevens	4
▁Physica	4
▁Litteraturae	4
▁notitia	4
▁Permult	4
▁Italiani	4
▁inventum	4
rogavit	4
▁asper	4
rima	4
▁exeunt	4
conventi	4
▁carens	4
abria	4
▁adhaere	4
▁exhibitio	4
▁septentrionales	4
▁Tolkien	4
▁popularissim	4
▁directa	4
▁possidere	4
▁conexa	4
▁Dant	4
▁implicata	4
▁abbatia	4
▁socialisticae	4
▁Suffrag	4
▁Italici	4
▁cognata	4
esse	4
cedenti	4
▁factionibus	4
▁arid	4
▁varietate	4
▁constitutionale	4
classificationis	4
▁Librum	4
ordan	4
▁Serbia	4
mittit	4
▁monti	4
▁mercatoria	4
▁hostibus	4
▁increment	4
▁electio	4
▁tuos	4
▁tela	4
▁musico	4
▁Uxore	4
orumque	4
▁imprimendi	4
▁mundan	4
▁Iudaico	4
▁Recenti	4
▁observata	4
piam	4
▁amplificata	4
▁biologica	4
▁septentrione	4
▁Barcinon	4
▁Lag	4
▁necessitate	4
Economi	4
▁Commentarii	4
fuisse	4
▁Semina	4
ark	4
▁divers	4
▁Pistori	4
▁transforma	4
▁vetere	4
▁auctores	4
▁spectare	4
▁Statisticae	4
ringe	4
▁producta	4
▁debent	4
▁alteri	4
▁proponit	4
▁pisci	4
▁vento	4
▁Iove	4
▁corpore	4
▁Antic	4
▁immigraverunt	4
▁capitis	4
▁cibi	4
llenses	4
rubra	4
▁sanct	4
▁antipapa	4
▁conloca	4
▁Oceani	4
▁astronomiae	4
▁Portoric	4
lux	4
▁sollemni	4
▁adhibit	4
▁alius	4
metria	4
▁production	4
▁accessum	4
fecerunt	4
▁Prat	4
▁Plurima	4
▁numeratur	4
▁iuva	4
communica	4
▁consistunt	4
hist	4
▁describuntur	4
▁sanguinis	4
▁Ptolemae	4
▁Castell	4
▁Occidentali	4
▁Tractat	4
▁nega	4
▁recentiores	4
▁nub	4
▁acceptam	4
scovi	4
▁obrut	4
▁capitur	4
▁Itinerari	4
▁pati	4
▁opinat	4
▁pasc	4
▁obses	4
▁Valerius	4
▁Nederlandica	4
▁colonizatio	4
▁mundano	4
▁Stati	4
▁confite	4
ippin	4
▁socio	4
▁chiliogrammata	4
▁suff	4
▁vestitu	4
▁cervisia	4
▁deserto	4
lienses	4
Introductio	4
tta	4
▁muscul	4
▁diurnari	4
lair	4
▁nititur	4
▁mediis	4
▁tribuit	4
▁commenda	4
▁salute	4
▁Vetu	4
▁Mercurius	4
ου	4
▁iacta	4
▁sodalitat	4
▁municipia	4
▁ictum	4
▁sexto	4
▁diffusa	4
▁Operis	4
▁pugnaverunt	4
▁satisfac	4
▁oneraria	4
▁noti	4
kg	4
▁expedit	4
oxid	4
xioma	4
▁Gam	4
ortum	4
miserat	4
▁Antarctica	4
▁traditio	4
▁Sacri	4
▁felicitatem	4
▁Libertat	4
▁celeber	4
▁fortissim	4
▁dicebatur	4
▁suspens	4
▁iuventutis	4
▁deminutio	4
▁creaverunt	4
▁crescente	4
▁ducunt	4
▁visibili	4
▁birot	4
▁Carmin	4
▁censum	4
▁botanista	4
▁Germanicum	4
▁vexillum	4
▁Castella	4
▁metropoli	4
▁Nuc	4
▁Nad	4
▁doctrinam	4
▁artibus	4
▁expandit	4
▁Sociale	4
▁Persa	4
▁quotidi	4
▁Ricardus	4
▁Sergi	4
▁pugnant	4
▁Nagasaci	4
▁Iaponicam	4
▁inspira	4
▁intellegere	4
▁systematic	4
▁noverca	4
▁Futur	4
▁cadent	4
▁aedificati	4
▁Kante	4
▁privatae	4
▁Speci	4
▁postulatione	4
mocratia	4
▁digeri	4
▁praesidiali	4
▁Opinio	4
issimam	4
▁descriptu	4
▁exposition	4
▁expugnata	4
SPD	4
▁Theodosi	4
▁Spectator	4
▁Foederata	4
rexit	4
Turcice	4
▁forte	4
fragi	4
▁pyramid	4
▁mulierem	4
▁exsistentia	4
▁ullo	4
▁itiner	4
▁Napoleone	4
▁auditore	4
▁poetam	4
▁cuncta	4
nuclearis	4
▁Tonga	4
▁solitari	4
▁finito	4
oamericana	4
▁Phoenic	4
▁recessu	4
▁crema	4
kov	4
▁nuntius	4
▁Hadr	4
▁censetur	4
▁consideratur	4
▁cessav	4
▁Mares	4
▁Francici	4
▁Bithynia	4
ruerunt	4
▁subfamilia	4
▁pneumoni	4
▁thema	4
▁accepto	4
▁trah	4
▁remota	4
▁considerat	4
▁magnae	4
▁convenire	4
▁habemus	4
▁gasii	4
▁recept	4
▁Consociatione	4
▁chromosomat	4
▁Tai	4
▁ovis	4
ingendi	4
▁studiosi	4
▁poly	4
▁Vespasian	4
stian	4
▁collegium	4
▁Camill	4
▁Sav	4
ndarum	4
▁contentione	4
▁lunari	4
▁militarem	4
▁cathedra	4
▁mechanica	4
▁Catalaunia	4
dorf	4
ingtonia	4
▁Perse	4
▁fiebat	4
▁missionari	4
▁Germanico	4
▁Napoleon	4
▁coep	4
▁Turn	4
▁vixerunt	4
▁Medicina	4
▁Berolin	4
rexerunt	4
▁accen	4
▁praeceptis	4
▁nostro	4
▁codice	4
▁speculatr	4
▁pulchritudinis	4
▁convent	4
▁cubic	4
▁academica	4
▁Minorica	4
▁Balb	4
onibus	4
▁digna	4
▁insect	4
▁Sinis	4
eces	4
▁acquisi	4
▁fragmenta	4
▁auctu	4
▁artifice	4
▁variant	4
▁incommod	4
▁adumbration	4
▁Gana	4
▁construct	4
▁igne	4
▁nuncupantur	4
avus	4
▁vecta	4
▁critica	4
▁document	4
▁adiacent	4
▁Australiana	4
interpretationem	4
▁nobili	4
▁Lusitania	4
▁Thoma	4
▁metropolitana	4
▁Salman	4
▁Leuc	4
Chronica	4
▁benefici	4
syllaba	4
▁decembri	4
▁acced	4
▁semin	4
▁signi	4
▁neutr	4
▁Mathematic	4
▁phil	4
▁pauperes	4
▁Beth	4
▁celebr	4
▁Hispaniam	4
▁subtypo	4
▁viola	4
▁Gor	4
sculpta	4
▁oblecta	4
▁Ottomanici	4
▁commod	4
▁Belgic	4
▁Vest	4
▁agriculturali	4
gebat	4
▁Viator	4
bilitatem	4
Geminae	4
▁Firm	4
▁exsister	4
lenses	4
▁vect	4
▁imperfect	4
▁gest	4
▁peperit	4
▁unitate	4
▁adiunct	4
▁Fabrica	4
▁Macedonia	4
▁visu	4
▁Finniae	4
▁accusatione	4
▁scorpion	4
▁gentis	4
inar	4
▁comprehens	4
ibliographia	4
▁collocatione	4
▁Zag	4
▁minorem	4
oviae	4
≤	4
▁Lennon	4
▁Silvan	4
▁vertic	4
▁offert	4
▁vexill	4
▁circumdat	4
▁aevum	4
▁infrastructura	4
▁Functio	4
▁monument	4
▁item	4
▁opposit	4
▁clarus	4
▁Heli	4
▁professores	4
osov	4
▁spatiali	4
▁dicend	4
▁Eruditi	4
▁lacte	4
ther	4
▁dignitatem	4
▁milliard	4
▁diff	4
▁coqu	4
▁securitate	4
▁dogmat	4
▁quater	4
▁Kazachstania	4
▁Hebdomada	4
темпе	3
▁концовк	3
▁Ибрахим	3
▁жителя	3
▁Мад	3
елений	3
селени	3
ḥ	3
▁совершенств	3
▁небеса	3
▁ясны	3
▁благослови	3
▁эффективност	3
stanbul	3
Книга	3
▁Революци	3
▁высказывани	3
▁ложно	3
▁говорящи	3
казанно	3
▁прощение	3
▁снижени	3
▁расстаться	3
▁больницу	3
▁дневник	3
▁возьми	3
▁Надежд	3
жаловать	3
▁исправить	3
▁пожалуйста	3
▁Dutton	3
lburn	3
днев	3
▁звонка	3
!!!	3
▁единицы	3
▁опубликовало	3
▁лондонск	3
срочны	3
мерщвля	3
other	3
▁Thou	3
▁подъём	3
▁повесил	3
▁обл	3
▁сентябрь	3
▁преступник	3
▁Мерз	3
▁грязны	3
▁одеты	3
реальности	3
Erma	3
tschneider	3
▁бомбардирово	3
▁бюро	3
▁Кирилл	3
▁Пришло	3
▁теоретическ	3
▁конфискован	3
world	3
̀	3
хадж	3
чивы	3
марк	3
▁производит	3
морожен	3
▁поставка	3
▁отказываться	3
▁доработан	3
▁выдал	3
▁сопровождающи	3
▁Даниэл	3
Mail	3
репко	3
▁статуя	3
▁Сентябрь	3
▁процента	3
таблиц	3
▁Кун	3
▁poetarum	3
▁sapore	3
▁Catulli	3
▁Приблизительн	3
▁написа	3
▁Мадагаскар	3
dolphi	3
▁дружески	3
▁счастлива	3
+)	3
▁строени	3
▁объединённ	3
▁говори	3
Sorbon	3
▁последовавш	3
▁Корол	3
▁спать	3
▁Управление	3
▁памятью	3
▁доллару	3
▁кораблём	3
▁Сторо	3
▁Уэльс	3
несла	3
▁оперативн	3
▁Вышл	3
▁Куда	3
▁группов	3
▁сыгра	3
▁мудрец	3
▁невиновен	3
▁свидания	3
▁переправи	3
▁созыва	3
▁француз	3
▁освоит	3
▁импортирова	3
▁физически	3
дики	3
▁Caledoni	3
▁инфекции	3
▁плохого	3
▁вдохновил	3
▁устаревши	3
▁параметр	3
▁сражение	3
▁Собственно	3
▁Ватикан	3
▁заповедника	3
Jean	3
▁метафор	3
▁нормальн	3
▁изъявл	3
▁отнял	3
▁Науч	3
▁Твои	3
▁вспомнить	3
▁думаете	3
itz	3
Марсель	3
▁оставив	3
▁пойма	3
▁определяет	3
частлив	3
▁Хорош	3
▁Дивизи	3
▁напр	3
▁обратн	3
▁свободн	3
▁русских	3
резанны	3
▁подчёркива	3
▁мигрант	3
▁Агент	3
▁опоздала	3
iversity	3
▁Причём	3
▁искренне	3
▁доказывает	3
▁Компьютер	3
▁тиран	3
▁значимы	3
▁Alpheu	3
бавлять	3
▁Джозеф	3
▁наркотиками	3
▁Венеция	3
строение	3
▁сооружен	3
▁претерпел	3
▁дерева	3
▁завещание	3
всю	3
▁Честн	3
▁прямая	3
▁Transport	3
▁отдых	3
▁будущим	3
▁завтра	3
▁вызван	3
▁назовё	3
▁таинственно	3
▁предсказание	3
▁выслушива	3
аналитик	3
▁новость	3
▁чёрный	3
▁любым	3
▁останется	3
▁колокола	3
▁Пасхи	3
▁стипендию	3
▁Остальн	3
▁Сардинии	3
▁рассмотрения	3
▁Ватиканск	3
▁Ватикана	3
▁важность	3
▁Лог	3
▁магазинах	3
▁упр	3
▁тяготе	3
▁чарт	3
▁девятнадцат	3
▁исчезновения	3
Бизнес	3
▁провозглашает	3
муниципальных	3
▁публичны	3
верьте	3
Воскре	3
▁Второе	3
▁печаль	3
▁возвратился	3
▁будешь	3
▁предста	3
▁молчани	3
▁заканчивается	3
▁небесно	3
говорил	3
▁юности	3
beauty	3
▁красота	3
▁вспышки	3
удобств	3
▁преподавать	3
▁частно	3
▁Cerber	3
▁Пойма	3
▁Животны	3
▁зоопарк	3
▁солнца	3
▁понравилось	3
▁Выходны	3
▁праздников	3
▁рабочим	3
Удачн	3
▁понедельник	3
▁бабушк	3
▁башня	3
▁встрети	3
▁любить	3
▁Humani	3
иректор	3
▁родителям	3
падать	3
▁тяжел	3
Ответ	3
▁установленно	3
служил	3
▁нажима	3
▁сброс	3
ыигрыва	3
▁отделени	3
▁Словении	3
▁спокойн	3
▁трудны	3
поминают	3
▁рабоче	3
▁компьютер	3
▁Евро	3
▁Восьм	3
▁противостояния	3
▁напрасн	3
▁тратит	3
▁новостей	3
ообщается	3
▁выстав	3
▁тобой	3
▁квалифицированн	3
▁пребывани	3
▁Residen	3
▁Swe	3
▁Галактик	3
энергетик	3
▁выработ	3
электроэнергии	3
▁считая	3
красные	3
▁сделаю	3
▁встретить	3
▁полчаса	3
Гриш	3
▁врагом	3
▁München	3
▁потряс	3
нялась	3
▁безопасно	3
▁проживающи	3
▁Апп	3
ешься	3
▁одинаково	3
▁врачей	3
▁способов	3
запрета	3
▁почита	3
Воспоминания	3
▁рассуждени	3
▁героя	3
▁тайфун	3
▁турк	3
▁Священник	3
▁Aure	3
экономически	3
▁стимул	3
▁рисунк	3
очешь	3
▁лестница	3
▁высоту	3
▁магически	3
▁доспех	3
▁бедны	3
▁доллар	3
▁утренни	3
▁сессии	3
тного	3
▁Иерусалиме	3
▁значений	3
▁ящик	3
садник	3
▁дворов	3
▁валют	3
▁Пожалуй	3
▁милосерди	3
центов	3
нимался	3
▁Скорост	3
▁напуга	3
октябрь	3
Естественн	3
▁обществе	3
▁террора	3
▁Blog	3
▁отказывался	3
▁Украину	3
▁оснований	3
▁барабан	3
▁специфик	3
▁Франси	3
▁вовремя	3
совместима	3
▁культурным	3
▁Ветхо	3
плат	3
PP	3
IST	3
tempor	3
▁танец	3
▁театром	3
▁просуществова	3
New	3
тельства	3
▁педагог	3
▁Шумейкер	3
деемся	3
изречен	3
▁деревь	3
▁бесед	3
▁лжи	3
льское	3
▁подарки	3
▁буд	3
▁олиг	3
▁заговорил	3
▁заканчива	3
▁латын	3
ИД	3
▁экономик	3
▁аминокислот	3
метров	3
едатель	3
▁проявления	3
Статьи	3
▁худш	3
едвижимо	3
волшебным	3
▁вмешательство	3
▁членам	3
▁Рокк	3
▁Минск	3
▁почётн	3
▁семейны	3
▁стоят	3
▁Страшно	3
▁острый	3
▁наняты	3
кульптор	3
люс	3
▁Блок	3
взросле	3
▁ближайше	3
▁Слух	3
▁распад	3
▁критику	3
ехали	3
▁попали	3
▁заимствовани	3
▁самоубийством	3
▁женщинам	3
▁голосовани	3
▁Высши	3
▁замысл	3
▁умирать	3
▁воссоздан	3
▁певц	3
▁валюты	3
▁Исландии	3
▁экономику	3
▁Пользу	3
▁функци	3
хвачен	3
▁угла	3
▁стабильности	3
▁валютно	3
▁жалоб	3
▁Минь	3
▁Холл	3
ЕС	3
▁Гвидо	3
▁археологическ	3
▁экспедиц	3
▁беззакони	3
▁очисти	3
▁птич	3
▁болезнь	3
▁штамм	3
▁Далмаци	3
▁заложников	3
▁удержива	3
▁тирании	3
▁дурак	3
▁Ужас	3
▁относительности	3
▁иллюстрации	3
▁состоят	3
▁футбол	3
▁расширени	3
ищет	3
▁риску	3
гомосексуал	3
▁бессмерти	3
▁холодно	3
▁милици	3
▁наркотиков	3
французски	3
▁Философ	3
▁отпусти	3
▁лагеря	3
▁Днепр	3
▁неудачным	3
доступна	3
▁Правил	3
▁апостол	3
▁застал	3
▁необходимост	3
вобод	3
▁каникулы	3
▁Блэк	3
▁тайно	3
▁Зеландию	3
ительную	3
▁повседневн	3
▁Manual	3
atment	3
▁Profile	3
▁Подобно	3
▁капелл	3
▁Плод	3
▁Холокост	3
▁настоятельн	3
▁удостоил	3
▁симфоническ	3
▁Флаг	3
ффа	3
▁НАТО	3
село	3
▁Favour	3
еньки	3
▁любому	3
▁оценки	3
▁приведён	3
дзу	3
▁Государства	3
риб	3
▁адвокат	3
▁посади	3
▁гостя	3
▁Bulletin	3
▁тревог	3
▁утвержден	3
брали	3
▁лекции	3
)=	3
▁платформа	3
▁соблюда	3
▁нейтралитет	3
▁употреби	3
орио	3
▁Венгрии	3
▁Альвар	3
▁пилота	3
▁интер	3
▁отнести	3
▁Высше	3
▁Мужчины	3
▁голодно	3
▁повторил	3
▁Говоря	3
циклически	3
▁углеводород	3
▁Чёрны	3
▁древним	3
▁Харт	3
▁комбин	3
▁публикация	3
видов	3
▁ненападении	3
▁предпоследн	3
▁Назначен	3
▁суши	3
▁полгода	3
▁пастух	3
Book	3
▁Power	3
▁чис	3
▁Максимальн	3
▁Stuttgart	3
грешим	3
▁спектра	3
▁интенсивны	3
▁водород	3
▁жёл	3
▁выглядел	3
▁Адвокат	3
▁апелл	3
▁продавал	3
▁Пищ	3
▁личного	3
▁схвати	3
▁Келли	3
▁дольше	3
▁Петербурге	3
▁Западны	3
▁Syracus	3
▁снялся	3
▁Киеве	3
▁замечательны	3
▁готическ	3
▁Парн	3
▁Выделяют	3
▁подвида	3
▁Хартман	3
▁hartmannae	3
▁отличны	3
▁Тик	3
▁Филд	3
▁купил	3
▁еженедельник	3
оуэлл	3
▁Антония	3
▁Сотрудни	3
▁разногласи	3
▁неприятны	3
▁подразделений	3
Американск	3
▁экваториальны	3
ейцев	3
▁перебра	3
▁Конгресс	3
▁определяющи	3
▁Колорадо	3
▁социализм	3
▁Историк	3
▁марксистско	3
▁капитализма	3
езон	3
▁Женев	3
▁темнот	3
▁потенциальны	3
▁неформальн	3
устройств	3
▁Продолжает	3
▁фигурист	3
Индск	3
▁спиной	3
▁непросто	3
остановка	3
▁Рузвельт	3
▁обязательн	3
▁сража	3
▁достаточны	3
▁разворачивает	3
▁наказание	3
▁предотвра	3
vy	3
▁Линне	3
▁эмигрантов	3
▁Алле	3
▁итальянско	3
▁Жеребь	3
▁входя	3
▁министерств	3
▁учёный	3
▁спортивны	3
▁Интересно	3
сика	3
▁экск	3
▁свято	3
▁редакция	3
иума	3
▁Дракул	3
▁Extrem	3
▁Шел	3
▁ехал	3
ЕРИ	3
▁семьёй	3
▁подач	3
▁январь	3
▁Эндеми	3
урильщик	3
▁неизвестн	3
Семь	3
▁Plagusiida	3
слуги	3
иоты	3
▁Кипра	3
▁схожи	3
▁сочета	3
ving	3
▁вчера	3
▁Grove	3
удовлетворение	3
▁желаний	3
бросил	3
▁Медицинск	3
▁Шут	3
▁переговоров	3
▁Границ	3
слажда	3
▁Мемфис	3
▁комплект	3
▁кольцо	3
ступени	3
▁отпразднова	3
EUR	3
▁Лодк	3
улка	3
казалось	3
▁отправк	3
▁лаборатори	3
▁Европейская	3
▁уехал	3
▁рассказов	3
▁подобное	3
▁берут	3
▁изучение	3
▁возникновени	3
▁еже	3
правилась	3
▁опередил	3
▁столетия	3
▁Приветств	3
Рик	3
▁Бег	3
▁репутаци	3
▁борется	3
▁отдыха	3
▁камне	3
▁смешн	3
▁Матер	3
▁Территори	3
▁беспорядк	3
типа	3
▁выдум	3
▁пробуждени	3
▁задействован	3
казано	3
▁Великого	3
▁увеличива	3
▁женить	3
▁богатств	3
▁продолжительн	3
▁жадн	3
деляет	3
▁ислам	3
Беседа	3
▁школьник	3
▁Сег	3
▁дворцовы	3
▁Выставк	3
Ь	3
новь	3
Герцог	3
▁господ	3
▁сказки	3
▁здоровье	3
индо	3
▁Эрик	3
▁знакомит	3
▁человечество	3
▁санкци	3
▁алмаз	3
▁освобождён	3
▁четверг	3
▁Четвер	3
▁вычисления	3
▁выставк	3
фира	3
▁положительн	3
▁знаменитым	3
▁Линд	3
▁городск	3
▁Charl	3
▁Wilbur	3
ционный	3
▁Infern	3
роисхождение	3
▁отбора	3
хранение	3
▁Selectio	3
являющий	3
▁госпитал	3
▁войной	3
▁лютеран	3
▁статуи	3
▁Нельсон	3
стаёт	3
▁Германию	3
▁stet	3
nive	3
▁Льюис	3
▁откры	3
▁армян	3
▁грузово	3
▁Рэй	3
▁буддизм	3
▁алкогол	3
▁универс	3
▁моральном	3
▁нигилизм	3
▁Насер	3
▁учёные	3
▁Апион	3
▁Молча	3
▁сели	3
▁взл	3
▁слыш	3
▁колоколов	3
▁сопровождает	3
полноценны	3
▁лед	3
▁единицей	3
▁фунт	3
▁обслужива	3
▁перевозк	3
▁Бут	3
ханизм	3
Editio	3
▁работников	3
▁плантаци	3
▁Джонс	3
▁тёмн	3
▁личност	3
▁Колин	3
▁дубл	3
▁победить	3
▁проблемам	3
▁порнографи	3
▁отчаян	3
▁дебютировал	3
▁зачем	3
▁Габриэл	3
▁аргентински	3
▁фаз	3
оцвети	3
▁зонтик	3
▁путешествовать	3
▁Independent	3
жёлты	3
▁именуе	3
▁пространстве	3
▁буддизма	3
▁Наград	3
▁присуждае	3
▁кладбище	3
▁лишни	3
▁Ед	3
▁нектар	3
▁естественны	3
▁кустарник	3
auw	3
Спор	3
▁жаль	3
▁агентов	3
▁гипотеза	3
▁реальны	3
ловить	3
▁сложнее	3
▁пропретор	3
ракта	3
Резюме	3
Созда	3
▁забыты	3
▁Квадр	3
конструирован	3
▁понимания	3
▁чая	3
▁Естественно	3
▁экран	3
▁утра	3
▁распоряжени	3
лейк	3
кредитован	3
▁Газет	3
шиллингов	3
▁слог	3
▁побеждал	3
▁словацк	3
▁начавши	3
▁зарплаты	3
▁Баку	3
▁Мистер	3
растающи	3
влекает	3
поэзи	3
▁Разрешение	3
▁подписани	3
▁воспоминания	3
▁станиц	3
▁заслуг	3
▁Старик	3
▁Гонконг	3
▁локализ	3
▁размещен	3
▁ставше	3
▁File	3
▁Structur	3
▁Либера	3
▁Свободн	3
▁Име	3
▁достояние	3
▁Нобел	3
▁попыт	3
▁укрепл	3
▁провинциальны	3
▁наместник	3
большими	3
▁тёплы	3
▁усложн	3
▁приватиз	3
▁листов	3
▁планирует	3
▁Консул	3
▁сторон	3
▁Мечта	3
▁матерью	3
▁изготовлени	3
▁мебели	3
▁следова	3
▁пистолет	3
авшему	3
▁скрыться	3
центр	3
▁неблагоприятн	3
Эпоха	3
▁Молдавии	3
▁табл	3
▁шкаф	3
двер	3
▁четверто	3
▁всерьёз	3
▁Библиотек	3
▁вспоминаю	3
▁попадают	3
▁колокольн	3
торат	3
▁буддийски	3
лингва	3
▁красот	3
lta	3
▁юлианск	3
Хосе	3
▁Бед	3
▁одет	3
▁настрое	3
▁предпоч	3
▁возвращаться	3
John	3
ω	3
▁утро	3
▁вмешательства	3
▁Конгресса	3
▁удалить	3
▁умрё	3
▁пару	3
▁Алекси	3
человеч	3
▁заполнен	3
▁глазами	3
▁аудитории	3
▁смертност	3
замены	3
▁Sexual	3
▁добровольно	3
▁Матт	3
▁Конституци	3
▁конвенци	3
▁професси	3
исчерпа	3
Dictionarium	3
▁nobilissima	3
▁Europea	3
▁вымышленн	3
рыбы	3
▁Айрис	3
▁buff	3
auton	3
▁Part	3
▁лорд	3
▁Зуб	3
Великий	3
▁воскресенья	3
юэл	3
▁Винд	3
▁слёз	3
▁Инф	3
▁Шведск	3
▁обеспокоен	3
рекомендовал	3
▁облегч	3
▁общественности	3
▁устран	3
▁примечательн	3
▁пря	3
▁аромата	3
▁Найт	3
ведущ	3
▁железнодорожны	3
▁крупн	3
▁оруди	3
▁corpor	3
▁ambienti	3
▁Heck	3
остях	3
▁доминикан	3
Илиад	3
▁мастера	3
▁Завод	3
▁мисс	3
благополучно	3
▁Сингапура	3
▁ухудша	3
▁соболезновани	3
▁Подъём	3
▁куб	3
игран	3
▁планировала	3
▁испытаний	3
группы	3
▁нефте	3
продукты	3
сковского	3
▁депресси	3
▁происходящ	3
▁исследовани	3
▁Чикаг	3
уверенность	3
▁полагает	3
▁остатк	3
▁историков	3
▁рождении	3
▁Антверпен	3
▁Разны	3
обедитель	3
▁вернула	3
арио	3
леди	3
▁ANU	3
▁мужчиной	3
▁найденны	3
▁Клар	3
▁Over	3
▁погон	3
▁автомобиле	3
▁Департамент	3
▁схож	3
гражданин	3
воза	3
тень	3
▁названий	3
▁Canny	3
▁процветани	3
▁построили	3
▁гараж	3
Розы	3
▁Доминик	3
▁соседни	3
▁Сатурн	3
еру	3
Харди	3
▁Эггман	3
▁Сити	3
стань	3
▁сужден	3
▁убийц	3
вешена	3
▁платформ	3
▁росла	3
▁зачёт	3
▁гигантск	3
ачать	3
▁Орион	3
▁myst	3
▁замешательстве	3
▁Неизвестно	3
bicon	3
▁гарнизон	3
▁кадр	3
▁мотоциклов	3
▁одноимённо	3
Очерк	3
ографии	3
▁Тен	3
▁упрощ	3
▁Вильям	3
▁Поппе	3
▁Единственно	3
▁королевы	3
▁выслан	3
▁замк	3
уэт	3
▁филолог	3
▁быстр	3
▁террор	3
▁ЛГУ	3
▁скоб	3
▁General	3
▁апрель	3
▁самоубийства	3
▁предназначение	3
▁Мугабе	3
▁мягк	3
▁выброс	3
Ü	3
▁жилища	3
▁Psalm	3
▁бут	3
РК	3
▁платеж	3
badia	3
▁ягод	3
▁Куин	3
▁хватит	3
▁падают	3
▁развлечения	3
▁протесты	3
▁мавзолей	3
▁чувствую	3
▁Временно	3
▁Switch	3
▁Online	3
▁Сильно	3
▁секцию	3
▁наследств	3
▁Итали	3
Школ	3
Театр	3
Стихи	3
ерсаль	3
Рики	3
▁железн	3
▁преследова	3
▁предоставлени	3
▁соответствующи	3
▁кредит	3
▁petr	3
▁российск	3
▁Преподобный	3
▁Финал	3
▁Тидус	3
▁пальц	3
ядя	3
▁гонк	3
▁опасались	3
▁управлени	3
▁Немецко	3
DVP	3
▁Калу	3
▁расширя	3
расим	3
▁Небесно	3
▁сидений	3
▁знающи	3
ысочайше	3
bh	3
▁отражен	3
▁хлеб	3
▁Уэйд	3
▁рецепты	3
ирующи	3
члеников	3
▁заменён	3
▁концертов	3
разительно	3
▁Людвиг	3
СО	3
▁Аргентина	3
сомалийски	3
▁изготовлен	3
будет	3
учился	3
▁миномёт	3
▁батаре	3
mane	3
▁Юлия	3
▁дарова	3
▁Бак	3
▁Политик	3
▁сотрудничестве	3
▁соблазн	3
▁обладателя	3
▁хорошего	3
▁исследова	3
▁Победа	3
▁женски	3
▁локальн	3
▁благодуш	3
▁Постоянно	3
▁толковани	3
▁Различ	3
▁динами	3
оллектив	3
▁очерк	3
▁сталински	3
▁репресси	3
ί	3
ικ	3
▁публикаций	3
▁Письм	3
ерсия	3
▁язычнико	3
wish	3
▁Волч	3
▁воздухе	3
▁мгновенно	3
Журавлёв	3
еличайш	3
▁Эстония	3
▁Испыта	3
ранила	3
▁отличать	3
щины	3
▁Каин	3
▁лидеров	3
▁отдельн	3
▁прогноз	3
▁наружу	3
▁Lach	3
▁Ono	3
▁временн	3
▁описывал	3
▁густо	3
▁дым	3
▁раздраж	3
человеческ	3
ируемы	3
▁курсов	3
▁суб	3
▁дороже	3
▁незаме	3
длительно	3
▁соглаша	3
▁подготовил	3
▁заговор	3
▁Образц	3
▁Maximus	3
▁исходно	3
▁Опубликова	3
ланга	3
▁работами	3
▁Ньютон	3
▁печат	3
▁двинул	3
▁карлик	3
▁солян	3
▁чисты	3
ывались	3
▁эпиграмм	3
▁умудр	3
▁учёного	3
▁Лайн	3
▁Призов	3
▁Римск	3
▁Дональд	3
▁речью	3
▁ЦРУ	3
▁Варгас	3
▁Виктория	3
нджер	3
восьмой	3
▁Выход	3
▁обладал	3
▁обстановка	3
Радио	3
▁блондин	3
▁Гарси	3
▁лекарства	3
▁силами	3
▁арбитраж	3
▁залив	3
▁глазу	3
▁коммунистами	3
▁пересадк	3
▁мемуар	3
▁стоимость	3
▁огромной	3
▁встретит	3
▁воплощение	3
▁Босни	3
▁Герцеговин	3
▁трибун	3
▁Постум	3
носителя	3
кричал	3
▁правед	3
▁пациентов	3
▁спасения	3
▁подданных	3
японско	3
▁дезертировал	3
ever	3
llows	3
жаждал	3
▁детали	3
▁республик	3
▁добави	3
▁испытал	3
▁категорическ	3
давались	3
▁Сохрани	3
▁километрах	3
▁свободным	3
▁Голланд	3
▁упорств	3
▁сумасшедш	3
Син	3
▁расчёт	3
▁звонницу	3
▁Колони	3
▁хозяйственн	3
▁Меж	3
▁спокойная	3
▁Oldfield	3
▁женат	3
▁чтением	3
бка	3
▁зрите	3
▁Балти	3
рошен	3
▁разобран	3
▁Могил	3
▁Ложь	3
Способ	3
▁Переиздание	3
▁Хро	3
▁гипотетическо	3
благодарны	3
▁претендовал	3
▁потребления	3
ославянский	3
▁служебны	3
▁коррупции	3
▁преследовани	3
▁утверждени	3
континентальны	3
▁янв	3
▁литурги	3
▁Vil	3
hora	3
▁Ponte	3
▁ООО	3
▁соль	3
▁ярм	3
▁раствор	3
▁футболу	3
▁потенциал	3
бищ	3
корреспондент	3
▁скрип	3
dveniat	3
▁дворец	3
ернуться	3
▁триумфальн	3
▁Introduction	3
▁градо	3
енберг	3
▁мерами	3
▁бенгальски	3
▁бенгальском	3
▁поэзии	3
▁двигатели	3
▁передвижения	3
▁natur	3
▁гость	3
▁Царица	3
▁Colle	3
Уильямс	3
▁Возникл	3
▁прибор	3
▁обещания	3
▁Писатель	3
Франсуа	3
▁сюрприз	3
▁упомяну	3
▁закону	3
▁скор	3
▁Академик	3
бино	3
▁Эндр	3
История	3
▁поездки	3
▁областя	3
▁Tour	3
▁Switzerland	3
▁Holland	3
зум	3
▁скорости	3
▁Внутр	3
▁утомл	3
▁PLANT	3
▁предательств	3
▁жителям	3
КБ	3
▁принимают	3
Чер	3
▁учёным	3
▁Хант	3
▁апр	3
▁Atherin	3
▁hep	3
▁предпочл	3
▁средиземноморск	3
▁спуска	3
▁развит	3
▁флам	3
▁Марса	3
▁окончен	3
▁Фул	3
▁фирмой	3
▁Польше	3
▁неприятно	3
▁Амфи	3
▁рисунок	3
▁шрифт	3
▁надпис	3
▁прежний	3
▁остатка	3
▁Weide	3
nfeld	3
▁Nicol	3
▁бедстви	3
fest	3
▁Berlin	3
▁ежегодны	3
▁разгром	3
▁Ленин	3
▁закрыва	3
Just	3
thur	3
Litera	3
▁увлекал	3
▁шлема	3
▁камеры	3
▁Editor	3
▁проголосова	3
▁столкну	3
▁гравитаци	3
▁квартал	3
▁расстреля	3
▁тишин	3
▁музеем	3
▁Crocodil	3
οπ	3
▁сопровождение	3
▁муниципалитетов	3
▁Зин	3
Абид	3
▁Туниса	3
▁рассчит	3
▁начальной	3
иденья	3
▁съёмк	3
▁Гершел	3
▁оптике	3
▁зона	3
чатый	3
пояс	3
рша	3
прям	3
▁рожь	3
▁TOPIO	3
Tenn	3
▁Robot	3
▁выгодны	3
вокзал	3
▁подземны	3
▁сильнейш	3
▁ветры	3
▁записку	3
▁чей	3
▁Champion	3
▁vulpes	3
▁Адел	3
▁должност	3
▁предоставля	3
▁Бонд	3
праздничн	3
▁Клип	3
▁наркотик	3
▁активистами	3
▁продлени	3
▁отпуска	3
Энд	3
▁самолетов	3
семьями	3
glia	3
▁аква	3
▁взглядом	3
▁комнату	3
▁поддержа	3
▁Тед	3
пирс	3
▁тариф	3
▁бразильск	3
▁симптом	3
▁затруднительн	3
▁монстра	3
▁Vintage	3
дейл	3
внимательн	3
▁УР	3
▁племянник	3
▁глубоководны	3
▁Abysso	3
ксперимент	3
▁выясн	3
▁Владислав	3
▁принцесс	3
hioni	3
▁невест	3
▁кругов	3
▁тёмны	3
▁Linn	3
▁пожизненн	3
▁заключению	3
▁цензуры	3
▁испуга	3
▁интересов	3
▁подробно	3
▁повстанцы	3
▁скептическ	3
▁еврейски	3
▁экспедиций	3
▁банкротств	3
▁слышал	3
Климент	3
▁Bonnae	3
▁Weber	3
Byzantin	3
▁концентраци	3
▁парней	3
▁консульски	3
Spot	3
▁ритори	3
▁abutere	3
▁Catilina	3
▁Пенсильвания	3
▁Экстр	3
▁Восток	3
спользова	3
▁предусматрива	3
▁брачн	3
ехнически	3
сельчан	3
▁Новгород	3
плодотворени	3
▁Оттав	3
▁португальско	3
▁золотой	3
▁служб	3
▁встал	3
▁извини	3
работать	3
▁популярности	3
▁применил	3
▁патрон	3
▁тяжёлое	3
▁ранение	3
▁Медведев	3
▁краской	3
▁заблужд	3
безопас	3
▁Тексты	3
▁деления	3
▁пропал	3
Girl	3
▁преемнице	3
▁поворот	3
▁Португал	3
▁Огонь	3
▁Girls	3
▁работниц	3
▁вакцину	3
▁лихорадка	3
▁сцену	3
текст	3
▁Technologic	3
▁Цифров	3
▁функций	3
▁точны	3
▁территориально	3
▁длинным	3
▁Швейцарск	3
▁издал	3
▁булл	3
▁группировк	3
цис	3
▁посвяти	3
резерв	3
▁повыси	3
разными	3
▁всеобще	3
▁снял	3
ничеств	3
▁Глаз	3
держимость	3
покончил	3
▁сущност	3
▁значительн	3
арфаген	3
GN	3
▁уезда	3
▁заключительно	3
▁Севастопол	3
▁симпозиум	3
анъ	3
▁довол	3
▁Муж	3
▁вожд	3
▁Trust	3
▁трамва	3
Все	3
▁Разобран	3
▁косвенн	3
▁владений	3
▁способству	3
▁наставник	3
▁домохозя	3
▁китайски	3
ХИ	3
▁академически	3
▁Иоанном	3
▁восстанавлива	3
▁наибольше	3
▁дракон	3
▁фантази	3
▁превыси	3
▁графства	3
▁Шу	3
опримечательност	3
▁образца	3
▁Washington	3
Гранд	3
▁планов	3
▁Хок	3
▁лебед	3
▁северо	3
▁идентичн	3
Дневник	3
urgeo	3
▁дневника	3
▁забирает	3
▁оккупа	3
▁филологии	3
▁узлов	3
▁крипт	3
дисциплина	3
▁Сенегал	3
▁членами	3
αι	3
паук	3
▁Паркер	3
▁биограф	3
č	3
izu	3
дский	3
▁ковёр	3
▁Machin	3
▁Wine	3
▁способна	3
▁проника	3
▁Сюжет	3
▁критиков	3
▁повлия	3
▁сохранял	3
▁Empe	3
▁Chiro	3
▁Band	3
▁предупреждени	3
▁Бразилию	3
следить	3
▁убийству	3
▁мэр	3
ography	3
▁Теори	3
▁сценарий	3
▁Триполи	3
квартира	3
▁Friends	3
affo	3
▁голуб	3
▁Vinci	3
Манхэттен	3
▁Бренд	3
andy	3
▁киргиз	3
▁позволяющи	3
▁взгляну	3
ующими	3
дают	3
▁племенами	3
▁листья	3
ъемл	3
Смерт	3
▁отступили	3
▁дополнени	3
воевал	3
▁Ющенко	3
достижим	3
▁убийца	3
▁Секрет	3
▁князь	3
▁бумаг	3
действительной	3
▁Жил	3
▁ярко	3
оскресенье	3
▁Долг	3
▁Брун	3
▁Филип	3
альбо	3
▁Разработ	3
▁Традиционн	3
▁заметны	3
▁Гренландия	3
обществ	3
▁бас	3
▁Став	3
▁Bridge	3
▁солнечны	3
▁Чейз	3
▁генетическ	3
чьего	3
▁Reprint	3
▁любовны	3
▁авторов	3
механика	3
▁Чёрт	3
▁проезж	3
▁колонист	3
▁ГЭС	3
▁МВт	3
▁Винченцо	3
▁переводчик	3
▁рождественски	3
▁подарил	3
▁позиций	3
▁требу	3
алился	3
▁Линкольн	3
▁поруч	3
▁судн	3
▁удел	3
▁мужск	3
▁азиатски	3
▁Политически	3
▁болен	3
▁утверждения	3
▁Cryo	3
▁приглашен	3
▁сложн	3
▁перенос	3
▁префект	3
Сильмариллион	3
▁Уси	3
▁морали	3
фокус	3
▁планировал	3
▁зенит	3
▁Юнош	3
▁разделял	3
▁собирал	3
▁параллельны	3
▁повествовани	3
▁сравнивают	3
▁Рецензия	3
▁огни	3
▁отобража	3
▁бенгал	3
▁переселен	3
▁граммати	3
▁молодым	3
▁одиннадцат	3
финах	3
▁Консулы	3
▁Африканский	3
▁свидание	3
▁Пакистан	3
аконодательно	3
▁фракци	3
▁Самоа	3
▁борт	3
▁промышленным	3
▁Corpora	3
ción	3
▁Дамаск	3
▁Начальн	3
▁обязательным	3
оцени	3
▁добывают	3
▁задава	3
▁зверьк	3
▁революционн	3
▁Спортсмен	3
▁достав	3
продукци	3
▁Вооружённы	3
▁свобода	3
▁вероисповедания	3
верующим	3
▁христианства	3
ерджи	3
▁Африканск	3
▁мученик	3
▁конкуренци	3
▁монополи	3
олия	3
▁Социальн	3
долговременн	3
IO	3
▁колоний	3
▁вело	3
poil	3
▁аббатств	3
▁земля	3
▁человечеств	3
▁инфляционн	3
спираль	3
кандидат	3
▁Industr	3
▁идее	3
▁Лукас	3
▁прямым	3
▁европейцев	3
истематически	3
▁воспоминаний	3
▁японц	3
▁Винни	3
▁суббот	3
толком	3
▁смешанны	3
индийск	3
xed	3
▁независимы	3
сматрива	3
Vita	3
▁печата	3
▁престижн	3
преемник	3
▁Средни	3
спомни	3
▁пророков	3
▁властям	3
▁Гроз	3
ê	3
льскохозяйственн	3
▁пространства	3
локальный	3
▁тюремн	3
▁Элемент	3
▁носивш	3
▁пролетарск	3
▁Direct	3
инотеатр	3
▁каникул	3
▁сходству	3
−	3
▁делово	3
▁Вильн	3
▁Мексике	3
▁Шек	3
▁импери	3
▁удалён	3
▁повезл	3
Абеб	3
▁геолог	3
▁замкнутым	3
▁холма	3
▁Телефон	3
▁обогащ	3
▁подружи	3
▁Масс	3
▁Веру	3
▁возвращении	3
▁прекратил	3
▁вымерш	3
▁перемещени	3
бегает	3
\	3
▁Лоренц	3
▁пятницу	3
▁пас	3
▁офицеров	3
▁снег	3
▁надеясь	3
▁осени	3
▁municipale	3
▁Геродот	3
Воздвижен	3
тьяна	3
▁бессл	3
овес	3
▁AVN	3
▁вражд	3
оффа	3
▁ветр	3
▁Исследовател	3
β	3
▁воспита	3
▁преждевременн	3
▁Камеруна	3
тоимость	3
▁имеющим	3
▁коллизии	3
▁пересеч	3
сточка	3
▁быстрые	3
▁вылеч	3
▁товары	3
▁Анатом	3
▁самки	3
▁Солнцу	3
▁обширно	3
▁антипап	3
▁Ride	3
▁Light	3
▁вышедше	3
▁стихотворение	3
▁Лид	3
язан	3
говарива	3
вокал	3
▁заимствова	3
бергом	3
▁Фрим	3
тяж	3
▁познакомил	3
▁бухт	3
▁обитающи	3
олим	3
▁Nick	3
▁превзош	3
▁идеям	3
думает	3
ложения	3
▁монетны	3
пала	3
▁Adv	3
▁Slate	3
▁Proce	3
enth	3
ERI	3
▁Галлии	3
▁Гвинее	3
нгликанство	3
▁конфесси	3
▁Migne	3
▁Продолж	3
▁Тушин	3
▁кровопролити	3
бледно	3
улярность	3
▁НСД	3
▁Объединённ	3
▁стратегическ	3
ензинов	3
▁Твое	3
▁представила	3
флейт	3
▁Тиберий	3
▁расстро	3
▁Банко	3
едет	3
звание	3
▁Пророк	3
▁священно	3
беле	3
▁Кёльн	3
▁Старт	3
▁французам	3
▁бесполезно	3
▁заявлен	3
▁Распространя	3
▁каждом	3
▁Константинов	3
▁Хоу	3
▁вытянут	3
▁плодоноси	3
▁принадлежал	3
▁ракет	3
▁охрану	3
▁популярна	3
PM	3
▁символов	3
▁предсказыва	3
ажнейши	3
злом	3
▁экстра	3
тюар	3
понятны	3
▁покое	3
▁наземн	3
▁расп	3
▁Volat	3
▁Кука	3
▁Мацу	3
рут	3
▁сигнал	3
▁слышит	3
▁Кана	3
▁ингредиент	3
▁Чемпионат	3
ённое	3
▁ледников	3
▁оказыва	3
▁принадлежност	3
▁единство	3
▁совершённ	3
▁Балтийско	3
▁tenebras	3
▁Весн	3
▁диалекта	3
Whe	3
Кто	3
▁Америк	3
Макдоналд	3
▁обучает	3
▁внуш	3
▁кольца	3
▁атлетик	3
▁Итальян	3
▁чтения	3
▁снимал	3
▁британцев	3
▁эксплуат	3
▁Note	3
▁перемирие	3
родился	3
▁водоплавающи	3
▁Эмма	3
ясняет	3
▁императору	3
▁Гук	3
эксперимента	3
▁вопр	3
▁особенностей	3
▁Grammy	3
▁прослеживается	3
▁habili	3
▁происходил	3
▁рукопись	3
▁аннулирова	3
▁Statistica	3
▁ISTAT	3
венгерск	3
▁латыш	3
▁идентичност	3
▁предполагается	3
▁последним	3
▁Древн	3
▁рабочего	3
интерфейс	3
▁инструментов	3
▁осознал	3
▁Музыкальн	3
▁нидерландски	3
▁продолжит	3
▁выращива	3
▁личностям	3
▁Крестов	3
▁PUF	3
▁пробудил	3
▁Никит	3
▁утечк	3
▁равня	3
▁точност	3
Здравствуй	3
▁magazin	3
▁насекомых	3
▁Немецки	3
▁Нильс	3
▁порода	3
▁консулов	3
▁Matin	3
▁Императорско	3
▁Sinai	3
▁траги	3
учив	3
▁пришел	3
парно	3
▁Вообще	3
▁Встреч	3
▁Игна	3
амужни	3
▁Archaeologi	3
▁Aldo	3
зар	3
Education	3
▁Турин	3
▁варианты	3
▁Черногори	3
няжество	3
нязь	3
▁Сорт	3
славянско	3
▁прорва	3
▁Характерн	3
▁ненасильственно	3
▁Кэрол	3
▁правяще	3
▁техник	3
пельсин	3
▁дорогам	3
▁Soc	3
▁Небес	3
▁Блэ	3
▁Пав	3
▁Изображ	3
цеводство	3
годы	3
▁Польша	3
▁Триумф	3
▁Сципиона	3
▁Bibl	3
▁процентов	3
▁коридор	3
СП	3
▁Принят	3
▁терминологии	3
▁собственник	3
несённы	3
▁отказал	3
▁театральн	3
▁написана	3
▁понятно	3
ГЛО	3
▁упражнения	3
БК	3
правили	3
Бомб	3
▁просил	3
▁реализаци	3
рабын	3
▁магией	3
▁сражаться	3
▁Wy	3
dawn	3
▁осваива	3
▁существовани	3
▁палестинск	3
ης	3
▁повторен	3
▁переоде	3
Tid	3
▁Биллу	3
▁наказа	3
▁черно	3
▁мяса	3
hart	3
▁напитков	3
ейских	3
▁выходу	3
вольнени	3
Dr	3
▁Octav	3
Word	3
Глазго	3
▁жанр	3
▁Алисы	3
▁отменены	3
▁валенсийски	3
▁вампиров	3
▁сказок	3
▁крайн	3
слушива	3
▁татар	3
▁Эрнест	3
▁блестящ	3
▁требующ	3
▁блокаду	3
▁поехал	3
▁Цезар	3
▁мину	3
▁оценивает	3
▁дебат	3
▁сплош	3
▁Отмеч	3
▁легкоатлет	3
▁предшеств	3
▁Фон	3
▁Рейнол	3
▁Отд	3
▁пережил	3
▁полку	3
uzo	3
▁уволен	3
▁Бангладеш	3
▁бегств	3
▁Крем	3
▁беременност	3
вас	3
стлер	3
итальянски	3
▁Специальны	3
▁враждебн	3
полчение	3
граж	3
▁поздравля	3
▁целей	3
Студенты	3
▁умирают	3
▁реже	3
▁монашески	3
Don	3
▁Balón	3
испанская	3
▁гуа	3
▁драгоценны	3
▁Отечеств	3
▁упадок	3
▁следующ	3
†	3
▁успев	3
ильда	3
▁предводител	3
▁Петроградск	3
▁учителя	3
▁лабораторны	3
▁нигде	3
▁художественн	3
▁гоночн	3
▁Виза	3
левы	3
перы	3
дизайнеро	3
▁функциональност	3
▁зад	3
программ	3
▁сыр	3
носить	3
▁существенн	3
▁Карибско	3
▁внешн	3
хорошее	3
рижды	3
змолв	3
kenm	3
▁гробом	3
клетки	3
rray	3
▁Джерард	3
▁Петер	3
▁фармацевт	3
Shop	3
OL	3
шифров	3
▁зону	3
▁идентифицирова	3
экспериментально	3
▁ремесленник	3
▁европейском	3
edd	3
▁Chroni	3
▁логику	3
▁влиятельны	3
▁важн	3
▁Программ	3
товая	3
▁возможного	3
▁Прогрессивн	3
▁Hugh	3
▁завоева	3
ХЛ	3
▁делить	3
▁учеником	3
▁Славян	3
▁соч	3
удьба	3
ырьё	3
латински	3
▁Epigrammat	3
▁Витт	3
▁Monach	3
▁Lemni	3
▁Коз	3
охотником	3
▁Ballan	3
▁Вольф	3
▁поэтическ	3
▁Сатан	3
▁Восстанов	3
▁предметов	3
▁вопросам	3
▁Работ	3
▁убеждён	3
чеш	3
▁центров	3
▁меньши	3
▁Мона	3
стырь	3
▁Merce	3
▁вовлечён	3
▁Муссолини	3
▁Magn	3
▁Насчитывал	3
▁предъяв	3
▁пауков	3
▁Багдад	3
▁близнец	3
▁UK	3
ёрст	3
▁предостере	3
сибирск	3
▁непонятно	3
▁полуостров	3
▁Пекине	3
ифицирован	3
▁Образова	3
▁разграблен	3
месячн	3
английски	3
▁Asclepi	3
▁брошен	3
▁рабств	3
▁выполнена	3
▁Луг	3
▁встречен	3
▁ликвидирован	3
▁нидерландск	3
▁уклон	3
Обезьян	3
▁портреты	3
разному	3
▁бессмертны	3
▁Китая	3
осом	3
▁ошибок	3
ночевать	3
▁Содружества	3
▁живыми	3
вайте	3
▁представил	3
▁Бейт	3
▁Питтсбург	3
катастрофа	3
▁верующи	3
▁любим	3
▁Иордан	3
▁материнск	3
▁Missu	3
▁слабости	3
▁путешественник	3
▁деталей	3
▁беде	3
OW	3
▁бросает	3
▁успеху	3
▁потерь	3
▁конво	3
▁получилось	3
▁прочим	3
▁повторно	3
▁Гимн	3
▁принима	3
▁профессиональн	3
брат	3
▁скромн	3
жившие	3
▁Милле	3
▁Милли	3
рушение	3
▁Берри	3
чувствительн	3
×	3
Heroes	3
▁совпадени	3
▁верхов	3
▁голосования	3
▁отрицани	3
▁преимущество	3
красно	3
подража	3
концентрир	3
▁следствия	3
▁оплачива	3
▁нейтральн	3
▁капитуляци	3
▁перестал	3
▁делами	3
DVD	3
▁мут	3
Лермонтов	3
Когда	3
▁чекан	3
▁Пыл	3
Айленд	3
▁Кении	3
▁умел	3
post	3
▁производится	3
▁трёхдневны	3
▁противоречи	3
Gar	3
▁Бертран	3
▁Византийск	3
▁занятия	3
▁собеседник	3
▁упомянуто	3
▁называет	3
▁Гамал	3
адзи	3
спанцы	3
▁европейцам	3
джон	3
google	3
▁Линг	3
▁мертв	3
▁овладе	3
▁основы	3
▁квестором	3
▁Леклерк	3
▁связа	3
▁забавны	3
▁Составлен	3
▁патент	3
▁строгий	3
▁уголь	3
▁присутствую	3
▁Ирланди	3
▁Атланта	3
▁Полинези	3
▁подозрительн	3
▁Хек	3
начальн	3
▁мозга	3
▁метеорологи	3
AT	3
казывается	3
▁Анастаси	3
▁электрическ	3
▁тепловой	3
▁конкрет	3
▁правовым	3
▁геометрическ	3
овокупно	3
монгол	3
▁рабоч	3
▁Сальвадор	3
▁подарок	3
▁реп	3
Анджелес	3
▁метрополитена	3
▁Dones	3
▁спектакл	3
поды	3
читаю	3
▁Specula	3
Мир	3
▁запрещалось	3
уэлл	3
очках	3
▁Астероид	3
▁объединяют	3
▁Британии	3
▁соглашения	3
рский	3
▁молока	3
▁выделен	3
▁бюджет	3
▁спецэффект	3
клиентов	3
▁сменил	3
дания	3
▁сильна	3
▁переговорах	3
▁установлени	3
▁Hein	3
Мор	3
▁Клавдия	3
▁усадьбы	3
речь	3
хромосом	3
▁Сцен	3
▁библиотечн	3
▁Октави	3
▁Нерон	3
▁создавалась	3
▁Натан	3
▁яйце	3
▁фал	3
▁освещени	3
▁иностранца	3
▁разбирательств	3
▁Стэн	3
▁организовыва	3
▁биохими	3
▁сирийско	3
▁вовлечен	3
▁Борода	3
▁Search	3
▁воспрепятствова	3
▁занятий	3
французский	3
▁Yal	3
▁сломан	3
▁соображени	3
▁программировани	3
▁библиотеку	3
▁укреплени	3
▁эквивалентны	3
теоретик	3
▁операци	3
▁победител	3
▁одобрил	3
▁загадывае	3
▁Monica	3
▁политехническ	3
▁Имп	3
▁задержк	3
▁Собор	3
▁животными	3
аименьш	3
▁Гренад	3
▁Margaret	3
▁Edward	3
▁Располага	3
▁похищен	3
▁обойти	3
▁Congressional	3
▁обнажённ	3
▁обещанн	3
▁новогодни	3
▁Murat	3
▁самура	3
▁Jane	3
▁разошлись	3
▁Рис	3
ндский	3
авшая	3
▁Lawrence	3
▁изменени	3
▁Polyg	3
▁миссионер	3
igi	3
▁Koelle	3
▁объединены	3
▁Сахалин	3
писывает	3
universali	3
▁выделяют	3
▁равнин	3
фолк	3
покровитель	3
▁кругу	3
▁врагов	3
▁Эми	3
▁Sacr	3
▁преврати	3
▁терапи	3
▁наедине	3
▁Арктик	3
Ў	3
динам	3
▁Lovett	3
▁заведение	3
Ошиб	3
абан	3
▁проследить	3
Гед	3
Ä	3
мейстер	3
▁Contributio	3
▁удалил	3
▁Philip	3
▁славит	3
▁Capti	3
▁заседани	3
▁обвинял	3
▁коз	3
нций	3
арокко	3
Мексико	3
Попытк	3
толкнул	3
▁согласных	3
▁скучно	3
▁аудио	3
▁островами	3
▁программой	3
другому	3
кинсон	3
▁расширен	3
▁Ядерн	3
▁Индию	3
▁ED	3
obile	3
айдер	3
▁четвёртой	3
▁разработчиков	3
▁Satan	3
ФА	3
▁направлениях	3
▁увлека	3
API	3
biolog	3
▁расширил	3
▁lato	3
▁Sound	3
▁афиш	3
▁Houghton	3
ffli	3
▁Бальб	3
▁успокои	3
▁вампир	3
▁Prayer	3
▁Тобо	3
tics	3
▁серьезны	3
Говор	3
▁бун	3
льском	3
▁кафедра	3
▁содержаще	3
▁писцо	3
инский	3
▁договорённости	3
▁Солнце	3
▁Главное	3
zza	3
▁Украинцы	3
▁Service	3
▁трагеди	3
отрек	3
▁знаешь	3
▁Kit	3
▁Феод	3
▁циркуля	3
▁недовольны	3
Чел	3
▁сборы	3
▁дикой	3
▁военнослужащих	3
▁швейн	3
▁Lambe	3
▁Gloger	3
▁впечатл	3
iger	3
▁События	3
▁примир	3
▁Адриан	3
▁ставит	3
езали	3
▁Испански	3
одушевлённ	3
▁ветвей	3
▁сожале	3
مس	3
▁утрат	3
▁исландск	3
▁овцы	3
▁Палац	3
▁итальянском	3
▁населен	3
▁Остин	3
▁Major	3
▁неспособн	3
▁крут	3
▁Bots	3
▁Пушкин	3
▁Amasi	3
▁местность	3
▁металлически	3
▁судьб	3
▁Требовани	3
▁написан	3
нити	3
▁отчет	3
▁десятилетие	3
дора	3
▁лондонском	3
нефтян	3
▁проводят	3
▁врачом	3
▁Dover	3
▁Саламанк	3
▁Атлас	3
выбор	3
▁Особо	3
▁достигли	3
▁конту	3
▁заочно	3
▁награды	3
Acacia	3
▁Bennett	3
▁Episod	3
иквид	3
▁van	3
юнхен	3
надёжно	3
▁Баз	3
▁слеп	3
▁заплати	3
▁Oxf	3
▁подъезд	3
▁точек	3
▁схеме	3
▁раскопк	3
ницкий	3
▁рядовы	3
▁служащим	3
▁атрибутов	3
▁проникновени	3
▁зловоние	3
▁сорт	3
▁сценари	3
▁Ветт	3
ugh	3
▁Last	3
▁медицина	3
▁станцией	3
▁содейств	3
▁художественны	3
▁пожалова	3
▁Максимилиан	3
▁Вифиния	3
▁словесн	3
роисходит	3
▁подпольн	3
▁Стратег	3
▁ознаменова	3
▁стратегия	3
▁Кларк	3
▁суме	3
▁Констанци	3
▁XXII	3
знака	3
▁Разделен	3
▁ископаем	3
▁Гриффит	3
▁Коля	3
▁Копи	3
▁украинцев	3
Флора	3
▁участвую	3
å	3
▁легионер	3
▁Абсолютн	3
равен	3
крою	3
▁мутант	3
▁Prius	3
▁произведён	3
Аламо	3
брошенно	3
▁индуизм	3
▁приёмам	3
▁прибега	3
▁Франкфурт	3
трём	3
▁матрос	3
▁Маунт	3
▁боевое	3
▁итальянцами	3
▁чёрны	3
▁случиться	3
точным	3
▁субт	3
▁Христофор	3
▁Лиц	3
▁рекоменду	3
▁нацистами	3
wer	3
▁Витали	3
▁Шаб	3
▁Личны	3
▁приезжа	3
элемента	3
▁познания	3
▁региональны	3
▁фактором	3
▁метеорит	3
нарушени	3
▁прежни	3
▁сняли	3
счёту	3
▁оценивал	3
▁рудник	3
▁Византии	3
▁схему	3
сероссийск	3
▁Уккел	3
▁Fleur	3
▁parasit	3
▁Сэр	3
▁культуру	3
▁иерархии	3
▁графику	3
▁частица	3
▁французским	3
▁коллекцион	3
▁продюсеро	3
▁Hearts	3
▁канцеляри	3
ослеп	3
▁чиновник	3
▁Алана	3
сып	3
triplic	3
portula	3
homo	3
рвин	3
HD	3
Gustav	3
▁Flaubert	3
▁сосуд	3
▁партизан	3
▁представителям	3
▁пресвитериан	3
▁Белфаст	3
▁Евф	3
желательно	3
▁исполнял	3
импрессионизм	3
▁богато	3
▁Киргизии	3
Linux	3
▁Rockstar	3
▁седьм	3
нард	3
▁двигателе	3
MI	3
oidea	3
Echinodermat	3
▁Решающ	3
▁переве	3
▁требуем	3
▁фантастическ	3
▁Nomin	3
очным	3
hwa	3
SN	3
▁Калигул	3
НСК	3
dalis	3
▁генеральны	3
▁сражений	3
▁подчинени	3
▁предположи	3
▁Linus	3
▁восстал	3
▁Состав	3
▁Анкара	3
low	3
ips	3
▁несомненн	3
▁Associate	3
▁Rhino	3
▁ошибся	3
▁естественным	3
▁пришедши	3
▁Woodward	3
▁дочери	3
▁Banquo	3
Macbeth	3
Singin	3
uenta	3
▁Яковлев	3
Един	3
▁Drago	3
▁изобразительн	3
▁Kin	3
▁Guadal	3
▁ФРГ	3
▁Самые	3
▁UNI	3
▁Дню	3
▁Греча	3
▁княз	3
▁Conservator	3
PUR	3
▁прекратила	3
▁Свободы	3
▁метео	3
▁предпринят	3
▁академик	3
▁ядро	3
▁твёрд	3
серии	3
работав	3
▁закрыл	3
▁груст	3
▁Наход	3
▁Duquesne	3
▁этаж	3
протестова	3
пель	3
▁Herman	3
▁Ога	3
абад	3
tchell	3
▁логике	3
▁Конвей	3
▁чт	3
▁Reading	3
издат	3
Carmen	3
▁Скорпион	3
▁господств	3
▁совпада	3
▁Santa	3
▁довольствова	3
▁тренировки	3
▁эзотерическ	3
▁Musta	3
▁отдавал	3
▁нуле	3
Заяц	3
▁освобождает	3
▁упадк	3
▁Османск	3
▁призыв	3
▁сожжени	3
Талмуд	3
▁наполеоновски	3
▁ваших	3
▁хорош	3
▁Белград	3
▁достижением	3
▁Луны	3
hman	3
казывает	3
▁Алекс	3
▁холодный	3
▁революция	3
▁инквизици	3
▁Ольга	3
недоступна	3
▁ссылка	3
▁почек	3
▁сказав	3
▁образует	3
▁Рукопись	3
▁Изображения	3
▁получивше	3
▁лекарственн	3
ПУ	3
▁вечерин	3
▁русл	3
▁Бахрейн	3
▁взо	3
▁оборонительны	3
▁Отто	3
▁Португалию	3
▁насилия	3
▁Grillo	3
▁Eurasia	3
garden	3
▁Omen	3
▁Siculorum	3
▁List	3
смани	3
▁рукопис	3
▁Сомали	3
ensor	3
`	3
ý	3
spectrum	3
▁Serv	3
▁помёт	3
политическое	3
скручива	3
▁Жар	3
▁Social	3
компания	3
mathb	3
▁баланс	3
▁Aid	3
▁Deutschland	3
▁Кузнец	3
▁Bernstadt	3
историческ	3
СБ	3
▁узнает	3
▁переполн	3
▁Китайск	3
▁утешение	3
uve	3
▁предоставлен	3
Волшеб	3
▁Паду	3
▁творческ	3
olit	3
Гром	3
ATE	3
▁Duroc	3
▁Агр	3
▁record	3
▁Run	3
▁экологическ	3
▁мёртвыми	3
палеонтологии	3
работал	3
▁сексуальны	3
▁Фернанд	3
▁Díaz	3
▁превзо	3
День	3
▁завершить	3
▁Bertram	3
▁отказали	3
▁волшебник	3
▁документ	3
▁значимост	3
▁земледелие	3
flora	3
▁возглавляем	3
▁депорт	3
▁великолеп	3
▁прекращал	3
▁Илья	3
СКА	3
▁bud	3
▁отсылк	3
Желание	3
▁Farías	3
▁западным	3
капитанств	3
цки	3
▁Суперкуб	3
trinae	3
▁Юджин	3
▁излишне	3
▁самоубийств	3
▁Bou	3
▁присоединени	3
▁заменя	3
▁успешны	3
pter	3
▁made	3
dreanu	3
дале	3
▁Окленд	3
▁полётов	3
▁Кабард	3
▁контр	3
ār	3
▁Мануэ	3
▁Бразилия	3
бизнес	3
чук	3
леск	3
▁Фольклор	3
вика	3
▁подробности	3
▁персонажами	3
▁оперны	3
▁сопротивля	3
▁шири	3
▁Persia	3
Arabi	3
▁Arab	3
▁реконструкции	3
▁операцию	3
acca	3
омосексуальности	3
▁Prep	3
▁органист	3
▁Патерном	3
▁переулок	3
▁скорб	3
едини	3
фабрики	3
▁Лютера	3
American	3
вые	3
▁извиня	3
снабжени	3
говоры	3
▁Cardinal	3
ñ	3
кролог	3
▁ангела	3
▁Примеча	3
eleon	3
▁урожен	3
altius	3
▁Черных	3
▁благосостояни	3
▁богослов	3
англичанин	3
▁Magritte	3
апс	3
▁Cornoviorum	3
wyn	3
Академика	3
▁скрыт	3
casio	3
Cortez	3
yner	3
▁Project	3
▁Network	3
▁Straits	3
▁окружност	3
▁социализма	3
RSS	3
▁Carter	3
▁щенк	3
▁Center	3
estro	3
▁современн	3
знь	3
▁веданты	3
▁путешествова	3
▁Азию	3
▁выводу	3
нём	3
▁Рождени	3
▁координат	3
System	3
ЭС	3
▁Комнин	3
▁спеши	3
▁Myxin	3
орро	3
Себастьян	3
▁Lepidoptera	3
функции	3
▁Рат	3
балета	3
Compan	3
▁Lena	3
Landrut	3
Pod	3
▁Dat	3
теп	3
rancia	3
▁Эквадор	3
▁бород	3
▁агентур	3
ș	3
▁знатн	3
уччи	3
▁Apion	3
▁Паул	3
foot	3
▁hom	3
▁приготовленн	3
▁достоверны	3
▁edition	3
▁Minneapolis	3
▁Minnesot	3
▁нотаци	3
Mathematica	3
Libération	3
▁плеча	3
▁разнообразны	3
▁Rest	3
▁хочу	3
▁Далее	3
▁Почетн	3
рхиепископ	3
▁tang	3
▁конечн	3
▁монархии	3
Гер	3
мешался	3
▁свержени	3
▁Foot	3
▁Kubrick	3
Γ	3
▁Alph	3
▁возлюбленного	3
▁Wins	3
▁Europ	3
branchi	3
Translatio	3
▁выстрели	3
▁Thor	3
▁Свод	3
▁Sing	3
▁Dacia	3
[...]
