,	66306
.	45930
▁	26718
▁и	16989
▁в	11745
▁et	11130
1	9707
▁in	8589
s	8480
▁не	7789
▁est	7077
0	6920
:	6727
е	5778
;	5723
а	5712
2	5618
9	5414
▁на	5408
e	5015
▁что	4902
▁с	4854
m	4524
и	4393
▁ad	4039
й	3969
▁non	3734
um	3472
i	3298
▁он	3282
▁-	3112
▁по	3099
м	3071
o	3012
▁(	2921
▁к	2840
?	2810
8	2777
3	2761
5	2734
a	2655
-	2639
х	2624
us	2584
▁от	2563
▁его	2538
que	2506
▁cum	2504
4	2469
7	2411
6	2393
▁а	2380
▁ut	2346
▁sunt	2335
▁из	2321
▁как	2273
—	2245
о	2227
t	2211
)	2195
у	2186
▁В	2177
is	2104
я	2090
▁qui	2018
▁de	2013
▁за	2006
▁quod	2005
▁ex	1912
ы	1891
▁о	1878
▁a	1862
▁у	1823
▁И	1783
▁же	1774
▁то	1748
▁все	1735
▁их	1696
▁se	1659
▁я	1645
▁они	1638
▁quae	1603
ся	1575
▁quam	1571
▁но	1509
▁"	1484
▁sed	1452
ом	1444
▁это	1403
▁для	1403
▁esse	1375
ю	1323
▁anno	1323
▁si	1314
▁per	1309
▁был	1301
▁так	1286
го	1247
ов	1203
▁чтобы	1188
▁ab	1186
▁autem	1161
▁eius	1134
▁если	1127
▁ты	1121
▁до	1113
▁бы	1113
▁было	1105
rum	1101
▁С	1097
▁при	1070
▁erat	1065
▁«	1043
ет	1031
ть	1022
ая	1020
▁года	1013
▁ac	997
в	994
л	994
ми	980
▁ни	971
▁inter	966
▁только	953
!	937
▁году	928
▁te	922
▁когда	916
▁atque	912
▁pro	908
▁А	892
ой	889
▁hoc	873
nt	865
▁enim	852
▁Но	845
es	842
▁aut	833
▁под	832
tur	818
▁или	811
т	802
▁etiam	798
▁ему	794
ли	770
▁во	767
ur	762
▁me	760
ri	750
▁были	738
▁вы	737
▁In	732
).	729
▁со	729
▁сказал	724
▁nec	723
▁чем	718
▁fuit	712
re	706
▁мы	702
▁eum	685
▁Он	680
▁них	667
am	666
▁она	665
ую	665
▁им	661
ta	652
▁кто	649
▁ли	648
▁quo	648
▁того	647
▁время	645
▁ne	645
ae	639
▁Anno	625
ем	623
с	622
▁re	618
▁мне	607
ый	600
▁quid	597
▁Я	596
»	591
▁iam	587
▁ее	580
ка	579
▁будет	574
▁die	574
▁По	565
▁которые	564
но	558
▁eo	555
▁quia	553
▁есть	551
c	549
▁уже	548
▁меня	546
▁'	546
▁себя	545
os	543
ла	536
ь	535
▁даже	535
▁без	534
▁sit	534
▁На	532
▁tibi	529
▁всех	524
"	522
▁была	517
ibus	516
ей	512
▁тем	509
ti	509
▁еще	508
▁него	506
▁potest	499
▁об	494
▁тебе	490
▁Ты	489
or	486
▁этого	486
▁может	484
▁mihi	484
▁том	482
то	481
▁haec	480
▁e	479
▁tamen	479
▁neque	478
▁C	476
▁nihil	476
em	475
▁omnes	474
▁нас	473
▁quoque	473
р	471
ный	471
vit	471
▁сам	463
at	463
на	462
▁быть	462
▁себе	458
it	457
n	456
▁тебя	454
'	454
▁apud	454
▁К	451
ого	450
д	448
ами	446
▁тот	446
".	444
▁A	443
г	442
ен	438
▁res	438
▁после	434
as	434
▁vel	434
з	433
▁раз	431
▁Цезарь	431
▁ipse	431
▁quidem	426
▁sine	416
▁день	413
н	412
ки	411
▁esset	409
ют	406
▁P	405
▁sibi	405
▁id	404
▁человек	399
▁sub	399
ий	398
▁нет	398
».	397
▁этом	396
▁лет	395
y	394
▁habet	393
▁post	393
▁illi	392
▁О	389
▁Не	387
▁qua	387
▁ei	387
▁omnia	386
▁который	385
mus	385
▁своей	382
▁над	381
▁quibus	381
ter	379
▁De	376
et	376
orum	376
▁ea	374
▁M	373
ной	370
▁Non	368
▁более	367
alis	367
▁больше	365
▁omnibus	365
▁У	364
▁Так	363
▁nisi	363
▁своих	362
за	361
unt	361
tus	361
▁про	360
к	359
▁ante	357
bus	355
ит	350
▁между	348
ие	347
p	347
му	346
▁tempore	345
Ш	344
▁ergo	344
ии	343
▁sua	343
▁illa	342
▁против	340
ные	340
ная	340
▁нам	339
▁Sed	338
▁своего	335
▁потому	335
ам	334
▁также	334
▁ибо	333
ных	331
ия	330
ne	330
▁eos	329
▁L	328
п	326
▁жизни	325
▁ним	324
▁вот	323
▁где	323
▁один	323
▁Его	323
▁his	323
▁causa	323
▁appellantur	323
ется	322
▁много	322
▁через	322
▁eorum	322
r	320
▁очень	320
▁ubi	320
▁ille	320
ni	319
ного	319
▁nos	318
▁те	317
ч	317
K	317
▁Haec	317
ns	316
▁quem	316
▁dixit	315
ant	314
ок	312
▁можно	312
ра	311
▁homines	311
▁erant	311
▁modo	310
er	308
▁super	308
ло	306
▁annos	306
им	304
▁перед	302
▁illum	302
▁Caesar	302
лись	300
та	299
▁всего	297
▁ita	297
▁Quid	296
▁usque	294
▁Это	293
tio	293
▁этот	292
ntur	292
u	291
ах	290
▁там	290
▁I	288
ve	287
ых	286
▁всем	286
▁ведь	286
▁S	285
сти	283
tum	283
ж	281
▁tam	281
▁Когда	279
▁sic	279
▁которых	278
▁an	278
▁Hoc	277
▁tu	276
▁quos	276
▁con	275
C	273
▁dies	273
▁Ad	272
▁Et	272
▁contra	271
▁чего	271
▁quas	271
io	270
▁стал	270
▁bonum	270
▁ничего	269
ку	268
▁Si	268
▁людей	265
▁Если	264
▁свою	263
▁При	263
ci	263
▁Cum	263
▁тех	260
▁eam	260
▁г	259
▁ob	259
▁nobis	258
▁tantum	258
f	257
▁лишь	257
▁loco	257
▁год	256
ca	256
▁жизнь	255
in	255
лась	254
га	253
ia	253
▁пред	253
▁nunc	253
▁ego	252
те	251
▁Incola	251
да	250
ce	250
▁cuius	250
le	248
vi	247
▁illis	247
d	246
ch	246
ые	246
▁человека	246
tis	246
▁да	245
▁rem	245
▁annum	245
▁Все	244
▁ait	244
▁свои	242
ны	242
▁suo	242
te	241
▁своим	240
б	240
ре	240
▁Они	239
bat	239
▁anni	239
▁благо	238
же	237
▁эти	237
▁suis	237
ни	236
to	236
▁оно	235
▁смерти	234
▁времени	233
ва	233
▁Бог	232
▁хотя	232
ное	232
ым	232
▁factus	232
▁rerum	231
▁propter	231
не	230
ш	230
▁тогда	230
▁Как	229
ным	229
▁За	228
▁mortuus	228
▁nomen	227
▁Г	225
na	225
▁vero	225
▁facta	225
А	224
▁unum	224
нибудь	223
al	223
x	223
▁vita	223
▁rebus	223
ое	222
ись	222
ться	222
di	222
▁suam	222
▁fecit	222
▁её	221
▁место	221
▁Что	221
▁cui	221
ти	219
ra	219
▁города	219
▁sum	219
▁primum	219
",	218
▁magis	218
▁suum	217
ру	215
ens	215
verunt	215
▁дело	214
по	214
▁одно	214
▁часть	213
▁ista	212
▁rei	211
▁люди	210
англ	210
▁E	210
▁этой	209
▁вместе	209
▁hic	209
▁пусть	208
ля	207
он	207
ке	207
J	207
▁The	207
ст	206
ешь	206
▁Deus	206
▁magna	206
▁ней	205
▁Ab	205
▁Itaque	205
▁тому	204
ён	204
ris	204
▁prae	204
▁multa	204
an	203
▁два	202
▁несколько	202
▁образом	202
▁теперь	202
▁sicut	202
▁около	201
ются	201
▁свое	201
▁illo	201
▁quis	201
▁posse	201
▁ними	200
▁Nam	200
▁sui	200
че	199
ят	199
▁O	199
▁земле	198
ную	198
bant	198
▁bellum	198
вер	197
tas	197
▁una	197
▁plus	197
▁castra	197
ди	196
▁город	196
▁pars	196
Ж	195
▁этих	194
▁П	194
ев	194
▁terra	194
▁locum	194
▁Да	193
▁eis	193
▁которая	192
▁всегда	192
▁народ	192
si	192
▁либо	192
▁es	192
▁aliquid	192
▁пока	191
▁среди	191
▁свой	190
▁э	190
▁omnium	190
▁ibi	190
об	189
li	189
▁terram	189
▁Ведь	188
▁Novi	188
▁Quod	188
▁других	187
co	187
▁нужно	186
ков	186
▁Цезаря	186
▁tua	186
ar	185
ль	184
▁ей	184
▁является	183
▁at	183
▁Eboraci	183
/	182
▁одного	182
де	181
лся	181
ри	181
S	181
ее	181
▁vitae	181
ere	180
▁facere	180
▁дней	179
ил	179
ского	179
▁мой	179
▁castris	179
▁стали	178
́	178
A	178
▁saepe	178
их	177
С	177
k	177
▁ради	177
▁слова	177
▁erit	177
%	176
▁лагеря	176
▁нем	176
w	175
▁будто	175
▁quantum	175
▁factum	175
▁пере	174
▁После	174
sti	174
▁кого	174
▁вам	174
lis	174
▁три	174
▁однако	173
▁такой	173
▁жить	173
би	173
▁minus	173
▁ipsa	172
▁circa	172
ив	171
▁должен	171
."	171
▁нельзя	171
▁которого	170
ко	170
тель	170
Z	170
▁другой	170
g	170
▁Romani	170
▁partem	170
▁parte	170
▁имя	169
▁наших	169
▁adhuc	169
▁здесь	168
▁М	168
▁потом	168
▁--	168
▁di	167
▁мог	167
▁dedit	167
▁будут	166
▁G	166
▁Ex	166
▁dum	166
ию	165
▁At	165
▁Во	164
ле	164
no	164
ги	164
▁которой	164
▁bona	164
▁semper	164
▁hominum	164
▁отца	163
ing	163
▁Die	163
uit	163
▁hac	163
чи	162
▁значит	162
▁наши	162
▁vobis	162
▁надо	161
ясь	161
▁лагерь	161
▁accepit	161
P	160
▁alia	160
▁tempus	160
▁illud	160
са	159
ро	159
–	159
tu	159
▁animo	159
▁hanc	159
▁дал	158
ном	158
ну	158
▁habere	158
▁possunt	158
▁habent	158
ut	157
▁сколько	157
enses	157
▁prima	157
▁inquit	157
▁дела	156
ent	156
▁iis	156
▁satis	156
▁multis	156
▁of	155
ro	155
vis	155
▁omni	155
▁illam	155
▁Поэтому	154
▁omnis	154
▁itaque	154
ал	153
ской	153
▁которое	153
▁дом	153
bo	153
quam	153
▁Quae	153
ными	152
▁dis	152
ин	152
от	152
▁могут	152
▁самого	152
ret	152
▁numquam	152
▁sint	152
▁fieri	152
▁hostium	152
▁Т	151
z	151
▁тысяч	151
▁Qui	151
▁fere	151
ан	149
de	149
▁ко	149
▁publica	149
atur	149
tionem	149
▁deinde	149
h	148
▁получил	148
la	148
▁duo	148
bit	148
▁tamquam	148
▁прежде	147
▁Inter	147
▁От	147
▁opera	147
▁земли	147
iae	147
▁venit	147
▁suos	147
▁huius	147
ить	146
▁Ianuarii	146
ndum	146
?"	145
▁simul	145
▁mortem	145
▁Мы	144
па	144
▁друг	144
sse	144
нд	144
▁почти	144
▁partes	144
▁intra	144
j	143
▁таким	143
▁кроме	143
▁нему	143
▁Post	143
tionis	143
▁nemo	143
▁aliud	143
ние	142
▁Pro	142
▁nomine	142
▁quorum	142
▁Про	141
ение	141
▁Кто	141
ius	141
per	141
▁tres	141
erunt	141
аль	140
l	140
ский	140
си	140
▁весь	140
▁Тебя	140
▁душа	140
▁tui	140
▁secundum	140
▁этим	139
ча	139
▁Галлии	139
▁magno	139
▁сына	138
▁сделал	138
el	138
▁сказать	138
▁filii	138
зи	137
ась	137
▁Из	137
ту	137
▁F	137
▁здоров	137
сть	136
▁говорит	136
▁Re	136
ё	136
▁делать	136
▁своему	136
▁солдат	136
▁никто	136
ium	136
▁Вот	135
▁имеет	135
лось	135
▁должны	135
▁многих	135
▁говорил	135
▁народа	134
▁войны	134
th	134
▁войска	134
▁силы	134
▁vitam	134
▁milia	134
▁meum	134
▁multum	134
Y	133
lo	133
жа	133
ду	133
▁лучше	133
▁co	133
▁V	133
▁mea	133
▁До	132
▁Она	132
▁п	132
кс	132
ек	132
▁Se	132
▁Iacob	132
ец	131
▁руки	131
ство	131
▁diem	131
▁Ita	131
▁nulla	131
▁nostri	131
щ	130
сь	130
▁какой	130
до	130
▁Ли	130
▁нее	130
▁nam	130
▁tuum	130
▁omnem	130
тов	129
ния	129
▁слишком	129
▁сами	129
▁вас	129
cum	129
cumque	129
▁prius	129
▁quidquid	129
▁т	128
▁opus	128
▁собой	128
▁дня	128
ши	128
▁posset	128
▁T	127
ци	127
ul	127
▁ipsum	127
ист	127
▁ipsi	127
▁bene	127
▁solum	127
rent	127
▁сделать	126
ма	126
id	126
▁Тогда	126
▁приказал	126
жи	126
ше	126
▁смерть	126
▁domum	126
▁animus	126
лен	125
▁такое	125
▁именно	125
▁Ne	125
▁стороны	125
▁которую	125
gi	125
nis	125
ver	125
▁idem	125
▁H	124
▁каждый	124
ры	124
▁Londinii	124
cus	124
▁hostes	124
▁facit	124
▁primo	124
▁dicens	124
ndi	124
▁другие	123
ты	123
ина	123
▁двух	123
ова	123
ag	123
▁Per	123
ntes	123
▁natura	123
▁ecce	123
ф	122
ве	122
сто	122
▁самое	122
sa	122
▁II	122
bi	122
▁vis	122
▁войско	122
▁milites	122
▁quomodo	122
▁suae	122
▁supra	122
ран	121
▁часто	121
en	121
▁Dioecesi	121
▁tum	121
tae	121
▁eodem	121
ская	120
▁своими	120
▁W	120
▁Dei	120
▁части	120
▁sese	120
▁animi	120
▁militum	120
▁месте	119
ения	119
!"	119
pi	119
bantur	119
▁tuo	119
▁His	119
▁illos	119
▁знаю	118
▁Господь	118
лу	118
▁одной	118
▁Е	118
▁рас	118
▁власти	118
▁An	118
▁videtur	118
▁homo	118
nus	118
▁eadem	118
▁эту	117
▁быстро	117
ge	117
▁natus	117
▁Вы	116
▁пор	116
▁затем	116
▁La	116
▁мало	116
▁тут	116
im	116
▁trans	116
▁populi	116
▁postea	116
untur	116
ad	115
▁Господи	115
жд	115
▁говорить	115
I	115
tor	115
▁vir	115
▁meus	115
▁urbe	115
▁pater	115
▁aliis	115
M	114
▁ответ	114
v	114
▁Сам	114
▁хорошо	114
во	114
▁p	114
batur	114
▁quattuor	114
▁Dominus	114
▁случае	113
ndo	113
▁мир	113
▁землю	113
▁которым	113
▁могли	113
ari	113
▁deus	113
▁terrae	113
▁vos	113
▁fines	113
ус	112
▁января	112
▁maxime	112
▁Quo	112
on	112
▁quoniam	112
▁hunc	112
ья	111
ник	111
▁туда	111
тся	111
▁Ma	111
бе	111
mi	111
num	111
▁numero	111
▁diebus	111
▁Ioseph	111
▁uno	111
▁умер	110
▁никогда	110
▁всё	110
▁unde	110
▁fuerunt	110
▁tunc	110
▁Etiam	110
tione	110
▁Д	109
▁этому	109
▁Иисус	109
▁То	109
pp	109
ac	109
▁врагов	109
?'	109
.'	109
▁inde	109
▁illius	109
пе	108
ба	108
▁Ф	108
▁моего	108
▁дать	108
tes	108
▁habuit	108
▁manus	108
▁animum	108
ер	107
бл	107
И	107
лю	107
ol	107
▁Caesarem	107
▁Э	106
мо	106
▁дома	106
▁будешь	106
▁кон	106
ici	106
▁послал	106
etur	106
tiones	106
▁belli	106
▁dicere	106
▁деле	105
ут	105
▁де	105
▁та	105
ать	105
D	105
▁quinque	105
nam	105
▁igitur	105
▁Иаков	105
▁annis	105
род	104
фа	104
ится	104
ар	104
ha	104
ос	104
бо	104
▁душу	104
▁некоторые	104
▁н	104
▁страх	104
▁Vale	104
mo	104
▁делает	104
entes	104
▁детей	103
тер	103
T	103
▁Р	103
▁Пусть	103
un	103
▁всю	103
▁Na	103
▁раньше	103
▁multi	103
▁Eo	103
▁forma	103
▁summa	103
▁uti	103
▁hi	103
▁the	102
pe	102
nes	102
гу	102
хоть	102
▁взял	102
▁dicit	102
▁lingua	102
▁Caesaris	102
▁ещё	101
▁Ре	101
э	101
нов	101
▁долго	101
ica	101
▁добродетели	101
▁Abraham	101
▁verba	101
▁multos	101
▁licet	101
▁exercitum	101
▁Тебе	100
ад	100
ца	100
В	100
▁куда	100
К	100
или	100
▁начал	100
res	100
▁своем	100
ье	100
▁одна	100
ex	100
tra	100
▁fuisse	100
▁necesse	100
▁fortuna	100
▁Однако	99
▁само	99
ности	99
ali	99
▁D	99
вы	99
▁столь	99
▁стать	99
ства	99
les	99
▁Ba	99
▁столько	99
▁наш	99
ensis	99
▁Sic	99
▁собою	99
▁respondit	99
▁mala	99
▁vi	99
▁suas	99
▁essent	99
retur	99
ат	98
ue	98
▁самой	98
▁места	98
▁Л	98
▁отец	98
вал	98
▁особенно	98
▁Ac	98
словно	98
▁сказали	98
▁другого	98
▁urbem	98
▁manu	98
▁mei	98
▁quemadmodum	98
▁жил	97
B	97
ис	97
▁множество	97
▁сын	97
▁кому	97
▁разве	97
▁помощь	97
из	97
ыми	97
▁знает	97
▁R	97
▁mi	97
▁scripsit	97
▁sive	97
▁fit	97
▁coepit	97
▁unus	97
▁nostris	97
▁Нет	96
▁эта	96
▁многие	96
▁назад	96
▁той	96
▁блага	96
▁pagina	96
▁filium	96
▁стало	95
va	95
▁стала	95
▁Ему	95
нее	95
▁первый	95
V	95
▁дух	95
▁nostra	95
▁добродетель	95
▁Ibi	95
ebat	95
▁prope	95
ebant	95
▁exercitus	95
▁aliquando	95
▁civitates	95
▁hominis	95
▁legiones	95
▁possit	95
▁д	94
ров	94
▁другое	94
ель	94
ность	94
▁U	94
▁дни	94
▁Con	94
▁Ar	94
nda	94
▁говорю	94
ata	94
▁тобою	94
▁Будь	94
erat	94
▁quaedam	94
▁consul	94
circiter	94
▁Maii	94
▁copias	94
▁diu	94
ph	93
ость	93
hi	93
▁cura	93
ще	93
▁мая	93
сс	93
ня	93
▁души	93
▁Id	93
▁такого	93
▁Цезарю	93
▁Hic	93
▁Тем	92
лов	92
тор	92
▁легко	92
альный	92
ишь	92
ma	92
▁Qua	92
hel	92
ani	92
▁extra	92
▁враги	92
▁omne	92
icus	92
▁oppidum	92
▁proelio	92
▁consilium	92
▁virtus	92
ция	91
ор	91
▁пре	91
▁з	91
are	91
▁No	91
ает	91
▁нашего	91
▁Ea	91
▁bello	91
▁Septembris	91
▁arma	91
▁corpus	91
▁locis	91
▁possent	91
▁самом	90
▁Дл	90
ось	90
pa	90
▁тело	90
str	90
▁сражение	90
▁Iunii	90
▁Deinde	90
▁temporis	90
▁patris	90
▁Decembris	90
▁duas	90
▁hominem	90
▁praeter	90
▁is	89
М	89
▁почему	89
▁сентября	89
▁менее	89
О	89
▁Па	89
▁тела	89
▁благодаря	89
▁Ба	89
ana	89
ному	89
▁две	89
▁сторон	89
▁populo	89
▁hodie	89
▁rex	89
▁species	89
▁circum	89
▁consilio	89
▁dico	89
П	88
мер	88
▁Б	88
▁хотел	88
ские	88
▁нами	88
▁власть	88
место	88
eris	88
▁Tum	88
▁decem	88
▁quando	88
▁ipso	88
Б	87
▁речь	87
▁котором	87
▁нашей	87
▁довольно	87
da	87
▁войну	87
али	87
▁пришел	87
sset	87
▁septem	87
▁vivere	87
▁iter	87
▁fuerit	87
▁nocte	87
sque	87
▁пришли	86
лет	86
вид	86
▁скоро	86
▁видел	86
▁ту	86
▁пути	86
ск	86
▁друга	86
go	86
▁Di	86
▁душе	86
tos	86
ntem	86
▁mori	86
mur	86
▁следует	85
▁Press	85
▁большой	85
▁меньше	85
▁декабря	85
ней	85
ком	85
ru	85
do	85
aris	85
▁Q	85
▁causam	85
▁condita	85
▁Augusti	85
цы	84
Т	84
▁Под	84
▁сейчас	84
▁такие	84
tem	84
кой	84
ум	84
▁одном	84
▁брата	84
▁Иосиф	84
op	84
▁выше	84
▁genuit	84
E	83
▁and	83
st	83
Р	83
il	83
▁течение	83
ц	83
▁Со	83
раз	83
▁страны	83
▁городе	83
▁вид	83
▁путь	83
ii	83
▁via	83
atus	83
▁uxorem	83
▁finem	83
▁facile	83
tam	83
▁meo	83
▁verum	83
ntibus	83
▁Galliae	83
ости	82
смотря	82
▁одним	82
▁свет	82
ел	82
▁бывает	82
▁мои	82
▁Co	82
uc	82
▁увидел	82
▁habita	82
▁praeses	82
▁Iesus	82
▁maior	82
▁снова	81
▁говоря	81
од	81
▁равно	81
▁отправил	81
ена	81
ому	81
▁всякий	81
вор	81
▁иначе	81
▁N	81
чен	81
▁другим	81
▁должно	81
▁рода	81
▁Ар	81
▁зло	81
▁n	81
▁сама	81
▁Hi	81
▁paroeciae	81
▁Martii	81
▁quidam	81
▁celeriter	81
nos	81
▁plerumque	81
▁fratres	81
▁nostros	81
▁узнал	80
▁б	80
▁твоего	80
▁оставил	80
▁сразу	80
▁Сын	80
gu	80
▁человеку	80
сп	80
ba	80
▁Tu	80
ою	80
▁malum	80
▁meam	80
tores	80
▁publicae	80
▁aliqua	80
▁tanta	80
▁hostibus	80
’	79
ёт	79
L	79
прав	79
ак	79
йся	79
▁море	79
▁стоит	79
лы	79
▁другом	79
▁римлян	79
▁остальные	79
ina	79
cit	79
▁римского	79
▁хлеб	79
▁viri	79
▁Ipse	79
▁senatus	79
▁postquam	79
▁ratio	79
дер	78
▁семь	78
▁марта	78
кт	78
▁сенат	78
▁Те	78
▁чему	78
tica	78
▁слово	78
ман	78
▁самым	78
endi	78
du	78
▁tuam	78
ebatur	78
▁nondum	78
ionem	78
▁signa	78
▁genus	78
▁nullum	78
се	77
H	77
▁конце	77
▁Бо	77
▁magnum	77
▁ноября	77
▁таких	77
▁области	77
▁добра	77
▁решил	77
cis	77
▁оружие	77
▁род	77
▁создал	77
▁B	77
be	77
▁filios	77
▁Gallia	77
▁Novembris	77
▁potuit	77
▁usus	77
ха	76
▁основан	76
▁He	76
▁ночь	76
lia	76
▁вообще	76
ша	76
▁Рим	76
цион	76
бу	76
▁ре	76
пер	76
Д	76
▁знал	76
G	76
N	76
▁солдаты	76
ющий	76
щи	76
▁Авраам	76
▁fecerunt	76
ini	76
▁Urbani	76
▁fuga	76
▁maxima	76
▁spe	76
▁statim	76
▁dixitque	76
ven	75
▁находится	75
ью	75
ями	75
фи	75
ect	75
ских	75
▁corporis	75
▁Iulii	75
▁habebat	75
antur	75
▁longe	75
▁amplius	75
▁coram	75
▁Там	74
▁язык	74
▁остальных	74
▁знать	74
вар	74
▁следующий	74
▁глаза	74
▁всеми	74
est	74
▁para	74
▁urbis	74
▁nata	74
▁Nec	74
tatem	74
▁Aegypti	74
▁tota	74
▁primus	74
▁pugna	74
▁tecum	74
ensi	74
▁turba	74
▁cur	74
▁quicquam	74
▁ш	73
ъ	73
▁па	73
ции	73
▁своё	73
рон	73
кор	73
▁мире	73
▁иногда	73
иль	73
ly	73
▁говорят	73
▁самый	73
ды	73
▁вся	73
▁достаточно	73
▁Мне	73
ают	73
▁Is	73
ula	73
▁земля	73
▁Est	73
▁mense	73
enti	73
erit	73
▁misit	73
Anglice	73
tatis	73
▁copiis	73
▁domine	73
▁Бога	72
▁принял	72
▁Ка	72
U	72
кл	72
▁временем	72
▁alias	72
om	72
▁моя	72
▁говорили	72
con	72
onis	72
ine	72
vo	72
▁Omnes	72
▁sex	72
▁filius	72
▁Pater	72
▁totum	72
rentur	72
one	71
йте	71
▁хочет	71
▁умереть	71
ик	71
бор	71
▁февраля	71
▁наконец	71
F	71
▁идти	71
▁Только	71
za	71
▁сказала	71
▁поставил	71
▁media	71
▁врага	71
pon	71
▁эдуев	71
▁Nihil	71
▁Multa	71
entia	71
▁gratia	71
▁моей	70
жен	70
▁сих	70
▁июля	70
▁des	70
▁Таким	70
ств	70
▁просто	70
▁Н	70
▁возможно	70
ber	70
ний	70
ях	70
▁легиона	70
▁мною	70
▁далеко	70
b	70
man	70
ием	70
▁доме	70
▁вперед	70
▁народу	70
▁Isaac	70
▁Romae	70
▁хочу	70
▁tot	70
▁periculo	70
▁finibus	70
▁servi	70
▁alii	70
▁nomina	70
qui	70
▁multo	70
▁potestatem	70
▁magnitudine	70
▁flumen	70
▁equites	70
▁legionibus	70
▁четыре	69
ское	69
▁имеют	69
▁найти	69
изм	69
иться	69
пл	69
ck	69
▁Здесь	69
▁дел	69
▁Италии	69
бер	69
▁заложников	69
▁Ни	69
▁мира	69
▁ими	69
▁насколько	69
met	69
▁scriptor	69
▁can	69
tate	69
▁naves	69
▁exercitu	69
▁eas	69
▁centum	69
▁armis	69
▁huic	69
▁adversus	69
▁domus	69
▁virtute	69
▁caeli	69
▁virtutem	69
▁manum	69
▁известно	68
▁идет	68
▁пять	68
▁момент	68
▁конец	68
том	68
ёр	68
скую	68
▁сторону	68
▁начали	68
▁становится	68
она	68
пол	68
▁Ме	68
▁твой	68
ui	68
▁разум	68
nem	68
▁твои	68
▁Ut	68
▁vide	68
▁libertatem	68
▁urbs	68
▁caput	68
▁paene	68
▁longius	68
▁quare	68
ир	67
▁New	67
це	67
раж	67
фе	67
ed	67
▁вне	67
▁Ди	67
▁начала	67
▁Bo	67
ешься	67
твор	67
▁сил	67
▁меж	67
▁гор	67
▁опасности	67
вшись	67
cu	67
▁духа	67
po	67
▁Italia	67
lu	67
▁constat	67
▁Februarii	67
▁diei	67
▁faciunt	67
bis	67
▁Iam	67
▁metu	67
ntium	67
▁domo	67
▁passuum	67
▁iubet	67
ry	66
▁право	66
▁Затем	66
ском	66
▁Этот	66
▁кор	66
▁Та	66
ke	66
зе	66
▁брат	66
оз	66
▁воз	66
▁вещи	66
ству	66
▁мое	66
зна	66
под	66
▁совершенно	66
▁конца	66
стра	66
▁Ca	66
▁никак	66
hy	66
▁c	66
▁сражения	66
▁страха	66
ria	66
▁скот	66
non	66
gra	66
▁dicitur	66
▁oppido	66
avit	66
▁fidem	66
▁numerum	66
▁civitatis	66
▁rursus	66
▁al	65
▁b	65
▁вдруг	65
▁Марк	65
▁So	65
кон	65
тен	65
ard	65
▁З	65
▁Пре	65
чный	65
▁одну	65
▁стар	65
ud	65
▁Al	65
dis	65
▁morte	65
▁dicam	65
▁operam	65
▁male	65
▁totius	65
▁iuxta	65
▁legatos	65
▁civitatem	65
▁debet	65
endum	65
▁gratiam	65
▁equitatu	65
▁обоих	64
▁имени	64
▁число	64
▁откуда	64
су	64
уп	64
▁IV	64
▁Ch	64
bar	64
▁голос	64
▁труд	64
▁самых	64
nte	64
ide	64
nae	64
▁уж	64
pha	64
▁quin	64
▁нашел	64
▁incolarum	64
▁iterum	64
▁legatus	64
dum	64
▁suorum	64
▁locus	64
▁officio	64
▁caelum	64
▁regnum	64
▁paulo	64
▁donec	64
ян	63
▁людям	63
▁III	63
юсь	63
▁буду	63
▁X	63
▁ma	63
▁ос	63
стер	63
▁Res	63
▁хочешь	63
▁помощи	63
▁Де	63
ост	63
lem	63
вший	63
amus	63
▁no	63
▁Nova	63
▁послов	63
▁pre	63
▁op	63
▁всадников	63
▁sedes	63
▁toto	63
▁aliquis	63
▁patrem	63
ores	63
▁animalia	63
iam	63
▁scire	63
▁cons	63
▁dixerunt	63
▁coeperunt	63
▁совет	62
▁ж	62
▁жив	62
▁Х	62
▁годах	62
ска	62
▁самому	62
кр	62
про	62
▁качестве	62
▁каким	62
▁generis	62
▁Lutetiae	62
▁antequam	62
▁Situ	62
▁boni	62
▁nota	62
▁dux	62
▁pervenit	62
O	61
▁государства	61
▁совсем	61
стро	61
ред	61
port	61
▁апреля	61
ант	61
▁сначала	61
▁обо	61
▁настолько	61
▁mundi	61
▁пошел	61
nd	61
▁готов	61
лом	61
endo	61
▁весьма	61
°	61
enda	61
rat	61
sit	61
▁моих	61
tionibus	61
▁fi	61
dam	61
▁конницу	61
▁Nunc	61
▁vix	61
▁Postea	61
▁Aprilis	61
▁tulit	61
▁cor	61
▁iussit	61
▁aliter	61
▁Imperi	61
▁potius	61
▁partibus	61
▁alius	61
▁animal	61
▁equitum	61
стве	60
▁друзей	60
▁армии	60
ton	60
▁жену	60
ника	60
ork	60
нье	60
▁Эти	60
фр	60
иф	60
ика	60
▁второй	60
▁теле	60
емся	60
Г	60
▁третий	60
▁богов	60
▁Ro	60
▁сто	60
▁Ra	60
tim	60
ua	60
▁галлы	60
▁твое	60
▁Луцилий	60
▁aqua	60
▁opere	60
mini	60
▁umquam	60
▁numerus	60
▁omnino	60
▁quisque	60
▁undique	60
▁cuncta	60
▁Lucili	60
▁боль	59
é	59
дин	59
▁большим	59
▁Da	59
au	59
▁вокруг	59
▁ком	59
эн	59
▁Вер	59
▁годы	59
сл	59
ten	59
▁любовь	59
▁войне	59
▁la	59
▁кажется	59
ятся	59
▁дали	59
▁Bar	59
R	59
▁легче	59
fer	59
▁страну	59
▁поле	59
вшие	59
▁Car	59
▁виду	59
▁галлов	59
▁valde	59
▁certe	59
▁ius	59
▁lege	59
▁mane	59
▁vixit	59
▁obsides	59
▁loci	59
▁filia	59
▁paucis	59
▁ipsis	59
▁naturam	59
▁Rhenum	59
▁homine	59
▁sumus	59
уд	58
bul	58
ился	58
ром	58
▁Об	58
ций	58
▁американски	58
▁философии	58
▁Кром	58
▁иметь	58
▁поэтому	58
▁пе	58
со	58
▁Ко	58
ав	58
▁помощью	58
цев	58
▁Есть	58
▁честь	58
ге	58
▁название	58
тра	58
▁дает	58
пу	58
мы	58
▁Итак	58
ces	58
▁легион	58
▁impetum	58
arum	58
▁Tamen	58
atio	58
entem	58
▁accidit	58
▁medio	58
ndam	58
▁triginta	58
nti	58
▁mors	58
▁Esa	58
▁secum	58
▁ratione	57
▁немедленно	57
tri	57
▁ясно	57
ед	57
▁рабов	57
▁Значит	57
oni	57
▁могу	57
ста	57
▁Li	57
ками	57
&	57
рес	57
▁большие	57
▁провинции	57
▁спор	57
▁стране	57
▁считал	57
▁силу	57
▁дочь	57
▁хлеба	57
▁скорее	57
▁станет	57
ori	57
ab	57
cula	57
ram	57
▁Quam	57
▁sc	57
▁Ergo	57
rius	57
▁ire	57
▁noster	57
▁venerunt	57
▁Romanis	57
▁duos	57
▁animos	57
▁corpore	57
▁cumque	57
▁Разве	56
бра	56
ана	56
▁ф	56
▁Между	56
▁воды	56
com	56
▁можешь	56
▁внезапно	56
▁возможность	56
▁ме	56
▁Ле	56
▁пришлось	56
ющих	56
▁вести	56
ione	56
▁точно	56
▁вынужден	56
нг	56
▁всему	56
▁вышел	56
lin	56
▁имел	56
der	56
▁какое	56
▁li	56
▁genera	56
▁тотчас	56
dic	56
▁hora	56
▁populum	56
▁Vide	56
▁litteris	56
▁secunda	56
▁Eodem	56
▁pertinet	56
▁legati	56
▁tribus	56
▁vim	56
▁aquae	56
▁civitate	56
▁militibus	56
▁tuae	56
▁verbis	56
▁ideo	56
▁utrum	56
▁aeque	56
▁pedes	56
imus	56
▁hos	56
▁itinere	56
▁inquis	56
▁получить	55
чит	55
▁Один	55
▁деньги	55
цен	55
▁которому	55
▁сюда	55
▁Почему	55
езд	55
▁июня	55
▁тоже	55
рат	55
едва	55
▁десять	55
▁руку	55
ones	55
▁Ибо	55
▁бегство	55
▁naturae	55
▁сынов	55
▁meae	55
▁alterum	55
▁Ubi	55
▁mortis	55
▁Sunt	55
▁maiore	55
▁quamquam	55
▁Hodie	55
▁unam	55
▁varia	55
▁Caesare	55
▁vidit	55
▁magnam	55
entibus	55
▁subito	55
▁quanto	55
▁mittit	55
▁пар	54
нут	54
▁немного	54
▁Их	54
шь	54
вая	54
▁Бр	54
ении	54
(	54
▁период	54
▁ма	54
дов	54
тро	54
▁мест	54
▁сердце	54
▁будем	54
▁ночью	54
▁Ра	54
▁угодно	54
ющие	54
▁трех	54
ec	54
ников	54
▁Multi	54
▁munere	54
▁Ним	54
идный	54
qua	54
bas	54
cae	54
▁Ариовист	54
▁спросишь	54
▁invenit	54
▁duxit	54
▁Lingua	54
▁duodecim	54
▁philosophia	54
▁auxilium	54
▁velut	54
▁Nemo	54
verat	54
▁annorum	54
▁reliquis	54
▁porta	54
▁multitudine	54
▁conspectu	54
▁proelium	54
▁ulla	54
тур	53
▁состоянии	53
▁Мо	53
▁Теперь	53
isse	53
нь	53
нул	53
рен	53
ям	53
ход	53
▁мать	53
мент	53
▁принес	53
▁слов	53
▁Кон	53
▁родил	53
ван	53
три	53
▁пос	53
▁мол	53
ским	53
▁Чтобы	53
▁памяти	53
▁меч	53
▁матери	53
▁par	53
▁права	53
eri	53
▁Bu	53
▁родила	53
▁alter	53
▁usu	53
▁altera	53
▁твоих	53
lla	53
▁Saep	53
▁liberos	53
▁interim	53
▁signum	53
▁linguae	53
▁sententia	53
▁memoria	53
▁initium	53
▁Prima	53
aria	53
▁dare	53
▁Ego	53
▁modum	53
ior	53
▁milibus	53
▁potestate	53
зов	52
“	52
ились	52
▁принять	52
▁состоит	52
▁словами	52
гра	52
зы	52
▁октября	52
mon	52
▁лично	52
▁Ho	52
тя	52
▁вернулся	52
▁истории	52
▁отдал	52
▁отцу	52
▁некоторых	52
▁скажет	52
▁письмо	52
▁обычно	52
ati	52
▁Cur	52
тар	52
▁Ni	52
▁бой	52
ka	52
▁случай	52
▁счастье	52
▁pe	52
▁дальше	52
▁область	52
▁срок	52
▁сената	52
▁придется	52
▁оба	52
lus	52
▁конницы	52
bra	52
▁statu	52
dit	52
rae	52
▁sola	52
verit	52
▁materia	52
▁mater	52
▁Italiae	52
▁semel	52
▁seu	52
▁oportet	52
▁Deum	52
▁aliena	52
▁vitia	52
▁praesidio	52
▁mecum	52
его	51
Я	51
▁Ta	51
нья	51
Й	51
рев	51
ест	51
▁природе	51
ющее	51
▁Некоторые	51
▁количество	51
▁тр	51
нер	51
▁Man	51
▁первое	51
вед	51
тр	51
▁Меня	51
▁вступил	51
▁наше	51
▁достиг	51
ели	51
ставить	51
ita	51
▁рук	51
the	51
▁двинулся	51
alia	51
▁какие	51
▁невозможно	51
вали	51
▁Domini	51
ales	51
men	51
atum	51
▁Maria	51
▁pati	51
▁imperium	51
▁Hac	51
▁легионы	51
onem	51
▁Eius	51
▁pecunia	51
▁summum	51
▁vere	51
▁futurum	51
▁filias	51
▁principes	51
uerunt	51
▁poterat	51
▁hominibus	51
▁imperii	51
▁oculos	51
tibus	51
▁Galliam	51
▁adeo	51
▁fama	51
▁alio	51
▁tela	51
▁item	51
▁hostem	51
▁sententiam	51
▁istis	51
▁Me	50
ите	50
ники	50
ики	50
граф	50
▁ч	50
▁боя	50
▁Эта	50
▁ру	50
▁сильно	50
▁начале	50
кра	50
ски	50
▁августа	50
▁Исаак	50
▁работы	50
ас	50
▁раб	50
▁написал	50
▁небо	50
▁Аврам	50
▁жена	50
▁Им	50
▁Би	50
▁первых	50
ore	50
pos	50
▁VI	50
▁Ла	50
▁радость	50
rus	50
нет	50
ho	50
▁бою	50
▁лагере	50
▁Sub	50
▁легионов	50
oli	50
▁Vi	50
▁сего	50
▁Ганнибал	50
▁Dum	50
▁Americae	50
▁certa	50
ionis	50
issima	50
▁Quis	50
▁Germania	50
▁Praeterea	50
▁nullo	50
▁Illi	50
pu	50
▁mari	50
▁fecisti	50
▁bib	50
bam	50
▁adventu	50
▁происходит	49
▁Te	49
=	49
▁внутри	49
▁считают	49
▁каждого	49
являются	49
▁объявил	49
▁вновь	49
▁ста	49
▁внимание	49
рин	49
▁крайне	49
вшийся	49
rem	49
ол	49
кан	49
▁будь	49
▁большое	49
▁руках	49
▁Или	49
▁humani	49
▁видеть	49
▁римляне	49
▁Tur	49
следствие	49
▁лица	49
▁iure	49
▁mare	49
▁filio	49
▁liber	49
▁Nomen	49
▁pecuniam	49
▁multae	49
▁vera	49
anno	49
▁solus	49
▁tria	49
▁frater	49
▁primi	49
▁interretialis	49
▁facto	49
rium	49
▁viam	49
▁more	49
ebantur	49
▁spiritus	49
entur	49
▁isti	49
▁genere	49
▁nostrum	49
▁honesta	49
▁nimis	49
▁mali	49
▁sapiens	49
▁ipsos	49
▁Лу	48
▁конечно	48
сон	48
▁граждан	48
▁прямо	48
▁Тот	48
вин	48
▁мере	48
▁остался	48
phi	48
рис	48
▁пошли	48
▁должна	48
▁премьер	48
▁Хо	48
»)	48
▁Германии	48
нию	48
▁immo	48
дель	48
стей	48
▁Ма	48
▁Испании	48
либо	48
▁бр	48
▁бежать	48
od	48
ковый	48
▁Ру	48
nc	48
лат	48
дж	48
▁d	48
▁fo	48
▁обоз	48
▁причина	48
▁Ver	48
▁века	48
▁дочерей	48
ug	48
▁Su	48
▁делах	48
▁Africa	48
▁местах	48
▁всякого	48
nu	48
menta	48
▁plures	48
▁германцы	48
▁горе	48
▁Americana	48
▁Ille	48
▁tuus	48
cta	48
▁momenti	48
▁pellicula	48
▁inveni	48
▁persona	48
▁Iesu	48
▁tempora	48
▁minister	48
▁minor	48
▁longa	48
▁periculum	48
▁erunt	48
▁profectus	48
▁Кор	47
бы	47
У	47
▁неё	47
▁игры	47
▁вз	47
нии	47
ул	47
рд	47
▁for	47
▁поскольку	47
сен	47
▁трёх	47
Ф	47
нк	47
▁As	47
▁вещей	47
▁Ю	47
▁сегодня	47
тив	47
▁сказано	47
▁состав	47
Л	47
▁болезни	47
▁твоя	47
стью	47
▁ум	47
овый	47
tia	47
oide	47
▁quaeque	47
▁Quamquam	47
itas	47
▁caelo	47
▁operis	47
▁uxor	47
▁spatio	47
▁mox	47
▁fratrem	47
averunt	47
▁manibus	47
▁aetatis	47
▁Italiam	47
▁cogita	47
ente	47
▁animam	47
▁unius	47
▁locutus	47
▁nulli	47
▁imperio	47
dicentes	47
▁сайт	46
▁пяти	46
▁существует	46
ент	46
прочем	46
▁Рима	46
▁приходится	46
рез	46
▁одни	46
▁Ха	46
оп	46
▁Официальн	46
коло	46
▁суд	46
▁работа	46
▁считает	46
▁мнение	46
жу	46
ans	46
▁такая	46
culum	46
▁братьев	46
лин	46
▁спокойно	46
▁Го	46
▁любви	46
▁ничто	46
▁Her	46
▁кораблей	46
▁Боже	46
▁искусства	46
▁Sa	46
▁какая	46
red	46
▁которыми	46
▁Твоего	46
des	46
▁Har	46
▁знаешь	46
dus	46
▁Am	46
▁всяк	46
▁зимни	46
▁Ante	46
▁моему	46
▁propositum	46
tura	46
▁Germani	46
▁faciem	46
▁domini	46
▁iuris	46
▁pari	46
▁morbo	46
▁os	46
▁familiae	46
▁scit	46
▁maximum	46
▁deo	46
▁ferre	46
▁cotidie	46
▁constituit	46
▁spatium	46
▁oculis	46
▁faciat	46
▁facilius	46
▁anima	46
бит	45
▁решение	45
▁начало	45
▁нём	45
нем	45
ir	45
▁городов	45
Е	45
▁кол	45
▁перв	45
при	45
ено	45
▁виде	45
orem	45
▁St	45
▁полностью	45
таки	45
каз	45
вшихся	45
▁впервые	45
▁Or	45
▁Par	45
▁Can	45
ki	45
ice	45
▁искать	45
▁глаз	45
ими	45
▁motus	45
▁существо	45
кры	45
▁цели	45
anus	45
▁природа	45
▁universa	45
▁Твое	45
val	45
pro	45
▁Abram	45
edi	45
ntis	45
▁Иакова	45
▁po	45
ura	45
▁proba	45
▁dicunt	45
atis	45
▁puer	45
▁officium	45
▁data	45
▁vult	45
▁rec	45
▁viginti	45
▁regione	45
▁Romanorum	45
▁Quare	45
▁timore	45
▁quodam	45
▁fuerat	45
eret	45
▁alium	45
▁Romanos	45
▁magnus	45
▁imperat	45
▁ver	45
▁populus	45
▁velle	45
▁virtutis	45
▁repente	45
▁ultra	45
▁книг	44
▁суда	44
▁Лондон	44
▁вопрос	44
▁России	44
▁населения	44
гг	44
▁случилось	44
оль	44
▁Ново	44
▁плохо	44
▁американск	44
ила	44
▁целью	44
чь	44
▁видов	44
▁фильм	44
▁книги	44
ющего	44
нос	44
▁du	44
ации	44
▁Га	44
▁вал	44
▁природы	44
▁считать	44
▁Дж	44
▁языка	44
son	44
▁сила	44
▁речи	44
тори	44
сты	44
▁двадцать	44
▁часа	44
▁давно	44
▁вида	44
▁сердца	44
▁одному	44
виду	44
▁дороге	44
▁бес	44
▁положение	44
▁ar	44
▁сей	44
▁причины	44
▁fide	44
▁Гай	44
")	44
▁каждому	44
▁никому	44
tro	44
▁укрепления	44
bunt	44
▁легионами	44
▁консульство	44
▁vivit	44
▁cal	44
▁insula	44
▁ostendit	44
▁appellatur	44
▁loca	44
▁mortua	44
iones	44
▁nova	44
▁summo	44
issime	44
▁superiore	44
tiva	44
▁provincia	44
▁loqui	44
icae	44
▁senatu	44
▁impetu	44
▁virum	44
▁Filius	44
ora	44
▁tuis	44
sae	44
▁pace	44
natus	44
▁provinciae	44
▁venire	44
▁communi	44
▁tanto	44
▁solet	44
▁fortunae	44
▁Quibus	44
▁ipsius	44
▁illas	44
▁Был	43
которое	43
▁Раз	43
▁союз	43
ид	43
▁шесть	43
воз	43
▁скажу	43
▁Бе	43
▁пользу	43
▁широко	43
▁Po	43
ём	43
ический	43
▁мнению	43
▁(«	43
ден	43
▁стран	43
енного	43
▁времена	43
вен	43
ron	43
rit	43
▁пол	43
und	43
овой	43
▁большую	43
▁правильно	43
▁da	43
▁постоянно	43
стан	43
▁мужа	43
▁жены	43
▁взгляд	43
дор	43
▁этими	43
▁Риме	43
▁f	43
▁голод	43
▁бу	43
▁позже	43
▁первой	43
тан	43
▁именем	43
ывает	43
▁Dis	43
▁другу	43
▁какую	43
▁случайно	43
▁solem	43
▁Gra	43
▁скота	43
▁El	43
▁каких	43
дели	43
cal	43
▁сыновья	43
ap	43
▁трудом	43
▁Рейн	43
▁реки	43
▁Galli	43
▁Fer	43
ero	43
▁va	43
▁пользы	43
▁всадники	43
▁Исав	43
▁бояться	43
▁semen	43
▁antea	43
▁potes	43
▁Unioni	43
▁Primum	43
▁mulier	43
▁singulis	43
▁fortasse	43
▁urbes	43
▁publicam	43
▁primis	43
▁eiusdem	43
▁rationem	43
▁olim	43
▁agere	43
▁Ioannes	43
▁habetur	43
▁recessit	43
▁aetate	43
▁agit	43
▁deos	43
▁voce	43
bitur	43
▁scilicet	43
▁homini	43
▁facti	43
▁alios	43
▁consilia	43
▁iste	43
▁navibus	43
▁posita	43
▁ullo	43
▁horum	43
▁forte	43
▁quotiens	43
▁Chana	43
▁...	42
▁Ц	42
▁Се	42
▁Умер	42
мор	42
айт	42
▁сделали	42
▁приходит	42
▁последний	42
▁находился	42
▁письма	42
▁пара	42
ff	42
▁одинаково	42
ировать	42
▁трудно	42
▁Город	42
▁числе	42
ско	42
▁вер	42
ell	42
▁произошло	42
▁степени	42
X	42
мон	42
eo	42
▁голову	42
▁ла	42
▁vol	42
рос	42
ty	42
▁оттуда	42
▁самим	42
▁Mar	42
▁р	42
▁однажды	42
br	42
▁заставил	42
чив	42
▁касается	42
▁scientia	42
▁делал	42
▁fore	42
▁mora	42
▁Academia	42
▁sol	42
▁неприятельски	42
▁главе	42
uli	42
▁неприятелей	42
▁твоей	42
▁has	42
▁duae	42
▁Francia	42
▁illic	42
▁honorem	42
▁Civitat	42
▁Hispania	42
▁regem	42
▁usum	42
▁Isra	42
▁Magna	42
▁solis	42
▁parum	42
▁habeat	42
▁duobus	42
ssent	42
▁civitas	42
▁melius	42
▁Gallorum	42
▁senatum	42
▁fortunam	42
▁magnis	42
▁aciem	42
▁honestum	42
▁мной	41
▁назначил	41
▁консул	41
?»	41
▁близко	41
▁например	41
▁потребовал	41
▁Многие	41
▁Нью	41
▁военных	41
вшиеся	41
оставляет	41
▁Sy	41
▁Rem	41
ева	41
ox	41
енный	41
лон	41
пар	41
▁тридцать	41
▁су	41
фер	41
▁разных	41
▁отвечал	41
тельный	41
▁крас	41
▁Са	41
лей	41
ll	41
рем	41
▁территории	41
▁частью	41
▁остается	41
▁вернуться	41
▁острова	41
▁собственной	41
▁зла	41
кв	41
he	41
▁знают	41
ним	41
итал	41
ющая	41
▁Vol	41
лед	41
▁новые	41
▁корабли	41
lum	41
▁Ti	41
▁взять	41
▁час	41
▁силами	41
hor	41
▁Господа	41
▁твоему	41
▁pl	41
▁войском	41
▁Hor	41
entis	41
▁германцев	41
▁покуда	41
▁gentes	41
git	41
▁hae	41
▁vocem	41
▁scio	41
▁patri	41
▁summam	41
ea	41
▁saeculo	41
▁Erat	41
▁flumine	41
▁domi	41
ntia	41
▁epistula	41
▁transire	41
nas	41
▁dolor	41
▁tertia	41
▁contendit	41
▁amicitia	41
▁videre	41
▁tuos	41
▁respondens	41
ticus	41
▁Romano	41
▁spem	41
▁ceteris	41
▁uel	41
▁egressus	41
▁первым	40
▁Du	40
▁настоящее	40
▁Сколько	40
орк	40
▁должность	40
▁долг	40
▁моря	40
ировал	40
нные	40
▁партии	40
▁Первы	40
W	40
▁большинство	40
рик	40
▁наук	40
▁животных	40
▁порядок	40
дум	40
▁нескольки	40
▁самые	40
бал	40
лер	40
▁Великобритании	40
др	40
▁gloria	40
пис	40
▁такую	40
▁мысли	40
▁война	40
▁выступил	40
▁Sal	40
▁нашим	40
▁Gu	40
▁воли	40
▁обыкновенно	40
▁tandem	40
ang	40
▁ora	40
▁понять	40
▁Le	40
▁одежду	40
▁poeta	40
▁libri	40
▁temporibus	40
via	40
▁ныне	40
ov	40
rip	40
▁Cor	40
torum	40
ella	40
▁нечто	40
▁Adam	40
▁нею	40
▁всяко	40
твоему	40
rio	40
▁partim	40
▁parva	40
▁planeta	40
▁late	40
arius	40
cl	40
▁familia	40
▁Secundu	40
▁humana	40
anenses	40
▁scripta	40
▁tracta	40
▁Ecclesia	40
▁dicta	40
▁totam	40
▁Praemi	40
▁Domine	40
▁aquam	40
▁leges	40
▁deum	40
▁viro	40
▁interroga	40
▁bonis	40
▁meis	40
▁numquid	40
▁видит	39
▁писатель	39
ческие	39
▁годов	39
▁труда	39
▁Франции	39
▁мудрец	39
ания	39
▁языке	39
▁Cal	39
имся	39
селение	39
▁процесс	39
прос	39
▁to	39
▁жителей	39
овал	39
▁удалось	39
▁меры	39
▁государство	39
▁родился	39
ог	39
▁ноги	39
▁могла	39
▁свободы	39
spectus	39
▁закон	39
▁состоя	39
▁сильнее	39
нный	39
▁Inde	39
вой	39
▁мою	39
▁империи	39
▁возможности	39
arium	39
▁Unione	39
nibus	39
▁вполне	39
▁век	39
▁счет	39
▁наша	39
leg	39
▁свободу	39
ion	39
fa	39
▁Ven	39
▁самих	39
tic	39
▁India	39
▁думать	39
▁непременно	39
▁Nu	39
▁даст	39
up	39
▁For	39
runt	39
▁стоял	39
▁magister	39
▁Liber	39
▁серебро	39
▁Галлию	39
▁неприятеля	39
▁благословил	39
▁meos	39
▁civium	39
▁auxilia	39
pud	39
uri	39
▁explicat	39
▁viv	39
▁aliae	39
rii	39
▁Iaponia	39
▁ultima	39
▁dominus	39
▁similis	39
▁electus	39
▁provinciam	39
▁vivunt	39
▁bono	39
▁Romam	39
▁oppidi	39
▁mille	39
▁ultro	39
▁casus	39
▁videri	39
▁bonus	39
▁dictum	39
▁timor	39
▁официально	38
▁вами	38
▁Су	38
▁Ч	38
▁Джон	38
▁никого	38
нев	38
▁птиц	38
▁словам	38
net	38
▁обещал	38
▁тур	38
став	38
рит	38
▁план	38
▁Ор	38
ёл	38
▁открыт	38
▁готовы	38
▁наибол	38
▁делают	38
▁людьми	38
▁роман	38
▁любой	38
▁кем	38
▁способ	38
▁разные	38
чные	38
чик	38
ион	38
▁вскоре	38
▁дабы	38
▁Ei	38
цию	38
▁мудрость	38
▁причине	38
▁приблизительно	38
▁многое	38
▁дети	38
pl	38
▁Wi	38
овые	38
▁Ман	38
▁цел	38
ступает	38
ndus	38
oma	38
▁do	38
▁Пол	38
▁миль	38
▁л	38
▁Sp	38
cy	38
▁ужас	38
▁никакой	38
▁Tra	38
▁сделает	38
▁сие	38
▁ночи	38
cas	38
lat	38
▁народом	38
нуть	38
trix	38
mina	38
▁большей	38
▁Loth	38
mentum	38
▁позиции	38
▁comp	38
▁племена	38
▁пороки	38
▁Эпикур	38
▁litteras	38
▁constituta	38
▁aliquo	38
▁Mens	38
▁regiones	38
▁peri	38
▁gravi	38
▁praesertim	38
▁Quomodo	38
▁imperator	38
▁ipsam	38
▁compara	38
▁spiritum	38
▁luce	38
▁mundo	38
▁magni	38
ale	38
▁neminem	38
▁versa	38
▁impetus	38
▁aliquem	38
▁capere	38
▁etsi	38
▁facies	38
▁salutem	38
▁reliqua	38
▁putas	38
▁civitatibus	38
▁utique	38
▁концов	37
▁любит	37
тел	37
bu	37
▁таком	37
▁форму	37
▁чрезвычайно	37
мар	37
▁Ecce	37
бар	37
▁плен	37
▁сер	37
▁Кар	37
▁рядом	37
▁duce	37
▁думаю	37
▁Fa	37
▁погиб	37
▁лице	37
▁Наконец	37
▁пост	37
▁Be	37
енье	37
сы	37
▁необходимости	37
▁To	37
▁назван	37
▁реку	37
жн	37
эт	37
▁новый	37
ившись	37
▁Сципион	37
енные	37
▁приказ	37
ук	37
евой	37
▁надежда	37
▁ni	37
▁вещь	37
▁отдельны	37
▁царь	37
▁многим	37
▁философия	37
дет	37
▁America	37
▁Com	37
▁больших	37
▁давал	37
dem	37
▁ap	37
▁небес	37
▁духом	37
▁Petru	37
▁labore	37
decim	37
▁interdum	37
▁Sententia	37
erant	37
▁aedifica	37
▁egit	37
ssima	37
▁com	37
▁num	37
▁officialis	37
▁corpora	37
▁stat	37
▁primam	37
gat	37
▁discipuli	37
▁effici	37
▁Cuius	37
▁consuetudine	37
ndos	37
▁iura	37
▁domino	37
▁fac	37
osus	37
▁haberet	37
▁illorum	37
▁expecta	37
▁peperit	37
▁diceret	37
▁recipi	37
▁videretur	37
▁Noe	37
вать	36
▁Хотя	36
▁Потом	36
▁Ав	36
▁дороги	36
▁привел	36
▁Cap	36
▁нап	36
рь	36
ается	36
fi	36
▁Books	36
▁уч	36
▁Кол	36
▁Do	36
тельно	36
министр	36
▁Божие	36
пуск	36
▁ранее	36
▁писал	36
▁врач	36
▁неожиданно	36
▁требует	36
▁Мор	36
▁избран	36
▁каком	36
▁месяцев	36
▁относительно	36
лан	36
▁пыта	36
lag	36
▁видели	36
gar	36
▁линии	36
эл	36
▁нашли	36
шая	36
коп	36
ати	36
йтесь	36
▁увидев	36
▁господина	36
▁Гая	36
▁осталось	36
▁работ	36
▁пр	36
▁воду	36
▁большая	36
ham	36
▁поля	36
▁желает	36
gen	36
цами	36
ивает	36
▁мимо	36
▁ter	36
▁великим	36
▁Ангел	36
вших	36
ama	36
▁Aut	36
▁царя	36
▁Италию	36
▁iu	36
cia	36
▁en	36
vin	36
turus	36
▁Plus	36
ax	36
▁Vis	36
▁римлянам	36
▁господин	36
▁путем	36
▁Царстви	36
▁poterant	36
▁variis	36
▁pertinent	36
▁politica	36
▁situm	36
▁quaeris	36
▁Dies	36
▁Octobris	36
verant	36
ensem	36
vere	36
▁vic	36
▁Anni	36
▁specie	36
▁muta	36
visse	36
▁possint	36
▁utuntur	36
tine	36
▁dicat	36
▁isto	36
▁interest	36
▁consules	36
▁cetera	36
▁huc	36
▁complures	36
▁novi	36
▁dierum	36
▁imple	36
▁Caesari	36
▁Neque	36
▁faceret	36
▁mores	36
▁paucos	36
▁falsa	36
isset	36
▁nostrorum	36
▁vestra	36
▁hibernis	36
▁Пар	35
▁Ser	35
▁остаться	35
▁сайте	35
ница	35
▁вижу	35
▁денег	35
▁президент	35
▁пу	35
уль	35
ены	35
▁действительно	35
▁стр	35
▁полном	35
жели	35
▁Ло	35
▁служил	35
▁miser	35
▁спросил	35
▁характер	35
▁думал	35
▁ответил	35
уш	35
ган	35
▁книгу	35
▁Institut	35
гер	35
овых	35
▁гр	35
▁огонь	35
▁пример	35
che	35
фил	35
▁собрание	35
▁Th	35
▁действия	35
нно	35
▁полу	35
▁глазах	35
По	35
▁прибыл	35
ath	35
ера	35
кам	35
▁лес	35
▁назвал	35
вшего	35
▁вернулись	35
▁целы	35
▁Потому	35
▁patria	35
▁милях	35
▁знаем	35
▁общины	35
нных	35
▁римский	35
▁имена	35
▁Ге	35
▁пьян	35
biles	35
▁редко	35
▁желая	35
▁местности	35
▁Mo	35
▁Min	35
▁рабы	35
▁дочери	35
▁сказав	35
▁Cn	35
▁malo	35
▁Ap	35
▁солнце	35
▁indu	35
▁ею	35
▁u	35
▁племен	35
▁libro	35
▁dioecesi	35
▁nescio	35
▁veste	35
Circa	35
▁reliquit	35
ë	35
▁magistratu	35
▁agri	35
▁potuerunt	35
▁patre	35
▁earum	35
▁alieno	35
▁Anglica	35
▁infra	35
anum	35
▁maiores	35
▁Franciae	35
▁volunt	35
▁uni	35
▁spes	35
▁medium	35
▁col	35
▁possum	35
▁fiat	35
▁utitur	35
▁filiis	35
▁oratio	35
▁vidi	35
▁fluminis	35
▁Idem	35
▁pone	35
▁sis	35
▁dicebat	35
▁vulnera	35
▁legatis	35
▁multitudo	35
▁reliquos	35
▁cito	35
▁Род	34
▁возьми	34
вести	34
▁Рас	34
тели	34
▁Европе	34
▁Roma	34
▁хуже	34
лег	34
порт	34
лёт	34
енное	34
били	34
▁называют	34
▁ежедневно	34
▁университет	34
▁казалось	34
вис	34
▁находятся	34
▁имущество	34
▁моим	34
ур	34
▁тысячи	34
нс	34
▁причин	34
кий	34
▁Гер	34
▁позволя	34
рий	34
цов	34
▁давать	34
▁вина	34
ico	34
▁числа	34
▁Богу	34
▁Мал	34
▁верх	34
▁Пред	34
дар	34
▁Han	34
шки	34
леп	34
▁твоим	34
▁бел	34
▁двенадцать	34
▁основания	34
▁расстоянии	34
los	34
▁богатство	34
rg	34
жит	34
▁дар	34
▁Francisc	34
▁st	34
▁Eu	34
▁впрочем	34
▁Universita	34
▁слух	34
lam	34
▁силой	34
inus	34
ā	34
▁причем	34
мимо	34
▁неба	34
▁конницей	34
▁видишь	34
▁novem	34
▁secundo	34
agina	34
▁significat	34
▁munitiones	34
▁Insula	34
▁novum	34
bili	34
igna	34
▁libros	34
▁qualis	34
fici	34
▁Romanus	34
▁octo	34
▁dixi	34
▁timere	34
xit	34
▁memoriam	34
▁Cui	34
▁appellavit	34
▁faciam	34
▁dei	34
▁ordinem	34
▁haud	34
▁vici	34
▁Omnia	34
urus	34
▁fle	34
▁ingressus	34
▁dolorem	34
▁longum	34
▁acie	34
▁plurimum	34
▁consulibus	34
▁beatum	34
▁quisquam	34
▁multitudinem	34
▁agmen	34
▁провел	33
пон	33
▁смертью	33
рия	33
▁сбор	33
лист	33
писан	33
▁Тут	33
дом	33
аф	33
Н	33
▁цвет	33
▁Где	33
цу	33
рус	33
▁Ми	33
▁высшее	33
▁впоследствии	33
чин	33
▁горы	33
▁остров	33
ros	33
▁орган	33
▁сад	33
▁ле	33
▁вред	33
▁рождения	33
▁поэт	33
▁недавно	33
ун	33
▁Quin	33
▁дерево	33
▁Мария	33
▁женщина	33
енно	33
▁ар	33
рован	33
▁велел	33
ческой	33
шей	33
▁последние	33
▁заявил	33
иц	33
▁отношения	33
емые	33
▁Ал	33
▁Gr	33
▁человеком	33
▁действовать	33
▁народов	33
▁мудрости	33
гляд	33
▁опять	33
▁здоровье	33
ers	33
▁Gen	33
▁ди	33
▁вышли	33
нием	33
ticae	33
ала	33
iva	33
▁ближе	33
▁оп	33
▁Hu	33
▁сон	33
▁память	33
▁боли	33
▁divina	33
▁oratione	33
▁вопреки	33
носить	33
▁славы	33
▁отправили	33
▁твою	33
▁делается	33
▁Pi	33
▁Кв	33
dul	33
▁плоти	33
▁придет	33
cat	33
pta	33
▁ворот	33
uber	33
▁лагерем	33
▁благ	33
▁благом	33
▁фортуна	33
▁старейшина	33
▁evenit	33
▁brevi	33
▁Textus	33
▁factionis	33
▁linguam	33
▁putant	33
▁casu	33
▁papa	33
▁Americanus	33
▁mentis	33
▁dura	33
▁amicus	33
ecta	33
▁color	33
▁societatis	33
▁patriam	33
▁Urb	33
▁inf	33
▁parlament	33
▁confirma	33
▁divitias	33
▁fugit	33
▁labor	33
▁fund	33
▁nullam	33
▁fugam	33
▁fortiter	33
▁conc	33
▁noctem	33
▁duabus	33
▁Illud	33
▁aetatem	33
▁seque	33
tius	33
▁Interim	33
▁copiae	33
▁equitibus	33
▁extrema	33
▁copia	33
▁volo	33
▁quibusdam	33
▁altero	33
▁diutius	33
▁agris	33
▁vestrum	33
▁malis	33
▁игр	32
ng	32
▁ума	32
енных	32
▁другую	32
▁крест	32
▁мер	32
▁вес	32
▁занят	32
▁сорок	32
▁бог	32
щие	32
эй	32
▁мост	32
▁первая	32
▁удар	32
▁полной	32
▁факт	32
▁Позже	32
нт	32
phe	32
▁материал	32
▁прав	32
ват	32
▁Times	32
let	32
овать	32
▁принимать	32
▁заметил	32
казалась	32
▁Dominum	32
чер	32
▁доступ	32
▁видя	32
▁Ча	32
ting	32
▁работал	32
▁Гу	32
изма	32
▁очередь	32
▁позволяет	32
мя	32
йский	32
Х	32
▁поход	32
▁одежды	32
▁двумя	32
эр	32
▁вовсе	32
▁месяца	32
vel	32
▁Эл	32
▁Египет	32
▁богатства	32
дес	32
▁Sc	32
щих	32
▁первые	32
▁нового	32
▁Ста	32
очка	32
▁добровольно	32
▁желания	32
ющей	32
▁будучи	32
▁Mus	32
dia	32
▁математик	32
▁братья	32
icum	32
▁пят	32
▁historia	32
▁консула	32
▁словах	32
ита	32
▁Петр	32
bal	32
anis	32
нн	32
▁жен	32
▁встал	32
▁bi	32
▁Богом	32
чно	32
”	32
▁храм	32
▁moribus	32
▁обязан	32
▁честно	32
▁заняты	32
▁днем	32
▁Провинции	32
pere	32
▁другому	32
▁славу	32
cos	32
▁крик	32
▁добро	32
▁fa	32
▁Op	32
▁навстречу	32
cra	32
▁im	32
▁Europa	32
▁lo	32
▁pluribus	32
▁Germaniae	32
▁старости	32
▁Лаван	32
▁Иакову	32
▁относящи	32
▁Верцингеториг	32
▁Иосифа	32
▁amicitiam	32
▁pecuniae	32
▁exempla	32
▁oppida	32
▁prodest	32
erint	32
▁duces	32
▁legem	32
▁successit	32
▁multas	32
▁iudicium	32
▁Germanorum	32
▁sequi	32
▁propria	32
▁dicuntur	32
▁nominis	32
▁Contra	32
mine	32
▁occupa	32
▁recta	32
▁liberis	32
var	32
▁planta	32
cut	32
▁musica	32
▁Hunc	32
▁fratris	32
▁libertatis	32
▁filiam	32
▁cena	32
emus	32
▁initio	32
▁causas	32
turum	32
▁accidere	32
▁Huic	32
▁proxima	32
▁philosophiam	32
▁servus	32
libet	32
▁amicos	32
▁propterea	32
▁posuit	32
▁faciendum	32
▁vocavit	32
▁Ну	31
▁восемь	31
няя	31
▁International	31
▁живут	31
▁групп	31
▁пал	31
▁получили	31
▁ed	31
*	31
▁привести	31
á	31
▁пищи	31
▁плод	31
▁работу	31
▁мужество	31
▁программ	31
▁Японии	31
▁Пр	31
▁Израиль	31
▁связи	31
▁спас	31
дел	31
▁вечер	31
▁Ту	31
▁человеческого	31
▁выборах	31
▁произ	31
▁художник	31
вил	31
▁первого	31
▁Отец	31
▁обратно	31
истый	31
mor	31
▁желание	31
енной	31
кто	31
▁Mi	31
▁хотят	31
▁потерял	31
▁вызвал	31
▁ра	31
▁вспомогательны	31
▁Среди	31
мени	31
асс	31
▁безопасности	31
▁Russia	31
луш	31
▁раба	31
▁берег	31
лез	31
▁Иоанн	31
▁Ga	31
▁просил	31
▁хотели	31
▁победы	31
bilis	31
ique	31
▁стены	31
▁оружия	31
▁Ag	31
▁повсюду	31
▁толпы	31
▁положил	31
▁дано	31
▁pi	31
▁radi	31
▁libera	31
ense	31
▁Цезарем	31
▁editio	31
▁леса	31
▁послы	31
▁брату	31
ишься	31
▁лучшее	31
▁укреплений	31
▁Civitate	31
▁numeri	31
▁audire	31
▁menses	31
▁disce	31
▁Europae	31
▁ancilla	31
▁demum	31
isque	31
riam	31
▁maximi	31
▁Germanos	31
▁recepit	31
ationes	31
▁versus	31
▁modis	31
▁posside	31
▁tenuit	31
▁singula	31
▁quanta	31
▁lud	31
▁missus	31
geni	31
▁Numeru	31
▁arte	31
▁apparuit	31
flu	31
▁gesta	31
▁creatus	31
▁librum	31
riis	31
▁factae	31
▁sapientia	31
▁vesti	31
▁regionibus	31
▁dat	31
▁mente	31
▁libertate	31
▁singulos	31
▁salv	31
▁sequitur	31
▁procul	31
▁peregrina	31
▁car	31
▁necessaria	31
▁doce	31
ndae	31
▁nostram	31
norum	31
▁paulatim	31
▁studio	31
▁nega	31
▁Quemadmodum	31
▁optime	31
▁iudicat	31
verbum	31
▁alteri	31
▁scis	31
▁lucem	31
▁consuetudinem	31
▁ore	31
▁equitatus	31
▁contentus	31
▁patres	31
▁frumentum	31
▁legionem	31
▁Rahel	31
▁привели	30
▁Bal	30
De	30
▁Него	30
▁Col	30
▁Суд	30
▁книге	30
▁Зна	30
▁номер	30
▁принято	30
▁скончался	30
//	30
▁начать	30
зу	30
▁смотреть	30
▁жизнью	30
зор	30
▁Ан	30
▁принадлежит	30
▁останется	30
▁семья	30
▁партия	30
вёл	30
вшей	30
▁fortis	30
▁h	30
my	30
гал	30
▁холод	30
▁положения	30
▁отвел	30
▁университета	30
▁Мон	30
нят	30
ует	30
ставляет	30
▁сем	30
▁выход	30
▁вод	30
▁порт	30
▁видно	30
олог	30
мина	30
idae	30
eg	30
▁титул	30
▁торгов	30
▁ман	30
▁убит	30
▁считается	30
▁VIII	30
▁навсегда	30
▁спустя	30
▁нужны	30
ряд	30
stant	30
нц	30
▁дают	30
телей	30
▁Dic	30
ению	30
▁большом	30
▁чел	30
▁дорогу	30
iit	30
▁взяли	30
▁муж	30
▁ближайши	30
▁перешл	30
▁коль	30
енным	30
▁Simon	30
elli	30
▁Bi	30
▁твердо	30
▁Помпея	30
▁fabrica	30
pat	30
▁существа	30
▁amor	30
▁всюду	30
▁Тобой	30
▁отсюда	30
▁Твоей	30
▁вошел	30
▁фараону	30
▁неужели	30
▁футов	30
▁Лабиэна	30
▁солдатам	30
▁блажен	30
▁opinionem	30
▁mortui	30
▁humili	30
▁Russiae	30
▁investiga	30
▁dormi	30
▁fides	30
▁instituit	30
▁observa	30
▁numera	30
▁linea	30
▁su	30
▁scientiae	30
▁liberi	30
▁refert	30
ienses	30
▁terrarum	30
▁nonnulla	30
mma	30
ulum	30
▁vallo	30
icis	30
▁pedilusor	30
imum	30
▁veni	30
▁victoria	30
▁communis	30
▁praeterea	30
▁similes	30
▁optimum	30
▁Hae	30
▁conserva	30
torem	30
▁praecipue	30
▁maris	30
▁princeps	30
▁amicum	30
▁maximo	30
▁minime	30
▁regno	30
▁magistratus	30
▁Ia	30
▁fratribus	30
▁videntur	30
uerat	30
▁castrorum	30
▁nostro	30
▁fieret	30
▁habeo	30
▁hiberna	30
▁itineribus	30
▁cunctis	30
▁домой	29
▁проект	29
▁какого	29
▁опасность	29
▁новых	29
▁Мак	29
tium	29
чет	29
▁Три	29
▁Каждый	29
▁Ро	29
▁долю	29
ou	29
▁необходимо	29
▁Никто	29
▁миг	29
▁везде	29
▁вино	29
▁Оба	29
▁женщин	29
чных	29
▁протяжени	29
дент	29
шёл	29
▁Гар	29
▁Mos	29
фф	29
дан	29
▁gloriam	29
▁построен	29
▁приговор	29
ctus	29
форм	29
ическая	29
ü	29
▁занял	29
▁бежал	29
▁Deo	29
▁камень	29
▁показать	29
▁Том	29
▁Кал	29
og	29
▁институт	29
▁общее	29
▁Че	29
▁лежит	29
анди	29
▁Бу	29
▁св	29
▁Vita	29
▁машин	29
▁обе	29
displ	29
▁женщины	29
▁Неужели	29
▁ждет	29
плоть	29
▁назначен	29
tion	29
еб	29
▁Дом	29
инг	29
▁военной	29
остью	29
▁fr	29
▁открыто	29
▁шли	29
▁Александр	29
вшая	29
▁Фа	29
▁покой	29
▁толпа	29
▁образ	29
▁оставили	29
чат	29
▁племени	29
▁расположен	29
ende	29
▁узнать	29
сер	29
▁Ge	29
▁глубоко	29
nica	29
tori	29
▁равны	29
}	29
чал	29
сов	29
▁вел	29
▁auctoritate	29
▁созвал	29
▁надежде	29
az	29
▁Который	29
▁заранее	29
▁отсутствие	29
▁могло	29
▁Britannia	29
▁Domino	29
▁оставить	29
▁приятно	29
▁ничем	29
▁alienum	29
▁bella	29
inae	29
▁обрати	29
unc	29
uis	29
▁alteram	29
▁Луция	29
▁разница	29
▁меру	29
▁великое	29
▁всякое	29
▁храбрости	29
▁известии	29
▁бедность	29
▁фортуны	29
▁Рахиль	29
▁maioribus	29
▁proconsul	29
▁muro	29
▁situs	29
▁officia	29
▁rege	29
▁imaginem	29
▁edita	29
▁convenit	29
antes	29
▁imp	29
quo	29
▁cultura	29
▁vinum	29
▁schola	29
▁disputa	29
▁Primus	29
▁vocatur	29
▁diff	29
▁cursu	29
▁creata	29
▁eris	29
▁redi	29
faci	29
▁corde	29
▁poena	29
▁Bostoniae	29
mque	29
▁tribu	29
▁vino	29
▁visum	29
▁Scipio	29
onum	29
▁impedimenta	29
▁quamdiu	29
▁Iohanne	29
▁quadraginta	29
▁oeconomica	29
▁paria	29
▁laborem	29
▁clam	29
▁tri	29
▁bonam	29
▁viros	29
▁voluntate	29
▁aequo	29
▁pasc	29
umque	29
▁retro	29
▁propius	29
▁vox	29
▁audi	29
▁persevera	29
▁Quidni	29
▁perterriti	29
▁possis	29
▁Atque	29
▁Gallis	29
▁cognita	29
▁celeritate	29
▁tuorum	29
uerit	29
Laban	29
▁supervacua	29
▁del	28
▁представлен	28
нюю	28
сия	28
▁Было	28
$	28
▁голоса	28
работ	28
иков	28
▁выходит	28
▁Южно	28
▁парламент	28
ела	28
▁отказался	28
ссе	28
▁Чере	28
▁Зачем	28
▁возрасте	28
▁став	28
▁сестра	28
ies	28
▁положении	28
▁сп	28
▁Англии	28
▁бед	28
▁повод	28
▁света	28
▁Ри	28
▁стоят	28
▁вкус	28
▁активно	28
▁болезнь	28
бан	28
▁каждой	28
жива	28
ays	28
щу	28
▁David	28
▁тайны	28
вай	28
▁служить	28
▁Mac	28
льная	28
▁Августа	28
▁победа	28
▁Марка	28
▁перевод	28
▁Без	28
ках	28
▁Твои	28
▁оказалось	28
ker	28
▁Пер	28
▁судьба	28
▁бросил	28
▁любил	28
▁зачем	28
▁приход	28
cli	28
▁motu	28
▁родину	28
▁показал	28
▁завет	28
▁корабль	28
▁должности	28
▁ушли	28
▁шел	28
eva	28
ill	28
нской	28
прям	28
▁конница	28
▁чаще	28
▁кров	28
▁позволил	28
▁движение	28
ner	28
▁другая	28
▁будущее	28
▁держать	28
▁ecclesia	28
▁общин	28
▁властью	28
gent	28
▁видим	28
▁вос	28
▁отправить	28
▁Num	28
▁Ep	28
▁Mer	28
▁порой	28
▁стремиться	28
▁сражении	28
▁VII	28
▁вода	28
▁pal	28
учи	28
▁пленных	28
▁ca	28
▁ro	28
get	28
▁Ob	28
▁нужным	28
ilia	28
▁Антоний	28
ava	28
▁стражу	28
ato	28
▁терпеть	28
ndas	28
▁холм	28
▁воле	28
▁dicis	28
▁spera	28
▁praefectus	28
▁finis	28
▁series	28
▁praeside	28
▁Archidioecesi	28
▁opinio	28
▁nati	28
▁positum	28
▁systema	28
venit	28
▁verborum	28
▁principio	28
tiae	28
▁plena	28
▁solent	28
▁ambula	28
▁Fuit	28
▁narra	28
▁prohibere	28
▁exemplum	28
▁scriptura	28
▁gradus	28
▁dic	28
▁causis	28
▁iudicio	28
▁sermo	28
▁usitat	28
▁sp	28
tionum	28
versum	28
▁Caput	28
▁industria	28
▁mortuo	28
▁Fili	28
▁capta	28
▁libenter	28
▁Illa	28
▁monte	28
▁denique	28
▁habebant	28
▁man	28
urum	28
nalis	28
▁lu	28
▁concilio	28
▁Romanum	28
isti	28
▁imperatoris	28
▁serva	28
▁postero	28
▁legibus	28
▁fuisset	28
▁molli	28
▁abs	28
▁pedum	28
▁frumenta	28
▁reliquas	28
▁nolit	28
▁protinus	28
▁Бер	27
ять	27
iz	27
▁утверждает	27
▁ранен	27
▁Северно	27
ley	27
ther	27
▁Человек	27
▁итоге	27
▁признак	27
▁стороне	27
▁Сер	27
▁смысл	27
▁важно	27
▁надежды	27
▁XX	27
бил	27
ohn	27
дав	27
▁фараон	27
ёв	27
▁ча	27
▁находя	27
▁система	27
▁отцом	27
▁Благо	27
сло	27
▁выбор	27
▁местны	27
▁событий	27
вшим	27
▁верить	27
▁карт	27
▁успех	27
▁помочь	27
▁цен	27
▁идут	27
▁тыс	27
уз	27
▁Пере	27
▁означает	27
▁группы	27
▁сделано	27
З	27
Не	27
ора	27
чная	27
итесь	27
▁письме	27
cher	27
тый	27
▁девять	27
▁слава	27
ода	27
▁боится	27
▁судить	27
▁Ru	27
▁слав	27
▁ворота	27
стре	27
▁трудов	27
▁Му	27
▁войсками	27
▁римских	27
тал	27
дра	27
▁назвать	27
▁Pa	27
▁основании	27
▁количестве	27
▁прошлом	27
енья	27
▁cont	27
▁главны	27
▁другими	27
▁gr	27
▁раза	27
▁такими	27
▁французский	27
▁лицо	27
лик	27
▁v	27
ler	27
▁сколь	27
▁стихи	27
▁искусств	27
▁гибели	27
ес	27
▁voluit	27
▁ir	27
▁Sta	27
▁реке	27
mb	27
▁узнав	27
▁роду	27
▁пройти	27
▁всячески	27
▁нападения	27
▁сыну	27
▁немало	27
▁надежду	27
▁Луций	27
▁подобно	27
▁artis	27
▁Val	27
▁врагам	27
▁видом	27
▁штурм	27
ras	27
▁обращен	27
nov	27
▁sup	27
▁Societa	27
lli	27
opoli	27
▁эдуи	27
▁отовсюду	27
▁храбрость	27
▁Твоему	27
▁всяки	27
▁гельветы	27
▁гельветов	27
nata	27
▁linguis	27
▁salutis	27
▁placet	27
▁separa	27
▁matrimonium	27
▁cognovit	27
▁Sovietica	27
▁aedificia	27
▁datum	27
pra	27
▁parentes	27
▁iustitia	27
▁studia	27
▁tabula	27
▁nationes	27
▁Item	27
▁commune	27
▁Homines	27
▁secundam	27
▁aequa	27
▁nominatus	27
▁principali	27
▁soror	27
▁antiqua	27
▁Municipium	27
▁foedus	27
▁saepius	27
pen	27
▁regi	27
▁putat	27
▁epi	27
▁continua	27
mento	27
▁novam	27
▁parvu	27
cam	27
▁Aliqua	27
▁ludi	27
▁capite	27
▁fructum	27
▁congrega	27
▁vires	27
~	27
▁tenere	27
▁scriptum	27
▁statua	27
eth	27
▁gessit	27
▁humanae	27
ista	27
▁aliquod	27
▁perfecta	27
▁proficiscitur	27
▁regis	27
▁publicus	27
▁fugae	27
▁virtutes	27
▁vinc	27
▁reges	27
▁milium	27
▁minima	27
▁vellet	27
▁alterius	27
▁videret	27
▁capi	27
▁sana	27
▁Numquid	27
▁utrumque	27
▁sim	27
▁sapientiam	27
▁dolore	27
quid	27
laris	27
▁Ariovistus	27
▁metum	27
▁gaudium	27
▁hinc	27
▁venisset	27
▁consulem	27
▁Hierusalem	27
cularis	27
▁решили	26
вол	26
„	26
▁планет	26
реш	26
▁форме	26
▁СССР	26
▁Второ	26
▁Америке	26
+	26
кие	26
ическое	26
ических	26
▁Австралии	26
▁часов	26
▁Ку	26
ывать	26
▁центр	26
▁уверен	26
▁прочь	26
▁акт	26
▁кое	26
ете	26
▁доктор	26
▁выборы	26
▁порядке	26
▁пойти	26
▁заключен	26
иан	26
▁правда	26
ходить	26
▁жители	26
uv	26
▁солнца	26
▁праздник	26
▁тобой	26
▁Сан	26
▁кино	26
логи	26
▁думают	26
нская	26
▁миллионов	26
▁En	26
▁открыл	26
▁University	26
шу	26
▁On	26
▁принимает	26
▁Regi	26
▁пожара	26
▁древне	26
▁награду	26
▁голода	26
▁уйти	26
▁Хе	26
▁согласно	26
истов	26
▁одновременно	26
▁двое	26
▁сыновей	26
▁Сар	26
▁World	26
▁Иисуса	26
▁получила	26
▁Pan	26
▁действий	26
▁хватает	26
▁никаких	26
▁оружием	26
▁лошадей	26
▁призвал	26
шего	26
▁Sol	26
dy	26
нес	26
льный	26
▁Gener	26
▁уничтожен	26
▁договор	26
▁голов	26
▁влияние	26
тона	26
aut	26
чным	26
бри	26
▁предмет	26
▁Пока	26
▁впереди	26
▁милость	26
▁зато	26
nn	26
▁потеря	26
елл	26
▁возраста	26
cor	26
▁друзья	26
▁средства	26
forma	26
▁уз	26
▁думает	26
▁слышал	26
▁син	26
▁боево	26
▁собирать	26
ший	26
vol	26
▁близ	26
▁скажешь	26
▁("	26
▁справедливость	26
▁прочих	26
▁ковчег	26
▁mo	26
▁cap	26
▁двадцати	26
▁повел	26
▁порыв	26
▁страсти	26
dica	26
▁порок	26
▁пехоты	26
▁Vir	26
▁universita	26
▁велик	26
▁exist	26
▁нашем	26
burg	26
▁провианта	26
▁обыкновению	26
▁великий	26
▁счел	26
▁Египетской	26
▁позор	26
▁треверов	26
▁Sem	26
▁adhibetur	26
▁scribere	26
ano	26
▁status	26
arii	26
▁Europaeae	26
▁Usque	26
▁continent	26
▁exploratores	26
▁servos	26
▁certo	26
▁incipit	26
▁receperunt	26
▁occulta	26
▁Propter	26
▁meruit	26
▁tempta	26
▁legis	26
▁vocat	26
▁programma	26
itatis	26
▁consilii	26
▁km	26
ismi	26
▁ambo	26
alem	26
▁pauper	26
▁tertio	26
▁cepit	26
▁dubium	26
▁reverti	26
▁littera	26
iis	26
▁bis	26
▁le	26
▁mon	26
▁Anglia	26
▁praecepta	26
tul	26
▁fict	26
das	26
▁latere	26
▁Sin	26
quod	26
▁frumenti	26
▁apparet	26
▁viris	26
turos	26
▁navium	26
ationem	26
▁dato	26
▁regio	26
icere	26
▁accipi	26
▁mentem	26
▁iniuria	26
▁proeliis	26
▁dici	26
▁estis	26
veris	26
▁salute	26
▁cuiusque	26
▁subinde	26
▁sustinere	26
▁maiora	26
▁vigilia	26
▁beneficium	26
▁silvis	26
▁noli	26
▁eundem	26
▁agros	26
▁equitatum	26
▁inquam	26
▁dabo	26
▁Sarra	26
▁impedimentis	26
▁sapienti	26
▁Epicurus	26
ёз	25
ssi	25
ура	25
fect	25
▁Хар	25
▁temporum	25
▁можем	25
цам	25
▁формы	25
лета	25
▁водой	25
!»	25
rma	25
▁опубликован	25
Как	25
▁счастлив	25
▁Сто	25
▁предлага	25
▁школы	25
▁писать	25
▁сел	25
ался	25
▁London	25
▁получает	25
▁День	25
▁возвратился	25
▁рыб	25
▁приносит	25
ило	25
▁корм	25
аны	25
▁серии	25
рет	25
her	25
▁результате	25
ложен	25
▁цель	25
▁метод	25
▁вызывает	25
▁дала	25
торого	25
▁обнаружен	25
▁семи	25
▁население	25
▁сможет	25
▁согласны	25
▁Именно	25
▁Мин	25
ску	25
▁Наши	25
▁британски	25
▁английск	25
▁различны	25
▁военные	25
▁участвовал	25
▁Август	25
▁футболист	25
▁проходит	25
▁Чем	25
▁Бен	25
▁отпустил	25
▁сотворил	25
ирует	25
нную	25
tyle	25
▁Публий	25
▁использует	25
▁окончил	25
▁Антония	25
▁История	25
▁Historia	25
▁постепенно	25
▁Больш	25
ола	25
▁Нас	25
▁пита	25
раду	25
▁мед	25
▁знали	25
▁пи	25
▁запас	25
ич	25
▁языком	25
▁Вскоре	25
▁сравнени	25
entium	25
▁продолжал	25
▁обратился	25
ya	25
ko	25
пан	25
▁названием	25
▁рука	25
▁Pen	25
▁благодарность	25
▁пить	25
Э	25
▁золота	25
ena	25
кла	25
▁сме	25
моему	25
▁Ев	25
▁гнев	25
▁privata	25
огласно	25
▁нашу	25
pes	25
media	25
▁охотно	25
▁памятник	25
▁труб	25
▁сенате	25
▁послан	25
ыш	25
▁пас	25
▁pu	25
▁чувства	25
▁Лот	25
▁doctor	25
▁Latina	25
▁Ali	25
▁Es	25
▁Hos	25
▁велика	25
сквозь	25
▁боги	25
▁неизменно	25
▁крови	25
▁изо	25
▁храме	25
▁следовало	25
▁напали	25
▁Tam	25
▁Europaea	25
▁отчасти	25
▁Цицерон	25
uls	25
ida	25
▁семя	25
▁Museum	25
▁ваших	25
▁Sch	25
▁избегать	25
▁мысль	25
▁Quando	25
▁Пилат	25
sen	25
▁храбро	25
▁неприятельско	25
▁говоришь	25
▁природой	25
▁ваши	25
▁Господу	25
▁беды	25
▁лишен	25
▁Авраама	25
▁молва	25
▁напасть	25
▁Sua	25
▁necessarium	25
tico	25
▁accessit	25
▁Tunc	25
▁milliones	25
Quid	25
▁Exempl	25
▁petit	25
▁Io	25
ovi	25
▁datur	25
▁veniunt	25
▁probationem	25
▁faciet	25
▁Factio	25
▁fabula	25
▁mensis	25
▁fructus	25
▁Familia	25
nensis	25
▁ordine	25
archi	25
▁luna	25
▁certum	25
▁legatum	25
▁simile	25
▁Quem	25
▁dives	25
atione	25
eram	25
▁rediit	25
▁aliquam	25
▁mens	25
▁societatem	25
▁scholam	25
▁invenire	25
▁somnium	25
▁conscientia	25
▁oves	25
▁cinematographic	25
▁divid	25
gens	25
▁negotia	25
▁sole	25
▁fiunt	25
▁epocha	25
▁navis	25
▁causae	25
▁mensura	25
▁lauda	25
▁spiritu	25
▁diversa	25
▁aperta	25
▁comple	25
▁Tempor	25
▁lux	25
▁necessario	25
▁publice	25
▁pauca	25
endam	25
▁admir	25
▁discipulos	25
▁exercitatione	25
▁accipit	25
▁Belgi	25
▁soli	25
▁amore	25
erim	25
▁speciem	25
cedunt	25
eretur	25
▁acceptis	25
▁delecta	25
vimus	25
▁vides	25
▁sensus	25
▁palam	25
▁montem	25
▁clamore	25
▁confestim	25
▁superioribus	25
▁gratias	25
▁inopia	25
▁surge	25
▁beatus	25
▁legionum	25
▁правду	24
▁Ти	24
▁приводит	24
The	24
▁плоть	24
▁фи	24
▁Час	24
▁Имеет	24
▁Буд	24
мене	24
org	24
ющим	24
corum	24
▁раздел	24
▁образования	24
▁значительно	24
▁пожар	24
как	24
▁помог	24
фор	24
▁форма	24
▁пишет	24
▁оставив	24
▁соответственно	24
рас	24
▁нечего	24
▁суть	24
▁волн	24
▁оказался	24
▁смог	24
▁родители	24
жил	24
вшегося	24
▁языков	24
▁округа	24
▁Бар	24
▁статус	24
▁источник	24
первых	24
дается	24
▁клуб	24
щего	24
▁членом	24
ори	24
▁единственный	24
▁наоборот	24
▁увидеть	24
▁курс	24
▁французск	24
▁английский	24
ran	24
In	24
▁начина	24
▁данным	24
▁называл	24
▁чуть	24
▁Перед	24
▁отверг	24
▁выйти	24
▁школе	24
ологии	24
▁бо	24
водить	24
▁уме	24
▁тайно	24
▁Вид	24
▁Иерусалим	24
фт	24
▁способны	24
▁рожден	24
▁городу	24
▁дольше	24
▁общество	24
▁требования	24
▁роль	24
▁убить	24
▁остаётся	24
▁выпущен	24
▁называем	24
▁Бал	24
нин	24
▁мин	24
▁знаком	24
▁окончательно	24
▁груз	24
▁предложение	24
▁городом	24
▁книга	24
▁церковь	24
▁разу	24
изации	24
ographi	24
▁прибыли	24
▁глазами	24
▁Нужно	24
▁преследовал	24
есть	24
▁переговоры	24
▁ge	24
▁законы	24
▁вс	24
▁значение	24
ющихся	24
▁Mor	24
▁Vin	24
▁Opera	24
▁десяти	24
▁sal	24
▁расп	24
тический	24
for	24
▁повторяю	24
▁ваше	24
▁единственное	24
ologia	24
▁Тиберий	24
▁Вмест	24
▁нес	24
▁предан	24
▁Мой	24
▁консулом	24
▁кровь	24
▁имели	24
cle	24
▁любовью	24
▁Ha	24
▁иное	24
▁Тиберия	24
▁стада	24
▁вашего	24
▁делами	24
▁бег	24
▁нужен	24
onica	24
▁приближении	24
bile	24
▁Ci	24
▁сыны	24
stern	24
▁XII	24
▁Cy	24
gno	24
▁римлянами	24
▁сед	24
▁ven	24
ls	24
▁Иуда	24
osa	24
бить	24
▁верность	24
▁бедности	24
illa	24
▁бегством	24
▁плеч	24
▁Исаака	24
illi	24
ificat	24
idis	24
lica	24
▁Ae	24
▁прочие	24
▁секванов	24
▁просили	24
▁желать	24
щему	24
▁Ханаанской	24
▁Аврааму	24
▁нужды	24
▁Иосифу	24
▁morbi	24
▁habitant	24
▁recte	24
▁eram	24
▁indica	24
▁regionem	24
▁societate	24
▁aere	24
▁memoriae	24
▁Bibliotheca	24
ped	24
▁Britanniarum	24
▁comitia	24
▁adeptus	24
▁laborat	24
▁feminae	24
▁Sara	24
▁petere	24
pic	24
▁socia	24
▁proximo	24
▁Provincia	24
▁Africam	24
▁statuit	24
▁patriae	24
▁velit	24
▁mira	24
▁reliqui	24
▁philosophiae	24
gni	24
▁amici	24
▁igni	24
▁veri	24
▁socialis	24
▁creavit	24
▁medicina	24
▁villa	24
▁muse	24
▁cognovi	24
▁ingens	24
▁praefectura	24
▁incolae	24
▁viderunt	24
issimum	24
▁urbi	24
▁insulae	24
▁mundum	24
▁inventa	24
cedit	24
▁dicimus	24
▁vasta	24
▁Bellum	24
▁disciplina	24
▁murum	24
▁debere	24
▁titulo	24
▁auctor	24
▁erra	24
▁ascendit	24
▁manet	24
▁occidit	24
▁animae	24
stis	24
▁dimisit	24
▁porro	24
▁sacerdot	24
▁publico	24
dal	24
▁modi	24
▁sapientem	24
▁videatur	24
▁uxores	24
▁publicum	24
▁interfici	24
▁summis	24
▁vulneribus	24
▁transi	24
▁exp	24
▁Quidam	24
▁tuas	24
▁impetra	24
▁quippe	24
▁pugnae	24
▁metus	24
▁acerrim	24
▁virtuti	24
▁rursum	24
▁viribus	24
▁maius	24
▁virorum	24
uerant	24
▁proficisci	24
▁conp	24
▁venisse	24
▁exspecta	24
▁misericordia	24
▁existimabat	24
▁vitium	24
▁generatione	24
▁principibus	24
▁amicitiae	24
▁muni	24
▁proximis	24
▁beneficio	24
▁agro	24
▁cohortibus	24
▁Vercingetorix	24
▁большого	23
▁понимает	23
▁Новы	23
▁Мат	23
▁Азии	23
▁Большинство	23
чень	23
▁месяц	23
▁общей	23
▁участие	23
▁острове	23
▁звон	23
▁Media	23
емый	23
▁независимость	23
▁частей	23
▁движения	23
▁искал	23
▁прожива	23
▁культур	23
▁говорим	23
равн	23
▁XVI	23
▁полное	23
▁работе	23
▁думаешь	23
▁Лен	23
лит	23
дите	23
▁орден	23
шение	23
▁Мил	23
▁компания	23
▁главного	23
▁второе	23
▁Африке	23
▁ho	23
ring	23
▁врагом	23
▁Au	23
резать	23
дил	23
▁правительство	23
▁компании	23
▁итальянск	23
▁условиях	23
мат	23
bor	23
▁пора	23
▁предыдущи	23
▁генерал	23
▁похожи	23
Может	23
чка	23
смотр	23
▁добиться	23
▁Фу	23
▁называется	23
▁риск	23
▁Company	23
▁Canada	23
▁масса	23
{\	23
▁журнал	23
▁канал	23
hen	23
▁g	23
овы	23
▁гораздо	23
▁развит	23
▁Вин	23
▁неизвестно	23
inde	23
▁Мар	23
▁источника	23
▁песни	23
by	23
lecti	23
▁войной	23
▁государственны	23
вшимся	23
▁слог	23
ывают	23
ким	23
ah	23
▁нашему	23
▁границ	23
▁войти	23
▁дам	23
▁Chi	23
син	23
iana	23
▁непо	23
нцев	23
овали	23
▁семейства	23
▁зимне	23
▁тяжело	23
▁влиянием	23
▁Un	23
▁городски	23
▁поражения	23
слав	23
щё	23
▁запад	23
dium	23
они	23
▁истины	23
▁bo	23
▁собственных	23
▁список	23
▁Long	23
▁всяком	23
▁запретил	23
▁разделил	23
▁зуб	23
ющую	23
▁San	23
▁XV	23
▁богат	23
▁истину	23
вторых	23
▁defini	23
▁Симон	23
▁сигнал	23
▁попал	23
▁Dan	23
▁богам	23
pre	23
▁мнения	23
▁четырех	23
▁позицию	23
▁отряды	23
▁телом	23
▁учиться	23
▁тремя	23
▁вон	23
▁ученикам	23
▁заниматься	23
▁притом	23
▁Dr	23
▁покоя	23
влечь	23
▁sensu	23
lae	23
▁община	23
ola	23
▁ров	23
▁r	23
ivo	23
▁Ur	23
gam	23
▁узнали	23
gr	23
▁живет	23
vic	23
▁выслал	23
▁река	23
▁враг	23
▁utriusque	23
▁Er	23
▁fon	23
▁Condit	23
▁перевел	23
▁Mel	23
▁врагу	23
▁римскому	23
▁Твоих	23
▁презирать	23
▁Мною	23
▁отцы	23
▁когорты	23
▁Лабиэн	23
▁Амбиориг	23
▁мудреца	23
onia	23
▁habes	23
▁sodalis	23
▁externa	23
▁laboravit	23
▁similiter	23
itate	23
▁ludis	23
▁puto	23
▁Potest	23
▁Nationalis	23
▁magistratum	23
▁Corea	23
▁incendio	23
▁Tabula	23
▁Lu	23
▁studuit	23
▁factio	23
▁verbo	23
▁Latine	23
▁divisa	23
▁imagines	23
▁rari	23
rup	23
toribus	23
▁captivis	23
▁usi	23
▁Parlament	23
▁auxilio	23
▁aliquot	23
▁formam	23
▁quinquaginta	23
▁Americani	23
ulo	23
▁classis	23
erent	23
▁plura	23
▁actis	23
▁Duo	23
▁demonstra	23
▁adfectus	23
▁Michael	23
▁ars	23
▁vicit	23
▁Primi	23
▁Foederatarum	23
▁visa	23
▁cognoscere	23
▁Aegypt	23
▁foedera	23
lium	23
abat	23
▁otio	23
▁exitu	23
▁pacem	23
▁regionis	23
▁studium	23
etis	23
issimus	23
▁vive	23
▁Huius	23
▁cit	23
▁amicis	23
▁novis	23
▁itineris	23
▁summi	23
▁cursus	23
▁greges	23
▁servum	23
verte	23
▁controversia	23
▁Augusto	23
▁responde	23
formis	23
▁videns	23
▁mulieres	23
▁Germanis	23
▁tertium	23
▁agrum	23
▁amico	23
▁figura	23
▁beata	23
▁diligenter	23
▁initia	23
▁progredi	23
▁militari	23
▁facultatem	23
▁missa	23
▁praesentia	23
▁tale	23
▁istud	23
▁Hannibal	23
▁quisquis	23
▁abiit	23
▁quaecumque	23
▁certior	23
▁agmine	23
▁ascend	23
▁animis	23
▁referre	23
▁magnifica	23
▁vidisset	23
▁Helvetii	23
▁daemoni	23
▁команд	22
ителя	22
▁грех	22
▁защиты	22
▁проходил	22
ированны	22
▁утром	22
▁север	22
▁философ	22
▁практически	22
▁Чи	22
▁элемент	22
▁здание	22
bon	22
▁судов	22
▁отношении	22
▁собрал	22
▁Филипп	22
▁Bl	22
▁брак	22
▁хочется	22
▁Оста	22
▁воля	22
▁мор	22
▁Твоим	22
▁главным	22
▁профессор	22
▁борьбе	22
▁начинает	22
▁Иоанна	22
▁класс	22
▁примерно	22
▁рано	22
аты	22
▁Martin	22
▁Вол	22
tar	22
▁on	22
▁любить	22
▁решения	22
▁противника	22
▁сред	22
▁семьи	22
нимал	22
шие	22
▁вверх	22
▁Возможно	22
▁легата	22
▁порядка	22
рк	22
▁Остров	22
▁член	22
▁защиту	22
▁победу	22
ющиеся	22
нский	22
▁Фор	22
▁средств	22
▁Инди	22
▁высоко	22
▁умеет	22
▁ниже	22
í	22
torium	22
▁встреча	22
▁напротив	22
▁лето	22
▁штат	22
▁лад	22
▁Уже	22
▁войск	22
вляется	22
кут	22
▁исключительно	22
▁убил	22
ённые	22
▁разбил	22
▁сан	22
▁анти	22
▁естественно	22
▁корабля	22
▁шаг	22
dom	22
ара	22
▁обязанности	22
▁выходил	22
▁гроб	22
▁ак	22
▁автор	22
▁служит	22
▁обеих	22
телем	22
▁отрока	22
▁получал	22
▁флот	22
▁Лю	22
▁шести	22
▁помогает	22
▁работать	22
▁mathematica	22
▁ненависть	22
▁оставаться	22
▁справедливости	22
▁спасение	22
дно	22
▁Наш	22
▁случая	22
▁восток	22
ающих	22
зал	22
▁ваш	22
▁свойства	22
▁каса	22
▁historiae	22
▁Pr	22
▁обычаю	22
▁закона	22
▁обстоятельства	22
▁новой	22
очек	22
ó	22
▁воинов	22
▁холма	22
▁Можно	22
ix	22
▁относится	22
ile	22
▁Os	22
▁искусство	22
stat	22
ведет	22
▁вернуть	22
ubi	22
▁Spe	22
▁различ	22
▁словом	22
▁вершины	22
ub	22
▁берегу	22
culus	22
▁Sam	22
don	22
ona	22
▁союзников	22
ему	22
▁учит	22
▁теми	22
▁имея	22
▁отряд	22
▁несомненно	22
▁gentium	22
illo	22
▁знание	22
▁упорно	22
▁мужественно	22
▁Vic	22
ō	22
▁adversa	22
▁несчастным	22
▁произнес	22
nia	22
▁перейти	22
▁коня	22
▁перебили	22
▁роскоши	22
▁душой	22
▁наслаждений	22
▁рабом	22
▁страхом	22
▁Мое	22
▁шестьдесят	22
▁князей	22
▁гибель	22
▁быстротой	22
▁ремов	22
▁Эпикура	22
itatem	22
▁caro	22
▁minimum	22
▁societas	22
▁amicorum	22
ismus	22
▁iniuriam	22
▁foris	22
▁propheta	22
▁accepta	22
▁coniuncta	22
▁simplici	22
▁bibliotheca	22
▁dele	22
▁administra	22
▁Urbe	22
▁exstant	22
▁monstra	22
▁singuli	22
▁emi	22
▁formae	22
▁distribu	22
▁amat	22
▁genu	22
▁nonnulli	22
▁mundanum	22
▁mittunt	22
▁tradidit	22
▁pueri	22
▁docet	22
▁aliorum	22
▁nonnumquam	22
▁agitur	22
▁corona	22
▁Labor	22
▁negotio	22
▁incepit	22
▁fini	22
▁maximam	22
▁cuique	22
▁interesse	22
▁Gallos	22
▁Francica	22
▁dubita	22
▁pulchra	22
▁filiae	22
▁nuncupa	22
▁socii	22
▁optima	22
▁Cain	22
osque	22
▁consum	22
▁descendit	22
▁efficere	22
▁praeda	22
▁flamma	22
▁angelus	22
▁aperto	22
▁frustra	22
▁similem	22
nar	22
▁membra	22
▁conatus	22
▁navem	22
▁regna	22
uisse	22
▁effectus	22
▁quaerit	22
▁Omni	22
▁ducem	22
▁iacta	22
▁Iesum	22
▁caede	22
▁materiam	22
▁Britanniam	22
bilem	22
qu	22
▁maximus	22
▁pariter	22
▁convenire	22
▁fecerat	22
▁recipit	22
ndis	22
▁habens	22
▁uxoris	22
▁nostrae	22
▁voluntatem	22
▁consistere	22
▁hoste	22
▁ingredi	22
▁eruptione	22
▁ducit	22
▁ira	22
▁legionis	22
▁luxuria	22
▁fames	22
▁Ceterum	22
▁eripi	22
mittat	22
▁fecisset	22
▁uita	22
--	22
▁diligentia	22
▁Labienum	22
▁silvas	22
▁patrum	22
▁relictis	22
▁tutum	22
▁Aeduorum	22
▁fortitudo	22
ьян	21
щий	21
▁Этим	21
ницу	21
▁нуждается	21
▁Национальн	21
▁диск	21
▁переход	21
▁Albert	21
▁Кир	21
▁Ам	21
▁понимал	21
▁вели	21
▁средне	21
▁появились	21
русск	21
ивается	21
▁единственным	21
▁мужчин	21
▁тщательно	21
▁занимал	21
▁Дев	21
альные	21
▁игра	21
▁обиды	21
▁убили	21
▁News	21
▁службу	21
▁последних	21
▁выборов	21
▁содержит	21
▁явля	21
тик	21
ошёл	21
▁включая	21
hort	21
den	21
▁орбит	21
▁интерес	21
▁великих	21
фу	21
щик	21
ling	21
▁науки	21
▁libertas	21
▁звание	21
phis	21
ализм	21
▁политическ	21
▁читать	21
иев	21
ация	21
▁последнее	21
очно	21
▁проник	21
▁системы	21
▁поводу	21
▁transit	21
▁кар	21
▁овец	21
OS	21
▁пытался	21
▁состояние	21
▁делу	21
оверено	21
▁пер	21
сом	21
▁идёт	21
▁перемен	21
▁We	21
ицы	21
▁альбом	21
▁текст	21
art	21
▁башни	21
▁прихода	21
vide	21
▁задач	21
▁чьи	21
доль	21
▁рак	21
▁явно	21
▁чисто	21
▁учеников	21
▁правило	21
▁ch	21
gan	21
бел	21
бывших	21
▁Люб	21
пс	21
коль	21
▁причинам	21
▁Гре	21
ада	21
рок	21
▁современно	21
▁пл	21
▁подряд	21
▁ставит	21
▁Мир	21
▁пользоваться	21
▁ск	21
▁Тур	21
▁опасно	21
▁Твоя	21
fr	21
▁сражениях	21
▁исход	21
▁Il	21
▁небольшой	21
▁Ос	21
▁волю	21
мест	21
land	21
▁шум	21
чатый	21
▁ход	21
щую	21
▁чужое	21
▁родов	21
gus	21
▁защищать	21
▁Rh	21
▁достичь	21
▁показывает	21
▁прийти	21
▁Bri	21
исты	21
▁Fre	21
ias	21
▁повели	21
nch	21
▁подумать	21
▁Anna	21
▁уши	21
▁последнего	21
lan	21
▁Истина	21
▁tenebras	21
▁перес	21
▁Дух	21
етесь	21
▁ду	21
▁Dec	21
▁стыд	21
q	21
▁Christi	21
▁некто	21
▁прошу	21
▁любим	21
▁зная	21
▁Квинт	21
▁Клавдия	21
▁отдать	21
▁признает	21
ides	21
▁варваров	21
▁увидели	21
▁Australia	21
ologiae	21
▁ru	21
▁великой	21
▁перестал	21
дол	21
▁дружбы	21
▁Нерон	21
▁бога	21
▁Una	21
ono	21
bimus	21
▁нередко	21
▁соглас	21
▁решительно	21
ult	21
▁Sci	21
▁стояли	21
▁сенату	21
▁Ger	21
▁ta	21
▁набрал	21
▁Augustus	21
hoc	21
▁recupera	21
▁немногих	21
▁гонцов	21
▁стоявши	21
▁страсть	21
▁радостью	21
▁беда	21
▁довольству	21
▁разуму	21
▁нарек	21
▁лицем	21
▁сии	21
▁удастся	21
▁ненависти	21
▁консулы	21
▁взяв	21
▁actrix	21
▁sentire	21
▁Summa	21
▁lecto	21
▁carne	21
▁iacet	21
▁carcere	21
▁matrem	21
▁puerum	21
▁iurisprudentia	21
▁grad	21
▁aedificata	21
▁proprium	21
▁emenda	21
▁Christiana	21
▁Alii	21
vir	21
▁scholae	21
pons	21
olog	21
▁minuta	21
▁affectus	21
oribus	21
▁cursum	21
▁exemplar	21
▁consistit	21
▁Angliae	21
▁habentur	21
▁continet	21
▁celebra	21
toria	21
▁Nulla	21
▁dominum	21
▁facis	21
▁mediocri	21
▁vicini	21
▁nuper	21
▁Maior	21
▁cognoscit	21
▁Verum	21
▁territori	21
▁cri	21
▁servis	21
▁Pellicula	21
▁consiliis	21
itis	21
▁norma	21
▁considera	21
▁index	21
▁Iudae	21
▁theoria	21
▁fine	21
▁panem	21
▁coniuncti	21
▁subtili	21
▁cogitationes	21
gal	21
▁custodi	21
▁salva	21
libus	21
▁certamen	21
▁effectu	21
atim	21
▁universo	21
▁dona	21
▁Spiritu	21
▁movebatur	21
▁Oppid	21
▁enunti	21
▁habitat	21
▁instituta	21
▁tenebantur	21
▁impedi	21
▁damna	21
▁reperi	21
▁militaris	21
▁credere	21
▁liberali	21
▁Aegypto	21
▁venerit	21
▁itinera	21
▁orta	21
▁substantia	21
▁desiderat	21
▁dixerit	21
▁perfici	21
▁tradita	21
▁vend	21
▁miles	21
▁aegro	21
▁fuerant	21
▁dicet	21
▁lex	21
▁missi	21
toris	21
▁ovi	21
▁consulatum	21
mittit	21
▁dimitte	21
issimis	21
▁civitati	21
▁conspectum	21
▁discere	21
▁maximis	21
▁istum	21
▁deorum	21
▁incipi	21
▁ultimum	21
▁videbat	21
▁auctoritatem	21
▁facie	21
ssimo	21
▁Null	21
▁magnae	21
▁facias	21
▁otium	21
▁Quidquid	21
dcirco	21
▁tenet	21
▁miserunt	21
▁vobiscum	21
▁signis	21
▁vident	21
▁aures	21
▁utraque	21
▁consuetudo	21
▁voluptatem	21
▁haberent	21
▁quadam	21
▁ventum	21
▁servorum	21
▁timet	21
▁quosdam	21
▁oculi	21
▁paulum	21
▁compluribus	21
▁fratri	21
▁portis	21
▁interfectis	21
▁sapientiae	21
▁dixisti	21
▁senex	21
▁nonne	21
▁Pharaoni	21
▁merito	21
▁Сенат	20
▁Эд	20
ления	20
ерт	20
кар	20
▁Art	20
▁отвечает	20
▁направлен	20
▁услышал	20
▁Мер	20
▁Bur	20
▁рассматрива	20
▁находи	20
▁организация	20
▁долгое	20
ectio	20
▁собственному	20
ений	20
скому	20
▁Книга	20
▁самостоятельно	20
спорт	20
▁Фар	20
▁осуществля	20
ющими	20
▁национальны	20
что	20
кая	20
над	20
▁границе	20
▁Зап	20
▁Rus	20
▁занимают	20
▁Первое	20
▁линия	20
▁Вар	20
▁крупны	20
▁банк	20
▁годом	20
▁начинается	20
ством	20
▁Маг	20
имость	20
ическим	20
▁урон	20
ark	20
▁совета	20
▁члены	20
▁Дело	20
▁союза	20
▁огня	20
нских	20
▁Bra	20
▁остр	20
тон	20
министра	20
задолго	20
▁нужда	20
▁сохранил	20
умер	20
▁Ной	20
▁Зе	20
сил	20
▁кап	20
овое	20
▁Go	20
▁сохранить	20
▁x	20
пал	20
▁занять	20
▁заметили	20
▁император	20
▁стандарт	20
▁смех	20
▁приходят	20
▁Кри	20
енная	20
жный	20
▁Fact	20
▁коров	20
щая	20
▁просит	20
▁прошел	20
ставался	20
▁принадлежат	20
▁пле	20
олов	20
▁англ	20
▁покор	20
уди	20
▁Air	20
▁Asia	20
▁духов	20
▁Кас	20
▁специально	20
▁посмотреть	20
▁дай	20
ношению	20
нис	20
изнь	20
▁исключением	20
▁найдет	20
▁головы	20
▁My	20
▁Ци	20
▁Гор	20
▁просьбой	20
▁уменьш	20
▁называемы	20
quae	20
▁суде	20
▁пункт	20
lac	20
▁король	20
▁дорога	20
oth	20
Ты	20
ew	20
▁целиком	20
рма	20
шим	20
▁суб	20
▁Обе	20
▁выбрал	20
маг	20
падет	20
▁трав	20
лам	20
▁рез	20
▁иной	20
▁Адам	20
▁умнож	20
▁разведчиков	20
▁исполнил	20
▁Однажды	20
цем	20
▁he	20
▁скажи	20
▁возвраща	20
▁недо	20
▁серебра	20
▁почт	20
▁ждать	20
счет	20
▁поверить	20
▁Mon	20
▁вредит	20
мысл	20
▁выбрать	20
вез	20
▁Публи	20
▁строй	20
▁Arc	20
вшее	20
▁неизбежно	20
▁делам	20
▁Сципиона	20
Non	20
▁удержать	20
▁оставалось	20
▁императором	20
стами	20
▁прочим	20
▁съезд	20
▁мелки	20
▁Сократ	20
zon	20
▁свободен	20
▁полезно	20
▁значения	20
▁большими	20
ello	20
▁Gl	20
▁предков	20
▁Sat	20
deri	20
лос	20
▁врагами	20
▁народы	20
▁похвал	20
▁явился	20
dan	20
▁universi	20
▁Saecul	20
▁таков	20
▁Мои	20
▁приказывает	20
▁образу	20
dens	20
▁ущерб	20
▁издали	20
▁Ben	20
iorum	20
odor	20
арный	20
inis	20
▁рассвете	20
▁рукой	20
▁высше	20
▁tra	20
chem	20
▁моими	20
▁Ph	20
tract	20
▁Graeca	20
▁трибунов	20
▁остановились	20
▁чужой	20
▁арьергард	20
бив	20
▁Нему	20
▁наслаждения	20
▁первосвященник	20
"?	20
▁твоем	20
▁Катон	20
▁блаженным	20
▁Anglice	20
▁fugere	20
▁ordinis	20
abitur	20
▁Pars	20
▁carcerem	20
▁putatur	20
▁novo	20
▁Brevi	20
▁album	20
▁vena	20
▁Quaedam	20
▁vocant	20
▁servitutem	20
▁Parlamentum	20
▁regni	20
▁odio	20
▁puella	20
▁fur	20
▁credunt	20
▁eventus	20
▁Biographia	20
▁conventu	20
▁accipere	20
▁culturae	20
▁accusatu	20
▁publicis	20
▁stare	20
▁solebat	20
▁coniugi	20
▁Iunio	20
▁Dania	20
▁fili	20
▁eventu	20
▁studebat	20
▁cordis	20
▁casum	20
▁locorum	20
▁stabili	20
▁Hispaniae	20
▁divulga	20
▁gradum	20
ator	20
▁decenni	20
ificatio	20
ulus	20
spici	20
▁negat	20
▁pacis	20
▁exire	20
▁administravit	20
▁Regio	20
buntur	20
▁pretio	20
▁ministri	20
anda	20
▁placuit	20
▁habitavit	20
▁facturum	20
rici	20
inum	20
▁videbatur	20
▁origine	20
▁invita	20
nenses	20
▁Syria	20
▁aetas	20
▁ordo	20
▁munera	20
▁Nota	20
▁civitatum	20
▁portas	20
▁continuo	20
▁valle	20
▁numeros	20
▁praepara	20
▁Romana	20
▁Habe	20
▁regula	20
▁quot	20
▁vale	20
▁navi	20
▁utroque	20
visset	20
▁dederunt	20
▁cecidit	20
▁eff	20
quaquam	20
usque	20
▁iug	20
▁rationi	20
▁illuc	20
▁insidiis	20
▁possumus	20
▁auro	20
▁oppidis	20
▁Georgi	20
▁futura	20
▁notitia	20
▁egredi	20
▁templum	20
▁pretium	20
▁Hannibalem	20
▁velint	20
▁Gaiu	20
▁sanguinem	20
derunt	20
▁committere	20
▁ullum	20
▁exitum	20
▁contraria	20
▁habitu	20
▁honores	20
▁potuisse	20
▁interfuit	20
▁ce	20
▁cre	20
▁domina	20
▁uterque	20
amur	20
▁cessa	20
▁habemus	20
▁scientiam	20
▁artes	20
▁pertinere	20
▁alicuius	20
eas	20
▁coll	20
▁voca	20
▁cohortes	20
Iudas	20
▁fiet	20
▁Pompei	20
▁praecepit	20
▁nascitur	20
▁praesens	20
▁laudem	20
cedat	20
▁portum	20
▁ignora	20
▁quondam	20
▁fecisse	20
▁templo	20
▁vinea	20
▁Tituri	20
▁Diviciac	20
▁pervenire	20
▁ueritas	20
▁loquor	20
▁dimittit	20
▁noce	20
▁filiorum	20
▁Sodom	20
▁Ismahel	20
▁Rebecca	20
▁altitudinem	20
▁munitione	20
▁cognitis	20
▁veniat	20
▁paupertas	20
▁Quaeris	20
▁Pilatu	20
дит	19
араб	19
▁meas	19
▁видите	19
Что	19
▁причиной	19
▁закрыт	19
rn	19
▁грозит	19
▁мировой	19
▁Республик	19
▁нравится	19
▁использовать	19
▁бол	19
▁евро	19
Ч	19
▁Super	19
▁производит	19
▁фильма	19
▁основны	19
▁понял	19
инф	19
▁составил	19
бери	19
оса	19
▁музей	19
▁Более	19
▁получени	19
▁Ей	19
сот	19
▁Google	19
▁использовал	19
▁боев	19
▁наблюда	19
▁дорог	19
▁история	19
▁молитв	19
▁Tres	19
▁Medic	19
▁очевидно	19
▁актриса	19
▁Джо	19
▁Вене	19
данный	19
▁дерева	19
▁боялся	19
ейчас	19
▁Пи	19
▁посту	19
▁вопросы	19
▁дальнейшем	19
▁коллекци	19
▁восстания	19
еш	19
ведён	19
▁деревья	19
▁прием	19
▁судьбы	19
За	19
▁прост	19
▁связаны	19
▁коротко	19
ert	19
▁политик	19
▁пола	19
▁Сегодня	19
▁Пан	19
мир	19
▁приняты	19
US	19
▁Куб	19
▁священник	19
▁создать	19
▁исторически	19
▁Oc	19
▁создание	19
▁способность	19
▁группа	19
▁Don	19
шел	19
▁полны	19
▁островов	19
▁известен	19
▁ближайше	19
oll	19
▁провинция	19
▁находит	19
fu	19
▁дев	19
нского	19
явился	19
министром	19
▁ищет	19
▁организации	19
▁просить	19
елла	19
нко	19
▁Индии	19
▁XVII	19
юда	19
лень	19
uk	19
▁представить	19
▁общества	19
▁Много	19
▁каждо	19
▁успеха	19
▁целом	19
▁Уч	19
цвет	19
eon	19
альной	19
▁Карл	19
▁основе	19
▁Studi	19
▁верно	19
ak	19
▁Lex	19
▁увеличива	19
▁Узнав	19
▁события	19
▁сторона	19
▁эпи	19
▁принимал	19
▁мужества	19
undi	19
▁дружбе	19
▁стан	19
▁Духа	19
гин	19
▁поняли	19
▁молодо	19
▁страна	19
цеп	19
▁игрок	19
▁Нор	19
▁признан	19
▁занимался	19
amp	19
▁двенадцати	19
ович	19
▁заслуживает	19
▁посты	19
▁послуша	19
▁римской	19
ником	19
▁Каин	19
ины	19
▁погибли	19
▁дорого	19
ением	19
▁просьбе	19
▁изменения	19
стал	19
▁sacra	19
▁отправля	19
▁двига	19
▁некоторым	19
▁голосом	19
тки	19
▁губ	19
pse	19
▁XVIII	19
▁бывают	19
▁волосы	19
▁проход	19
скоп	19
▁моста	19
▁убедить	19
▁Пу	19
▁чувствует	19
▁символ	19
ающий	19
▁совету	19
разум	19
▁римским	19
▁правил	19
▁приобрел	19
▁радости	19
▁loquitur	19
▁eiusmodi	19
▁consensu	19
▁Fo	19
▁вселенной	19
▁Thomas	19
▁обид	19
▁продолжали	19
▁особо	19
▁Les	19
▁стену	19
rime	19
▁Божий	19
▁сражаться	19
ire	19
▁тесно	19
▁Commi	19
lant	19
▁Фи	19
ara	19
нял	19
▁прив	19
шл	19
▁встретил	19
▁возникает	19
elle	19
err	19
▁великого	19
▁gla	19
▁горяч	19
ностью	19
▁Minor	19
▁добычи	19
▁прекрасно	19
▁миром	19
▁далее	19
▁привык	19
▁приближа	19
▁рабство	19
▁сверх	19
ū	19
▁dir	19
▁подошел	19
▁aff	19
▁стен	19
▁синагог	19
▁намерен	19
▁ali	19
ographic	19
culis	19
▁Ариовиста	19
▁двинуться	19
▁эдуям	19
▁хлебом	19
▁Рейна	19
▁царем	19
▁пойдет	19
▁Твой	19
▁Еще	19
▁хвал	19
▁говорите	19
▁доста	19
▁пятьдесят	19
▁громким	19
▁землею	19
▁подошли	19
▁государству	19
▁страш	19
▁тогу	19
▁царско	19
▁Провинцию	19
▁вала	19
▁когорт	19
▁Фабий	19
▁честное	19
▁терпеливо	19
▁блаженной	19
▁одушевленное	19
мозговой	19
талам	19
▁Foederatae	19
abit	19
▁crescit	19
▁ludos	19
▁actio	19
▁iussu	19
▁acceptum	19
▁plane	19
▁Nonnulli	19
▁insulam	19
▁veniam	19
▁cives	19
diu	19
▁praemium	19
▁finita	19
▁divulgata	19
▁Veneti	19
▁ministra	19
▁tales	19
▁factione	19
▁tor	19
▁expugna	19
▁pul	19
▁occasionem	19
▁sepeli	19
▁spectaculum	19
▁guberna	19
▁Multum	19
▁spatia	19
torius	19
▁cupi	19
▁amant	19
Francogallice	19
▁Prae	19
▁libris	19
▁aestima	19
▁victoriam	19
▁candidatus	19
▁forti	19
▁partis	19
▁opiniones	19
▁classem	19
▁facienda	19
▁dedi	19
▁invicem	19
▁senator	19
▁Septentrionalis	19
▁obiit	19
tani	19
▁personae	19
▁professor	19
▁acta	19
▁vendit	19
▁propositi	19
▁ole	19
▁mansit	19
▁notum	19
▁ministro	19
▁roga	19
▁praesidi	19
▁intr	19
▁pondus	19
▁argumentum	19
▁docuit	19
▁apta	19
▁divitiae	19
▁profecto	19
▁captus	19
▁praemia	19
▁facerent	19
▁capit	19
▁fuerint	19
▁privat	19
▁vehementer	19
▁mercatus	19
▁uxore	19
▁Terra	19
duxerunt	19
bio	19
▁barbari	19
▁artifici	19
▁litterae	19
leva	19
▁novas	19
▁Universitate	19
tarum	19
▁progressus	19
▁alicui	19
▁ponit	19
▁aurum	19
▁ordines	19
ilio	19
▁demonstrat	19
▁felicitas	19
▁ii	19
▁varias	19
▁habeant	19
▁affer	19
▁brevis	19
▁negotium	19
▁vulgo	19
Qua	19
▁strat	19
▁talis	19
▁sanguine	19
▁spectat	19
▁Antonius	19
▁semi	19
▁equestri	19
▁opes	19
▁praestat	19
▁praesidia	19
▁imperatorem	19
▁vade	19
▁principis	19
▁gaudio	19
▁equis	19
▁magnitudo	19
tamen	19
▁exemplo	19
▁proelia	19
▁defendere	19
▁extremum	19
nunc	19
▁poterit	19
▁honore	19
▁auribus	19
▁egressi	19
▁cogitation	19
▁contingere	19
▁praedica	19
▁habebit	19
▁eg	19
▁lapidem	19
▁subita	19
▁vocibus	19
▁adducti	19
▁frumentaria	19
tulisse	19
▁frumento	19
▁tantam	19
▁venissent	19
▁pridie	19
▁noctu	19
▁tanti	19
▁relicto	19
▁uera	19
▁ingenium	19
▁turpi	19
▁mut	19
▁bonorum	19
▁oper	19
▁temere	19
▁tabernacul	19
▁responderunt	19
▁conscripti	19
▁scias	19
▁miserum	19
▁velis	19
▁odium	19
▁demonstravimus	19
▁Gaium	19
▁Aeduis	19
pharynge	19
thalam	19
▁счёт	18
неопр	18
На	18
▁оказывается	18
▁имела	18
▁аэропорт	18
▁термин	18
▁Bre	18
▁живё	18
нёс	18
▁установил	18
▁крепко	18
▁восстановлен	18
▁Европы	18
▁Лучше	18
▁Хан	18
▁доверя	18
▁Совет	18
▁Вся	18
▁Африки	18
▁парк	18
▁отнял	18
▁эпизод	18
сколько	18
▁говорится	18
ологическ	18
▁знач	18
ходят	18
правляется	18
▁составляют	18
ain	18
кер	18
кола	18
▁пил	18
▁рад	18
▁переехал	18
▁национально	18
▁Ги	18
ота	18
▁предложен	18
▁Sanctu	18
▁Lib	18
▁вечно	18
▁реш	18
▁будущем	18
▁след	18
▁комп	18
▁район	18
▁удел	18
▁Ус	18
▁часы	18
▁пожелал	18
▁Гри	18
▁создани	18
▁Ап	18
▁воде	18
▁тепло	18
ида	18
▁Втор	18
аться	18
▁долларов	18
cere	18
▁Мари	18
▁культуры	18
уст	18
▁школу	18
▁родителей	18
IS	18
▁млн	18
▁театр	18
▁California	18
▁рост	18
▁испанско	18
▁юг	18
▁ред	18
▁Ск	18
льной	18
▁достоинства	18
▁крупно	18
▁угл	18
▁зависит	18
▁выпуск	18
▁экспедиц	18
▁Mu	18
▁появи	18
ования	18
вание	18
▁авто	18
линг	18
▁версии	18
▁отличие	18
▁живых	18
▁начинают	18
▁Израиле	18
▁Вес	18
▁степень	18
▁села	18
▁Аль	18
▁лежал	18
▁здания	18
book	18
▁издание	18
средством	18
▁основно	18
▁Перво	18
▁Была	18
▁проводил	18
▁следующим	18
ложить	18
▁главн	18
▁университете	18
▁звук	18
▁провести	18
▁примеру	18
сона	18
▁предмета	18
атов	18
геро	18
▁пространстве	18
▁подверга	18
▁знак	18
▁сообща	18
▁персонаж	18
▁Angel	18
▁остались	18
▁музыкант	18
▁действующ	18
▁Чу	18
▁Эр	18
▁Вал	18
▁позволял	18
▁William	18
ируют	18
ake	18
▁происхождение	18
▁возвращается	18
▁хотим	18
▁произвел	18
▁впечатление	18
нском	18
Да	18
▁нравы	18
▁гон	18
▁выбран	18
▁находились	18
▁отряда	18
▁отлича	18
▁officina	18
▁исследования	18
▁заняли	18
ios	18
фин	18
▁восточн	18
▁Раб	18
▁пуст	18
веща	18
▁perpetua	18
ица	18
▁согласен	18
▁Фер	18
▁метров	18
▁видимо	18
▁попытки	18
нские	18
▁истинн	18
▁чья	18
▁обуча	18
аются	18
▁слушать	18
▁слез	18
▁насчитывает	18
▁давали	18
▁Сим	18
▁поспешно	18
▁Часто	18
лес	18
lima	18
▁ряды	18
▁князья	18
ставлен	18
▁намерения	18
▁Sha	18
ших	18
▁слышать	18
▁высоки	18
▁собрании	18
▁веру	18
▁весел	18
▁квартиры	18
▁высоты	18
▁избежать	18
▁мудрый	18
▁одних	18
▁каждом	18
ez	18
▁двери	18
▁боевы	18
▁знания	18
▁жестокости	18
▁консулов	18
▁делали	18
▁Nation	18
tribu	18
▁поспешил	18
▁ссыла	18
▁уход	18
▁читал	18
▁накануне	18
▁вене	18
▁встань	18
▁сведения	18
▁сделан	18
▁возле	18
▁любого	18
▁стану	18
▁sci	18
▁мешка	18
eb	18
▁подал	18
▁мозг	18
▁груди	18
▁примет	18
▁Нерона	18
▁др	18
▁nimi	18
▁открытом	18
▁принужден	18
▁Patria	18
▁птицы	18
▁приняли	18
▁чувств	18
▁плащ	18
▁Тобою	18
▁позади	18
▁ha	18
▁врасплох	18
▁подняться	18
▁выс	18
чувств	18
▁Optim	18
▁мышца	18
▁материя	18
▁приказу	18
▁следовательно	18
▁Editio	18
▁decima	18
▁облик	18
▁Lo	18
▁наверняка	18
▁благословен	18
▁почести	18
atae	18
▁руками	18
plo	18
▁Далее	18
▁легионом	18
▁хороших	18
▁выдержать	18
▁Ех	18
▁Fu	18
▁Красс	18
▁милости	18
▁доброй	18
▁держал	18
▁легатов	18
▁бельгов	18
это	18
▁Божия	18
▁досуг	18
▁зачала	18
▁Содом	18
▁двести	18
▁сию	18
▁знай	18
▁Измаил	18
▁Сарра	18
сенаторы	18
▁избавлен	18
▁спрашиваешь	18
▁наслаждение	18
▁чье	18
▁галльски	18
▁прикрытия	18
▁добычу	18
▁телу	18
▁случится	18
▁Канини	18
▁visita	18
▁videt	18
▁Utrum	18
▁Unio	18
iensis	18
▁appellata	18
▁vescuntur	18
▁portus	18
▁Iulio	18
▁scimus	18
▁fora	18
▁passim	18
elandia	18
▁praesenti	18
▁nullus	18
▁negavit	18
▁nationalis	18
textus	18
▁agi	18
▁proprius	18
▁area	18
▁Carolus	18
▁Necess	18
positione	18
▁erga	18
▁Constitutio	18
▁sciret	18
▁cibo	18
▁matre	18
▁perdidit	18
▁flore	18
▁machina	18
▁actiones	18
▁medicus	18
▁reddit	18
tud	18
▁Gulielmus	18
▁foro	18
▁pan	18
▁factiones	18
eant	18
▁grave	18
▁Ian	18
sunt	18
▁femina	18
▁ferunt	18
▁admodum	18
▁cogitare	18
▁Quos	18
▁acriter	18
▁Iaponiae	18
▁amba	18
oris	18
ducitur	18
▁Indiae	18
▁decreta	18
▁vigil	18
▁CFA	18
▁colonia	18
▁statum	18
▁certamine	18
▁Graecis	18
▁undecim	18
▁transporta	18
▁puta	18
▁possidet	18
luc	18
▁valetudinem	18
▁tumultu	18
▁navig	18
▁arbore	18
▁decessit	18
▁certi	18
▁process	18
▁agunt	18
abant	18
▁rogat	18
▁ceteri	18
issimi	18
▁electione	18
▁Titu	18
▁rubr	18
▁insequenti	18
▁superficie	18
▁Legatu	18
▁comm	18
▁fratre	18
▁nescimus	18
▁aliqui	18
▁postulat	18
▁Cicero	18
▁mortuum	18
▁intravit	18
▁surrexit	18
▁Mortuus	18
atenses	18
pote	18
▁deditionem	18
dine	18
▁laboris	18
▁tractat	18
▁circul	18
▁proposita	18
▁incerta	18
▁meliorem	18
▁confirmat	18
▁faciebat	18
▁munus	18
▁occurrit	18
▁rectum	18
▁Britannica	18
▁plerique	18
▁operibus	18
▁sinu	18
▁aves	18
▁modus	18
det	18
▁stationes	18
▁parata	18
▁digit	18
▁saeculi	18
eam	18
▁lacu	18
▁feri	18
ducat	18
▁artem	18
spice	18
▁agricultura	18
▁CC	18
▁quaestione	18
▁pulsa	18
▁auctores	18
▁capitis	18
▁nullius	18
▁instrumenta	18
▁beati	18
▁reliquum	18
▁arbitra	18
▁turpe	18
▁levi	18
▁foras	18
▁imita	18
▁exercitui	18
▁accepto	18
▁nocet	18
▁oportere	18
▁cotidiana	18
▁Sym	18
▁Eno	18
▁exerce	18
▁accedit	18
▁manda	18
▁beneficia	18
▁pares	18
▁sermone	18
▁dignitate	18
▁insidias	18
▁consulis	18
▁existimant	18
▁condicione	18
▁neu	18
▁parare	18
▁aquas	18
▁leni	18
▁commoda	18
▁subsidio	18
▁aliam	18
▁docent	18
▁ago	18
▁equo	18
▁venerant	18
▁quemquam	18
▁fecerit	18
▁summae	18
▁ruina	18
▁fert	18
▁crede	18
▁incredibili	18
▁timoris	18
▁nuntios	18
▁Cotta	18
▁legione	18
▁barbaris	18
▁uero	18
▁horre	18
▁deinceps	18
▁corpori	18
▁similitudinem	18
▁dabit	18
▁arca	18
▁cupiditas	18
▁existime	18
▁Labienus	18
▁obsidibus	18
▁existimas	18
▁mehercules	18
Но	17
▁приехал	17
▁der	17
damus	17
▁шут	17
дру	17
▁Cre	17
▁Остальные	17
▁рассказывает	17
▁революци	17
▁играх	17
▁первом	17
▁бесконечно	17
дон	17
▁указал	17
▁Европейско	17
▁пророк	17
ER	17
эль	17
▁долга	17
▁результат	17
▁обвинения	17
пытались	17
▁дик	17
▁проводить	17
arth	17
▁Оно	17
▁Скончал	17
▁путём	17
▁свободе	17
дия	17
▁чём	17
исп	17
▁создан	17
▁снят	17
▁транс	17
▁транспорт	17
падает	17
▁умирает	17
глядит	17
▁Fin	17
▁желал	17
▁ведут	17
роз	17
▁поздно	17
▁лат	17
лова	17
▁all	17
▁совместно	17
пин	17
▁рабоч	17
▁проблемы	17
▁мае	17
▁телефон	17
▁звания	17
▁Африку	17
▁основном	17
▁городах	17
▁минут	17
▁русско	17
▁фигур	17
▁utrisque	17
щийся	17
▁Название	17
▁Тор	17
▁медленно	17
▁любое	17
альных	17
роде	17
▁собственные	17
тора	17
▁поражение	17
▁президента	17
▁требовал	17
▁полагают	17
▁заключил	17
▁волк	17
▁сюжет	17
...»	17
▁открыть	17
▁пытают	17
▁красив	17
▁собира	17
▁Tre	17
пел	17
▁Север	17
нного	17
▁владел	17
▁жене	17
алы	17
▁делит	17
▁Говорят	17
чку	17
▁Фр	17
▁Иногда	17
▁Максим	17
▁Windows	17
ленный	17
▁желают	17
▁покинул	17
▁объект	17
▁вышло	17
чную	17
ворачива	17
нар	17
▁развития	17
▁Союз	17
▁детьми	17
▁моно	17
▁сделай	17
▁фараона	17
▁церкви	17
▁астроном	17
▁гуля	17
илась	17
▁боятся	17
▁Люди	17
▁отдыха	17
человеч	17
▁жили	17
▁предложил	17
так	17
звестный	17
▁Анти	17
▁протест	17
пускают	17
ошла	17
▁третьего	17
▁проб	17
яют	17
▁Действительно	17
▁деятельность	17
▁Первая	17
▁дружба	17
▁регион	17
▁собственную	17
▁дважды	17
▁возраст	17
▁сильный	17
▁общего	17
▁большинства	17
▁известны	17
▁семье	17
шлю	17
бен	17
▁удовольствие	17
▁дверь	17
▁написано	17
▁XIX	17
▁высокого	17
ётся	17
тельные	17
▁Олимпийски	17
▁успел	17
▁Смерть	17
▁ранни	17
▁Franco	17
ведение	17
▁посольства	17
▁началом	17
рах	17
▁новым	17
▁поддержку	17
▁шею	17
veniat	17
рн	17
▁Mariae	17
▁Уильям	17
▁состоянию	17
▁ел	17
▁пищу	17
▁Ана	17
▁тысячу	17
▁захочет	17
▁самая	17
дела	17
▁низко	17
▁очи	17
▁Music	17
▁Одно	17
емое	17
▁Ira	17
ux	17
▁Прежде	17
▁Цицерона	17
вел	17
▁Has	17
▁мешает	17
▁новое	17
▁круг	17
▁Dom	17
▁отвечать	17
йские	17
▁строго	17
▁подчинен	17
▁Университет	17
▁уби	17
▁победе	17
▁Final	17
▁чер	17
▁входит	17
движен	17
грамм	17
▁работой	17
▁называли	17
▁люб	17
▁философию	17
▁Воз	17
▁смысле	17
▁разряд	17
ssis	17
▁Дай	17
▁счастья	17
▁остановиться	17
▁подобных	17
кос	17
стой	17
uer	17
▁величайши	17
▁generalis	17
▁решению	17
щей	17
▁гору	17
▁Anti	17
▁услышав	17
▁упражнения	17
▁мину	17
▁бегства	17
▁большее	17
▁хорошее	17
▁Uni	17
▁orbis	17
▁захват	17
▁открыты	17
▁расположил	17
▁общим	17
▁требуют	17
▁грехи	17
▁состояния	17
▁занятия	17
▁плав	17
бывать	17
▁преступления	17
▁необходимое	17
▁зап	17
▁устроил	17
евых	17
▁наставления	17
▁укреплен	17
▁злом	17
бов	17
▁возможным	17
▁слушал	17
ливо	17
▁Templ	17
iger	17
▁Ama	17
▁местность	17
брасыва	17
▁Dixi	17
▁Rec	17
▁хозяин	17
enter	17
▁смотри	17
▁несчастье	17
▁Index	17
▁дан	17
▁ценит	17
▁истинно	17
▁Dor	17
▁Causa	17
▁Novum	17
▁Soci	17
▁Pl	17
▁Ham	17
▁Ves	17
▁приобрет	17
▁лук	17
▁чт	17
▁окружен	17
▁всякому	17
▁государстве	17
ego	17
▁Parisi	17
▁многочисленн	17
▁Tiberius	17
▁ран	17
▁окружили	17
dux	17
▁огнем	17
▁Noli	17
int	17
▁so	17
▁храбростью	17
▁держит	17
▁лагерю	17
▁Враги	17
▁атребат	17
▁ушел	17
▁несчастен	17
▁удовольствия	17
▁хвалят	17
▁бедствий	17
даешь	17
▁долгим	17
▁поручил	17
▁старался	17
▁воскликнул	17
▁Нахор	17
▁держаться	17
▁станешь	17
▁сверху	17
▁обоза	17
▁посланны	17
▁Коммий	17
▁пыткой	17
▁надобно	17
▁Человеческий	17
▁Mors	17
duxit	17
▁militavit	17
▁pariet	17
▁septentrionali	17
▁fas	17
▁cognosc	17
▁mul	17
▁Alia	17
▁Systema	17
▁matris	17
greg	17
▁rota	17
▁nihilo	17
▁metra	17
▁nupsit	17
▁multiplica	17
▁iuvat	17
▁musicae	17
▁aegre	17
▁gestis	17
mittunt	17
diae	17
▁saltem	17
▁matri	17
▁reversus	17
▁veritas	17
▁misericordiam	17
▁sentit	17
ssimus	17
▁historiam	17
▁victor	17
▁ascendere	17
▁orbem	17
▁Mare	17
▁Israel	17
▁emp	17
▁recenti	17
▁habitus	17
▁Christiani	17
▁opinione	17
▁Nederlandia	17
gitur	17
▁naturali	17
▁societat	17
▁Africae	17
▁Primo	17
▁pactum	17
▁fungebatur	17
▁Pos	17
▁insigni	17
▁Imperator	17
▁unc	17
▁Sancti	17
▁Britanniae	17
▁desine	17
▁Bis	17
▁consola	17
ationis	17
▁Pot	17
vae	17
▁condit	17
▁autocinet	17
▁iuvenes	17
▁cau	17
▁asteroidum	17
▁Municipia	17
▁nobiles	17
▁finivit	17
endas	17
uo	17
▁paradis	17
▁impera	17
dhuc	17
▁communia	17
▁cu	17
▁fundament	17
ticam	17
dae	17
vac	17
▁teneri	17
▁attribu	17
▁conveniunt	17
▁minores	17
▁Quoniam	17
▁principium	17
▁potestas	17
▁scaena	17
▁decre	17
▁praeceptor	17
▁Russica	17
cet	17
ă	17
▁Anglicus	17
▁reddidit	17
▁Sancta	17
▁principem	17
rsus	17
▁visus	17
▁morem	17
▁ducis	17
▁gerere	17
▁Bello	17
▁plebis	17
▁Claudio	17
▁necati	17
▁eandem	17
venimus	17
▁adire	17
▁coactus	17
▁malle	17
▁firma	17
narum	17
▁Eadem	17
▁ostium	17
ulis	17
▁condicio	17
▁pauci	17
▁melior	17
▁vexa	17
▁confer	17
▁peti	17
▁aestus	17
▁proximum	17
piam	17
gerat	17
▁eu	17
▁vias	17
ige	17
▁studiis	17
▁recens	17
▁pedibus	17
▁turbam	17
▁socios	17
▁somno	17
▁repertus	17
▁tunica	17
▁pax	17
▁consequi	17
quidem	17
▁turres	17
▁integra	17
▁palli	17
▁Levi	17
▁epistulae	17
▁prodesse	17
vertit	17
▁continere	17
▁viderentur	17
▁digna	17
▁ful	17
▁universam	17
▁oscula	17
▁ullam	17
▁semini	17
▁servo	17
▁hostis	17
▁praestare	17
▁noctis	17
▁minorem	17
▁gladio	17
▁praecipit	17
▁fossa	17
▁perit	17
▁excipi	17
▁daret	17
▁peditum	17
▁benedic	17
▁abscond	17
▁Fabius	17
▁Galilaea	17
▁torque	17
▁silentio	17
▁asin	17
▁dole	17
▁curam	17
▁timid	17
▁Ariovist	17
▁pontem	17
▁finitimis	17
▁arbitrabatur	17
▁istam	17
ueris	17
lioquin	17
gratus	17
▁nostras	17
▁concepit	17
▁adfer	17
▁vestri	17
▁ero	17
▁vestro	17
▁benedica	17
▁vestris	17
▁Abimelech	17
▁venient	17
▁voces	17
▁vallum	17
▁dignum	17
▁fortuita	17
▁interrogavit	17
▁voluptates	17
llaris	17
▁народе	16
▁совершен	16
▁Мэри	16
демократ	16
▁количества	16
▁версия	16
▁Международны	16
▁каждая	16
▁худ	16
▁Tho	16
▁вошли	16
▁забыв	16
▁популяр	16
▁Ин	16
▁началась	16
▁убежден	16
▁запах	16
▁трое	16
▁Пал	16
▁Другие	16
▁Африка	16
▁Homo	16
▁выбирать	16
▁реформ	16
▁этап	16
▁Pacific	16
▁отлично	16
▁Хи	16
▁норм	16
▁Тан	16
▁образование	16
▁Благодар	16
kin	16
▁It	16
▁Кажд	16
ствовал	16
илла	16
▁бизнес	16
▁проща	16
▁цвета	16
▁Сол	16
▁тягот	16
тельная	16
▁настал	16
▁ветер	16
▁библиотека	16
▁вариант	16
▁тяжелы	16
▁членов	16
дать	16
▁получив	16
▁Ast	16
пы	16
летни	16
ьё	16
▁известна	16
▁ЮНЕСКО	16
▁объявлен	16
▁действие	16
вала	16
▁Крест	16
▁двор	16
▁успешно	16
▁Эт	16
▁редки	16
▁Такой	16
▁вывод	16
▁создания	16
▁лоз	16
▁буд	16
▁многими	16
▁критик	16
▁социально	16
▁карьер	16
▁книгах	16
▁Президент	16
▁пояс	16
Авто	16
▁функци	16
▁управление	16
▁Лишь	16
▁подтвердил	16
▁оценк	16
▁предположени	16
▁оставлять	16
▁наклон	16
▁Tor	16
▁оста	16
носятся	16
▁Pal	16
▁Анна	16
▁Мос	16
▁микро	16
▁защитников	16
▁армию	16
▁бывшие	16
очки	16
▁отказаться	16
▁правления	16
▁следующие	16
▁подход	16
▁купил	16
бург	16
▁потери	16
вине	16
▁набор	16
▁согласие	16
▁японски	16
▁вход	16
▁сне	16
пред	16
▁прошли	16
▁совершил	16
ливы	16
▁разработан	16
▁желаний	16
крылись	16
льным	16
▁высшего	16
ице	16
▁странах	16
▁современны	16
▁основ	16
▁частности	16
▁остальное	16
▁командование	16
▁слабо	16
▁Египта	16
▁выхода	16
▁временно	16
очный	16
▁Mod	16
▁оказались	16
▁выросл	16
▁обладает	16
▁пут	16
ители	16
▁яд	16
стов	16
▁переходит	16
▁All	16
▁воскрес	16
▁corporum	16
ини	16
▁благополучно	16
▁постоянны	16
▁возврат	16
▁окончании	16
▁оттого	16
▁Крас	16
▁океан	16
▁общем	16
PD	16
▁кур	16
ложив	16
лены	16
▁вышл	16
▁издан	16
▁Одна	16
беру	16
▁плодов	16
▁хватит	16
▁поддержки	16
▁успели	16
vici	16
▁счастливым	16
бат	16
▁Virtu	16
▁щит	16
ань	16
▁Ter	16
▁лекарства	16
▁выполнен	16
▁обеспечи	16
▁итальянский	16
▁развива	16
▁христиан	16
▁отличается	16
▁ног	16
▁Nos	16
▁comes	16
скими	16
уществует	16
▁Цар	16
▁Franc	16
▁Database	16
▁IX	16
audi	16
▁класса	16
▁звезды	16
▁чей	16
▁клин	16
пала	16
▁Dar	16
▁участь	16
▁дружбу	16
▁миру	16
▁patientia	16
▁занима	16
▁шло	16
tates	16
▁запрет	16
▁semina	16
▁посреди	16
▁Сицилии	16
▁императора	16
▁владения	16
▁удобно	16
▁отдельным	16
▁академи	16
вшаяся	16
▁берега	16
▁Are	16
▁Джордж	16
▁лета	16
▁честности	16
▁независимо	16
▁дав	16
ину	16
▁необходимость	16
▁силах	16
▁пришла	16
ею	16
кажет	16
▁смотрит	16
gram	16
▁спрашивать	16
▁coli	16
▁вторая	16
▁Сабина	16
▁fung	16
▁стих	16
▁vincere	16
▁лагерей	16
▁обита	16
ступают	16
▁speciali	16
▁legi	16
ходил	16
▁Mira	16
казав	16
полит	16
▁лицом	16
▁последовали	16
▁пору	16
▁сделаю	16
▁Последние	16
▁магистр	16
▁вину	16
▁собственного	16
▁propaga	16
▁верности	16
▁пира	16
емых	16
▁избавиться	16
▁Island	16
▁Sur	16
ошел	16
анный	16
▁первыми	16
▁выходят	16
▁Британии	16
▁высш	16
▁принести	16
▁дву	16
ian	16
XX	16
▁дурно	16
ong	16
▁приблизи	16
▁сообщил	16
▁лучший	16
▁противо	16
▁слезами	16
▁Bru	16
▁сосуд	16
▁братьям	16
ller	16
▁Statu	16
▁рассказал	16
▁Astronomi	16
▁соседей	16
▁отпор	16
▁Audi	16
▁купить	16
▁Британию	16
▁cr	16
▁move	16
▁сомнения	16
▁Себя	16
plex	16
▁человеке	16
▁осаде	16
och	16
▁напал	16
▁пунктах	16
▁Fra	16
his	16
▁Monte	16
▁великие	16
▁Hamburg	16
▁старость	16
▁хвала	16
▁общине	16
▁свойств	16
▁услуги	16
▁жертвенник	16
перва	16
▁actu	16
aliter	16
▁armorum	16
▁Всех	16
▁Гне	16
▁жажду	16
▁Maxima	16
ito	16
▁надобности	16
▁честность	16
▁истине	16
дешь	16
▁Нем	16
чуть	16
▁предпочел	16
йдешь	16
▁Авраамов	16
▁благоволение	16
▁пища	16
▁одушевленны	16
▁присутствии	16
▁величайшим	16
▁провинцию	16
▁бросились	16
▁болото	16
▁карнутов	16
▁весть	16
▁боязни	16
▁незачем	16
▁спокойствие	16
▁сестерциев	16
▁Марцелла	16
▁блаженства	16
▁думай	16
▁Сихем	16
▁curia	16
▁reperta	16
▁ostenta	16
▁Iudaic	16
▁valet	16
scribe	16
titi	16
▁Austria	16
▁habuerunt	16
▁feria	16
▁abscondit	16
▁Neptun	16
publica	16
▁Ioanne	16
ili	16
▁Bulgaria	16
▁dec	16
▁pr	16
andi	16
▁volebat	16
▁Iter	16
rumque	16
▁educationis	16
▁incendium	16
▁Belli	16
▁marito	16
llus	16
▁iucunda	16
▁transeunt	16
▁aspici	16
▁dubio	16
▁Maximi	16
▁communicat	16
▁expuls	16
▁inveniuntur	16
▁Hispanica	16
▁gubernatione	16
icam	16
▁edidit	16
▁mutare	16
▁agricola	16
▁Mal	16
veniunt	16
▁fugi	16
▁repraesentat	16
▁denuo	16
ciae	16
▁facultas	16
▁femin	16
▁rapid	16
▁crescebat	16
▁primae	16
▁Habet	16
▁discipulu	16
▁declara	16
ivus	16
▁modern	16
▁Reg	16
▁fidei	16
▁intellegi	16
▁sororem	16
▁accusa	16
▁pollicitus	16
▁monet	16
ariae	16
▁stultitia	16
▁regina	16
▁accedere	16
▁refer	16
▁ra	16
▁victima	16
burgi	16
▁naturalis	16
▁Sedes	16
▁Faci	16
▁sali	16
scriptio	16
▁crimina	16
▁Obi	16
▁instrumentum	16
▁Paulus	16
pone	16
▁quarta	16
▁sabbat	16
▁confecta	16
enia	16
▁Elisabeth	16
▁conversus	16
▁difficile	16
▁aestate	16
▁quinta	16
▁turma	16
▁Olympia	16
▁litterarum	16
▁religionis	16
▁institu	16
▁socius	16
▁incipiunt	16
▁habitabat	16
▁reditus	16
▁vivo	16
▁Praefectu	16
actum	16
▁terras	16
▁ingenii	16
▁iudices	16
▁proximi	16
▁ferro	16
▁portam	16
▁orientali	16
▁Vel	16
▁laetitia	16
▁acceperunt	16
▁Ludovic	16
▁dicebant	16
sed	16
▁Olympic	16
▁praesentem	16
bere	16
veniens	16
▁silva	16
▁dari	16
▁tribunus	16
▁vestigia	16
▁placent	16
▁recipere	16
▁octav	16
▁sero	16
▁pugnam	16
▁instructa	16
▁quotannis	16
▁dant	16
▁restitu	16
▁auctore	16
▁sane	16
▁suscepit	16
▁faciant	16
▁cen	16
antem	16
▁maria	16
▁parat	16
▁signo	16
▁Eli	16
▁Denique	16
issent	16
▁finit	16
▁pugnatum	16
▁praecipua	16
▁obscura	16
▁ponere	16
▁reliquerunt	16
▁profecti	16
▁epistulam	16
cessit	16
▁saluta	16
insecu	16
▁aperi	16
▁gaude	16
▁debent	16
▁vento	16
▁nuda	16
▁voluptas	16
▁colle	16
▁stomach	16
▁Crassus	16
iens	16
cubi	16
▁inopiam	16
rant	16
▁quanti	16
▁conversa	16
ante	16
ruit	16
▁Germanici	16
▁carmina	16
nec	16
▁intellegere	16
▁malorum	16
▁lava	16
▁concilium	16
▁aedificiis	16
mittere	16
▁infer	16
uere	16
▁necessitas	16
▁veniret	16
▁nihilominus	16
lici	16
oque	16
▁secus	16
▁Hispaniam	16
▁oculorum	16
rios	16
▁accommoda	16
▁Iudaea	16
▁passus	16
▁intus	16
▁Gaio	16
▁humanis	16
▁quemque	16
▁sponte	16
▁cogit	16
▁adduc	16
▁incommoda	16
▁Numquam	16
▁Cogita	16
▁extr	16
▁commeatus	16
▁pull	16
▁Beniamin	16
▁conple	16
▁premi	16
▁altar	16
▁avaritia	16
▁testimonium	16
▁subsequi	16
▁abesse	16
▁Suebi	16
cesserant	16
▁profectum	16
▁meorum	16
▁uitae	16
▁lumen	16
▁acies	16
▁Vbi	16
▁nobiscum	16
▁utram	16
▁multorum	16
▁vocavitque	16
▁concupi	16
▁inprob	16
▁Treveri	16
▁Aeduos	16
▁transfer	16
▁recti	16
▁nimia	16
▁Adice	16
▁Atqu	16
▁дошли	15
▁вспомнил	15
▁смертн	15
▁электро	15
▁оглядыва	15
▁плач	15
▁южно	15
ходе	15
▁товарищей	15
▁камни	15
▁поклон	15
▁стол	15
▁исследовател	15
▁вып	15
▁действует	15
ировали	15
жить	15
▁истина	15
▁Нико	15
▁независимости	15
▁решить	15
▁матч	15
▁собственными	15
▁премии	15
▁Аг	15
▁существовать	15
▁Libri	15
▁Правда	15
анда	15
▁авиа	15
быть	15
▁Trans	15
▁храма	15
▁завтра	15
▁положить	15
▁славе	15
▁существуют	15
▁фон	15
рта	15
ницы	15
▁принят	15
ийских	15
▁печаль	15
▁созна	15
▁казни	15
▁момента	15
емая	15
▁позиция	15
▁деятельности	15
▁распространен	15
▁автономн	15
▁голосов	15
▁одобрен	15
▁депутат	15
▁утверждал	15
▁ново	15
▁точки	15
▁изменить	15
веции	15
▁Дании	15
▁стрем	15
▁уничтожить	15
глядеть	15
анский	15
ческого	15
▁Почти	15
ирования	15
▁управля	15
▁Учитель	15
▁музыкальн	15
OR	15
▁появляется	15
▁типа	15
▁восстание	15
▁ООН	15
▁проекта	15
▁Сид	15
▁принцип	15
▁газет	15
▁мм	15
▁службы	15
▁согласия	15
▁веры	15
▁полю	15
даны	15
▁систему	15
▁остро	15
ологически	15
▁двигаться	15
▁эксперимент	15
таб	15
▁третьей	15
▁учен	15
▁предо	15
▁Премьер	15
▁рег	15
▁отцов	15
станут	15
▁итог	15
телям	15
▁веков	15
▁астероид	15
праздн	15
уют	15
▁турнир	15
оло	15
▁пределами	15
▁Америки	15
▁центре	15
▁повторил	15
▁отношение	15
▁утеш	15
▁собак	15
▁производства	15
▁событие	15
тряс	15
▁замечательн	15
тической	15
▁дальнейши	15
▁даёт	15
▁Россия	15
▁приняти	15
▁марк	15
ьных	15
▁опер	15
▁наказание	15
▁Лин	15
▁студентов	15
▁Catholica	15
▁Эн	15
▁собрались	15
▁Кот	15
▁обще	15
▁научно	15
▁основание	15
▁конституци	15
казались	15
▁подлинно	15
▁роз	15
яя	15
▁спасти	15
▁Велик	15
▁Char	15
шоу	15
ющийся	15
▁льв	15
rd	15
▁произведения	15
▁alta	15
▁замуж	15
▁Против	15
▁мал	15
▁бур	15
▁приняла	15
▁обед	15
▁победить	15
▁скажите	15
▁див	15
ческий	15
есной	15
▁Канад	15
Di	15
ä	15
▁посылает	15
▁приём	15
▁составе	15
▁Лондоне	15
▁достояние	15
вшейся	15
▁признать	15
▁Sex	15
мышлен	15
▁построить	15
▁четырёх	15
▁зверя	15
▁сезона	15
▁приказа	15
▁человеческое	15
▁соседни	15
è	15
▁городской	15
▁сдались	15
▁дому	15
▁немногие	15
▁Виктор	15
ступать	15
аш	15
ерш	15
ball	15
дя	15
▁природу	15
▁пошла	15
▁хозяина	15
▁получают	15
▁потеряли	15
▁уверены	15
▁происхождения	15
▁друзьями	15
▁подня	15
▁баз	15
▁привыкли	15
▁Сдела	15
BC	15
давались	15
▁свободным	15
▁Глав	15
▁XI	15
леб	15
▁создает	15
▁инструмент	15
▁сопротивления	15
▁употребля	15
падут	15
▁зрения	15
▁посмотри	15
▁детям	15
▁Лев	15
▁теории	15
▁командой	15
▁сход	15
дали	15
▁разума	15
▁явились	15
▁расстояние	15
▁печали	15
цер	15
▁пригласил	15
▁нападение	15
▁оценива	15
анцы	15
nna	15
pus	15
▁Libr	15
▁проклят	15
▁мудр	15
плыв	15
▁предприятия	15
значительную	15
▁приказом	15
▁грамматик	15
▁обычного	15
▁Amor	15
▁отступили	15
стоит	15
▁понес	15
▁написать	15
глоточны	15
▁градус	15
▁меча	15
шат	15
▁приказано	15
боль	15
▁Дин	15
▁расчет	15
▁Бор	15
▁широки	15
▁цикл	15
▁dialect	15
▁присутству	15
▁покинуть	15
▁учил	15
▁чьей	15
▁скуп	15
нной	15
▁Seg	15
▁Proc	15
▁претор	15
▁видят	15
▁взят	15
▁прочно	15
▁Ир	15
▁Fe	15
▁ожидания	15
▁гроз	15
▁нигде	15
▁человеческой	15
▁ценой	15
▁жертву	15
пустить	15
▁Галлия	15
▁подража	15
шись	15
▁войску	15
▁domestica	15
▁Henricu	15
▁удалился	15
▁коз	15
nger	15
▁продолжение	15
▁небом	15
▁Sel	15
▁оставались	15
▁Servi	15
▁постоя	15
▁фараонов	15
▁сда	15
нять	15
▁достигли	15
fe	15
▁понимаю	15
minis	15
▁велико	15
▁славой	15
▁несчастный	15
▁Vari	15
▁чести	15
▁становя	15
▁таковы	15
▁morti	15
▁случаю	15
▁хорош	15
▁перенес	15
▁мужи	15
▁добрый	15
пускать	15
▁воины	15
▁доказательство	15
▁излишне	15
два	15
▁черед	15
▁близких	15
if	15
▁обман	15
▁смогу	15
ничто	15
▁Mani	15
▁Rai	15
▁месту	15
ben	15
▁разницы	15
▁video	15
▁Флакк	15
▁дары	15
▁высокие	15
care	15
▁охраны	15
▁лесах	15
ration	15
▁tang	15
▁многого	15
inter	15
▁носить	15
▁преследовать	15
▁ширин	15
▁похорон	15
▁центурионов	15
▁храбры	15
▁белловаков	15
▁недалеко	15
▁галльско	15
▁Своим	15
▁сует	15
▁Какая	15
дошел	15
▁гада	15
▁постиг	15
▁чтоб	15
▁пестр	15
▁рабу	15
▁человеческим	15
▁материи	15
▁нарекл	15
▁племя	15
▁Лота	15
▁шатер	15
▁Авимелех	15
▁Исава	15
▁благодеяние	15
▁украшения	15
▁отнимает	15
▁Родан	15
▁Думнориг	15
▁битуригов	15
▁сражались	15
▁напор	15
▁Сабин	15
▁добычей	15
▁начальника	15
▁Амбиорига	15
▁пери	15
▁пороков	15
▁невежд	15
currit	15
▁пойдите	15
▁Вениамин	15
▁Ирод	15
подъязычн	15
▁actor	15
▁quindecim	15
▁artium	15
▁matrimonio	15
▁formas	15
▁avi	15
▁audiunt	15
▁meliora	15
▁Norvegia	15
▁refertur	15
▁impress	15
posuerunt	15
anae	15
▁iustum	15
▁Portu	15
▁Britannicum	15
eundum	15
▁importa	15
▁efficit	15
scitur	15
▁Helvetios	15
▁Divi	15
▁iurisconsultus	15
▁creati	15
▁viator	15
▁Erant	15
▁administer	15
▁praeceptum	15
▁argumenta	15
▁administrativa	15
▁somni	15
▁titulus	15
▁relicta	15
▁universitate	15
▁Schola	15
▁incidit	15
▁imperatore	15
▁Simul	15
alendi	15
▁ceperunt	15
▁sin	15
▁Bene	15
▁fe	15
▁legere	15
▁Hava	15
▁pueris	15
▁maiorum	15
▁Papa	15
▁solvit	15
▁supplicium	15
Italiane	15
▁vocabul	15
ortasse	15
▁Concili	15
vocavit	15
▁bibere	15
▁Socialis	15
▁Democratica	15
▁talem	15
scunt	15
▁fundamenta	15
▁quaestiones	15
▁titulum	15
▁Graecia	15
▁differentia	15
▁religio	15
▁diversis	15
▁ortus	15
▁successu	15
▁stude	15
▁Puta	15
▁appellatus	15
missus	15
▁relinquere	15
▁locuti	15
▁sinistra	15
▁invenerunt	15
▁Praecipu	15
▁Milites	15
▁civili	15
▁gradu	15
▁emit	15
▁imprimi	15
▁Hungaria	15
▁regimin	15
▁Lipsiae	15
▁conci	15
ivum	15
▁petivit	15
▁hebdoma	15
▁litore	15
▁gens	15
xerunt	15
▁Societate	15
▁divorti	15
▁televisifica	15
▁Philippus	15
▁Camera	15
▁scientifica	15
▁timorem	15
cun	15
▁nominibus	15
▁pronuntia	15
▁cane	15
▁adhib	15
aret	15
▁praemiis	15
▁comita	15
▁continenti	15
omalia	15
gas	15
▁sepultus	15
▁interfecto	15
▁tempera	15
▁conditum	15
▁librorum	15
▁traditur	15
▁cadit	15
▁cenam	15
▁aliquos	15
▁dissoluta	15
▁duxerunt	15
▁quendam	15
▁praedi	15
▁solo	15
▁plurimi	15
idum	15
▁mercator	15
▁voluntas	15
sic	15
▁syn	15
▁mutat	15
▁aequum	15
▁alto	15
▁massa	15
▁principale	15
▁indicia	15
▁Viri	15
▁liberorum	15
ssimis	15
▁felix	15
▁Mut	15
▁operum	15
▁sustenta	15
▁ordinibus	15
▁condicionem	15
▁iri	15
▁invitus	15
issimam	15
▁sequenti	15
▁grammatic	15
▁furor	15
▁Historiae	15
▁pot	15
▁ventur	15
▁Pompeio	15
▁Gradu	15
▁expertus	15
▁priore	15
▁compon	15
▁perfectum	15
gna	15
▁amare	15
▁eli	15
▁pronuntiat	15
▁deesse	15
ebam	15
▁mons	15
▁patet	15
▁proponit	15
▁copiarum	15
▁maturi	15
▁Lutetia	15
▁cibum	15
▁crescere	15
▁horam	15
▁gentem	15
▁principum	15
▁terris	15
▁felicitatem	15
▁coepi	15
▁reliquae	15
▁fructu	15
▁quaerere	15
▁vesper	15
▁ducere	15
▁pulvere	15
▁pericula	15
▁effugere	15
▁specula	15
▁mulierem	15
▁mitte	15
umen	15
ribus	15
▁priores	15
▁videbantur	15
endis	15
▁amissis	15
▁arcu	15
▁totidem	15
▁praeceptis	15
▁expedit	15
▁perire	15
▁conloca	15
vola	15
▁inferiore	15
▁tecta	15
▁confecto	15
▁iube	15
▁cognoverat	15
▁ostendere	15
▁usui	15
▁visu	15
▁cave	15
▁dicant	15
▁discedere	15
▁pedem	15
▁deponere	15
gis	15
▁puteum	15
▁dextera	15
▁arbitratus	15
▁dignitatem	15
▁gloriae	15
▁intervallo	15
▁tecto	15
▁ferrum	15
▁pectore	15
▁exitus	15
▁syllaba	15
▁recipiunt	15
isdem	15
▁aditus	15
▁urbium	15
▁onera	15
▁vaga	15
▁praesidium	15
▁delectat	15
▁nequitia	15
surgens	15
▁secuti	15
▁misera	15
▁Haeduos	15
▁Sequanis	15
▁reduxit	15
▁levis	15
▁Hostes	15
▁bellis	15
▁paulisper	15
▁mortalium	15
▁essem	15
▁dilig	15
▁erubesc	15
▁dedisti	15
▁ignem	15
▁iugum	15
▁ui	15
▁loquar	15
▁plenus	15
▁nuntiis	15
▁diximus	15
▁consumma	15
▁dicitis	15
▁admone	15
beris	15
arcam	15
▁Pharao	15
▁possessionem	15
▁obvia	15
▁debeo	15
▁calamitate	15
mitto	15
▁prudentia	15
▁voles	15
▁cohorta	15
▁gravius	15
▁Helvetiorum	15
▁existimabant	15
▁Arvernis	15
▁Carnutes	15
▁detine	15
▁dimittere	15
▁Aedui	15
▁salutare	15
▁existimo	15
▁veniet	15
▁vae	15
▁Van	14
▁вера	14
теп	14
▁Автор	14
▁записи	14
▁истощ	14
▁будете	14
▁мальчика	14
▁Свет	14
▁использование	14
тав	14
ались	14
▁сентябре	14
▁справедливо	14
▁промышленн	14
▁обеспечен	14
▁Paris	14
▁l	14
▁пришёл	14
▁конечном	14
▁представляет	14
▁Большой	14
Это	14
▁общий	14
▁глав	14
olo	14
▁происходило	14
▁привез	14
ключён	14
▁Hinc	14
▁земель	14
▁выбрали	14
▁формальн	14
данной	14
кка	14
▁тиран	14
▁встречается	14
▁Сборн	14
владеть	14
▁Сара	14
▁повышени	14
▁нарко	14
▁Италия	14
▁немецки	14
▁Друг	14
▁проконсула	14
▁нужна	14
▁новая	14
▁науч	14
▁получать	14
▁Всемирн	14
щиеся	14
▁государственных	14
▁сообщение	14
▁Причин	14
▁побег	14
▁Надо	14
▁правительства	14
▁юности	14
▁строк	14
▁y	14
▁международно	14
▁полагал	14
▁прошло	14
▁Роман	14
▁Мел	14
▁завершил	14
илось	14
▁внимания	14
▁сообщает	14
▁косм	14
hr	14
▁называть	14
▁доступны	14
сенью	14
▁экономическо	14
▁звезда	14
пускает	14
▁прошла	14
▁поэта	14
▁папа	14
▁лошади	14
дание	14
▁Virginia	14
▁мечта	14
▁думали	14
▁объявлено	14
вшую	14
▁Atlantic	14
▁астероидов	14
▁многом	14
▁Мать	14
▁отставку	14
▁блок	14
▁голове	14
родной	14
▁ушёл	14
▁будущего	14
▁названия	14
▁спросили	14
▁различные	14
там	14
▁Рад	14
▁Стал	14
▁ежегодно	14
▁неудач	14
▁умерла	14
ование	14
▁Tru	14
▁Обще	14
▁Ур	14
Ma	14
▁Marin	14
▁Species	14
▁Ду	14
▁пункта	14
▁изменя	14
▁размера	14
▁обычай	14
▁ряд	14
▁Берлин	14
евая	14
елли	14
Петербург	14
мана	14
▁Фил	14
▁прекратил	14
▁инженер	14
ену	14
▁поступки	14
▁борьбы	14
▁массы	14
▁форм	14
рот	14
▁исполня	14
▁поступил	14
▁пятый	14
▁теряет	14
▁Теле	14
оров	14
▁вызов	14
▁War	14
▁рекой	14
▁ограничен	14
▁подобное	14
▁Роберт	14
мото	14
▁бор	14
▁замет	14
▁друзьям	14
▁получен	14
▁феврале	14
▁Ste	14
чел	14
▁избрал	14
▁литературы	14
▁старым	14
▁Император	14
▁Главны	14
ern	14
â	14
▁агент	14
▁Нельзя	14
▁сыном	14
берг	14
▁Мен	14
▁лидер	14
тика	14
▁отзыв	14
ставив	14
▁утро	14
▁Зенон	14
▁посетил	14
▁linguarum	14
▁Франко	14
▁осмелива	14
▁Земля	14
▁глас	14
▁социальны	14
▁душ	14
▁Мисс	14
ерия	14
▁рождении	14
▁отмен	14
▁Бельгии	14
▁готовить	14
▁Mungo	14
▁Начина	14
▁восстановил	14
▁полагаю	14
ö	14
▁неделю	14
▁создана	14
▁миллиона	14
▁остан	14
ься	14
пресс	14
▁уста	14
▁планеты	14
числен	14
▁поток	14
льский	14
▁образован	14
▁меха	14
▁замен	14
▁жертвы	14
▁принесли	14
▁направлении	14
▁верны	14
▁Лук	14
▁создава	14
▁виды	14
▁Pont	14
mann	14
▁дым	14
▁крепость	14
▁физик	14
▁охот	14
▁собирают	14
▁закричал	14
▁школа	14
▁вывели	14
▁Smith	14
▁помощник	14
▁лиц	14
▁доказательства	14
нтин	14
оном	14
▁актёр	14
ek	14
тюр	14
▁золото	14
▁копи	14
нуты	14
▁стихов	14
▁Бес	14
жные	14
▁командир	14
▁Кам	14
▁необходимые	14
▁фото	14
▁Кре	14
▁заложники	14
▁волос	14
▁Пир	14
▁носил	14
▁illustri	14
▁родились	14
чок	14
▁Catilina	14
▁Poly	14
уса	14
▁стражи	14
▁стреля	14
▁Unit	14
▁старше	14
▁расста	14
▁всеобще	14
▁клятву	14
▁казнь	14
▁Известны	14
▁иные	14
ющаяся	14
рога	14
▁Лор	14
ступлении	14
▁популярны	14
▁Flor	14
▁остава	14
▁борьбу	14
оенную	14
▁кость	14
терпе	14
▁трудности	14
▁пророков	14
▁частные	14
▁Rube	14
▁Philosophia	14
▁царство	14
фон	14
▁бежит	14
▁желали	14
▁Adult	14
▁сведениям	14
▁minu	14
▁позна	14
▁Сала	14
▁Consilium	14
▁представил	14
▁похвалы	14
▁чувство	14
▁пир	14
▁определен	14
▁вооруженных	14
▁невероятно	14
▁вниз	14
▁уча	14
▁Fest	14
▁posterior	14
▁Theatr	14
▁обмен	14
▁mag	14
▁отступить	14
▁доход	14
▁правом	14
▁строги	14
▁страда	14
▁пятнадцать	14
▁каков	14
▁Каким	14
▁Bern	14
No	14
нести	14
▁осады	14
▁Croatia	14
▁существ	14
▁situ	14
▁меньший	14
▁линию	14
▁Фабия	14
▁прибавил	14
▁ночам	14
▁высокой	14
▁армия	14
▁простира	14
▁усадьбы	14
▁молился	14
▁человеческую	14
▁глубины	14
бож	14
▁топ	14
▁Alexander	14
онов	14
▁важным	14
▁боюсь	14
▁делаешь	14
▁триста	14
▁постели	14
DG	14
▁Scientiarum	14
▁известным	14
▁стоять	14
▁Испанию	14
▁скал	14
▁цари	14
▁берегов	14
▁полей	14
▁рядов	14
▁окажется	14
лил	14
▁случиться	14
▁обраща	14
▁Alfred	14
▁двум	14
▁желательно	14
▁задерживать	14
▁польза	14
▁тяжелее	14
▁Платон	14
▁Tri	14
▁раны	14
▁огромным	14
▁ведет	14
▁Bor	14
▁исполнить	14
▁провинциях	14
▁рассе	14
▁Forum	14
ega	14
▁приносил	14
▁владе	14
лярный	14
▁пользуясь	14
икул	14
ocr	14
▁мягко	14
▁Tar	14
▁постановления	14
▁altius	14
▁Fund	14
rer	14
▁Loc	14
▁верховн	14
▁скрыты	14
нув	14
▁ordinarius	14
▁несет	14
chol	14
▁главное	14
▁предварительно	14
▁Imp	14
▁million	14
long	14
▁militiae	14
▁глупо	14
lab	14
▁авторитет	14
▁Mater	14
▁infinita	14
▁подняли	14
▁кораблями	14
▁Thar	14
▁Hitler	14
нью	14
▁поднима	14
▁соединен	14
▁повода	14
дадут	14
▁переправ	14
▁известие	14
▁коннице	14
▁селения	14
▁Горе	14
▁ничтожно	14
ложу	14
▁скорби	14
▁доколе	14
▁Твоем	14
▁блаженна	14
▁привычка	14
▁собраться	14
▁отрадно	14
▁найдется	14
▁вслед	14
▁землей	14
▁принесет	14
▁увидит	14
▁судит	14
▁казал	14
▁пойди	14
▁золотом	14
▁господину	14
▁пойду	14
▁надежно	14
▁распределил	14
▁календ	14
▁спасся	14
▁считаешь	14
▁честного	14
▁изнежен	14
▁общину	14
▁общинам	14
▁выступить	14
▁начальник	14
▁когортами	14
▁болота	14
▁гавани	14
▁побежден	14
▁Литавикк	14
▁Аттал	14
▁достается	14
▁благодеянье	14
▁Cant	14
▁Vasingtoniae	14
Nondum	14
▁cornu	14
▁debes	14
tr	14
▁servare	14
▁Internationalis	14
▁viae	14
▁excepit	14
▁popularis	14
▁honora	14
▁cresc	14
▁Illo	14
▁participavit	14
▁permittit	14
▁difficultates	14
▁constituunt	14
▁Navi	14
▁colonias	14
▁loquuntur	14
▁vicis	14
▁statio	14
▁Tale	14
▁voluntaria	14
▁consulto	14
▁adversario	14
▁visitavit	14
▁reserva	14
▁natum	14
titudo	14
▁educatione	14
▁collect	14
▁Var	14
▁Russici	14
▁Marcus	14
▁unica	14
▁Estonia	14
▁internationalis	14
▁parati	14
▁saecula	14
▁Eum	14
▁musicum	14
▁qu	14
del	14
▁municipali	14
▁Civ	14
▁arbores	14
bel	14
▁adopta	14
▁sedet	14
▁Electione	14
▁commuta	14
▁Britannicae	14
alibus	14
▁montes	14
▁rapi	14
▁credis	14
▁capita	14
▁Maio	14
oniae	14
▁Ucraina	14
tudine	14
▁Guinea	14
▁editum	14
▁astronomi	14
▁Galba	14
Consilii	14
▁mm	14
Qui	14
sidere	14
▁famam	14
▁condidit	14
▁Paulo	14
mittuntur	14
▁notiones	14
▁difficili	14
▁humano	14
▁fabulae	14
▁publicavit	14
▁Unus	14
▁Foeder	14
▁amorem	14
▁familias	14
▁cotidian	14
▁Ambo	14
▁universitatis	14
ihi	14
▁substitu	14
▁fiduciam	14
▁successor	14
▁iusto	14
▁ferri	14
▁pra	14
▁circuitu	14
▁regnavit	14
anni	14
▁ton	14
▁Epistula	14
▁Ucraini	14
ades	14
▁iratus	14
▁Regni	14
▁Via	14
▁senatui	14
llenses	14
▁cogitat	14
▁institutum	14
▁redire	14
▁age	14
▁zona	14
▁magistri	14
ulae	14
▁pastores	14
ando	14
▁periculis	14
▁orbital	14
▁rationes	14
▁facilis	14
▁rub	14
▁flor	14
▁sustin	14
didit	14
▁commercii	14
▁secutus	14
▁remane	14
▁Ludi	14
tuli	14
▁Graeci	14
▁exaudi	14
▁Londini	14
▁aeger	14
▁parvo	14
▁expugnaverunt	14
▁minora	14
▁victores	14
andum	14
▁laborant	14
▁spolia	14
▁utrimque	14
▁Unum	14
quis	14
vectus	14
▁molestia	14
▁dignitatis	14
▁Cato	14
▁folia	14
▁lit	14
▁plurima	14
▁arbitrium	14
▁abest	14
▁Lebedev	14
▁lib	14
▁nominavit	14
▁Oxoniae	14
▁evocat	14
▁scribit	14
▁feminis	14
▁aiunt	14
▁substantiam	14
▁praetor	14
▁Ioannis	14
▁superiores	14
▁motum	14
▁mandat	14
▁parem	14
len	14
▁element	14
▁parti	14
▁intrare	14
▁express	14
stans	14
▁revocat	14
▁convocat	14
▁aestimat	14
▁qualem	14
▁longitudinem	14
▁bonae	14
duxerat	14
▁Foederatis	14
▁operari	14
▁propriam	14
▁singulas	14
▁Antoni	14
▁instru	14
▁adventum	14
▁factis	14
▁exigua	14
▁flav	14
▁specta	14
▁mediam	14
▁relinque	14
posuit	14
▁pugnandi	14
▁laborare	14
▁cras	14
▁simus	14
▁animalium	14
▁Sine	14
▁valere	14
▁cer	14
▁veritate	14
▁veteres	14
▁lati	14
cius	14
▁septimo	14
▁possessor	14
enon	14
▁silvae	14
▁simplex	14
▁militiam	14
▁vaca	14
▁orbe	14
▁confiteor	14
▁mercatores	14
▁suus	14
▁tarda	14
▁cela	14
▁ignis	14
▁sententiae	14
▁nu	14
▁solita	14
▁secretum	14
▁Marcelli	14
▁castellum	14
▁raro	14
▁invid	14
▁iniquo	14
▁evoca	14
▁lacte	14
▁orare	14
▁vestis	14
▁divitiis	14
▁munitionibus	14
▁nuntiatum	14
▁adf	14
▁effund	14
▁octoginta	14
▁coacta	14
▁plenum	14
▁nusquam	14
▁incommodo	14
▁difficultate	14
▁reddere	14
▁augur	14
cedant	14
▁domos	14
▁genero	14
▁universis	14
▁strepitu	14
▁potentia	14
▁existima	14
▁fate	14
▁generation	14
▁patitur	14
▁tradi	14
▁utero	14
▁porrig	14
▁recto	14
▁repentino	14
▁vo	14
uerint	14
▁pervenerunt	14
▁Quint	14
▁eici	14
verint	14
▁cupiditate	14
▁offend	14
▁amissa	14
▁Avaric	14
▁laus	14
▁destina	14
▁expedi	14
▁frumentariae	14
▁suspicionem	14
▁Haeduis	14
▁oppugnare	14
▁veritus	14
▁equitatumque	14
▁Haeduorum	14
▁resistere	14
▁fortissime	14
▁geruntur	14
▁suspica	14
▁percuti	14
▁carissim	14
▁tenebrae	14
▁tantae	14
▁parere	14
▁aduersu	14
▁pollice	14
▁ipsas	14
▁occulto	14
▁obsecro	14
▁uis	14
▁istae	14
▁longior	14
▁aquarum	14
▁beatam	14
▁malitia	14
▁pecora	14
▁benedixit	14
▁maledict	14
▁circumcid	14
▁camelo	14
▁convenisse	14
▁gladiis	14
▁ducibus	14
▁adduci	14
▁profici	14
▁consule	14
▁lectica	14
▁iniurias	14
▁animadverter	14
▁cohortatus	14
▁tormentis	14
▁contione	14
▁Litavicc	14
▁adducit	14
▁nauibus	14
▁habitum	14
▁ingenia	14
▁adici	14
▁scribis	14
▁turbae	14
▁munda	14
▁Pharisaei	14
▁прочесть	13
▁Мус	13
везли	13
▁определённы	13
▁сообщили	13
▁Этого	13
деля	13
▁играл	13
▁поставлен	13
▁единиц	13
▁опубликовал	13
▁завод	13
▁составлял	13
▁Science	13
Всё	13
▁зимы	13
▁одет	13
▁погибло	13
wn	13
То	13
▁бежали	13
▁районе	13
▁отдельно	13
▁прогулк	13
▁Дан	13
▁даю	13
▁утрачен	13
выше	13
▁внутренне	13
шем	13
▁основал	13
▁колонии	13
▁Погиб	13
▁американц	13
▁заключается	13
▁следующем	13
▁спешит	13
▁съём	13
▁всём	13
▁пророка	13
▁расположены	13
▁проблем	13
▁Основны	13
▁длин	13
▁трижды	13
▁Пит	13
хор	13
▁огромные	13
▁назов	13
▁Известно	13
▁каковы	13
▁поддержке	13
вр	13
▁уп	13
▁стойко	13
▁неизвестны	13
▁ноябре	13
счёт	13
▁Cer	13
▁звезд	13
▁строить	13
▁Human	13
▁Само	13
▁законом	13
▁занимает	13
▁сделают	13
бирают	13
▁продвину	13
ance	13
▁суше	13
▁надпись	13
▁финансово	13
экономическ	13
▁Константин	13
▁доказать	13
▁обстановк	13
▁Кат	13
▁оснований	13
носят	13
▁похоже	13
▁Initi	13
▁изречение	13
▁управления	13
▁вопросов	13
▁коммунист	13
оставляло	13
▁Красно	13
▁политически	13
тать	13
альное	13
▁иностранны	13
ехал	13
▁Котор	13
▁труды	13
▁исследован	13
▁Guardian	13
▁настойчиво	13
тип	13
▁Mars	13
▁квартир	13
▁региона	13
ивать	13
▁легатом	13
▁удержива	13
▁Альберт	13
▁врача	13
▁шла	13
▁владеет	13
▁журнала	13
▁мили	13
▁разда	13
пул	13
▁объясн	13
рви	13
▁участников	13
▁высказал	13
▁жертв	13
▁ката	13
▁переста	13
▁изменил	13
▁наказания	13
▁посвящен	13
▁пользовался	13
▁успехом	13
▁военный	13
▁пятью	13
▁расположение	13
▁живот	13
▁признание	13
▁Британско	13
▁полос	13
▁звёзд	13
IA	13
▁рейтинг	13
государственного	13
чего	13
▁историю	13
▁следствие	13
▁лесу	13
▁непосредственно	13
▁сестры	13
▁сыграл	13
тва	13
▁непро	13
▁деяния	13
гран	13
▁образа	13
ология	13
▁опера	13
▁малых	13
▁Римско	13
▁скуч	13
▁монарх	13
▁триумф	13
▁писем	13
▁переговоров	13
IN	13
▁Пра	13
▁поможет	13
▁Гомер	13
▁собра	13
▁слабы	13
рование	13
▁Семь	13
ступить	13
▁важных	13
▁ответа	13
▁Life	13
▁произойти	13
▁статуи	13
▁декабре	13
остоит	13
▁мул	13
▁выступал	13
▁дуб	13
▁простой	13
▁Министерств	13
▁природны	13
▁использу	13
▁популярно	13
ония	13
mont	13
▁Ближне	13
▁марте	13
▁силе	13
▁пришло	13
▁платить	13
▁исп	13
Во	13
▁Сына	13
благо	13
дёт	13
▁дворе	13
▁Май	13
▁рож	13
енци	13
чной	13
▁присутствовал	13
▁обеда	13
слушай	13
▁названы	13
▁Тро	13
▁сразиться	13
▁уверенность	13
TA	13
держав	13
стати	13
енность	13
▁началу	13
ительно	13
тти	13
▁пес	13
▁программы	13
▁proprio	13
▁Domus	13
▁небе	13
▁Тру	13
▁заслугам	13
▁решает	13
▁Писа	13
▁тип	13
тые	13
▁открытое	13
▁придут	13
ложения	13
ящий	13
▁рабочих	13
ful	13
▁указ	13
▁мужем	13
▁устроить	13
▁наружу	13
▁заговор	13
▁короля	13
▁Hall	13
поминает	13
▁Arabi	13
▁мат	13
▁способом	13
▁казаться	13
▁любы	13
▁условия	13
▁спасения	13
▁больных	13
кова	13
нными	13
▁такому	13
▁Вел	13
▁пап	13
▁превраща	13
▁Испания	13
berg	13
▁прожил	13
▁толка	13
▁вторг	13
ступали	13
▁горожане	13
▁возвращаются	13
▁natu	13
▁закону	13
▁кара	13
▁согласился	13
роп	13
▁клиент	13
▁данных	13
▁Australian	13
▁Gar	13
▁делом	13
ало	13
▁Родился	13
▁сопровождени	13
▁атаку	13
▁Ху	13
▁учрежден	13
▁организован	13
▁Гальба	13
▁привлека	13
▁XIV	13
дают	13
люд	13
▁Ели	13
▁свободной	13
▁качества	13
▁срока	13
ведя	13
▁сети	13
ioni	13
гит	13
▁величав	13
▁наблюдения	13
▁далеки	13
▁аппарат	13
▁пожела	13
жет	13
▁западн	13
▁Мало	13
▁голуб	13
▁питает	13
▁Сирии	13
▁ужин	13
▁наруша	13
арка	13
аст	13
▁требовали	13
▁большего	13
▁Fantasy	13
▁муч	13
▁удаётся	13
▁остаются	13
сам	13
▁штата	13
▁Pag	13
▁Консулы	13
ойдут	13
▁законов	13
▁роста	13
▁ложь	13
▁следовать	13
▁СМИ	13
zy	13
▁глубок	13
▁отвечали	13
▁возвращении	13
▁следующ	13
▁тридцати	13
▁правление	13
йцы	13
▁монет	13
▁Гол	13
▁гражданско	13
нат	13
▁близким	13
йдут	13
▁задни	13
▁вожделен	13
▁Propri	13
▁сос	13
ведут	13
ющимся	13
▁Ари	13
#	13
▁распространи	13
▁страхе	13
▁помогать	13
▁существование	13
nat	13
▁сидел	13
▁смотрел	13
▁свободных	13
▁домога	13
▁Христос	13
▁записан	13
▁Lege	13
ивший	13
учить	13
▁битвы	13
▁край	13
▁восхища	13
▁будущи	13
▁боялись	13
▁попада	13
тность	13
▁намного	13
DU	13
▁атаки	13
▁влиятельны	13
▁угод	13
▁свыше	13
▁mod	13
▁похода	13
▁потерять	13
разному	13
▁освободить	13
▁удивля	13
▁потерь	13
▁pol	13
вшееся	13
▁Какой	13
никам	13
▁секрет	13
▁получит	13
меняется	13
▁удивительно	13
▁слабость	13
▁сильна	13
▁Dol	13
▁разослал	13
пом	13
▁желаю	13
▁германски	13
▁отвеча	13
▁покров	13
▁требуется	13
▁безумие	13
▁sat	13
▁нападать	13
▁прерыва	13
▁Ora	13
▁крепости	13
▁несчастья	13
подобные	13
▁награды	13
▁свидетельство	13
▁славны	13
▁походе	13
▁бури	13
▁баб	13
▁уступил	13
▁считаю	13
▁общих	13
давая	13
▁соблазн	13
▁победил	13
ianum	13
клонился	13
ania	13
кую	13
fra	13
▁братьями	13
▁Para	13
▁мудрым	13
▁буря	13
▁радоваться	13
▁избавил	13
▁itur	13
▁слуг	13
▁повелел	13
▁сделала	13
▁tax	13
▁субботу	13
▁побеждает	13
▁мудрецу	13
ливость	13
▁подчиня	13
▁вед	13
▁Iulia	13
▁театре	13
▁Rex	13
▁уступ	13
▁избав	13
ē	13
▁полезны	13
▁обратил	13
ima	13
▁natali	13
▁Секст	13
▁войске	13
▁зрелище	13
consul	13
lon	13
▁консульства	13
▁Всякий	13
▁воль	13
▁Fama	13
▁Cla	13
▁суждения	13
▁Fine	13
hem	13
nde	13
▁вещам	13
▁старались	13
евидны	13
▁непр	13
▁XXX	13
▁Frater	13
▁Своих	13
▁трепет	13
▁внезапн	13
▁растет	13
▁возрасту	13
довольствоваться	13
▁потеряв	13
▁Bel	13
▁простор	13
▁пот	13
▁Alter	13
▁tr	13
▁зов	13
▁Гн	13
▁коней	13
▁конны	13
▁вывел	13
▁свебов	13
▁отечества	13
▁полезным	13
▁некогда	13
▁легатам	13
▁остальным	13
▁колесниц	13
▁плакал	13
▁тягостн	13
▁мужей	13
▁мыслей	13
▁доставил	13
▁колен	13
▁склон	13
▁добрые	13
▁бесформенн	13
▁Моисей	13
▁некое	13
▁внушил	13
казываю	13
▁множества	13
▁душою	13
веди	13
▁мужеск	13
▁небесные	13
▁Ханаан	13
▁твоими	13
▁итак	13
▁живи	13
▁поймешь	13
▁прислал	13
▁грудь	13
▁вознес	13
▁мечи	13
▁какими	13
▁копья	13
▁выдержива	13
▁белловаки	13
▁валом	13
▁беду	13
▁поодиночке	13
▁сенаторов	13
▁Волусен	13
▁эбуронов	13
▁Индутиомар	13
▁фуражиров	13
▁старейшин	13
▁Аварик	13
▁благу	13
▁придя	13
▁Катона	13
ставь	13
▁намеренье	13
шься	13
▁блаженство	13
▁признанье	13
затылочн	13
televis	13
aginta	13
▁infans	13
▁peccatum	13
▁nunquam	13
▁divisio	13
tabat	13
▁divisione	13
▁ludit	13
▁aeroplan	13
▁hieme	13
▁Finnia	13
▁Monaci	13
▁Varia	13
▁pellicul	13
▁Septentrionali	13
▁adiuvat	13
▁Aliae	13
▁politicam	13
▁Pugna	13
▁constituerunt	13
▁credit	13
▁eligere	13
▁discrimina	13
▁precibus	13
▁editor	13
▁societates	13
▁nationali	13
▁septuaginta	13
▁lucid	13
▁serie	13
▁vendere	13
▁Australiae	13
▁Aest	13
▁cad	13
▁futuri	13
▁Universitatis	13
ulenses	13
tenses	13
▁publici	13
▁Sovieticae	13
▁declaravit	13
▁miseri	13
▁libere	13
▁Uxor	13
▁constitui	13
▁parlamentari	13
▁noti	13
▁districtus	13
▁dividitur	13
▁maioris	13
▁Suecia	13
▁Graece	13
▁Sueciae	13
▁iniit	13
▁Aedifici	13
administrationis	13
▁ludus	13
endus	13
▁annus	13
▁Dominica	13
▁docebat	13
▁principia	13
▁supplicio	13
▁securitatis	13
▁asteroides	13
▁episcopali	13
▁renuntia	13
▁municipium	13
ates	13
dissent	13
Theodisce	13
▁event	13
▁sodales	13
▁eunt	13
▁promotu	13
▁verbi	13
▁appellant	13
▁describit	13
▁energia	13
▁disputatione	13
▁structura	13
nomen	13
▁conclus	13
▁sollicitudine	13
▁Praeses	13
▁democratia	13
centr	13
▁monumenta	13
▁architectura	13
▁acti	13
▁diari	13
▁emere	13
▁respondere	13
cedebat	13
missione	13
▁Asiam	13
nium	13
▁certam	13
▁Vexill	13
▁Fel	13
▁eduxit	13
▁fame	13
▁Vindobonae	13
sceret	13
▁consecutus	13
▁superat	13
▁Inspect	13
▁Aprili	13
▁liceat	13
▁tribunis	13
▁somn	13
▁Ianuario	13
▁erudi	13
tiam	13
▁actus	13
▁praebet	13
▁temporali	13
▁novimus	13
▁interficere	13
▁relega	13
▁officiis	13
▁studere	13
▁sedecim	13
▁Francic	13
▁ingenio	13
▁gregem	13
▁praefer	13
▁Decembri	13
▁Robertu	13
▁animadvertit	13
▁insulis	13
▁creditur	13
▁nationibus	13
▁ambulare	13
▁auri	13
▁effugit	13
antium	13
▁statistica	13
▁gregi	13
▁conati	13
▁imago	13
▁lusit	13
physica	13
▁Helv	13
▁servit	13
▁fru	13
▁Cuba	13
▁convert	13
▁operae	13
▁duode	13
▁sollicita	13
▁umbra	13
▁angu	13
▁Lacu	13
▁parentibus	13
▁potentiam	13
vero	13
▁redit	13
▁Iura	13
▁solida	13
▁alarum	13
▁minore	13
▁sociis	13
nici	13
enus	13
▁festa	13
▁Britannicus	13
▁consenti	13
▁alimenta	13
▁composita	13
▁intervall	13
▁hodierno	13
▁licuit	13
▁vet	13
▁orationis	13
dicis	13
▁vidente	13
▁occidente	13
▁desidera	13
▁turri	13
▁moderat	13
▁compositor	13
▁petunt	13
▁Oceanum	13
▁monasteri	13
▁venti	13
▁Australi	13
▁licentia	13
▁rur	13
▁Consili	13
ndem	13
▁negotii	13
colas	13
▁nox	13
▁ornamenta	13
▁amoris	13
▁duorum	13
▁curat	13
▁primos	13
▁possimus	13
▁eques	13
▁integri	13
eu	13
▁scientific	13
▁influit	13
▁Pharisae	13
▁Nostri	13
▁praebe	13
▁crevit	13
▁subter	13
iani	13
▁temperat	13
▁dixisse	13
▁credidit	13
▁reporta	13
▁septima	13
▁operi	13
▁meridiem	13
▁Syriae	13
▁immola	13
vum	13
▁convenerunt	13
▁hortatur	13
▁error	13
▁meridie	13
▁optimo	13
▁hodierna	13
▁tertiam	13
▁obici	13
▁contendere	13
▁herba	13
perit	13
ú	13
▁miserat	13
▁alioqui	13
▁victus	13
▁artibus	13
▁insuper	13
▁subiecta	13
▁distribuit	13
▁occurr	13
▁inimici	13
▁rector	13
▁tenebat	13
▁imperavit	13
▁adulescens	13
▁sensum	13
▁poenas	13
▁synagoga	13
▁dissimili	13
▁barbaros	13
▁fiebat	13
▁greg	13
▁bonos	13
▁ausus	13
▁quaeritur	13
▁paupertati	13
▁inimicus	13
▁invidiam	13
▁veter	13
▁nactus	13
▁constitutis	13
▁ferme	13
▁aeris	13
▁recede	13
ibusque	13
▁tempestate	13
currere	13
▁victoriae	13
▁pecca	13
▁artifex	13
▁boves	13
▁rap	13
▁gentis	13
▁deser	13
arentur	13
▁quique	13
▁Ephra	13
▁collis	13
▁existimavit	13
▁excita	13
▁redde	13
▁vultum	13
▁suarum	13
▁habe	13
▁vitiis	13
▁necessitate	13
▁suspicione	13
▁audito	13
▁forum	13
▁ortum	13
▁constantia	13
▁exple	13
▁argentum	13
▁quoad	13
▁nerv	13
▁ostendi	13
▁ingenti	13
▁centuriones	13
▁aditum	13
▁detrimento	13
▁commeatu	13
▁persuade	13
▁novissimo	13
▁existimarent	13
▁vicem	13
▁vestigi	13
▁opibus	13
▁nolo	13
▁transitur	13
▁pectus	13
▁inueni	13
▁grande	13
▁aeternum	13
incommutabiliter	13
▁contende	13
▁sperare	13
▁cognito	13
▁paupertatem	13
▁dicenti	13
▁cogitatio	13
▁benedictione	13
▁universae	13
▁primogenit	13
▁diluvi	13
▁audisset	13
▁iacere	13
▁adsum	13
▁exilium	13
▁incolumes	13
▁pute	13
▁nuntiata	13
▁plebem	13
▁citra	13
▁iniuriae	13
▁subduc	13
▁contenderunt	13
▁imperare	13
▁mittere	13
▁crebris	13
▁Treverorum	13
▁praedam	13
▁Vercingetorige	13
▁Caniniu	13
▁ceterum	13
▁volumus	13
▁Epicuri	13
▁debemus	13
▁voluptatibus	13
▁Iuda	13
ового	12
▁Мад	12
▁моем	12
awa	12
▁Над	12
▁высказыва	12
▁сказанное	12
рган	12
▁ведёт	12
▁браке	12
▁продолжать	12
▁опаса	12
▁ровно	12
▁недель	12
▁разрушен	12
▁мера	12
▁включает	12
даст	12
▁обнаружил	12
ines	12
▁бомб	12
▁меньшей	12
▁Mes	12
▁Стр	12
▁убедиться	12
▁присоедини	12
▁узнаю	12
▁игре	12
мусульман	12
▁совершить	12
▁Wiki	12
▁абсолютно	12
▁академии	12
▁Храм	12
▁животные	12
▁Год	12
винов	12
▁Франция	12
Pac	12
▁Одни	12
▁просят	12
▁собрания	12
▁Пап	12
▁заповед	12
▁мета	12
▁Дума	12
▁горд	12
▁дорож	12
▁июле	12
▁заст	12
▁частиц	12
ходим	12
▁знаете	12
▁Эстонии	12
▁Ради	12
пере	12
▁телевизионн	12
▁объяснить	12
▁фраз	12
▁споры	12
▁предложения	12
историческ	12
уда	12
▁верят	12
▁языки	12
▁придёт	12
деление	12
▁Королевск	12
▁сна	12
▁служ	12
▁брака	12
rt	12
▁Свобод	12
▁распространя	12
▁финал	12
▁годами	12
▁представление	12
▁Конечно	12
▁сфер	12
▁имевши	12
▁башня	12
▁образовали	12
▁легенд	12
▁разделен	12
▁надеюсь	12
▁Буду	12
броса	12
живает	12
ающим	12
▁безопасно	12
▁молодых	12
▁разговарива	12
▁поддержал	12
▁Иван	12
▁XIII	12
▁убийства	12
▁календар	12
ляет	12
Украин	12
▁свод	12
▁шатр	12
▁расти	12
▁Sant	12
▁провинций	12
▁адрес	12
▁Серия	12
▁важные	12
▁забыл	12
▁Совета	12
▁unita	12
раста	12
▁Marc	12
▁государственной	12
▁Рей	12
▁присвоен	12
▁парламентски	12
▁экономик	12
▁площади	12
движ	12
▁королевско	12
▁заявлял	12
▁христианско	12
▁сильные	12
▁Нидерланд	12
▁Турции	12
▁одержал	12
▁быстрее	12
▁делаю	12
▁Аргентин	12
▁чин	12
▁умирать	12
▁ходит	12
▁отрасл	12
▁комнат	12
▁жалоб	12
▁выбира	12
▁Сначала	12
▁Философи	12
▁епископ	12
▁ствол	12
▁Последний	12
▁последней	12
▁изобража	12
▁Союза	12
▁Ван	12
▁страница	12
▁Lauda	12
▁картины	12
▁вывести	12
защит	12
▁капитан	12
▁развитие	12
▁упоминается	12
▁концерт	12
▁прекрасны	12
щение	12
нтер	12
▁Бур	12
▁Томас	12
▁лев	12
▁рассказ	12
▁объём	12
льность	12
▁железа	12
▁многочисленные	12
▁Время	12
▁болезней	12
▁опыт	12
▁Либер	12
▁снялся	12
▁спастись	12
Equu	12
▁Мас	12
▁выполнить	12
▁необходимым	12
▁серьёзно	12
▁домов	12
▁House	12
▁Франк	12
▁войн	12
брет	12
вшими	12
▁высоким	12
▁указан	12
▁сравнительно	12
ума	12
▁представителей	12
▁ученики	12
▁выиграл	12
▁неоднократно	12
▁повредил	12
▁опасаясь	12
▁озера	12
▁цепи	12
▁признал	12
▁охотник	12
▁рассказать	12
▁рок	12
▁обязаны	12
▁деревне	12
▁ошибки	12
▁Великий	12
▁Ник	12
▁Robert	12
▁открытия	12
▁Natural	12
▁учения	12
▁колонны	12
▁первоначально	12
▁разделя	12
уя	12
ериал	12
▁проблема	12
▁возвращения	12
▁границы	12
▁Точно	12
▁шагов	12
▁Дэвид	12
личаются	12
▁бороться	12
▁Los	12
цки	12
▁литератур	12
▁восьми	12
▁дорогой	12
▁Fi	12
▁небольшим	12
▁климат	12
▁опасностей	12
исследовательск	12
адки	12
▁музыки	12
▁учат	12
▁образец	12
▁сохрани	12
▁обязательно	12
▁Архив	12
ировано	12
▁Ol	12
▁Hungarica	12
▁фронт	12
▁официальны	12
▁Grand	12
ford	12
стях	12
▁продолжает	12
▁гордость	12
▁осталась	12
▁вблизи	12
андр	12
отреб	12
быв	12
▁известность	12
▁одинаковы	12
▁Sancto	12
▁Роз	12
▁Господень	12
▁прежней	12
▁pag	12
▁полдень	12
▁Кому	12
▁возник	12
КА	12
мед	12
▁цену	12
▁обратиться	12
▁племенам	12
▁режиссёр	12
▁здоровья	12
▁живым	12
▁Образ	12
▁взяты	12
▁Восточно	12
▁обладал	12
▁захвачен	12
▁новую	12
▁позволи	12
▁данные	12
▁закончен	12
IC	12
▁прекратить	12
ога	12
▁пары	12
▁испански	12
▁Были	12
▁пределы	12
даются	12
▁Марии	12
▁организаци	12
▁опасны	12
▁принимают	12
▁центрально	12
заб	12
▁рамк	12
▁ранг	12
▁бедствие	12
гада	12
▁построил	12
▁команды	12
▁фунтов	12
▁свято	12
▁Publishers	12
▁относи	12
ованы	12
▁Inc	12
зависимости	12
▁выходить	12
▁провал	12
▁нев	12
▁страшно	12
▁Каков	12
▁извести	12
менял	12
▁продал	12
завета	12
▁приходил	12
▁снял	12
▁систем	12
ийской	12
айте	12
▁массо	12
▁корпус	12
ополь	12
▁улице	12
▁План	12
▁способен	12
ходила	12
▁горожан	12
иты	12
▁Special	12
▁Leo	12
▁философией	12
▁служа	12
Ха	12
Если	12
▁Congress	12
▁Больше	12
▁христианск	12
▁одежда	12
▁услышать	12
dge	12
▁ввели	12
▁спрятал	12
▁Слова	12
▁Израиля	12
▁препода	12
▁зрителей	12
▁средство	12
▁населен	12
▁ходить	12
▁бесплатн	12
▁свобода	12
▁веро	12
▁разнообраз	12
▁сообщения	12
йдя	12
дн	12
ушка	12
▁оборот	12
▁обещает	12
▁сенатом	12
▁искали	12
▁выгод	12
▁обратившись	12
▁собственность	12
▁pastor	12
▁definitione	12
водят	12
дана	12
▁невидим	12
▁слухи	12
пав	12
▁озеро	12
▁гре	12
▁And	12
▁каза	12
▁сохраня	12
▁priori	12
▁государством	12
▁верн	12
▁Един	12
уэ	12
▁плат	12
▁черта	12
▁Sonic	12
▁поступках	12
▁двину	12
▁бесед	12
▁испанский	12
▁Интервью	12
▁награда	12
▁учителя	12
▁кругл	12
тратить	12
▁Лето	12
▁подобает	12
▁владение	12
▁граждане	12
▁захватил	12
▁пятидесяти	12
▁рабства	12
▁вылазку	12
▁портрет	12
▁бессмертных	12
▁книжн	12
▁человеческие	12
▁слабости	12
▁бросает	12
уха	12
▁обучение	12
▁недостаточно	12
▁Chal	12
▁называет	12
зывает	12
▁окрестности	12
▁Leg	12
▁громко	12
▁приобрести	12
▁бросали	12
▁отправляют	12
▁бедствия	12
нным	12
▁галереи	12
▁Матери	12
ури	12
бросить	12
▁разумно	12
▁перешел	12
▁падает	12
▁Basil	12
▁Sala	12
▁Земли	12
▁таково	12
▁secta	12
▁Constantin	12
▁одушевл	12
▁добился	12
▁исполнение	12
▁единой	12
▁забот	12
▁подъем	12
▁определенны	12
▁созерца	12
▁испытывать	12
▁стадо	12
▁царства	12
▁предел	12
▁antiqui	12
▁надел	12
▁числом	12
▁просьбы	12
▁прежние	12
▁Div	12
▁оратор	12
▁Def	12
целовал	12
▁сражений	12
▁Poli	12
▁утверждают	12
▁подать	12
шему	12
▁Mari	12
IV	12
▁Parti	12
▁человеческих	12
▁дне	12
▁главнокомандующ	12
▁захотел	12
▁показалось	12
▁считали	12
▁Communi	12
▁союзники	12
▁мечом	12
кус	12
▁нижне	12
▁безумны	12
▁времен	12
ī	12
тесь	12
▁потомкам	12
▁Magno	12
▁получается	12
▁передать	12
▁домом	12
▁Plat	12
▁Свое	12
▁убежда	12
▁ухо	12
▁переправил	12
opia	12
▁Клавдий	12
▁supercili	12
pel	12
▁выдать	12
▁вашей	12
▁зависть	12
▁утрат	12
▁свежи	12
mbre	12
▁Principi	12
▁Аквитани	12
ace	12
▁кстати	12
▁чужого	12
▁systematis	12
▁Брут	12
▁Bibli	12
ciam	12
▁Корнелий	12
▁ветром	12
▁праву	12
ящего	12
▁отрядом	12
▁сообщить	12
▁мрамор	12
▁поднялся	12
▁погоню	12
▁Unde	12
▁videmus	12
▁testa	12
▁смертных	12
▁философа	12
гнать	12
▁верным	12
▁одолев	12
▁добиваться	12
▁ввел	12
▁приятны	12
▁погребен	12
▁поступать	12
▁вашему	12
▁посыла	12
▁допускает	12
▁галльские	12
▁рану	12
▁нужду	12
▁храбрый	12
▁бегстве	12
▁Дивитиак	12
▁нервии	12
▁Красса	12
ющему	12
▁замешательство	12
▁семьдесят	12
▁вдали	12
▁Душа	12
▁величия	12
▁очами	12
▁жадность	12
▁стыдно	12
тянуть	12
▁надлежит	12
▁очах	12
▁плотью	12
▁отдельности	12
надлежало	12
ставлять	12
▁молодого	12
▁тяжко	12
▁рассуждать	12
дашь	12
кажешь	12
▁погубил	12
▁сия	12
▁слову	12
▁стольких	12
▁разобраться	12
▁плода	12
▁велики	12
▁уст	12
▁найдешь	12
▁плоды	12
▁сказа	12
▁восемьдесят	12
▁Гад	12
▁четыреста	12
▁верблю	12
▁царей	12
▁муки	12
▁возвратились	12
▁осла	12
▁встав	12
▁пойдем	12
▁боишься	12
▁верблюдов	12
▁Исаву	12
▁Катилина	12
▁сограждан	12
▁галлам	12
▁доблесть	12
▁распоряжения	12
▁перейд	12
▁форум	12
▁счастливее	12
▁имущества	12
▁трибун	12
▁носилках	12
▁доблести	12
▁боевом	12
▁неприят	12
▁молодости	12
▁единовременно	12
▁повиновении	12
▁легионам	12
▁метательны	12
▁бревна	12
▁ль	12
▁пристал	12
▁долгой	12
▁переставал	12
▁рабами	12
▁Верцингеторига	12
▁презира	12
▁толпе	12
▁Карфагена	12
▁Германика	12
▁Вергилий	12
▁пишешь	12
▁Неужто	12
▁гнет	12
▁добродетелью	12
▁Рахили	12
▁Симеон	12
▁притчу	12
▁Rect	12
▁подвздошно	12
сосцевидн	12
▁grege	12
▁profer	12
▁limit	12
▁Beat	12
▁manent	12
▁pelliculae	12
▁comprehendit	12
▁captiv	12
▁meridionali	12
▁invenies	12
▁feci	12
▁notus	12
▁Mercuri	12
▁adhibita	12
▁Europaeam	12
▁functus	12
▁socialem	12
▁sexus	12
▁Anglici	12
inenses	12
▁Europam	12
▁suprem	12
volvit	12
▁experimentum	12
▁studios	12
▁deleta	12
vam	12
▁Solum	12
▁solvend	12
▁Christus	12
▁evenire	12
▁seditionem	12
▁incarcerat	12
▁aucta	12
▁historica	12
▁privatis	12
uda	12
▁Stephan	12
▁Luna	12
▁tredecim	12
▁organ	12
▁pelliculas	12
▁propinqua	12
▁edere	12
▁pugnavit	12
▁Vidi	12
▁referend	12
▁domestic	12
▁celebratur	12
▁trium	12
▁sita	12
▁provid	12
▁periodic	12
▁aperuit	12
▁nuntiaverunt	12
▁soluta	12
▁proprietates	12
▁Legioni	12
▁Sar	12
▁Italicus	12
modi	12
▁viderit	12
▁cognoverunt	12
▁comitatu	12
▁fasc	12
ismum	12
iores	12
▁Series	12
▁cerebr	12
▁clara	12
▁ampl	12
▁Patre	12
▁servata	12
▁vicos	12
▁conantur	12
▁cellula	12
▁utile	12
▁carceris	12
▁Maiore	12
▁portu	12
▁timeo	12
▁statione	12
▁conson	12
▁Arabic	12
▁defendit	12
▁cibari	12
▁Doce	12
▁commemorat	12
▁educatio	12
▁Ele	12
▁fluvi	12
licis	12
▁experientia	12
▁paenitentiam	12
▁referunt	12
▁statura	12
▁familiaris	12
▁bina	12
▁praestitit	12
▁vestimenta	12
▁gymnasi	12
▁Antonio	12
▁sancta	12
pr	12
ntiam	12
▁magistrum	12
▁basi	12
iri	12
▁pristin	12
▁student	12
clamavit	12
▁prior	12
▁Belgia	12
▁damnatus	12
▁quartum	12
abula	12
▁recusat	12
hic	12
▁inest	12
▁Lux	12
▁patent	12
▁adepta	12
▁vehi	12
▁reperiebatur	12
▁incol	12
▁termina	12
▁interfectus	12
▁vexat	12
▁audio	12
▁Helvetiae	12
▁constitutum	12
▁egerunt	12
▁Consociatio	12
▁vetera	12
▁lucta	12
▁mercedem	12
▁religiones	12
▁ripas	12
▁unda	12
▁iudicia	12
▁vetus	12
▁Ars	12
▁deminu	12
▁Praeside	12
▁commentario	12
cripsit	12
▁Convent	12
▁univers	12
▁Martio	12
▁vulgare	12
▁typ	12
▁versio	12
▁Nero	12
▁morbus	12
▁sagitta	12
▁obiecta	12
liga	12
tque	12
▁Societatis	12
▁religionem	12
▁credo	12
▁congru	12
▁collega	12
▁extremo	12
▁accurat	12
▁implet	12
▁prop	12
▁cerni	12
▁maximae	12
Iaponice	12
▁electio	12
▁merces	12
▁finitima	12
▁desiderium	12
▁tranquill	12
▁nesci	12
▁gentibus	12
▁despera	12
▁Britannici	12
▁delibera	12
▁discipulorum	12
▁effecit	12
▁inimicos	12
▁triumphali	12
▁volumin	12
▁argenti	12
▁administratione	12
▁moderatore	12
▁ordinari	12
▁Nonnulla	12
▁constitue	12
▁suscipi	12
eno	12
▁peccati	12
▁insulas	12
▁mensibus	12
▁Observatori	12
▁armata	12
▁nutri	12
pelli	12
▁arce	12
culo	12
▁mythistoria	12
▁audiebat	12
▁peccata	12
▁Georgia	12
▁incendia	12
ductum	12
▁reducere	12
▁inventus	12
▁proposito	12
▁curae	12
mech	12
▁lup	12
▁appellat	12
▁Socrates	12
itae	12
▁Vix	12
▁culpa	12
▁mand	12
▁argento	12
▁distincta	12
▁veneno	12
▁occupaverunt	12
▁turmas	12
▁queri	12
▁Austriac	12
▁ordinat	12
scilicet	12
▁Natu	12
▁corporibus	12
▁scriptis	12
▁peteret	12
lata	12
▁infirma	12
▁novae	12
▁facultate	12
▁exeunt	12
▁Dicit	12
▁singulorum	12
▁delicat	12
▁Gubernator	12
▁constitu	12
▁montis	12
▁Batav	12
▁lignum	12
ionibus	12
▁Tali	12
▁mundan	12
▁carnem	12
▁aula	12
ducuntur	12
▁revoca	12
▁saepissime	12
▁aperte	12
▁Sabinus	12
▁pau	12
▁Veter	12
▁bomba	12
▁Ista	12
▁secundus	12
tulit	12
▁constabat	12
▁reverte	12
▁suff	12
▁moenia	12
▁vespere	12
▁divis	12
▁Herode	12
▁magnas	12
▁fave	12
▁Bona	12
▁misce	12
▁vestiment	12
▁aspectu	12
▁vicissi	12
▁talia	12
▁antiquo	12
▁lact	12
▁occasum	12
▁auditis	12
▁intersit	12
▁eleva	12
▁quaerunt	12
▁irent	12
▁deduc	12
ob	12
▁alieni	12
▁vota	12
▁lau	12
stricti	12
▁moritur	12
▁quies	12
▁missis	12
▁cav	12
▁tali	12
▁crema	12
▁iactat	12
▁Quantum	12
▁datis	12
calis	12
▁detriment	12
latis	12
▁uter	12
▁recorda	12
▁sceleris	12
▁picta	12
▁dispersi	12
▁potuisset	12
iace	12
▁solitudine	12
▁stetit	12
▁commutatione	12
▁colloca	12
▁pudore	12
▁probare	12
endos	12
amen	12
▁intellexit	12
iecto	12
▁coegit	12
▁familiari	12
▁perturbant	12
modo	12
▁discessit	12
▁procedit	12
▁securi	12
▁viderent	12
eundi	12
▁vili	12
▁audivi	12
▁restituit	12
▁recepta	12
▁Omnis	12
▁sequuntur	12
▁sententias	12
▁circumdat	12
lateralis	12
▁Licinius	12
▁sermonem	12
▁Claudius	12
▁clamor	12
▁veterem	12
▁paratos	12
▁arbor	12
aque	12
▁Edo	12
▁revertere	12
▁imperatum	12
escit	12
▁divisit	12
▁verti	12
▁aes	12
▁denuntia	12
▁senectute	12
▁gratum	12
▁tertius	12
▁sexaginta	12
▁perterritos	12
▁Ideo	12
veniebat	12
▁multitudinis	12
uisti	12
▁quietem	12
ebar	12
▁mortuis	12
▁equos	12
▁Celeriter	12
▁tenue	12
▁balne	12
▁commode	12
▁principatum	12
▁committi	12
▁Suebos	12
▁novissimum	12
▁Crasso	12
▁timent	12
▁concursu	12
▁constituerat	12
▁legio	12
▁tenui	12
▁ualde	12
▁plurimas	12
▁daretur	12
▁nasce	12
▁agis	12
▁cuiquam	12
▁facturus	12
▁fideli	12
▁potui	12
▁falsum	12
▁faciens	12
▁rogo	12
▁nosse	12
altum	12
▁faciamus	12
▁voluptatis	12
▁comede	12
▁gladium	12
▁tolle	12
▁accipe	12
▁terga	12
xerat	12
▁iudicas	12
▁clu	12
▁praesidiis	12
▁defendi	12
▁periculi	12
▁Quirites	12
▁tantis	12
cesserit	12
▁Ciceronem	12
▁nosti	12
▁Helvetiis	12
▁Sequanos	12
▁patribus	12
iorem	12
▁facturos	12
▁convocatis	12
▁copiam	12
▁contemptu	12
▁discessisse	12
▁Treveros	12
▁coactis	12
▁praedae	12
▁incommodum	12
▁Ambiorigem	12
▁agendum	12
▁Fabium	12
▁sciebat	12
▁consili	12
▁Gergovia	12
▁tormenta	12
▁Alesia	12
▁prouincia	12
▁contemnere	12
▁esuri	12
▁honeste	12
▁supervacuum	12
▁saccul	12
maxilla	12
▁spheno	12
▁престол	11
▁Христа	11
▁ложно	11
▁Земле	11
▁ответить	11
▁зовут	11
▁подумал	11
▁тюрьме	11
▁завтрак	11
enry	11
онный	11
▁сезоне	11
▁клуба	11
▁масс	11
▁терять	11
▁Av	11
ney	11
Вояджер	11
▁спутников	11
▁вечером	11
даётся	11
▁предполага	11
Музыка	11
▁района	11
▁обширны	11
▁склад	11
▁Международно	11
▁союзу	11
▁Первоначально	11
▁традиционны	11
▁втором	11
▁интервью	11
▁Mario	11
▁продан	11
▁приведен	11
▁желанию	11
▁Америк	11
▁британцы	11
медиа	11
Рик	11
Чего	11
▁видео	11
▁гром	11
▁кос	11
▁Други	11
▁убийство	11
▁каждым	11
▁уровне	11
▁распределени	11
▁участия	11
езжает	11
▁деньгами	11
La	11
▁Европу	11
▁Скажи	11
▁концу	11
▁Март	11
▁Web	11
шил	11
▁Первым	11
▁Северн	11
▁мужчина	11
▁отступать	11
▁секунд	11
▁библиотеки	11
▁электронн	11
▁пострадал	11
давать	11
▁готовности	11
▁ждал	11
гоняет	11
▁магазин	11
▁молча	11
▁требовать	11
▁Советско	11
rth	11
▁красота	11
▁внес	11
▁рос	11
▁Бразилии	11
▁желаем	11
ифицирован	11
way	11
▁Gai	11
▁предупрежда	11
▁считая	11
chen	11
▁контрол	11
▁особое	11
▁автомобиль	11
▁богатых	11
▁строительство	11
ony	11
▁Иерусалиме	11
▁счастливы	11
▁лестниц	11
▁важное	11
▁галер	11
▁Игра	11
▁Сир	11
чувствуешь	11
ary	11
▁пассажир	11
▁лучшие	11
▁директор	11
Ne	11
▁предпринима	11
▁комет	11
▁CD	11
▁Davis	11
▁системе	11
носится	11
▁прямой	11
▁переписи	11
▁купи	11
▁обстоятельств	11
▁мил	11
сходят	11
▁удачно	11
▁члена	11
▁решении	11
▁Сказал	11
данное	11
▁увеличен	11
▁Дет	11
СС	11
хожи	11
▁скрыть	11
▁скажут	11
все	11
▁страху	11
▁Народ	11
▁глупее	11
▁Доктор	11
▁сзади	11
▁проведен	11
▁денежны	11
▁пообещал	11
▁автоматическ	11
▁вероятно	11
игр	11
▁любом	11
▁дань	11
▁Фл	11
село	11
▁Вероятно	11
фаль	11
▁участву	11
▁Tribu	11
▁конфликт	11
▁приключени	11
бул	11
▁Австрии	11
▁печат	11
президентом	11
Колумб	11
▁провинцией	11
менить	11
▁подписал	11
Book	11
▁решился	11
▁бедняк	11
▁забыть	11
ственные	11
▁Язык	11
▁Пен	11
полне	11
▁перехода	11
ложных	11
▁Consta	11
▁Дети	11
▁парламента	11
▁Павел	11
▁Европейски	11
▁десятк	11
▁изучения	11
▁занимались	11
▁Тип	11
казывать	11
▁Нам	11
▁вруч	11
▁ищут	11
▁чемпионат	11
▁Смит	11
оваться	11
▁муниципалитет	11
▁достигает	11
▁Фильм	11
ast	11
▁влия	11
▁необычно	11
▁Церковь	11
▁хватало	11
▁центром	11
той	11
▁некоторо	11
▁взяла	11
ьный	11
▁особ	11
прежнему	11
▁вычисл	11
▁ожидает	11
ugg	11
▁апреле	11
▁старт	11
▁указания	11
▁принуди	11
▁полно	11
▁Ден	11
пил	11
▁попыта	11
сво	11
▁морю	11
▁сестру	11
▁промежуток	11
дельно	11
▁королевств	11
▁можете	11
▁пище	11
▁охраня	11
▁UNESCO	11
▁побежда	11
▁Бак	11
ровка	11
▁Святого	11
▁демократическ	11
▁мятеж	11
▁Юпитера	11
чев	11
▁использован	11
▁девиз	11
▁изготовлен	11
вшему	11
▁Андре	11
▁существами	11
▁Del	11
▁спрашивает	11
▁сильных	11
▁возвращаться	11
▁Bla	11
▁окружающ	11
▁понятия	11
▁небольшом	11
▁Эли	11
▁попросил	11
▁Слава	11
▁известных	11
▁форуме	11
▁дядя	11
▁общественн	11
структур	11
▁маленьки	11
▁мастер	11
AN	11
▁получило	11
▁сделанны	11
nny	11
▁дл	11
▁последняя	11
▁последующи	11
▁пройд	11
▁пытки	11
знаёт	11
▁быстр	11
▁информации	11
▁Египте	11
▁переведен	11
▁мелкие	11
сис	11
▁растут	11
▁чувствую	11
▁сотни	11
фици	11
▁предоставлен	11
▁торговы	11
▁фирм	11
▁штате	11
▁даровал	11
▁исследовать	11
графическ	11
▁начальн	11
тируется	11
▁деревня	11
действительности	11
▁мужско	11
▁исследований	11
psis	11
▁попадает	11
▁руководство	11
ительной	11
▁внутрь	11
▁провели	11
▁исключен	11
▁собственное	11
▁ярмо	11
▁чувствовал	11
раю	11
▁Син	11
вилл	11
▁разговор	11
иями	11
▁Fro	11
▁Слово	11
▁Film	11
монт	11
кри	11
▁Comp	11
▁дед	11
▁Бельги	11
кспорт	11
▁Intel	11
ходили	11
▁жаловаться	11
тического	11
▁отчая	11
▁поверил	11
▁исчез	11
▁длину	11
▁старик	11
tari	11
▁появление	11
живают	11
▁устав	11
▁играть	11
▁воздух	11
▁заблуждение	11
▁Париже	11
вязывает	11
▁Порт	11
▁уничтожил	11
▁молодежи	11
нож	11
▁обстоятельствах	11
▁заключения	11
▁примеров	11
▁полную	11
▁Карфаген	11
▁заключи	11
▁наставник	11
▁берет	11
без	11
▁отправились	11
▁Окончил	11
▁происшестви	11
▁направлениям	11
▁Statistic	11
▁бельги	11
стоящих	11
▁захватить	11
▁продаж	11
▁размнож	11
▁танк	11
▁родственники	11
▁занимается	11
▁зас	11
▁организова	11
▁разрешения	11
▁заметив	11
▁Pol	11
ческую	11
иана	11
▁ветви	11
▁поверхность	11
▁строя	11
▁диалект	11
▁устраивает	11
вшемуся	11
▁службе	11
▁согласиться	11
ании	11
благодар	11
▁учился	11
▁представля	11
▁красно	11
▁ожидать	11
▁Римляне	11
▁британск	11
▁ходил	11
▁древ	11
▁луч	11
▁собирался	11
латеральны	11
\	11
▁вызыва	11
▁вожди	11
▁мыс	11
▁suprema	11
маль	11
▁Patr	11
бледн	11
▁рукопис	11
▁исчезает	11
строил	11
▁содержат	11
▁Columbia	11
▁детства	11
▁покое	11
▁свете	11
▁Кан	11
ouTube	11
▁очища	11
никами	11
пущен	11
▁последним	11
▁чужие	11
видимом	11
▁домашних	11
иды	11
▁дорогам	11
PL	11
веду	11
▁казн	11
▁игру	11
▁зрение	11
▁Eva	11
▁помогают	11
▁обедом	11
▁провиант	11
▁облада	11
▁visi	11
ведь	11
кин	11
▁Сур	11
▁любят	11
card	11
▁худо	11
▁сыр	11
▁носит	11
▁популярность	11
▁предметов	11
▁известия	11
яются	11
▁Lac	11
жившие	11
▁ходили	11
▁давне	11
ведения	11
▁продолжа	11
▁композитор	11
▁слыхал	11
▁наследство	11
▁яви	11
▁производить	11
▁угол	11
▁перевести	11
▁несчастн	11
▁прах	11
▁Государственн	11
▁Веспасиан	11
▁побед	11
▁частые	11
пустив	11
▁Bea	11
▁поднял	11
▁поста	11
rom	11
▁Захар	11
▁Public	11
▁соверша	11
▁живущих	11
вот	11
▁хит	11
▁полного	11
▁National	11
бытие	11
▁полагали	11
▁разреши	11
▁оставлен	11
▁приносят	11
Frank	11
▁ошибка	11
▁Cursu	11
▁san	11
▁van	11
▁стена	11
▁занимали	11
▁Царь	11
▁сочли	11
▁возбужда	11
arat	11
▁приезжа	11
▁планы	11
▁воинственн	11
▁пожалуй	11
▁свидетелей	11
▁пространство	11
▁place	11
моче	11
▁высот	11
бия	11
▁вождей	11
▁Tandem	11
▁указывал	11
ходиться	11
▁украшен	11
левой	11
▁выражение	11
▁сожжен	11
▁мудрецов	11
▁третью	11
ленные	11
▁спросить	11
▁прежнее	11
оборот	11
▁нравственн	11
▁дарован	11
▁войнах	11
▁светом	11
▁утешение	11
▁судьбу	11
▁могущественн	11
▁потерянн	11
▁упорство	11
▁Statio	11
▁управлять	11
▁седьмой	11
ищем	11
яться	11
yth	11
▁сопротивляться	11
▁расход	11
▁деятель	11
▁выступили	11
▁чашу	11
сос	11
кажутся	11
▁скрывал	11
способных	11
▁римские	11
▁вместить	11
▁Camb	11
▁продол	11
▁пользуется	11
▁побудил	11
▁Qu	11
▁Colonia	11
▁спинно	11
▁потоп	11
▁nucle	11
возить	11
▁Ничто	11
▁тверд	11
▁Хам	11
▁заслуги	11
▁укрепление	11
▁надеялся	11
▁восхищаться	11
▁укрепленны	11
▁малым	11
▁донесения	11
▁судьбе	11
▁tangere	11
▁различия	11
▁Лициний	11
uncti	11
▁жажда	11
▁подвоза	11
▁смутил	11
▁эдуями	11
▁заботиться	11
▁своею	11
▁разбиты	11
▁несправедливо	11
▁перерыва	11
▁завязали	11
▁сжечь	11
▁кругом	11
▁упражнен	11
▁горьки	11
▁скита	11
▁вернее	11
▁честным	11
▁изречения	11
▁нрав	11
▁всяким	11
▁скрыто	11
▁довел	11
▁телесно	11
▁крепки	11
▁глупц	11
▁башню	11
▁одинаков	11
▁изгоня	11
▁восхваля	11
▁усерд	11
▁возда	11
▁тонки	11
▁такова	11
▁толку	11
▁тверды	11
▁сочтет	11
▁Духом	11
▁смело	11
▁тверди	11
▁думаем	11
▁поместил	11
▁женою	11
▁восемьсот	11
▁потомству	11
еянина	11
▁возвратил	11
▁бойся	11
▁Египтян	11
▁обрезан	11
▁побежал	11
▁говори	11
▁клянусь	11
▁Ефрон	11
▁Лавана	11
▁увидишь	11
▁мятежа	11
▁квириты	11
▁сурово	11
▁Лентул	11
▁послать	11
▁осмелился	11
▁вооруженно	11
▁бросать	11
▁Океана	11
▁склонил	11
▁дружественны	11
▁прибытии	11
▁фураж	11
▁подошв	11
▁выстроил	11
▁мучительн	11
▁ободрил	11
▁варвары	11
▁хлопот	11
▁фланге	11
▁неприятели	11
▁пращ	11
▁отозва	11
▁чужим	11
▁нашими	11
▁преград	11
▁менапиев	11
▁осаду	11
▁знамена	11
вязать	11
▁всадника	11
▁подойдя	11
▁удивляться	11
▁случается	11
▁удерживает	11
▁душевны	11
▁прибавить	11
▁толпу	11
▁Драппет	11
▁Ганнибалу	11
▁взаймы	11
▁напоказ	11
вольноотпущенник	11
▁жар	11
▁лар	11
▁терпит	11
▁мудрому	11
▁отнимет	11
▁блаженны	11
▁глупость	11
▁Добродетел	11
▁исцеля	11
▁Лия	11
▁Еммор	11
▁Иосифов	11
височн	11
хрящ	11
пузырн	11
▁клиновидно	11
▁fil	11
Graece	11
certus	11
▁Conf	11
▁Verba	11
▁calendari	11
▁toti	11
▁palati	11
▁nationis	11
tat	11
▁coniectus	11
▁Voyage	11
▁infantem	11
▁fugiunt	11
ssimi	11
▁commercial	11
▁Magnum	11
▁vendidit	11
▁Nas	11
▁Unita	11
sint	11
▁centesimae	11
▁categoria	11
▁foedere	11
▁industriae	11
▁Mori	11
▁Administr	11
▁temp	11
▁confus	11
▁vindica	11
▁valebat	11
▁censu	11
▁caecu	11
▁profite	11
▁nato	11
▁dabat	11
▁angeli	11
▁lega	11
▁obtinuit	11
▁creator	11
▁proprie	11
▁mamma	11
▁procurator	11
▁dulce	11
▁XL	11
▁cognosceret	11
▁infantia	11
▁familiam	11
▁classes	11
▁menti	11
▁Sovietic	11
uxta	11
▁frig	11
rari	11
itudo	11
▁Attamen	11
▁Comitia	11
▁Dioecese	11
▁probabili	11
▁invenitur	11
▁Solis	11
▁festi	11
▁prospere	11
▁domibus	11
▁cadere	11
▁Islamica	11
▁quinto	11
▁autonoma	11
▁cense	11
▁remedia	11
▁nocent	11
▁habitare	11
▁lusor	11
▁adulescentia	11
▁magisque	11
▁Ric	11
▁significatione	11
▁avo	11
▁televisione	11
occidentalis	11
▁exempli	11
▁affecti	11
▁Superior	11
▁quarto	11
▁masculin	11
▁moli	11
▁dormit	11
iunt	11
▁verae	11
▁circuli	11
▁parvi	11
▁debeat	11
▁persuadet	11
▁concita	11
▁cantor	11
▁alibi	11
▁diligentius	11
▁colloqui	11
▁Fon	11
▁descriptum	11
▁commenta	11
▁celeberrim	11
fuerunt	11
▁Austriae	11
▁perfecit	11
▁suc	11
▁vehementius	11
▁Ecclesiae	11
▁censura	11
▁sepulchr	11
▁Medi	11
▁migravit	11
versione	11
▁confici	11
▁terrore	11
▁utebantur	11
scientia	11
▁Ipsi	11
▁dimidi	11
Hispanice	11
ensium	11
▁ceterae	11
▁Universitatem	11
▁proeli	11
▁neve	11
▁consecuti	11
▁absolutam	11
▁Clara	11
▁frequen	11
▁comitiis	11
▁Tota	11
▁sapientes	11
▁cladem	11
▁paupertate	11
currunt	11
ridicul	11
ugna	11
cana	11
▁faciendi	11
▁sexta	11
▁Antiqui	11
▁solvere	11
▁digito	11
▁Nazista	11
cesseris	11
▁gratis	11
▁vector	11
▁Foederali	11
▁mutata	11
▁dantur	11
▁vulnus	11
▁Canadae	11
▁Septem	11
▁Mala	11
▁praetore	11
mea	11
▁intentione	11
▁matura	11
▁facultates	11
▁spectaculo	11
simile	11
oeconomiae	11
▁Iuven	11
▁proprietas	11
▁orbita	11
▁Iovem	11
▁obtulit	11
politani	11
▁chemic	11
▁continuit	11
▁attribuit	11
▁vestibus	11
▁praebuit	11
▁insigne	11
▁pluvia	11
▁parent	11
litatem	11
▁servat	11
▁ponderis	11
▁vocantur	11
▁Americam	11
▁Ultima	11
▁describ	11
▁piscium	11
puli	11
▁imaginibus	11
▁aequi	11
▁materiae	11
▁poenam	11
▁nationem	11
▁conferre	11
▁dissolut	11
▁cultu	11
▁Iustitia	11
▁grammatica	11
▁urbibus	11
▁clausu	11
▁pago	11
▁Popul	11
▁provincias	11
▁invidia	11
▁Meridionalis	11
▁notae	11
▁ligno	11
▁spin	11
▁convent	11
gebant	11
▁crebro	11
▁vice	11
▁fecimus	11
▁significare	11
▁cupit	11
▁mathematicus	11
menti	11
minimus	11
▁inane	11
▁carp	11
▁subi	11
▁deserta	11
▁labores	11
uam	11
▁diviti	11
▁futuro	11
▁perfecto	11
▁Camp	11
▁praeterito	11
▁urbana	11
▁captum	11
▁confidere	11
abilis	11
▁Germanica	11
▁sciunt	11
aretur	11
▁interficiunt	11
▁oeconomia	11
▁difficilis	11
posita	11
▁sepult	11
▁Carthaginem	11
▁primaria	11
▁operarii	11
▁Nationale	11
▁arcessit	11
▁accepimus	11
▁seriei	11
▁chor	11
▁instituto	11
▁traducit	11
miratus	11
▁nominatur	11
▁occupatione	11
▁amplior	11
▁dederat	11
▁philosophi	11
▁Capitolium	11
▁Americano	11
iciunt	11
riae	11
▁senem	11
▁mutua	11
▁rationibus	11
▁diversi	11
▁procura	11
▁passi	11
▁contumeliam	11
▁scriptri	11
▁difficillim	11
▁mentio	11
▁praef	11
▁peior	11
▁victis	11
▁circumvent	11
▁clade	11
▁nuru	11
▁oculo	11
▁tradit	11
▁vinci	11
▁vini	11
communica	11
▁oro	11
▁praesentibus	11
ccidentali	11
▁ceteros	11
▁cognosci	11
▁pretios	11
▁superiori	11
▁posthac	11
▁sept	11
▁commenda	11
▁aegrum	11
▁regimen	11
▁haere	11
▁erecta	11
▁intercedere	11
▁pompa	11
▁potero	11
miserat	11
▁dicebatur	11
▁vices	11
cidunt	11
▁magnos	11
▁civibus	11
▁facient	11
▁ignoto	11
liber	11
▁Napoleo	11
▁glo	11
▁cupere	11
▁scribae	11
▁tenent	11
▁accusat	11
▁orator	11
▁divini	11
▁dicebantur	11
▁metiri	11
▁fiant	11
▁contentione	11
▁inchoa	11
minus	11
▁dispensator	11
▁incertum	11
▁facilior	11
▁ulterior	11
▁Pompeius	11
▁Oceano	11
▁respondente	11
▁istuc	11
ductus	11
▁invito	11
▁sabbati	11
▁laeta	11
▁pulchrum	11
▁rami	11
▁movere	11
▁appropinquare	11
▁perturbati	11
▁philosophus	11
escere	11
▁intellego	11
▁require	11
▁nasci	11
amini	11
▁commodo	11
▁longo	11
▁imperi	11
▁forsitan	11
▁perduxit	11
▁saevi	11
▁intellege	11
ectis	11
▁praeerat	11
▁montibus	11
idoneum	11
▁senectutem	11
▁grati	11
▁dimicandum	11
▁insidia	11
▁appet	11
▁spatii	11
spin	11
▁cessavit	11
▁contumelia	11
▁extende	11
▁laude	11
▁tergo	11
imo	11
tulerunt	11
▁grandi	11
▁legato	11
▁pondere	11
▁fove	11
▁liberum	11
▁orientem	11
▁Sabini	11
culos	11
▁altissim	11
▁gaudet	11
▁celerius	11
▁Pompeium	11
▁laudant	11
▁arida	11
▁istorum	11
▁praetoria	11
▁Bonum	11
▁scruta	11
▁peccare	11
▁sorte	11
▁animalibus	11
▁risum	11
▁ipsorum	11
▁appella	11
▁Vergilius	11
▁latissim	11
▁expectat	11
▁profug	11
▁reversi	11
▁centurio	11
▁sapientis	11
▁vidua	11
▁leve	11
▁totis	11
▁Ariovistum	11
▁constiterunt	11
▁consuesse	11
▁decertare	11
▁pedites	11
▁proficisc	11
▁occiderunt	11
▁Nervii	11
▁arbitrantur	11
▁Aquitan	11
▁dementia	11
▁auctoritatis	11
▁discessu	11
▁premere	11
▁confectis	11
▁effer	11
▁consulere	11
▁quale	11
▁dicas	11
▁venerat	11
▁oblitus	11
▁uiri	11
▁uaria	11
▁feram	11
▁benedictu	11
▁incide	11
▁aspera	11
▁depreca	11
▁consumpta	11
▁facio	11
▁incomposita	11
▁silentium	11
▁quaeram	11
▁excelsi	11
▁sciat	11
▁cupiditates	11
▁comminu	11
▁benedixitque	11
▁vesce	11
▁ibique	11
▁comedi	11
▁vultus	11
Bethel	11
▁Bala	11
▁iudica	11
ierant	11
▁seni	11
▁propera	11
verim	11
▁istos	11
▁Mesopotamiam	11
▁murus	11
▁oder	11
▁contigit	11
▁voluptate	11
▁pristina	11
▁fecissent	11
▁cogere	11
▁vellent	11
▁vultis	11
▁dicerent	11
▁convenerant	11
▁ulli	11
▁intellegebat	11
esse	11
▁doloris	11
▁Labieno	11
▁consuerat	11
▁famem	11
▁coacto	11
▁mirum	11
▁potentior	11
▁Bellovacos	11
▁Remis	11
▁aggere	11
▁valent	11
▁detrahe	11
▁cortic	11
▁paucitatem	11
▁aggerem	11
▁dispositis	11
▁equitesque	11
▁Indutiomarus	11
▁Aduatuc	11
▁Cenab	11
▁sufficere	11
▁assidue	11
▁trade	11
▁vivas	11
▁Epicurum	11
▁beatissimu	11
▁hilari	11
▁Catonem	11
▁ebrietate	11
▁optabile	11
vagina	11
▁провозгласил	10
▁Перси	10
▁Слав	10
▁состоял	10
▁ресторан	10
▁исправить	10
▁привязан	10
▁Окончательн	10
▁Br	10
▁продолжительн	10
▁Гран	10
▁военно	10
▁запрос	10
▁Хорвати	10
▁Ничего	10
▁написани	10
▁задержать	10
▁данного	10
chan	10
▁традиции	10
▁Ныне	10
▁собирались	10
▁самолёт	10
▁экземпляров	10
▁stylo	10
Южная	10
▁дружески	10
▁Институт	10
японск	10
▁политики	10
▁музе	10
▁Ваш	10
▁мальчик	10
▁губернатор	10
▁особенности	10
▁экономики	10
▁Говор	10
▁Источник	10
▁утверждали	10
▁переправиться	10
▁Парламент	10
▁Британск	10
▁осво	10
▁Национальны	10
▁случаев	10
▁рот	10
▁прорыв	10
▁плохого	10
▁вспоминает	10
▁хотите	10
▁католическ	10
▁Марс	10
▁Musica	10
▁заверш	10
▁направить	10
▁окна	10
Комп	10
▁шесто	10
▁ядерно	10
▁продавать	10
▁животное	10
▁един	10
▁Бостон	10
▁пожертвова	10
▁открыта	10
▁отдых	10
кобы	10
кормить	10
▁глупости	10
▁серьёзны	10
амма	10
▁греческо	10
▁Получ	10
MA	10
▁классы	10
▁тюрьму	10
▁исчезновени	10
▁провозглаша	10
▁Поверь	10
▁полк	10
▁властей	10
▁плана	10
ставлю	10
▁прекраща	10
▁архитектор	10
Мы	10
▁код	10
uff	10
▁оставляет	10
▁открытым	10
▁редактор	10
▁свободного	10
▁преступлений	10
▁Парижск	10
леты	10
▁Конституция	10
▁советы	10
▁отделен	10
▁Слов	10
▁сезон	10
▁Евро	10
▁напрасно	10
▁английском	10
▁обработк	10
лоне	10
▁пребыва	10
▁обращает	10
дни	10
▁британской	10
▁плотно	10
▁ожидал	10
рели	10
▁писателей	10
▁Зим	10
▁соглашается	10
▁лечение	10
▁XXV	10
евич	10
▁ведущ	10
▁продолжают	10
▁фонд	10
▁Sun	10
▁жестокость	10
▁Pluto	10
▁урок	10
▁помню	10
▁бразильск	10
▁Сант	10
▁альбома	10
▁веке	10
▁Ливан	10
▁Американско	10
▁American	10
▁Япония	10
▁решают	10
▁necessariis	10
▁Социал	10
▁лжи	10
▁подарки	10
▁Цвет	10
даёт	10
▁демонстраци	10
ппи	10
▁поздн	10
▁мужу	10
▁вынес	10
▁фактически	10
▁критическ	10
▁Владимир	10
▁выражен	10
▁встречаются	10
▁Луи	10
▁живой	10
▁восстановить	10
▁молитвы	10
▁Работа	10
▁ложе	10
▁направля	10
рика	10
ight	10
▁хозяйство	10
▁очисти	10
менять	10
▁плену	10
▁движении	10
▁середине	10
интересно	10
▁задерживал	10
рти	10
▁стене	10
▁кандидатов	10
обод	10
здание	10
▁снос	10
▁Эль	10
▁Другой	10
ольные	10
ology	10
▁диссертаци	10
▁вторую	10
▁утвержден	10
▁писателя	10
▁платформ	10
▁употреби	10
селились	10
▁уровня	10
▁умерли	10
▁публично	10
гель	10
▁заработ	10
▁Германия	10
▁публикаци	10
▁растений	10
▁поселения	10
▁сенатором	10
▁посеща	10
Linux	10
▁грешник	10
▁активны	10
▁лошадь	10
▁классификаци	10
звать	10
▁крупнейши	10
▁zebra	10
▁наступления	10
▁финансовы	10
▁определя	10
смотрите	10
▁Свою	10
▁капитал	10
▁окончания	10
▁детски	10
▁последнем	10
▁преоблада	10
▁Play	10
▁женился	10
▁контакт	10
▁Бед	10
▁Интерес	10
▁научны	10
!)	10
▁переносит	10
исках	10
▁развод	10
▁жалобы	10
▁курии	10
▁ожидая	10
▁связь	10
▁сочета	10
▁вчера	10
▁сухо	10
▁уходит	10
▁телесериал	10
▁Флор	10
▁автомобиле	10
▁психолог	10
▁международны	10
▁Закон	10
▁остальном	10
▁учитель	10
▁Матер	10
▁Бело	10
▁имеется	10
▁деревни	10
▁библиотек	10
▁живопис	10
▁букв	10
▁пределах	10
▁рожда	10
▁фильме	10
Q	10
▁Мартин	10
▁повторять	10
страдали	10
▁Солнца	10
▁лекарство	10
▁заметить	10
hu	10
значально	10
▁идея	10
▁дебют	10
▁Тит	10
▁естественны	10
пишу	10
▁остановил	10
▁массу	10
▁разумеется	10
текает	10
▁утра	10
▁Наибол	10
▁представит	10
▁пойман	10
▁предыдуще	10
▁Папа	10
▁Кого	10
▁вторым	10
▁обманул	10
▁регулярно	10
торы	10
▁постоянной	10
▁жилы	10
▁соответстви	10
▁арестован	10
▁Тим	10
▁Выпуск	10
▁фотографии	10
▁православн	10
▁Тре	10
▁заболев	10
▁поддерживал	10
язан	10
▁хол	10
▁измене	10
▁отличал	10
▁самоуправлени	10
▁Vo	10
▁кандидата	10
▁дождь	10
▁соблюдать	10
▁помещ	10
▁хорошим	10
▁сол	10
▁глух	10
▁детстве	10
▁связана	10
▁sectio	10
▁Тар	10
близости	10
▁стадион	10
ier	10
▁Pala	10
▁Интер	10
▁планировал	10
▁Парти	10
▁чудовищ	10
▁бои	10
▁торговли	10
▁колес	10
▁особой	10
▁Love	10
алли	10
▁астронавт	10
▁камер	10
▁устал	10
­	10
▁отнес	10
▁требование	10
ище	10
рион	10
Palaeo	10
▁спи	10
▁пользовались	10
▁самоубийств	10
▁прогресс	10
▁сильное	10
llen	10
изирован	10
▁ягод	10
▁взрыв	10
▁Кант	10
▁перемена	10
▁режим	10
далек	10
▁январе	10
▁страдает	10
▁дальни	10
учился	10
▁сосредоточен	10
▁Академи	10
▁хорошего	10
▁Хор	10
▁языч	10
▁Мур	10
▁ранил	10
▁северо	10
▁убиты	10
▁ранены	10
▁туман	10
▁дороже	10
▁изначально	10
▁научных	10
▁российски	10
▁начинал	10
▁сочинения	10
▁языках	10
▁поддерживает	10
летних	10
▁речью	10
Вы	10
роф	10
стоящая	10
▁Пут	10
верь	10
▁слушает	10
▁испытал	10
▁стремится	10
▁максимальн	10
изация	10
▁энергии	10
▁творения	10
▁попытались	10
▁поиск	10
▁composition	10
▁роли	10
▁образуют	10
▁Regnum	10
▁списк	10
ительным	10
▁Star	10
▁Gulielmi	10
▁обещание	10
▁арест	10
▁упомянул	10
▁политической	10
▁источники	10
▁вызвать	10
▁прекрасна	10
▁автомобиля	10
▁выставка	10
▁прости	10
▁Петра	10
▁видимости	10
▁возглавлял	10
fest	10
▁проводит	10
▁надписью	10
▁выпустил	10
▁солдатами	10
▁Ten	10
▁населённ	10
▁Cu	10
▁Call	10
▁политика	10
▁Бы	10
▁наград	10
голов	10
▁Российско	10
▁примером	10
▁довод	10
▁индекс	10
▁третья	10
▁интересов	10
▁ложа	10
пасть	10
▁Кур	10
▁слышали	10
▁длинны	10
▁предал	10
▁спокоен	10
ницей	10
▁изобретен	10
▁башен	10
▁следы	10
liter	10
▁правила	10
▁хвост	10
▁посвятил	10
▁разными	10
▁забыли	10
▁одержим	10
▁стиле	10
▁выбирает	10
▁упоминание	10
▁корне	10
▁противников	10
▁зиму	10
▁литературно	10
▁выступление	10
жать	10
▁достойно	10
▁раская	10
▁Пет	10
▁Друз	10
▁племенами	10
▁поведение	10
▁семью	10
▁содержа	10
▁решать	10
рид	10
▁участи	10
▁религиозн	10
▁казну	10
▁Америку	10
▁Ог	10
▁грехов	10
украин	10
▁высотой	10
tory	10
▁Society	10
IE	10
▁Гомера	10
▁офицер	10
Щ	10
▁ограничени	10
▁оставля	10
▁Давид	10
функции	10
соф	10
▁опыта	10
▁Charles	10
▁одиннадцат	10
▁резко	10
▁гавань	10
aci	10
▁вершине	10
▁собственны	10
▁доставк	10
▁Лебедев	10
▁Иордан	10
▁монастыря	10
Ц	10
▁прямым	10
▁благородств	10
нная	10
▁составлен	10
Le	10
▁освобожда	10
▁истинный	10
▁Eb	10
▁колония	10
▁преодоле	10
▁благодарности	10
нимают	10
▁Акт	10
пов	10
эффект	10
▁снег	10
▁бросить	10
NE	10
▁лечить	10
▁бродя	10
▁apostolica	10
▁definit	10
▁divin	10
Red	10
▁ecclesiae	10
▁Основан	10
▁Game	10
▁Phan	10
▁флейт	10
▁преступление	10
▁смотрят	10
▁плоск	10
▁Вдруг	10
совершенствова	10
▁Saxo	10
▁испытывал	10
▁края	10
▁шар	10
gest	10
▁вышедши	10
Кто	10
▁уважа	10
▁местом	10
▁Капитолий	10
▁происходил	10
▁Sina	10
▁меди	10
▁называются	10
▁объединя	10
▁событиях	10
сит	10
укр	10
▁отказал	10
реал	10
▁собственным	10
▁помогали	10
▁лоб	10
▁Radio	10
▁указывает	10
▁покидать	10
▁судно	10
▁таран	10
▁кратко	10
нова	10
▁реже	10
▁лучшим	10
▁помешать	10
▁политическим	10
▁овладели	10
▁оставила	10
▁безумн	10
▁кле	10
селился	10
▁собственном	10
▁Academic	10
▁искусстве	10
▁делить	10
▁кости	10
▁разговоры	10
гда	10
▁брошен	10
▁произошл	10
заботиться	10
▁младше	10
▁пишу	10
▁горю	10
чает	10
▁отнять	10
▁Квинта	10
▁дворца	10
▁вине	10
▁перестали	10
▁мут	10
▁умел	10
▁защищал	10
▁дисциплин	10
▁подверг	10
ведении	10
▁проверк	10
▁представляется	10
▁совесть	10
▁занятий	10
▁выступ	10
▁верхне	10
▁желудок	10
▁различным	10
una	10
▁паруса	10
▁приписыва	10
▁Помпей	10
▁упомина	10
▁исцелил	10
▁обвинял	10
aceae	10
▁Галл	10
девает	10
▁Motu	10
▁NASA	10
ейшие	10
▁мыслями	10
улит	10
▁недовольны	10
▁наибольши	10
▁летом	10
▁стремились	10
▁переходить	10
▁неизбежность	10
▁вначале	10
▁осмотр	10
▁научил	10
orta	10
▁albi	10
▁железо	10
▁численно	10
ложил	10
▁выстрел	10
▁криком	10
▁ото	10
▁стоя	10
▁сняли	10
nix	10
▁открыли	10
▁греш	10
▁возникнуть	10
▁правилам	10
▁следу	10
ностями	10
лишком	10
▁мелко	10
▁Коль	10
▁Увидев	10
▁Посему	10
▁приятна	10
▁Мудрец	10
▁объявить	10
слушайте	10
▁грузовы	10
▁Base	10
▁medico	10
ушен	10
▁всадник	10
▁узнает	10
Rob	10
▁изобилия	10
▁предложением	10
veneris	10
▁collegii	10
▁открывал	10
gastri	10
▁крупные	10
▁плох	10
▁Got	10
вого	10
черепах	10
rensis	10
▁появится	10
▁reformat	10
▁молоко	10
▁тылу	10
bella	10
▁юноша	10
▁лагерны	10
▁хозяином	10
▁Persona	10
sul	10
▁слонов	10
ойдя	10
▁поразил	10
▁пиру	10
шедших	10
▁принужда	10
▁сожгли	10
▁посоветовал	10
▁отдел	10
HT	10
▁подчинил	10
▁камней	10
▁испуга	10
▁эскадр	10
bet	10
▁праведн	10
▁беде	10
▁дыш	10
▁Natura	10
▁роды	10
▁тонко	10
▁честн	10
▁ежедневны	10
ib	10
▁Природа	10
▁спал	10
▁досталась	10
▁подозрения	10
▁темницу	10
▁Посл	10
▁покровительство	10
▁пустыне	10
▁движу	10
▁законам	10
▁светила	10
▁соперник	10
▁пункте	10
хожу	10
▁au	10
▁знанием	10
▁прекрасный	10
▁custos	10
haus	10
▁уходить	10
▁ищущ	10
▁смотря	10
▁услышит	10
Rabbi	10
▁согласии	10
▁враждебны	10
roman	10
▁защитить	10
▁Harri	10
▁предпочитает	10
▁первому	10
▁выражениях	10
▁почет	10
▁малого	10
▁свебы	10
▁засады	10
▁Лабиэну	10
▁следом	10
▁достоянием	10
▁Рейном	10
▁спешно	10
▁колесницы	10
▁останавлива	10
▁Твоими	10
▁честолюбие	10
▁уходил	10
▁презрением	10
▁величие	10
▁удерживал	10
▁увер	10
▁руке	10
▁зовет	10
▁жилище	10
▁бегл	10
▁имение	10
▁Подумай	10
▁совершенный	10
▁колени	10
▁слуга	10
▁радуюсь	10
▁избавить	10
единственного	10
▁тяжки	10
▁соединиться	10
▁добр	10
▁благословля	10
▁чувствовать	10
▁обход	10
▁бесформенной	10
▁выйдя	10
▁местам	10
▁внизу	10
нется	10
▁лишенны	10
▁совершенству	10
▁сему	10
▁скотом	10
▁Моим	10
▁Божием	10
▁ео	10
▁Гспод	10
лечет	10
▁Енох	10
▁Ламех	10
▁родослови	10
▁наполнил	10
▁смол	10
▁потомство	10
▁Авраму	10
▁благословл	10
▁возвел	10
▁лучшей	10
▁вином	10
▁удержал	10
▁отошел	10
▁Исааку	10
▁кувшин	10
▁Едом	10
▁малейше	10
▁ждешь	10
▁календы	10
▁велит	10
▁разврат	10
▁справедлив	10
▁полководца	10
▁честные	10
▁аллоброгов	10
▁претора	10
▁указано	10
▁Гаю	10
▁мужеством	10
▁вынести	10
бывали	10
чур	10
▁тревоги	10
▁опасностью	10
▁наглость	10
▁захочешь	10
▁Кассия	10
▁жребий	10
▁германцами	10
▁Думнорига	10
▁Дивитиака	10
▁нравами	10
▁свободный	10
▁маршем	10
▁смелее	10
▁эдуй	10
▁могущество	10
▁провиантом	10
▁молить	10
▁помалу	10
▁полководец	10
▁арвернов	10
▁камнями	10
▁полуночи	10
▁переправы	10
▁лежащи	10
▁упорны	10
▁прежним	10
▁сенонов	10
▁караул	10
▁ничтожны	10
▁покорил	10
▁чужих	10
▁ободря	10
▁Кенаб	10
▁Эпоредориг	10
▁отступ	10
▁взялся	10
▁войдя	10
▁Ганнибала	10
▁прочее	10
▁великая	10
▁силою	10
▁алчность	10
▁божественного	10
▁столом	10
▁добродетелей	10
▁недуг	10
▁благородн	10
▁фортуной	10
▁умень	10
▁блаженнее	10
▁виночерпи	10
▁присуще	10
▁Посидоний	10
▁Лавану	10
▁Рувим	10
▁Израилевы	10
▁Ефрем	10
▁бесов	10
▁фарисеи	10
сказываю	10
верхнечелюст	10
▁persuasio	10
egit	10
▁aliquamdiu	10
▁Asiae	10
▁actum	10
▁introduc	10
▁Quali	10
▁aeroportu	10
eger	10
▁sedem	10
▁aestiva	10
▁advenit	10
▁Propositum	10
▁mota	10
▁usitata	10
▁significant	10
▁revera	10
▁amica	10
▁domui	10
▁Iaponica	10
▁aedificiorum	10
▁Britanni	10
▁ponte	10
▁supple	10
▁Theodisc	10
▁reprehend	10
▁inaugura	10
▁sapi	10
ionum	10
▁ludo	10
▁fuere	10
▁sorti	10
arvae	10
▁centesimas	10
dinum	10
▁iuvenis	10
▁Ministeri	10
▁imprim	10
▁templi	10
▁mercatu	10
▁Februario	10
▁dictator	10
▁adiit	10
▁expectare	10
▁inscriptione	10
▁deprehend	10
▁horas	10
▁excogitat	10
▁Lit	10
▁theatrum	10
▁Circul	10
▁consequen	10
▁Brasiliae	10
latum	10
▁gust	10
▁dubitant	10
▁praecepto	10
▁difficilia	10
▁solu	10
▁renovat	10
▁atomica	10
▁remissi	10
▁Fabula	10
▁Pon	10
editiones	10
▁diversae	10
▁frigida	10
▁mariti	10
▁hydr	10
▁permuta	10
▁breviter	10
▁Moscuae	10
▁humanitate	10
▁Tibi	10
idem	10
▁Marco	10
▁Forma	10
gma	10
▁secundi	10
▁significa	10
positus	10
▁provinciis	10
▁suffectus	10
▁internationali	10
▁salta	10
▁legata	10
▁Americanum	10
▁Opus	10
▁liga	10
▁carcer	10
▁iussus	10
▁affecta	10
▁generi	10
ertamen	10
▁durat	10
▁novissim	10
▁Summ	10
▁consci	10
▁testimonio	10
▁nominantur	10
▁docere	10
▁retinent	10
▁Script	10
▁dixerat	10
▁Olim	10
fascicul	10
▁Gad	10
▁Gab	10
▁Suec	10
▁conduct	10
▁intro	10
▁custodit	10
▁accesserunt	10
▁Ratio	10
▁defensor	10
onenses	10
▁televisioni	10
scribuntur	10
volutionis	10
▁scriba	10
▁diurnis	10
▁heres	10
▁superior	10
▁Plerumque	10
▁Carolo	10
regi	10
▁capitalis	10
▁hab	10
▁Versio	10
▁concessit	10
▁imagin	10
▁metall	10
▁centena	10
▁debuit	10
▁Conc	10
▁multarum	10
▁elementa	10
▁adiuvare	10
latus	10
▁philosophum	10
▁Europaeo	10
▁decreto	10
▁Praesidi	10
▁Suprem	10
censes	10
idarum	10
▁retract	10
ultimus	10
▁paroecia	10
▁optimi	10
▁audivit	10
▁revertebat	10
▁distingui	10
▁duravit	10
▁differunt	10
▁gubernationis	10
▁fato	10
▁conversi	10
▁Magni	10
▁humanum	10
▁architect	10
▁naturalem	10
▁Sola	10
▁leone	10
▁abstulit	10
▁morali	10
lente	10
▁triste	10
▁Inclinati	10
venerunt	10
▁victi	10
▁Access	10
labor	10
▁Etenim	10
▁naturale	10
ologica	10
▁Senatus	10
▁posterum	10
▁nuntiat	10
▁perdere	10
▁agebatur	10
▁utilitate	10
▁valetudine	10
▁inimicum	10
▁apparuerunt	10
▁honoris	10
▁tutela	10
▁Nobelian	10
▁democratica	10
▁gubernator	10
▁tirocini	10
▁carnis	10
▁contingit	10
▁sexu	10
▁dimens	10
▁constitutione	10
ponitur	10
▁campo	10
▁separata	10
▁paribus	10
▁perpetuo	10
▁servatur	10
▁magistro	10
▁Scientiae	10
▁macula	10
▁Iudaei	10
▁lapide	10
▁secundaria	10
▁Aquae	10
▁interpreta	10
▁diarii	10
▁adducere	10
▁linguistica	10
▁Berolini	10
▁consulta	10
▁mathematic	10
▁coepta	10
▁culm	10
▁mandata	10
▁instar	10
gebat	10
▁consecrat	10
▁convertit	10
▁legit	10
▁producit	10
▁Prob	10
▁mercede	10
▁vivendum	10
▁genua	10
▁constant	10
▁Iudaeis	10
▁Polonia	10
▁Abel	10
▁infamia	10
solutionem	10
▁pura	10
▁errorem	10
evolutione	10
▁aliquas	10
▁Iudic	10
▁Sicilia	10
acte	10
▁Mol	10
▁appellatum	10
▁telum	10
▁fatum	10
▁explora	10
▁extendit	10
▁opinioni	10
▁martyr	10
▁retinuit	10
▁plurimos	10
▁tabulas	10
▁exeunte	10
▁sumptu	10
▁nego	10
▁oeconomicae	10
▁studiorum	10
▁gubernatori	10
▁navigatione	10
▁redditur	10
▁excogitavit	10
▁spectatore	10
▁notas	10
▁dulci	10
▁plerisque	10
▁religiosa	10
▁Hispani	10
▁Francicae	10
▁oppugna	10
▁nuntiavit	10
cidit	10
▁Nationali	10
▁cast	10
▁Novo	10
▁honor	10
pulmon	10
▁ure	10
▁fertil	10
▁prudens	10
▁appell	10
▁Aed	10
▁locution	10
anos	10
▁ductu	10
▁civile	10
▁comitatus	10
▁divisi	10
▁dictu	10
▁Ambiorigi	10
▁spectant	10
abili	10
▁vetat	10
▁sacerdos	10
▁fabulam	10
▁reditu	10
▁classi	10
ponens	10
▁Plato	10
▁fabulas	10
▁Veneris	10
▁musicus	10
▁vulnere	10
▁computatrali	10
▁Iovis	10
▁manifest	10
▁quales	10
▁puni	10
▁fores	10
▁Vive	10
▁aerarium	10
▁inventi	10
▁Francicus	10
▁saeculum	10
▁sedens	10
▁pictor	10
▁vivimus	10
▁Anglicae	10
▁Stell	10
▁possidere	10
▁feminas	10
▁varietate	10
▁altitudo	10
▁Nervi	10
▁eru	10
▁constanter	10
▁prudenter	10
▁victu	10
▁Ordini	10
▁aliquantum	10
▁tractand	10
▁Medio	10
▁cibos	10
▁parta	10
▁cibi	10
▁ignota	10
▁crescunt	10
▁praetorio	10
▁curiam	10
▁generale	10
▁impar	10
▁liceret	10
▁continentem	10
gerit	10
▁monstrat	10
▁successore	10
lita	10
▁opina	10
▁gravior	10
▁interiorem	10
▁educ	10
▁creditum	10
▁eloqui	10
▁tribuit	10
▁castella	10
▁divers	10
▁oneraria	10
▁aestimatur	10
▁permane	10
▁trabe	10
▁commo	10
▁indicium	10
▁amo	10
▁absurd	10
▁inspira	10
▁contempla	10
▁captivi	10
▁cadent	10
▁oneri	10
▁pyramid	10
▁nuntii	10
▁contulerunt	10
▁implevit	10
▁aura	10
▁explorata	10
▁recepto	10
▁habebatur	10
▁Lucius	10
▁graves	10
▁Vespasian	10
▁oritur	10
▁aliarum	10
▁positam	10
llis	10
acta	10
▁Advers	10
▁termin	10
utum	10
▁palma	10
▁DC	10
▁sermonis	10
▁procedere	10
▁temperantia	10
▁offer	10
▁contrario	10
▁obscuri	10
Deus	10
▁moveri	10
▁custodia	10
misit	10
▁caedes	10
▁igne	10
uisset	10
▁consolatione	10
▁sequatur	10
▁populorum	10
▁q	10
▁vast	10
▁memini	10
▁dividit	10
▁cog	10
▁quandoque	10
▁admiratione	10
viola	10
▁Phar	10
▁tollere	10
▁lacrimis	10
▁progressi	10
▁plebe	10
▁ligna	10
▁aeterna	10
▁permisit	10
▁vada	10
▁sonant	10
▁scorpio	10
abatur	10
▁arti	10
▁audite	10
▁telis	10
▁egregie	10
▁humile	10
▁deposuit	10
▁committ	10
▁frequentes	10
▁patiuntur	10
▁persuadere	10
pub	10
▁parce	10
▁interfecerunt	10
solvi	10
gloss	10
▁vitio	10
▁contemni	10
▁nemini	10
▁LX	10
▁pietate	10
▁licere	10
uotiens	10
▁Iohann	10
▁tantus	10
▁morbum	10
▁meso	10
cesserat	10
▁convivio	10
▁imperata	10
▁iusta	10
▁prohibe	10
entissime	10
▁vocabatur	10
edere	10
▁latus	10
▁superest	10
▁decus	10
▁paratus	10
▁pug	10
▁addidit	10
▁dicto	10
▁transiit	10
▁primogenitus	10
▁securitatem	10
▁volucre	10
facta	10
▁fontem	10
▁Gallicis	10
▁occidere	10
▁transitu	10
▁traditis	10
▁iudex	10
▁hiemi	10
▁stipendium	10
▁angustias	10
▁iussisset	10
▁aberat	10
▁Haedui	10
▁oporteret	10
▁habiturum	10
▁audac	10
▁remanere	10
▁proeliantur	10
▁potuissent	10
▁infirmi	10
▁IIII	10
▁perfidia	10
territum	10
▁moratus	10
▁mundu	10
▁uult	10
▁ibat	10
▁gaudere	10
▁exulta	10
▁retine	10
▁fluctu	10
▁feru	10
▁uerbum	10
▁futurus	10
▁iamque	10
▁ipsae	10
▁diceretur	10
▁principe	10
▁dicent	10
misisti	10
▁serpen	10
▁uerbis	10
▁graui	10
▁langu	10
▁uerbo	10
▁abyssum	10
▁foeda	10
▁uiua	10
▁famul	10
▁perfectus	10
tende	10
▁sermones	10
▁feceris	10
▁firmamento	10
▁ieiun	10
▁satiu	10
▁uos	10
▁replet	10
▁iumenta	10
▁lapis	10
▁aedificavit	10
▁ponam	10
▁laboribus	10
▁concidit	10
▁praeceperat	10
bitis	10
cedentes	10
▁percussit	10
▁panis	10
▁date	10
▁levior	10
▁videtis	10
▁ignorat	10
▁iudico	10
▁acceperit	10
▁videris	10
▁adulescentem	10
▁tribunos	10
▁quantus	10
▁cervic	10
▁mittam	10
▁beneficiis	10
▁adfici	10
▁profectione	10
▁occupatis	10
▁praemittit	10
▁insecuti	10
▁comporta	10
▁ascensu	10
▁intermisso	10
▁petierunt	10
▁Arverno	10
▁lacer	10
▁perspecta	10
▁Fabio	10
▁vulgus	10
venerat	10
▁pugnaretur	10
▁Crassum	10
▁Menapio	10
▁collocat	10
▁dimicare	10
▁timenda	10
▁disponere	10
▁Ciceronis	10
▁premunt	10
▁praecipi	10
▁Bituriges	10
▁indulgentia	10
▁contentum	10
▁Capuam	10
▁laudare	10
▁virtutum	10
▁Metrodor	10
▁malign	10
▁ebrius	10
▁claritas	10
accharia	10
▁crucifig	10
clavicula	10
occipit	10
ospin	10
▁небесах	9
▁ясны	9
▁благослови	9
▁отношениях	9
▁женой	9
▁наследником	9
▁необходимы	9
à	9
▁Michel	9
▁сидеть	9
▁распорядился	9
▁гора	9
▁Берн	9
шкин	9
▁Армении	9
▁Внезапн	9
▁ребёнка	9
▁разместил	9
▁призрак	9
▁хотела	9
▁Энн	9
▁считаться	9
▁наблюдение	9
▁статуя	9
▁примеры	9
▁Coll	9
▁elegi	9
▁scriben	9
▁Впоследствии	9
▁Ангела	9
▁спать	9
▁предоставил	9
несла	9
▁ситуации	9
▁Граф	9
▁стоп	9
бежать	9
▁Испол	9
▁Ватикан	9
▁Edition	9
▁внешне	9
▁люблю	9
▁Paul	9
▁оппозици	9
▁Весь	9
▁воспитание	9
▁сожалени	9
▁девушка	9
▁непрестанно	9
▁Terenti	9
▁Майк	9
▁тел	9
вольно	9
▁будущим	9
▁Александра	9
▁стади	9
▁диктатора	9
▁Edit	9
▁сеть	9
▁модель	9
▁Библиотека	9
республика	9
▁носител	9
▁вероятность	9
▁Конституции	9
▁образова	9
▁последовал	9
▁тяжёлы	9
▁Who	9
▁сцене	9
▁Ган	9
▁награждён	9
▁сокращен	9
▁Административны	9
▁семейн	9
▁Латинск	9
▁удобств	9
▁показан	9
деть	9
▁смогут	9
▁примут	9
▁определённо	9
▁референдум	9
поминаю	9
▁Кипр	9
▁монастыр	9
▁трати	9
▁контракт	9
▁слушателей	9
есса	9
▁впустую	9
▁началось	9
▁рассуждения	9
▁кризис	9
▁полон	9
▁погибает	9
▁Перв	9
▁классическо	9
▁тоску	9
▁родине	9
▁похвалил	9
▁посещени	9
▁Старший	9
Естественн	9
▁надежд	9
мень	9
▁имело	9
ёс	9
▁экзамен	9
AS	9
▁проживал	9
▁Сильв	9
▁забывает	9
ibo	9
▁Библии	9
▁земного	9
▁депутатов	9
▁сумел	9
▁Вселенной	9
▁деревьев	9
Русск	9
▁распущен	9
демократическ	9
▁Вос	9
▁Албани	9
▁Основн	9
▁завещания	9
иса	9
▁потерпел	9
▁ЕС	9
▁полна	9
▁реали	9
▁помнить	9
▁Туда	9
▁административно	9
▁отправлен	9
▁греха	9
▁соглашение	9
▁выпуска	9
▁бессмерти	9
▁предполагает	9
▁домашне	9
▁Следующ	9
▁осудил	9
▁алфавит	9
▁состоялся	9
▁Хер	9
▁Канады	9
▁практик	9
▁лишения	9
▁Boy	9
▁приступил	9
▁обсерватории	9
▁Кад	9
▁объединени	9
▁утверди	9
▁сокровища	9
▁служба	9
ливый	9
арша	9
глас	9
гут	9
▁Венгр	9
Si	9
▁зверь	9
▁Столиц	9
▁добива	9
эва	9
▁умерших	9
▁пастухи	9
▁Apple	9
▁предупредить	9
▁ассоциации	9
▁Младш	9
▁Компани	9
▁схватить	9
дайте	9
деляют	9
▁вперёд	9
▁бок	9
▁судебны	9
ителей	9
▁меньшинств	9
ринг	9
лина	9
▁электричес	9
▁Толкин	9
▁украински	9
▁сидя	9
нимать	9
▁ботаник	9
▁достижени	9
▁назначение	9
▁поддержива	9
эс	9
▁специалист	9
▁министерств	9
▁товаров	9
тем	9
акция	9
▁Extrem	9
зир	9
▁религии	9
▁августе	9
aps	9
▁европейско	9
нице	9
▁отбросил	9
▁vadis	9
▁мечами	9
▁созданный	9
▁наслаждаться	9
▁покидает	9
▁покажет	9
▁палат	9
▁близк	9
▁берут	9
▁цивилизаци	9
▁Счита	9
▁свободные	9
▁камне	9
▁переселени	9
▁Марин	9
Вот	9
звестен	9
▁коммуны	9
▁уцелел	9
▁богу	9
▁крупным	9
▁учить	9
▁запер	9
▁сегодняшний	9
▁viva	9
▁спит	9
▁взяти	9
▁четвер	9
От	9
▁пациент	9
▁Нептун	9
▁Great	9
▁ест	9
▁Гораций	9
▁тысячами	9
летели	9
▁жале	9
анга	9
▁устроен	9
▁гостей	9
▁светло	9
▁лишним	9
▁никако	9
▁Rau	9
▁Спор	9
▁Senatu	9
▁сериала	9
▁умом	9
▁обстоит	9
▁благородно	9
▁гости	9
▁прошлое	9
▁кровью	9
▁медицинск	9
▁угрожал	9
▁Centr	9
▁оригинально	9
▁прекращени	9
▁запрещены	9
▁подписан	9
▁договора	9
▁двора	9
коммерческ	9
▁Нобелевск	9
▁доверие	9
▁наместник	9
рабатыва	9
▁середины	9
▁специальны	9
▁Консул	9
рабатывать	9
▁построенны	9
▁административны	9
▁колебания	9
анка	9
▁прибыль	9
▁желез	9
▁пережив	9
▁снять	9
Мо	9
▁последнюю	9
Europe	9
▁родилась	9
▁рыбы	9
▁частично	9
▁следующее	9
▁старых	9
▁написанное	9
▁женщину	9
▁недостатк	9
▁очереди	9
▁вдвое	9
▁английским	9
▁Petroni	9
остатки	9
▁Ант	9
▁уровень	9
▁завоевал	9
▁необыкновенно	9
▁вернул	9
▁Список	9
▁хранил	9
▁изображения	9
▁революции	9
юксембург	9
▁размер	9
▁палец	9
▁исполнилось	9
▁дизайн	9
▁жёстк	9
▁Москве	9
▁выразил	9
▁октябре	9
▁гарнизон	9
▁Альб	9
▁основыва	9
▁Греции	9
▁королев	9
▁предназначен	9
▁Дур	9
▁молния	9
▁залог	9
▁призна	9
▁бесс	9
▁хранит	9
▁Создан	9
подобный	9
▁выгодно	9
▁необходим	9
▁Небес	9
▁поймет	9
▁Каролин	9
▁производство	9
▁столицы	9
▁желаешь	9
▁приветствие	9
▁поклонник	9
ish	9
▁представлял	9
▁среднего	9
▁фамилии	9
▁могил	9
▁наблюдал	9
▁опасался	9
▁новыми	9
▁Will	9
▁ополч	9
международный	9
нид	9
▁кабинет	9
▁запреща	9
▁Система	9
малая	9
▁знаменито	9
▁предметы	9
▁исполнени	9
▁обязанностей	9
▁возобнови	9
▁исполнения	9
▁заняться	9
▁уроки	9
▁Борис	9
▁неверно	9
▁телеканал	9
▁Валерий	9
суда	9
▁оставшиеся	9
▁закончить	9
▁гласит	9
▁ситуаци	9
▁Росси	9
▁боро	9
▁Говори	9
следовали	9
гады	9
▁тест	9
▁спуска	9
шла	9
▁осень	9
▁четырнадцать	9
шний	9
▁выступила	9
▁площад	9
▁границу	9
▁религи	9
▁высокая	9
▁единого	9
▁разруши	9
хватывают	9
▁особы	9
▁взглядом	9
▁Video	9
▁Palm	9
▁Крит	9
▁упал	9
▁слабый	9
▁женского	9
▁ga	9
▁оправдан	9
▁съел	9
▁звуки	9
▁Rand	9
▁обвинение	9
▁еврейск	9
▁правителя	9
▁продав	9
▁певица	9
фильм	9
▁попытк	9
▁хл	9
▁устраивал	9
▁газ	9
▁боевым	9
▁песен	9
▁Анне	9
▁лихорадк	9
аемый	9
▁Внешн	9
▁Digital	9
▁эллиптическ	9
▁Августу	9
резерв	9
▁отказывается	9
▁вредить	9
▁прибав	9
▁оказывать	9
▁сроку	9
▁проявля	9
▁сочинений	9
ходов	9
▁Украины	9
▁Муж	9
▁разбит	9
▁убедительно	9
▁прекрасного	9
▁толст	9
▁способствует	9
▁заботится	9
▁утвердил	9
▁Числ	9
▁восстанавлива	9
▁наибольше	9
▁сенатора	9
▁удачи	9
вели	9
▁зерн	9
▁Граждан	9
▁площадь	9
▁Solo	9
▁сохранял	9
▁Cro	9
полис	9
▁похожа	9
▁Тир	9
ствовать	9
▁Игр	9
▁направил	9
▁Господне	9
▁запущен	9
▁Аполлон	9
▁пункты	9
подобие	9
old	9
▁образцы	9
▁прибытия	9
Homeri	9
Macmillan	9
ингтон	9
▁Вып	9
▁перенос	9
▁объясня	9
▁одежде	9
▁установить	9
▁важнее	9
▁огромн	9
▁Куз	9
▁плодородн	9
▁Сталин	9
▁Corpor	9
▁рассчитывал	9
▁рога	9
▁понимают	9
ждал	9
▁ухода	9
▁флаг	9
▁Серби	9
▁Бри	9
▁Rock	9
▁блюд	9
▁образы	9
▁писательница	9
▁миллион	9
смотрев	9
▁Antiqu	9
▁импери	9
▁соединя	9
▁космически	9
▁добрым	9
▁спрашивал	9
▁связанны	9
▁Вспомни	9
▁маршрут	9
▁Белл	9
▁Юпитер	9
ибо	9
▁окрестностях	9
▁отделяющ	9
▁простить	9
▁Тита	9
▁cathedra	9
▁Petro	9
▁doctrina	9
стон	9
▁умершего	9
▁Ori	9
▁политику	9
▁поняти	9
▁наименьш	9
▁священно	9
▁недавне	9
▁верит	9
▁Up	9
▁данному	9
ложные	9
▁Benedict	9
▁вез	9
▁меньшее	9
▁хранить	9
▁возвышенности	9
▁божественн	9
▁внешних	9
▁Валерия	9
▁республики	9
ionale	9
▁generali	9
▁Face	9
▁историк	9
▁Валь	9
▁пробуди	9
▁постановил	9
▁смогли	9
▁трибуны	9
▁Rossi	9
▁воинам	9
▁Пав	9
щихся	9
▁рассматривал	9
▁империя	9
olib	9
▁производил	9
▁хозяева	9
▁уйдет	9
▁бессмертн	9
▁пили	9
zo	9
▁Classi	9
▁Тяжел	9
▁доля	9
▁одинаковым	9
▁мальчиш	9
▁третьем	9
▁простым	9
▁успев	9
▁предводительств	9
▁значительной	9
▁пребывает	9
▁сообщают	9
▁Океан	9
▁прорва	9
▁завоевания	9
▁знаки	9
▁Sab	9
▁Arthur	9
▁XXI	9
▁поверхности	9
▁флота	9
▁монах	9
▁экономически	9
▁отрица	9
▁Отче	9
ppe	9
▁свободное	9
тянется	9
▁враждебно	9
▁рухнул	9
▁испытывает	9
▁Magic	9
▁стремление	9
льской	9
▁старые	9
▁предстояще	9
▁чекан	9
▁обеща	9
▁небольшое	9
▁вечера	9
▁числу	9
ходящие	9
стремились	9
▁численность	9
▁обычное	9
▁метео	9
▁устраива	9
▁Arg	9
▁геометр	9
▁боясь	9
▁предать	9
▁любимы	9
шли	9
▁фас	9
▁команду	9
▁готовил	9
alan	9
▁разно	9
▁долине	9
▁существу	9
▁столов	9
▁Юлий	9
▁задерж	9
▁стрелков	9
▁Черн	9
▁нынешни	9
▁товар	9
▁желании	9
▁Bert	9
rch	9
▁son	9
▁высших	9
▁держится	9
▁Republic	9
▁строит	9
▁земных	9
▁роде	9
▁разным	9
▁удиви	9
остистый	9
▁Buddhism	9
▁лучшему	9
▁ветеранов	9
▁отчет	9
anea	9
censis	9
▁глад	9
гиба	9
▁множестве	9
▁убежал	9
▁вдов	9
свет	9
мешать	9
▁изображение	9
▁рассвета	9
▁macr	9
раст	9
▁действовал	9
шествии	9
▁братом	9
▁глубин	9
▁собрать	9
▁Pauli	9
йти	9
▁сорока	9
▁nobilis	9
▁ужаса	9
▁овладел	9
▁тьма	9
▁многочисленных	9
▁звери	9
давалось	9
▁убежище	9
▁потомков	9
▁рождается	9
остаток	9
ющееся	9
▁Port	9
▁Doctor	9
▁сыновьями	9
▁persecu	9
▁гонит	9
мешки	9
▁обрыва	9
▁избалован	9
▁гадов	9
▁небесной	9
▁memor	9
▁рва	9
▁существующи	9
давайте	9
▁допуска	9
han	9
▁сплошн	9
{	9
▁recentior	9
▁XXVII	9
▁даром	9
▁атаковать	9
▁покончить	9
▁сдачи	9
TE	9
▁имеюще	9
▁проч	9
▁hereditat	9
▁позволит	9
▁молчание	9
лады	9
▁надеяться	9
▁Pha	9
▁долгий	9
▁Куп	9
играет	9
▁живую	9
▁RAI	9
▁маленько	9
▁fortius	9
▁судья	9
▁пыл	9
▁ходу	9
▁Sept	9
etum	9
▁звер	9
▁од	9
▁свит	9
▁Regin	9
кою	9
▁галл	9
▁труслив	9
▁отвлечь	9
▁крыло	9
▁плотину	9
▁господином	9
▁подобного	9
▁стру	9
▁случалось	9
▁спеш	9
▁входе	9
▁стараясь	9
▁перевес	9
▁колебаний	9
▁криками	9
rivat	9
▁прославля	9
▁произнести	9
фаланг	9
▁легиону	9
▁Association	9
▁разрыва	9
▁пятнами	9
▁короткий	9
▁друж	9
ливается	9
▁обстрел	9
▁Quintus	9
▁безопасность	9
▁весом	9
▁лицу	9
▁напои	9
▁военном	9
▁пользуются	9
▁искусством	9
▁трупа	9
▁зол	9
▁Hab	9
▁вообража	9
▁сердцем	9
▁малы	9
▁осадны	9
▁рана	9
пытался	9
▁блеск	9
▁скотов	9
▁скреп	9
▁тяжести	9
▁Perit	9
▁rustic	9
▁услыш	9
▁обвинен	9
▁успокоил	9
▁ужасе	9
▁cas	9
▁убедил	9
tone	9
клонить	9
▁рв	9
▁любили	9
▁безумия	9
▁погубить	9
▁общему	9
▁купцов	9
▁умы	9
▁начальников	9
▁отрядов	9
▁секванам	9
▁пехотинцев	9
▁снарядов	9
▁шумом	9
▁целого	9
▁паг	9
▁сражаются	9
▁могущества	9
▁слухам	9
строив	9
▁взяться	9
▁убиев	9
▁обстрелива	9
▁нести	9
▁некуда	9
▁обет	9
▁беспокойн	9
▁представлялось	9
▁затруднения	9
▁обдумыва	9
▁легким	9
▁бегут	9
▁невестк	9
▁предста	9
▁начнет	9
▁начне	9
ношу	9
▁бездной	9
▁изменчиво	9
▁четвертый	9
▁тяжким	9
▁окреп	9
▁явится	9
▁рассуди	9
▁родит	9
▁птицам	9
▁Обрати	9
▁порожден	9
▁Бг	9
▁дню	9
▁впредь	9
▁вашим	9
ыновья	9
▁виноградник	9
▁первенец	9
▁Герар	9
▁Фарр	9
▁увидят	9
▁Мамр	9
▁Сеир	9
▁пламя	9
▁колодезь	9
▁нож	9
▁ослов	9
▁сторонников	9
▁целым	9
▁полководцев	9
▁Флакка	9
▁сенаторы	9
▁молебствие	9
▁достоинству	9
▁напере	9
▁богатств	9
▁возвращен	9
▁консулам	9
▁головой	9
▁Басил	9
▁явиться	9
▁умеренность	9
▁жребию	9
▁Оргеториг	9
▁гельветами	9
▁укрепить	9
▁соседним	9
▁расставил	9
▁лежа	9
▁спаслись	9
▁римское	9
▁распустил	9
▁укреплениями	9
▁долгого	9
▁выдачи	9
▁подальше	9
▁испытать	9
▁непобедим	9
▁тревер	9
▁полчища	9
▁доверить	9
строились	9
▁снаряды	9
▁подступ	9
▁лишает	9
▁вдобавок	9
▁рвы	9
▁указали	9
▁уверенности	9
▁Лигер	9
▁повредить	9
▁бодр	9
▁удобны	9
▁отдаленных	9
▁добыть	9
▁Коммия	9
▁доставить	9
▁Индутиомара	9
▁Кассивеллаун	9
▁вождя	9
▁легаты	9
▁благодеяния	9
▁намеренно	9
▁око	9
▁козл	9
▁упражня	9
▁причисля	9
▁кадурк	9
▁Луктерий	9
▁прогнать	9
▁Алесии	9
▁извне	9
▁щедро	9
▁Никако	9
▁сенаторам	9
▁принцепса	9
▁статую	9
▁тень	9
▁забота	9
▁берется	9
▁пустое	9
▁кормчего	9
▁достойным	9
▁отпущен	9
▁неразумны	9
▁немал	9
▁презрел	9
▁мука	9
▁Метродор	9
▁чаша	9
▁наслажденье	9
▁стоик	9
▁хвалить	9
▁фортуне	9
▁неприятности	9
▁тягость	9
▁немедля	9
▁больного	9
станет	9
▁ленив	9
▁ввысь	9
▁лишнего	9
▁тонкости	9
▁умозаключени	9
▁возьмет	9
▁Прибавь	9
▁узел	9
▁крапинами	9
▁Гесем	9
▁Елисавет	9
▁мытар	9
▁pa	9
ярный	9
медиальн	9
образный	9
ребер	9
кишечный	9
рудной	9
диафрагмальн	9
дуоденальн	9
▁эндо	9
▁лобно	9
лопаточн	9
челюстно	9
▁Puella	9
▁vitupera	9
▁confi	9
▁Helvetia	9
▁lacus	9
▁victa	9
▁Initium	9
▁comoedia	9
▁matutin	9
▁capti	9
duntur	9
▁argumento	9
▁adhibentur	9
▁scribitur	9
▁confis	9
▁Homerum	9
▁angelum	9
▁Secunda	9
▁poly	9
▁Meridi	9
▁academia	9
▁indaga	9
▁Publica	9
▁nave	9
▁custodias	9
▁cibus	9
pendit	9
▁contribu	9
stitisse	9
▁period	9
▁carmen	9
▁hero	9
▁affici	9
▁homicidi	9
▁Vatican	9
▁valore	9
▁Plurimi	9
▁armati	9
▁Casu	9
▁dilu	9
nil	9
▁proposuit	9
▁vivet	9
▁levat	9
▁cancellari	9
▁Mexican	9
▁suffragiorum	9
▁Certe	9
scriptum	9
▁coniunctione	9
bla	9
▁Puer	9
▁Comitatus	9
▁Gala	9
▁occurrere	9
▁dollariorum	9
▁eosdem	9
▁stellae	9
▁indice	9
▁labi	9
▁Romanae	9
▁tumultus	9
▁scholas	9
▁difficultas	9
▁communitate	9
▁poterunt	9
▁approba	9
▁indig	9
▁Sigl	9
▁clientes	9
]	9
▁dens	9
▁populari	9
▁negare	9
▁efficiunt	9
▁technologia	9
▁pupa	9
▁discrimen	9
▁consocia	9
▁iunior	9
▁sacc	9
▁laurea	9
▁Duas	9
▁introduxit	9
▁consecuta	9
▁prospera	9
▁Palatium	9
▁breve	9
▁positis	9
▁Generalis	9
▁communitati	9
▁vinculis	9
▁Flaccus	9
atria	9
▁theatri	9
▁electa	9
▁nominata	9
▁obliqu	9
▁ineunte	9
▁Albania	9
▁cognomen	9
▁natio	9
▁sodal	9
▁elabora	9
▁reponere	9
▁Turciae	9
▁dignitas	9
▁didicer	9
▁pecuniaria	9
▁Quattuor	9
▁Tantum	9
▁confirmata	9
▁studentes	9
▁intellectum	9
▁Pedilusor	9
▁frequenter	9
▁diploma	9
▁occupavit	9
▁instituti	9
▁incend	9
▁minimo	9
▁redintegra	9
clusus	9
volare	9
Biblia	9
▁Francogallica	9
▁quaestor	9
▁militaria	9
▁equestre	9
▁Orientalis	9
▁factu	9
▁micro	9
▁amator	9
▁epigramma	9
sexuales	9
▁infantes	9
▁bestia	9
▁tantummodo	9
▁vocare	9
▁calcul	9
▁Magnitud	9
▁lucra	9
▁censor	9
▁classifica	9
▁regioni	9
▁Russicus	9
▁tropic	9
▁Aequ	9
▁Niger	9
▁Christianu	9
▁gubernatio	9
▁Iaponici	9
▁militia	9
▁populos	9
▁opprim	9
▁evolv	9
▁publicata	9
▁Modo	9
▁terrestri	9
Orientali	9
▁endemica	9
▁coniectura	9
▁medica	9
▁appellari	9
▁qualitate	9
▁triumphum	9
rare	9
▁molest	9
▁Inveni	9
▁gratissim	9
▁exilio	9
▁volens	9
▁Carolina	9
▁facultatibus	9
ismo	9
▁litora	9
▁academi	9
▁conviva	9
▁securus	9
Latine	9
▁cancr	9
▁ictus	9
▁mature	9
▁pueritia	9
▁explana	9
▁Iac	9
▁comprehend	9
▁longissim	9
mpe	9
▁manere	9
▁aestatis	9
▁immigra	9
▁certaminibus	9
▁uix	9
▁aeternam	9
▁obsidione	9
▁cogunt	9
▁charta	9
▁obsigna	9
probari	9
▁damno	9
▁inventor	9
▁hereditate	9
▁regressus	9
▁publicas	9
▁mutatione	9
▁cae	9
▁sciamus	9
▁integrum	9
▁consequitur	9
▁educa	9
▁gladii	9
▁Factione	9
▁minoribus	9
▁participa	9
▁Iur	9
▁adulti	9
▁grandis	9
▁Hebr	9
▁Hiberni	9
▁laudat	9
▁trem	9
▁propinqui	9
▁postremo	9
▁Semper	9
▁singularis	9
▁Europaeis	9
▁migrat	9
▁producti	9
▁amabat	9
stantia	9
▁Redi	9
ceperunt	9
quoque	9
▁lapidibus	9
▁iact	9
etsi	9
▁censuit	9
colunt	9
▁Multos	9
▁carere	9
▁mirabile	9
▁vincit	9
▁obsidum	9
▁exter	9
▁administr	9
▁Regul	9
▁composuit	9
▁proclama	9
▁colorem	9
▁vivendi	9
▁tolera	9
▁descripta	9
▁femor	9
▁Nobis	9
▁animas	9
▁ludorum	9
▁dissipa	9
▁Praesen	9
▁accipiunt	9
▁dextra	9
▁vulnerati	9
ologus	9
▁episcopus	9
derant	9
▁periodico	9
tria	9
▁Faction	9
oga	9
▁depositu	9
▁argentaria	9
▁condi	9
▁contrari	9
▁gravia	9
▁postula	9
▁Quisqu	9
▁emigr	9
▁novissimi	9
▁coacti	9
▁director	9
▁Persic	9
▁conclav	9
▁Venetiola	9
▁inclusa	9
▁navigand	9
▁dictis	9
▁accessione	9
scripserunt	9
▁Punici	9
▁quaestio	9
▁iuveni	9
▁videlicet	9
▁veloci	9
urae	9
viginti	9
▁afflict	9
▁festum	9
▁Asteroide	9
▁praefecto	9
▁observat	9
▁antiquis	9
arios	9
▁legitim	9
▁Pecunia	9
▁negant	9
▁tempestas	9
▁Poloniae	9
▁intenta	9
unde	9
▁sententiis	9
▁inferior	9
▁caritatis	9
▁centrum	9
▁vertit	9
▁determina	9
▁volent	9
▁attingunt	9
▁agminis	9
▁Hodiern	9
▁gravem	9
▁regionum	9
▁collum	9
▁Nicolaus	9
▁Quas	9
▁reddita	9
▁longas	9
▁concessa	9
mortuus	9
▁traduxit	9
▁recusavit	9
▁superare	9
▁fontes	9
▁pessima	9
▁constructa	9
▁socialistica	9
▁horae	9
▁idonea	9
▁capillo	9
▁occupata	9
gari	9
▁tabulis	9
▁gerend	9
▁munita	9
▁coloni	9
▁factam	9
▁rogavit	9
▁docens	9
▁Decembre	9
▁dimidia	9
▁Civitatis	9
▁fabulis	9
▁incendiis	9
▁generibus	9
guntur	9
▁implicat	9
▁televisifici	9
▁invenerit	9
bris	9
▁lunae	9
▁difficultatibus	9
▁Misen	9
▁interdiu	9
▁gratuita	9
▁constitution	9
▁desist	9
tralis	9
▁adesse	9
▁Mundi	9
▁loc	9
▁annua	9
▁plebs	9
▁falc	9
▁dubitas	9
▁audientes	9
▁scal	9
▁septentrion	9
▁fluit	9
▁desperatione	9
▁intervallis	9
dimus	9
petit	9
▁succ	9
▁spectare	9
▁Russicae	9
▁sciam	9
▁piscibus	9
▁relinquit	9
▁Diu	9
▁sanctum	9
▁sortem	9
quin	9
fecerunt	9
▁confirmavit	9
audiens	9
▁comedere	9
▁ubicumque	9
▁sanguinis	9
▁tollit	9
▁aurea	9
ductis	9
▁inrita	9
▁conatur	9
▁videbit	9
▁Troia	9
▁deposita	9
dicere	9
▁Petr	9
▁irrita	9
▁Eboracum	9
▁obru	9
▁capitur	9
▁indicem	9
▁columba	9
▁Sale	9
▁virga	9
▁telorum	9
▁versato	9
scenda	9
▁incolunt	9
fecit	9
▁veritati	9
▁fidelis	9
▁litus	9
▁eae	9
▁mediis	9
▁magistratibus	9
▁festina	9
ducere	9
▁ictum	9
▁condiciones	9
▁sancti	9
▁collocata	9
▁demonstrant	9
▁exemplari	9
▁volui	9
▁parvis	9
▁Dieta	9
▁dividi	9
▁Aliqui	9
▁tradere	9
▁fortissimi	9
▁iuventutis	9
▁periclita	9
▁agens	9
▁fungitur	9
▁Gubernatio	9
▁aedem	9
gle	9
▁conloquium	9
scenderunt	9
▁pendent	9
▁organis	9
▁iniquitate	9
▁latr	9
▁tolerantia	9
▁commove	9
▁nub	9
▁fronte	9
▁labe	9
licus	9
▁defend	9
VI	9
▁iudicant	9
▁moralem	9
▁gasi	9
▁auxili	9
▁exspectare	9
▁Nerone	9
▁dispon	9
idio	9
▁dolo	9
▁plurium	9
▁Iulius	9
▁austr	9
▁saxa	9
▁Nazisti	9
emque	9
▁trunc	9
▁narr	9
▁exanima	9
▁canta	9
▁fero	9
▁laps	9
▁inunda	9
▁tulerunt	9
▁cupidi	9
▁Germanico	9
▁alba	9
▁Augustum	9
nihil	9
▁elige	9
▁Scipione	9
ludunt	9
▁inopiae	9
▁consulatus	9
▁Domitio	9
cucurrit	9
▁perturbat	9
▁nonnullos	9
▁stella	9
cuntur	9
▁vitr	9
▁fract	9
uros	9
minibus	9
▁permotus	9
▁mensa	9
▁conloquio	9
▁complexus	9
▁pauperes	9
▁Constantinopoli	9
▁cruci	9
▁exprim	9
pariet	9
eras	9
cipiunt	9
▁dubitare	9
▁oblecta	9
venerit	9
▁simulatione	9
dendum	9
▁graviore	9
▁ungue	9
tatus	9
▁barbarorum	9
▁Nazare	9
▁Tiberium	9
▁cin	9
▁futuram	9
▁Platon	9
▁Err	9
▁perpetuae	9
▁dominis	9
▁sentiat	9
▁circuitus	9
▁dein	9
▁eamque	9
▁reptil	9
▁avidi	9
▁dividere	9
▁dedere	9
▁administrare	9
▁desuper	9
▁accidat	9
▁sacerdotes	9
▁probo	9
▁Agar	9
▁eaque	9
▁monumentum	9
▁longissime	9
▁dices	9
▁adverso	9
▁Fit	9
▁reducit	9
▁vetere	9
▁experiri	9
▁occupat	9
▁proximus	9
▁fun	9
▁viventem	9
▁iustifica	9
▁castello	9
▁sacerdoti	9
▁defecit	9
▁alienae	9
▁diverso	9
▁administrand	9
▁convenirent	9
▁gem	9
▁plac	9
▁multiplicab	9
▁felicem	9
▁currere	9
▁incertis	9
▁exclamavit	9
cedebant	9
▁templa	9
▁taedio	9
▁sterili	9
▁mobili	9
▁vivat	9
▁stulti	9
▁praetura	9
▁creaturae	9
▁dubia	9
▁servitutis	9
▁intenti	9
▁interitu	9
▁Tiberi	9
▁pecunias	9
▁posteris	9
▁Cornelius	9
▁moriar	9
▁Alpes	9
▁occida	9
▁quaeso	9
▁aequali	9
▁Attalus	9
▁superari	9
▁abierunt	9
▁lucerna	9
▁stipendio	9
▁sacro	9
▁deserto	9
▁audacia	9
▁fetu	9
▁equorum	9
▁sensit	9
▁frui	9
▁colligend	9
fuerit	9
▁fortunas	9
▁quaerebant	9
▁mentes	9
▁terren	9
▁paratum	9
fecerit	9
▁quaereret	9
▁uteretur	9
▁impeditos	9
▁alienis	9
▁Bellovaco	9
▁adpropinquare	9
▁cognoverant	9
▁praefecit	9
▁Nervios	9
▁consedisse	9
▁armatorum	9
▁vacare	9
▁abesset	9
▁incitato	9
misisse	9
▁uideo	9
▁incidere	9
▁auctoritas	9
tulisti	9
▁aurem	9
▁flere	9
▁pete	9
▁requies	9
▁absente	9
▁diligit	9
▁quiddam	9
▁mirabili	9
▁tardius	9
▁uiam	9
▁turbis	9
▁suscipiend	9
▁tergum	9
▁ueritate	9
▁respexi	9
▁dicentem	9
▁fiducia	9
▁exiguum	9
▁contumelios	9
▁praesta	9
▁habeas	9
▁appareat	9
▁absit	9
▁uerum	9
▁audierit	9
▁colligi	9
▁possim	9
▁mutabili	9
▁quaerimus	9
▁circumspici	9
▁imbecillita	9
▁intellegat	9
▁ceteras	9
▁laeti	9
xisti	9
tumque	9
▁ferebatur	9
duxerant	9
▁vocabitur	9
▁consuerunt	9
▁ingressi	9
▁iustus	9
▁noctibus	9
▁Gomorra	9
▁vocatum	9
▁benedicen	9
▁adoravit	9
▁tener	9
▁puero	9
▁convivium	9
▁spelunca	9
▁timea	9
▁Ephron	9
▁audias	9
▁hydria	9
▁pulcherrima	9
▁pondo	9
▁caedem	9
▁duci	9
▁obsess	9
▁sentiam	9
▁intelleges	9
▁acrius	9
▁agam	9
▁Quamdiu	9
▁Veni	9
▁consulatu	9
▁scies	9
▁perferre	9
▁sublato	9
▁licebit	9
▁Dolabella	9
▁consiliorum	9
▁rettuli	9
▁exhauri	9
▁nobilem	9
▁veniebant	9
▁gerendi	9
▁sociorum	9
▁existimat	9
▁occupare	9
▁Dumnori	9
▁suspicio	9
▁fossam	9
▁Complur	9
▁incommodi	9
▁Postero	9
▁imperia	9
▁prospici	9
▁impedimento	9
▁impedita	9
▁petentibus	9
▁tristitia	9
▁permanere	9
▁auderent	9
▁petenti	9
▁committend	9
▁movet	9
▁turribus	9
▁sarcin	9
▁perspici	9
▁adpropinqua	9
▁agger	9
▁aberant	9
▁munitum	9
▁oppidani	9
▁desperata	9
▁repentina	9
▁eripere	9
▁tuto	9
▁audita	9
▁defuit	9
▁Commius	9
▁perpetuum	9
▁peditatu	9
▁deterre	9
▁Cassivellaun	9
▁pecoris	9
▁defectione	9
▁oppugnatione	9
▁iudicabi	9
▁honesto	9
▁adsidua	9
▁Biturigum	9
▁cupiditatem	9
▁Bellovaci	9
▁fastigio	9
▁imposuit	9
▁calcar	9
▁parci	9
▁Scipionem	9
▁placere	9
▁consummata	9
▁vani	9
escent	9
▁toga	9
▁damnum	9
▁laxa	9
▁contubernio	9
▁secessu	9
▁luxuriae	9
▁tristi	9
▁restat	9
▁ventri	9
▁viscera	9
▁exigit	9
▁servire	9
▁desideras	9
▁Sapien	9
▁tortor	9
▁nescit	9
▁atqui	9
▁optabili	9
▁Manasse	9
▁sacco	9
▁Helia	9
▁evangeliza	9
thyro	9
iformis	9
encephalon	9
▁fronto	9
▁gastro	9
phrenic	9
masto	9
▁поклялся	8
▁Аллах	8
▁эффективно	8
▁двоих	8
▁ребёнком	8
▁применя	8
▁написаны	8
▁выража	8
▁состоянием	8
▁сохранилось	8
▁Тони	8
парад	8
▁сложност	8
крыть	8
▁Построен	8
▁слабее	8
▁издательство	8
▁пробу	8
▁смеяться	8
▁Сред	8
▁Springer	8
▁скрылся	8
▁немцы	8
ленных	8
▁жертва	8
▁остановить	8
▁рассказывал	8
▁Цен	8
СК	8
НО	8
▁устройства	8
▁Например	8
ставка	8
▁почувствовать	8
▁выдал	8
Меркури	8
▁металл	8
▁Daily	8
процент	8
▁таблиц	8
▁Catul	8
▁Зеландии	8
▁интересы	8
▁объед	8
▁ремонт	8
▁австралий	8
▁готовит	8
▁вклад	8
▁изменений	8
чём	8
Генерал	8
ителен	8
▁осозна	8
▁разделена	8
▁явление	8
▁Скотт	8
▁взято	8
|	8
▁Allen	8
▁Сав	8
▁партий	8
▁Дела	8
▁подчеркну	8
▁корни	8
▁альтернатив	8
▁думаете	8
▁God	8
▁доказывает	8
▁девушки	8
▁Два	8
▁Alph	8
▁начальником	8
▁чудесны	8
▁одиночестве	8
▁поднимается	8
евые	8
▁накопи	8
▁аэродром	8
▁Питер	8
▁Евангели	8
▁Муз	8
▁спектр	8
▁выставлен	8
▁отмеча	8
▁анализ	8
▁частных	8
▁заведен	8
▁собственная	8
▁произведение	8
ография	8
▁выставк	8
▁компьютерны	8
▁давлением	8
является	8
▁старого	8
дека	8
▁сомнева	8
утешественник	8
▁родителям	8
▁пытаться	8
▁Начало	8
▁Западно	8
▁Украине	8
▁Испанск	8
▁Господня	8
▁футбольны	8
плачу	8
▁удостоен	8
▁фронта	8
▁условий	8
▁написанны	8
▁встретить	8
▁Хорошо	8
▁Тех	8
▁глава	8
▁страниц	8
▁Некоторы	8
▁проникнуть	8
▁семейств	8
▁миллиард	8
▁Имеют	8
▁Unwin	8
▁Меч	8
▁присоединил	8
▁Fire	8
▁гумани	8
▁Григори	8
▁Доминик	8
▁продвига	8
▁Музей	8
▁эпидеми	8
▁послужил	8
▁отказывался	8
оенная	8
▁располагают	8
▁барабан	8
▁утверждаю	8
кина	8
▁страницы	8
▁поймать	8
▁Неожиданно	8
▁родственников	8
▁культурны	8
AC	8
▁Особенно	8
▁скандал	8
▁секретар	8
▁северно	8
▁чум	8
▁принесло	8
▁пешком	8
▁похож	8
▁погибших	8
▁сокращ	8
▁проходили	8
▁больший	8
▁аромат	8
▁Душ	8
▁почётн	8
ложение	8
▁идеал	8
▁возвыша	8
▁отн	8
▁попали	8
▁Кап	8
▁вопроса	8
▁корон	8
▁танц	8
▁грамот	8
▁расположенны	8
BS	8
ГУ	8
▁освобожден	8
▁теория	8
▁уверенно	8
▁отчёт	8
▁холодно	8
▁Габ	8
▁Японск	8
▁пробить	8
▁попытка	8
▁посл	8
▁Свой	8
▁покрыт	8
▁Прав	8
▁застал	8
▁королева	8
▁каникул	8
▁разрешение	8
извести	8
ительную	8
▁Plan	8
▁медицине	8
▁созданная	8
▁убийстве	8
▁шведски	8
▁арабски	8
▁носили	8
▁соблюда	8
▁Король	8
▁управлял	8
▁Award	8
▁Какое	8
▁покинули	8
▁персонажей	8
▁методы	8
▁Блаженн	8
▁осенью	8
▁гонят	8
▁психологическ	8
▁выда	8
▁профессиональн	8
▁достижения	8
▁собаки	8
▁Третий	8
▁интенсивн	8
▁слаб	8
▁подготовк	8
▁Отечеств	8
▁сохраняет	8
▁Член	8
▁дивизии	8
жных	8
▁стиль	8
▁молодёж	8
ящих	8
▁Джеймс	8
▁ожидание	8
▁Климат	8
▁диктатуры	8
▁Сидон	8
▁уникальн	8
▁познакомиться	8
категори	8
▁Каль	8
▁англичан	8
▁голы	8
▁Лан	8
▁музея	8
▁использования	8
▁превратил	8
▁собран	8
▁секс	8
▁противопоставля	8
несли	8
▁обеспечения	8
▁Верховн	8
▁ехал	8
АР	8
▁Юго	8
Восточн	8
▁Существ	8
▁престиж	8
Распространен	8
▁налог	8
▁фестивал	8
сылал	8
▁Мог	8
▁музыку	8
▁отпуск	8
uz	8
▁закончил	8
▁кольцо	8
▁реклам	8
▁рек	8
▁рассказа	8
▁распрода	8
▁возглавил	8
▁обознача	8
▁Королевств	8
▁пунктов	8
▁Гали	8
▁землетрясения	8
против	8
ложный	8
▁знамениты	8
▁Работал	8
рой	8
▁Origin	8
▁Алис	8
▁stet	8
емого	8
▁космическо	8
▁островах	8
▁счастью	8
▁волшеб	8
могла	8
▁прибытие	8
▁мораль	8
▁сели	8
▁выполнять	8
▁отличия	8
▁сопровожда	8
▁Publications	8
▁Universal	8
▁Джексон	8
▁императорско	8
▁уничтожения	8
▁Сирия	8
тво	8
▁Корее	8
▁эры	8
▁Эдвард	8
▁Фрэнк	8
▁Урана	8
печатан	8
▁наблюдать	8
▁жесток	8
▁Имел	8
▁Генри	8
▁знакомы	8
смеется	8
▁музыке	8
▁распоряжение	8
ядерны	8
являлся	8
▁Генрих	8
▁начав	8
▁Отца	8
▁укрепляет	8
▁нежно	8
▁Эп	8
▁задумыва	8
▁вспоминаю	8
▁соединение	8
▁полным	8
▁обращаться	8
▁Единственн	8
▁настроен	8
▁рассчитыва	8
▁Алекс	8
▁показания	8
▁Францию	8
▁показаться	8
▁Венеции	8
▁треть	8
ющем	8
Valentin	8
▁дистанци	8
▁отправлял	8
▁орудие	8
▁штаб	8
▁битве	8
▁снаружи	8
▁Green	8
▁восточной	8
▁территориях	8
▁Of	8
▁Nis	8
▁благодарностью	8
▁газеты	8
летнего	8
▁попытку	8
ьте	8
▁сужден	8
чать	8
▁Pontific	8
▁зрелища	8
▁супруг	8
▁музыкальны	8
крывать	8
▁предыдущем	8
▁построек	8
▁изгнан	8
▁модели	8
▁научиться	8
▁эмигрировал	8
▁Стивен	8
▁комисси	8
▁налогов	8
▁либерал	8
▁падают	8
▁зрителям	8
▁нуждаются	8
вард	8
▁восхищен	8
майор	8
▁участок	8
▁оказать	8
▁Добры	8
Немецк	8
▁восточных	8
▁необходимого	8
лялся	8
▁эпизодов	8
▁рядах	8
▁положено	8
▁подан	8
будет	8
▁жалованье	8
▁Побед	8
рц	8
▁триумфа	8
▁слом	8
▁величайше	8
▁цветущ	8
▁Эст	8
▁запрещен	8
▁Герман	8
▁Массачусетс	8
енщины	8
▁Изображ	8
▁приходе	8
временная	8
▁приспособлен	8
▁низк	8
▁Circ	8
▁Maximus	8
падения	8
воеобразно	8
▁наука	8
▁Писания	8
▁способности	8
▁вины	8
▁огромной	8
▁чувствовали	8
▁случаях	8
▁you	8
▁солдата	8
▁гражданских	8
▁восьмой	8
▁благодарны	8
▁южн	8
▁умеренности	8
▁Ислам	8
пить	8
▁судебно	8
▁атаке	8
▁Ирак	8
▁наследник	8
▁принадлежащ	8
▁Bill	8
оболочка	8
▁свят	8
▁дворец	8
▁Shi	8
▁триумфальны	8
▁отказывал	8
АН	8
▁thr	8
▁Holland	8
▁фар	8
▁Rosa	8
бором	8
▁столице	8
▁Марса	8
жусь	8
▁факультет	8
▁разгром	8
▁вирус	8
ПО	8
▁существовал	8
▁Open	8
▁Newton	8
▁Орден	8
▁используют	8
▁оспарива	8
▁Центрально	8
▁ангел	8
▁Французск	8
▁Success	8
▁старшей	8
▁землетрясени	8
▁проще	8
летал	8
▁сбежа	8
▁долгу	8
▁воспринима	8
▁Землю	8
симп	8
одержит	8
▁глубине	8
▁Руф	8
▁рекорд	8
▁Римский	8
▁Групп	8
▁компанией	8
▁консульски	8
▁консуляра	8
делить	8
▁разрушил	8
▁золотой	8
▁всеобщ	8
▁фабри	8
▁Mons	8
▁крыш	8
▁поворот	8
▁страшны	8
▁получивши	8
gro	8
▁Ким	8
▁молоды	8
▁территория	8
▁достоинство	8
▁лучших	8
НК	8
▁Marti	8
▁божественное	8
▁Time	8
▁лишил	8
▁владений	8
вавших	8
▁Лес	8
▁выносливость	8
▁Георг	8
▁изображений	8
▁реализова	8
▁партию	8
▁совершенства	8
▁способна	8
▁Anglo	8
▁сценари	8
▁оказывают	8
▁индийски	8
▁сцены	8
▁взглянуть	8
▁листья	8
▁отказ	8
тельного	8
▁убийца	8
▁достойное	8
▁попасть	8
▁колонн	8
▁огне	8
▁пребывания	8
обществ	8
▁Церкви	8
▁оскорбления	8
▁проведён	8
Pop	8
▁задне	8
▁времён	8
▁знаменитый	8
рывают	8
▁приглашен	8
▁собирал	8
▁Юр	8
казывают	8
нимая	8
▁частях	8
▁гас	8
▁проводи	8
▁Atri	8
▁увлек	8
точный	8
▁затрудня	8
▁ранеными	8
▁Roy	8
▁понимая	8
▁укрепил	8
оставляли	8
чистых	8
▁единственной	8
▁петл	8
▁вспомни	8
▁ценз	8
▁несут	8
▁удивление	8
▁одолел	8
▁предметом	8
▁преступно	8
▁хороший	8
крыты	8
▁воспитан	8
▁решений	8
▁текста	8
▁автомобили	8
▁Hal	8
▁коллеги	8
▁разновидност	8
▁ideoque	8
снилось	8
▁опыте	8
▁старшего	8
▁singulari	8
▁указывают	8
анна	8
▁оплакива	8
▁бесполезно	8
▁пятнадцати	8
▁Quart	8
▁застав	8
▁командовал	8
▁слышит	8
▁Night	8
▁убивать	8
▁копий	8
▁назначал	8
▁выступлени	8
▁канат	8
▁мосту	8
▁представляют	8
▁вступал	8
шими	8
▁внутренни	8
▁муниципия	8
▁ждут	8
▁Instrument	8
▁золотых	8
▁уверенностью	8
▁West	8
▁Египтяне	8
▁верный	8
▁хватило	8
▁стрел	8
hog	8
▁Владыка	8
▁доклад	8
▁прося	8
щегося	8
▁захватили	8
▁повторен	8
▁деревень	8
▁признавал	8
вых	8
hart	8
▁торопи	8
▁отпустить	8
▁междоусобн	8
▁наступило	8
▁пережил	8
▁Арт	8
зволь	8
▁поздравля	8
временно	8
▁успешны	8
▁Господом	8
казывая	8
▁драгоценны	8
▁хал	8
▁встретили	8
▁пыль	8
▁условиям	8
▁считался	8
▁сопровождал	8
hol	8
▁созда	8
казатель	8
▁набегов	8
▁Hug	8
▁Дед	8
смерт	8
шедший	8
▁усилия	8
▁наличие	8
стах	8
▁волны	8
▁облегч	8
▁бедам	8
▁победой	8
▁Марцеллин	8
▁неудачно	8
▁понимани	8
бирается	8
▁издания	8
▁поступить	8
▁потомки	8
▁удовлетвор	8
▁разочаровани	8
▁поручен	8
▁подкрепления	8
ьем	8
осьмидесят	8
▁Strategi	8
▁отвергает	8
▁Христо	8
▁Central	8
▁противоречи	8
▁убеждения	8
только	8
▁Тело	8
▁мертв	8
▁распута	8
▁овладеть	8
▁Ром	8
▁Secret	8
▁смотр	8
▁одиночку	8
▁всесожжени	8
typ	8
▁подарок	8
▁слуги	8
▁претором	8
местить	8
▁Соб	8
▁Quadr	8
▁приводил	8
▁виновным	8
▁поиски	8
▁гражданство	8
▁четыр	8
▁Records	8
аорт	8
▁Muni	8
▁благотворительн	8
▁кафедр	8
▁животными	8
▁случаем	8
▁разошлись	8
▁преследования	8
glott	8
▁Africana	8
▁греческим	8
▁окрестны	8
PR	8
▁награжден	8
▁наедине	8
▁воздержан	8
▁вере	8
▁местоположение	8
▁улучшени	8
▁Центр	8
▁увлекает	8
iformes	8
▁успокоить	8
▁достигну	8
▁надгроб	8
▁сходство	8
▁достаточн	8
▁змеи	8
▁стариков	8
▁правителем	8
▁подводн	8
▁просьбу	8
▁разбогате	8
▁волнения	8
Professor	8
▁Stud	8
▁комедий	8
▁кораблях	8
▁сосед	8
▁смертно	8
▁науке	8
▁лодки	8
▁обличье	8
▁проводят	8
▁отделяет	8
▁Faber	8
▁бани	8
▁Академии	8
▁станов	8
▁укрыл	8
▁готово	8
▁Понт	8
▁телесные	8
настоящему	8
▁младенцев	8
▁горах	8
▁соседи	8
▁взор	8
▁Божиим	8
▁вытащить	8
▁условием	8
▁скажем	8
▁наказан	8
▁пустот	8
▁милосердие	8
▁profundi	8
▁стремятся	8
▁поглощен	8
ophyl	8
▁высокими	8
▁новом	8
▁Tria	8
pton	8
▁riv	8
▁погребения	8
иваются	8
▁выполня	8
▁Victoria	8
Par	8
▁осужда	8
▁добрых	8
▁противоположно	8
носили	8
▁операции	8
брошенный	8
▁Помпеи	8
▁господство	8
▁болот	8
идий	8
▁Разум	8
▁Адм	8
сель	8
стями	8
▁поступок	8
▁доходит	8
▁насилия	8
▁заплатить	8
▁продовольствие	8
▁брать	8
▁перенести	8
▁смешива	8
▁Tele	8
▁восход	8
ago	8
▁неудобно	8
▁прикрыва	8
ES	8
▁усилива	8
▁выкуп	8
▁разделить	8
▁одобря	8
▁доволен	8
▁сравнива	8
Epist	8
▁общественных	8
ulto	8
▁побои	8
▁зима	8
▁общие	8
▁почувствовал	8
▁придуман	8
▁язв	8
▁вздума	8
▁Arab	8
▁Беневент	8
▁Mux	8
▁передне	8
▁стеной	8
▁назначения	8
▁заключа	8
▁окружности	8
▁пятьсот	8
▁равным	8
▁должностей	8
павших	8
▁предсказан	8
▁Castra	8
▁пройдет	8
▁боролся	8
▁спешил	8
▁сжат	8
▁обещали	8
▁состари	8
▁слушающи	8
▁письменны	8
dorf	8
ловой	8
▁агн	8
▁предостави	8
▁сознание	8
▁прячется	8
▁обстоятельство	8
▁креп	8
▁пустыми	8
▁изгнал	8
▁Fig	8
▁разнообразны	8
▁остановился	8
словие	8
▁счита	8
левую	8
▁родственникам	8
▁сопротивля	8
▁платье	8
▁причину	8
▁свидетельствует	8
▁допустить	8
чистая	8
▁удары	8
▁прикрытие	8
▁неудачи	8
▁предлогом	8
▁лесов	8
▁отверстие	8
молчит	8
шлет	8
озный	8
critic	8
▁знати	8
▁отныне	8
латыни	8
▁направился	8
пищевод	8
▁удивительн	8
▁утешал	8
ixi	8
▁continu	8
▁внутреннее	8
▁пресмыкающихся	8
▁занятиям	8
▁Urani	8
▁добыча	8
▁отступил	8
▁колонну	8
рево	8
▁pueros	8
▁ludere	8
▁натиск	8
▁заблужда	8
▁гнева	8
▁Test	8
▁замысел	8
▁каре	8
суди	8
▁энергично	8
▁Evangeli	8
▁должник	8
▁мча	8
▁трусости	8
▁заявили	8
▁отнято	8
▁галлами	8
▁побежденных	8
▁подвоз	8
▁германцам	8
▁посадил	8
▁неприятельский	8
▁легату	8
▁храбрые	8
▁германских	8
▁конных	8
скакивают	8
▁шире	8
▁фуражом	8
▁Писон	8
▁быстрота	8
▁обнаруживал	8
▁остальн	8
▁решительный	8
▁опыту	8
▁младенец	8
▁запута	8
▁Себе	8
▁наслажда	8
▁внушает	8
▁развраща	8
▁мрак	8
▁спустил	8
гречески	8
▁хотелось	8
▁странствова	8
▁дивно	8
▁гнусно	8
▁медлительн	8
▁пищей	8
▁боимся	8
▁ведома	8
▁сторож	8
▁грязи	8
▁убедился	8
▁поднимает	8
▁хвалы	8
▁помышля	8
ведать	8
▁прежних	8
▁незаметно	8
▁схватил	8
▁надеждой	8
▁многообразн	8
▁возвращает	8
▁стуча	8
▁благами	8
▁почита	8
▁короче	8
▁останови	8
▁научит	8
▁Мудрость	8
▁страстей	8
▁заботы	8
▁груд	8
▁произведу	8
▁радуется	8
▁возделыва	8
зовет	8
▁первород	8
▁Мафусал	8
▁Сиф	8
▁Иафет	8
▁потопа	8
▁возвысил	8
еву	8
▁Ханаанскую	8
▁благословение	8
▁уцелевши	8
▁восемнадцать	8
▁служанка	8
▁вечное	8
▁семени	8
▁доныне	8
▁грудью	8
▁возложил	8
▁Вафуила	8
▁умерш	8
▁Ревекка	8
▁Ревекку	8
▁отослал	8
▁кушанье	8
▁живешь	8
▁замыслы	8
▁благополучие	8
▁отрицать	8
▁изгнание	8
▁Лепида	8
▁январски	8
▁переносить	8
▁зачинщик	8
▁центурион	8
▁находившие	8
▁Цетег	8
▁Цинн	8
▁постановление	8
▁нанес	8
▁чере	8
▁огорчен	8
▁величайшей	8
▁взгляни	8
▁Котта	8
▁порог	8
▁военным	8
▁алчности	8
старается	8
▁особым	8
▁хребт	8
▁вреда	8
▁прорваться	8
▁заложниками	8
▁секваны	8
▁опустошения	8
▁свидетель	8
▁Эдуи	8
▁речами	8
▁раздач	8
▁продовольственн	8
▁подавать	8
▁Прибыв	8
▁распоряжа	8
▁ускоренным	8
▁защищен	8
▁укреплять	8
▁гонца	8
▁пробыл	8
▁легат	8
▁Титурий	8
▁малом	8
▁подвижны	8
▁снизу	8
▁скрыва	8
▁строю	8
▁частям	8
▁увидали	8
пустились	8
▁недаром	8
▁нервиев	8
▁обида	8
▁остальными	8
▁малочисленност	8
▁Крассу	8
▁недостатка	8
▁моринов	8
▁якоря	8
▁центурионы	8
▁неприятелю	8
▁обещаниями	8
▁еле	8
▁держались	8
▁бойцов	8
▁обоим	8
▁соедини	8
усь	8
▁всадниками	8
▁донес	8
▁придает	8
▁нарочно	8
▁Требония	8
▁карнуты	8
▁превратности	8
▁пеши	8
▁приблизился	8
▁соблазня	8
▁откладыва	8
▁бросают	8
▁нравов	8
▁сильным	8
▁рог	8
▁закаля	8
▁расчете	8
▁погонщик	8
▁арверн	8
▁поспешить	8
▁малый	8
▁дойдет	8
▁Думнак	8
▁артери	8
▁Марцелл	8
▁Газдрубал	8
▁Магон	8
▁небрежно	8
▁суждение	8
▁болезнью	8
▁Друза	8
▁порица	8
▁дарования	8
▁Гнея	8
▁покажется	8
▁благородные	8
▁статуе	8
▁испустил	8
▁праздность	8
▁назову	8
▁пугает	8
▁мучит	8
▁Клеанф	8
▁желанья	8
▁камня	8
▁приведу	8
▁мудрого	8
▁Всяко	8
▁наслажденья	8
▁лиш	8
▁ненуж	8
▁униз	8
▁сустав	8
▁попадаем	8
▁рабам	8
▁нравам	8
▁сомневаешься	8
▁одушевленными	8
▁поклонились	8
▁Исавовой	8
▁колосьев	8
▁рассказали	8
▁дивились	8
▁Давидов	8
▁книжники	8
влагалищ	8
ключичн	8
копчик	8
пяст	8
ободочн	8
▁корково	8
▁реберно	8
плюсне	8
теменной	8
▁Offici	8
ann	8
▁adiutor	8
▁Revolutio	8
▁intentio	8
▁rescrib	8
communicationis	8
▁machinator	8
▁Indica	8
▁septentrionale	8
▁independentia	8
▁Rebell	8
▁potio	8
▁deditionis	8
▁sacrificium	8
▁pacto	8
▁tectum	8
▁odor	8
▁descripsit	8
▁divisus	8
▁Studia	8
▁regit	8
▁indicare	8
▁iram	8
▁videor	8
▁radiophonica	8
▁seriem	8
▁nexu	8
▁voluntari	8
▁Parum	8
▁Numero	8
▁novit	8
▁opposit	8
cott	8
▁eruditi	8
▁Vicipaedia	8
▁vigiles	8
▁infelici	8
▁Argument	8
numerantur	8
▁Igitur	8
▁symphonia	8
Arabice	8
▁Testament	8
▁aedificium	8
▁puncto	8
▁rapta	8
▁Vides	8
▁referri	8
▁aeroplani	8
▁magica	8
▁dividuntur	8
▁iustitiae	8
▁discesserunt	8
▁crucem	8
▁confecit	8
▁archiepiscop	8
▁designati	8
▁Iulian	8
▁certavit	8
▁corruptionis	8
▁laudati	8
▁contempti	8
▁possessiones	8
▁potentes	8
loquendi	8
▁debetur	8
▁articulo	8
▁Nonnumquam	8
▁Cypr	8
▁coniungi	8
▁stimul	8
▁electric	8
▁fui	8
splen	8
▁computat	8
▁columna	8
▁milliard	8
▁Gregori	8
▁Moneta	8
▁concepta	8
▁neglecta	8
▁Octobre	8
▁apertum	8
▁Flavia	8
▁constitutio	8
▁historici	8
▁culturali	8
▁proscript	8
▁problema	8
▁Feminae	8
▁nervorum	8
citas	8
▁XXIII	8
▁varie	8
▁Pueri	8
▁agerent	8
▁formata	8
▁legitur	8
▁Orig	8
▁tribunal	8
▁ethica	8
▁praepositi	8
▁Vladimir	8
▁aggress	8
▁pereunt	8
▁haberi	8
▁medici	8
▁putavit	8
sisterent	8
▁Terrae	8
▁occursu	8
▁nolle	8
▁veram	8
vadere	8
▁indigena	8
▁Fide	8
æ	8
▁Partes	8
harum	8
arborum	8
▁moneta	8
▁creatum	8
▁affirmat	8
▁temptant	8
▁notione	8
▁confirmatus	8
▁epistola	8
▁Verb	8
▁actionem	8
▁destitit	8
▁plani	8
cendi	8
struxit	8
▁petro	8
▁Britannico	8
▁capra	8
▁ministris	8
▁sono	8
▁velocitas	8
▁peccatores	8
▁multiplice	8
▁apparent	8
▁latum	8
▁magnitudinis	8
▁Occidentalis	8
▁Omne	8
▁repper	8
▁Maecena	8
▁ingeniaria	8
▁Theba	8
▁dictaturam	8
▁canale	8
▁dictatura	8
▁medius	8
▁commutat	8
▁theatra	8
▁dramat	8
Sed	8
▁aspectus	8
▁credebant	8
▁tyranni	8
▁religione	8
▁Athenis	8
▁coniungit	8
▁aegrota	8
▁somnia	8
finitum	8
▁Florida	8
▁traditionali	8
▁enumerat	8
▁similia	8
▁Poeni	8
▁Balcani	8
▁venientem	8
▁function	8
▁pictura	8
▁cantus	8
▁musici	8
▁marina	8
▁commercium	8
▁fum	8
simus	8
▁profert	8
▁constitutionem	8
▁responsum	8
▁Interea	8
▁secura	8
▁ambitu	8
▁scriberet	8
▁astronauta	8
▁desiit	8
▁picturae	8
hinc	8
▁Alc	8
▁varios	8
▁campi	8
trina	8
▁terrestre	8
▁canali	8
▁faciebant	8
▁detecta	8
▁clare	8
▁notabili	8
▁camera	8
▁Dicitur	8
▁aedificatum	8
▁Andrea	8
Francice	8
▁Ordine	8
▁sanita	8
▁oppone	8
▁radices	8
▁usurpa	8
▁procella	8
▁submers	8
▁manifesta	8
▁Altera	8
▁venenum	8
▁variae	8
▁nonnullis	8
▁success	8
homi	8
▁classic	8
▁liberata	8
▁ripam	8
▁decennii	8
▁orbi	8
▁versantur	8
▁Mattha	8
▁apostolo	8
▁Litterae	8
tavit	8
▁lacrimas	8
▁agnoscit	8
▁gente	8
▁cisterna	8
▁Venit	8
▁ignotus	8
▁cadunt	8
▁bestias	8
▁educat	8
▁ocean	8
▁ethnic	8
▁suffragia	8
▁Atrebat	8
▁cune	8
▁horis	8
varium	8
omnia	8
▁exta	8
▁puellae	8
▁information	8
▁repress	8
▁dialog	8
▁appellati	8
landia	8
▁vasa	8
Norvegic	8
▁philosophica	8
▁dissimilis	8
▁personali	8
▁monarchia	8
▁pertinebat	8
ullius	8
▁ferv	8
▁Memoria	8
▁celebrata	8
issimo	8
▁typograph	8
▁orna	8
▁Coniuncti	8
▁Cup	8
iciam	8
▁Ov	8
▁interrete	8
▁mono	8
festus	8
▁finitur	8
▁electi	8
▁auspiciis	8
▁nigra	8
stellam	8
▁consist	8
▁lucrum	8
▁conclusio	8
▁agnosc	8
▁locos	8
▁requisi	8
▁Reliqui	8
▁chiliometra	8
▁quadrat	8
▁confirmare	8
alenda	8
▁contrahere	8
▁exercet	8
vulgo	8
▁coi	8
▁rete	8
▁aquis	8
▁errare	8
▁conspic	8
▁gravis	8
▁oriente	8
▁ambul	8
▁membrum	8
▁sonum	8
▁ordi	8
mittendi	8
▁past	8
▁extens	8
▁Creat	8
lanities	8
▁indicat	8
▁favorem	8
▁imagine	8
▁religios	8
▁rumor	8
▁Russi	8
▁interfecti	8
▁moram	8
▁oc	8
▁aiebat	8
▁novus	8
▁Indici	8
▁Decem	8
▁debita	8
▁atmosphaera	8
▁Catilinam	8
▁digni	8
▁Magdalen	8
cce	8
▁cessit	8
▁deficere	8
▁locuplete	8
▁militem	8
▁amplex	8
▁rationali	8
▁emendat	8
naviga	8
▁moles	8
▁Administer	8
▁exceptione	8
▁provinciarum	8
▁Esse	8
portet	8
etiam	8
▁antiquissima	8
▁Reges	8
▁Meliss	8
▁Publius	8
▁Tro	8
▁exspectat	8
▁alea	8
▁opportun	8
▁movent	8
▁frequentia	8
▁feliciter	8
▁tragoedia	8
▁traditi	8
▁absentia	8
esque	8
▁egere	8
▁prandium	8
▁rixa	8
▁circumfer	8
▁perveni	8
▁Archiepiscop	8
▁flex	8
▁spectator	8
▁eiecerunt	8
▁orig	8
▁nationale	8
▁resisti	8
▁appellabant	8
▁systemate	8
▁Mand	8
aticum	8
▁seorsu	8
▁sinus	8
ariis	8
▁Populari	8
▁excusation	8
▁doctrinae	8
▁ignorant	8
▁navicula	8
▁fertur	8
▁prioribus	8
▁organizatio	8
▁scienti	8
▁iubebat	8
▁enarrat	8
▁reperti	8
▁septim	8
▁parc	8
▁Samoa	8
▁enumer	8
▁putaverunt	8
possibile	8
▁superstite	8
▁Aeneae	8
▁promittit	8
bamus	8
ultus	8
▁suffoca	8
▁venatione	8
▁Certamin	8
▁nuntium	8
▁priorum	8
▁tueri	8
▁Iunius	8
▁aureo	8
cidere	8
▁necessitates	8
unitatibus	8
▁revertunt	8
▁ova	8
▁adiuva	8
▁claud	8
cessu	8
▁Soli	8
▁Oceani	8
▁sollemni	8
▁plen	8
▁Singula	8
▁ventus	8
▁veniant	8
▁duarum	8
▁oeconomici	8
▁Castell	8
▁rescind	8
▁gratiae	8
▁improba	8
▁moenibus	8
▁functione	8
▁appropinqu	8
▁holocaust	8
▁laudatur	8
▁praemio	8
▁gestarum	8
▁petens	8
▁improvis	8
▁Gallica	8
▁perdit	8
▁fluvius	8
▁posuerunt	8
▁cognati	8
▁municipia	8
▁sexto	8
▁circulo	8
▁meridio	8
▁diffusa	8
▁conditor	8
▁Philo	8
▁praefectum	8
▁Ipsa	8
▁munire	8
▁meliores	8
▁deminut	8
▁sequebatur	8
▁adhort	8
▁astronomus	8
▁utrique	8
▁effugi	8
▁depress	8
▁dabant	8
issimos	8
▁nefas	8
▁Indice	8
▁munitionis	8
▁peritus	8
▁iactura	8
liud	8
ebe	8
▁inquiunt	8
▁excedere	8
▁cupid	8
dixit	8
▁lectione	8
▁fortem	8
▁Oxonii	8
▁recessu	8
▁spiritalis	8
▁Bithynia	8
▁aestimare	8
llum	8
▁adfecta	8
▁falli	8
▁amplissima	8
▁autonomia	8
▁venturum	8
▁Sav	8
▁expedita	8
▁aevi	8
iarum	8
▁amisit	8
▁angustum	8
▁compar	8
▁pusilla	8
▁sollicitus	8
▁itinerum	8
▁reus	8
▁facillime	8
▁examina	8
▁despici	8
pugnantibus	8
▁celeritatem	8
▁praesente	8
Germanice	8
▁barba	8
vitate	8
▁robur	8
▁devict	8
rima	8
▁varieta	8
▁Sibi	8
sumpsit	8
▁Alexandri	8
▁crep	8
▁comparata	8
▁peregrinatione	8
▁paravit	8
▁necessitatem	8
▁intellegerent	8
▁incumb	8
▁sequebantur	8
▁Syriam	8
▁sedere	8
▁vicisse	8
▁Fac	8
▁documento	8
▁demissa	8
▁longinqua	8
itum	8
▁ima	8
▁continuos	8
cubuit	8
▁superesse	8
▁divi	8
▁suspecta	8
▁prophetas	8
▁fueris	8
▁calida	8
▁animadvers	8
▁adversis	8
▁fortissimus	8
▁sinistram	8
▁nolebat	8
▁comeda	8
▁occasione	8
▁mutationem	8
▁exercitibus	8
▁aegrotare	8
▁versu	8
▁aquila	8
▁intellegit	8
▁incitati	8
▁Legione	8
▁momento	8
▁quidquam	8
▁quadr	8
▁loquebantur	8
▁quartam	8
▁redigi	8
▁longiore	8
iano	8
▁ostende	8
▁Heli	8
▁remansit	8
▁cera	8
▁Multo	8
▁monumento	8
▁nudi	8
▁fruitur	8
▁turmis	8
▁pendere	8
▁animanti	8
▁feliciore	8
▁Nulli	8
▁legionari	8
▁tympan	8
▁transierunt	8
▁numere	8
▁desperare	8
▁indigna	8
▁colles	8
▁Antonium	8
▁nemine	8
▁fastidio	8
▁praeparat	8
▁cedere	8
inalis	8
▁dote	8
▁calamitatem	8
▁ara	8
▁colli	8
▁condemna	8
▁fossas	8
▁inutiles	8
venerint	8
spexisset	8
▁duplici	8
▁Ponti	8
probri	8
▁pridem	8
▁reliquarum	8
▁coniecta	8
▁interposita	8
▁respicere	8
▁Aran	8
▁deductis	8
▁prorsus	8
▁equi	8
▁sumptus	8
▁arbitrio	8
▁putabat	8
▁constare	8
▁defectu	8
▁calamitat	8
▁commendat	8
▁infinitum	8
▁finitimi	8
▁coniec	8
▁relinqui	8
▁amoen	8
▁discedit	8
▁intendi	8
▁serpente	8
▁catena	8
▁reliquias	8
▁togam	8
▁repulsa	8
vissent	8
▁opportunitate	8
▁habuisse	8
miserunt	8
▁praeced	8
▁vilic	8
▁Sexti	8
▁iubent	8
▁pacific	8
▁horror	8
▁intulit	8
▁glorios	8
▁incursu	8
▁quaerendum	8
▁misere	8
▁Magnu	8
▁putet	8
[...]
