<unk>	0
<s>	0
</s>	0
,	-2.7145
.	-3.44909
▁	-4.09588
▁и	-4.22679
▁et	-4.62875
▁в	-4.65919
▁in	-4.8186
s	-4.93743
▁не	-4.99571
;	-5.0291
:	-5.29964
▁на	-5.42313
е	-5.4494
1	-5.45462
▁est	-5.4551
▁что	-5.46159
m	-5.4919
▁с	-5.51168
▁ad	-5.51202
que	-5.5135
e	-5.58097
а	-5.58979
▁(	-5.62543
и	-5.6669
)	-5.68848
▁он	-5.70561
um	-5.73788
▁non	-5.74002
0	-5.86746
й	-5.87735
▁cum	-5.8842
▁-	-5.89952
i	-5.90715
▁ut	-5.91524
2	-5.95271
▁по	-5.98999
▁к	-5.9921
м	-6.00794
o	-6.00902
▁его	-6.04204
?	-6.08271
9	-6.10044
▁от	-6.13736
a	-6.17942
us	-6.19845
х	-6.21699
▁как	-6.22972
-	-6.23736
▁а	-6.24393
is	-6.26821
▁из	-6.2796
▁ex	-6.28789
▁qui	-6.29916
t	-6.31592
▁quod	-6.34341
▁quam	-6.34352
▁de	-6.3597
▁se	-6.36719
▁за	-6.38515
▁о	-6.39676
у	-6.43354
▁a	-6.44755
я	-6.47324
▁же	-6.48858
о	-6.49923
▁per	-6.50227
▁я	-6.52426
▁их	-6.52436
▁то	-6.53113
▁они	-6.53991
▁у	-6.54005
▁ab	-6.55193
▁"	-6.5555
3	-6.56217
▁sed	-6.56471
▁но	-6.56895
▁все	-6.57949
▁quae	-6.60102
▁ac	-6.60427
ы	-6.6048
▁sunt	-6.60992
▁esse	-6.62001
5	-6.62472
▁si	-6.64743
8	-6.66338
4	-6.6673
▁было	-6.67575
6	-6.73381
▁В	-6.73474
7	-6.74746
▁бы	-6.76033
▁это	-6.76167
ся	-6.76358
▁чтобы	-6.79659
▁был	-6.79939
▁для	-6.80714
▁И	-6.82292
ом	-6.84934
▁nec	-6.87161
▁так	-6.89386
▁erat	-6.89555
rum	-6.90638
▁aut	-6.92225
ю	-6.93971
▁atque	-6.95372
▁ни	-6.96762
▁если	-6.97566
▁etiam	-7.01517
го	-7.01549
—	-7.0278
▁ne	-7.03122
▁pro	-7.03382
▁inter	-7.04015
ть	-7.05466
▁eius	-7.05526
▁при	-7.05743
▁только	-7.07312
▁до	-7.07925
ми	-7.08367
▁когда	-7.09649
nt	-7.112
▁были	-7.21103
▁ему	-7.2118
▁enim	-7.21516
▁te	-7.21983
▁quo	-7.22567
▁iam	-7.2262
ов	-7.25715
▁или	-7.25891
▁чем	-7.26097
▁me	-7.26281
ой	-7.27727
▁autem	-7.30238
▁esset	-7.31283
▁ты	-7.31495
л	-7.32645
ая	-7.32892
▁anno	-7.34037
es	-7.34082
tur	-7.3434
в	-7.3544
▁eo	-7.3582
ri	-7.35959
ли	-7.36284
ет	-7.38485
▁под	-7.39165
▁fuit	-7.40544
▁во	-7.40975
re	-7.41198
▁hoc	-7.41664
am	-7.4197
▁Но	-7.43107
ur	-7.43449
▁quia	-7.43496
▁уже	-7.45931
▁А	-7.47023
▁того	-7.47711
!	-7.48476
▁еще	-7.4925
os	-7.49448
▁neque	-7.49715
▁кто	-7.49905
▁ее	-7.50087
"	-7.5037
ую	-7.51061
▁re	-7.51275
▁quoque	-7.52602
▁них	-7.52611
▁ли	-7.53066
▁id	-7.53207
▁тем	-7.53223
▁им	-7.53317
▁со	-7.53412
▁С	-7.53477
▁вы	-7.53757
▁quid	-7.53967
▁tamen	-7.54375
▁даже	-7.54855
▁eum	-7.5598
▁мне	-7.57434
▁она	-7.6015
▁ea	-7.60201
ibus	-7.61193
ae	-7.62146
▁себя	-7.62342
▁мы	-7.62886
▁время	-7.64246
▁res	-7.64329
▁меня	-7.64507
т	-7.64531
▁qua	-7.65812
▁Ты	-7.671
▁sit	-7.67994
▁Он	-7.68167
▁quidem	-7.68211
ta	-7.68848
▁C	-7.71568
▁года	-7.72052
▁ante	-7.72258
▁nihil	-7.72632
em	-7.72868
▁об	-7.73868
▁In	-7.73949
▁sibi	-7.74283
▁этого	-7.74326
▁ita	-7.75201
ti	-7.75237
▁него	-7.75425
▁без	-7.75635
▁M	-7.75872
▁quibus	-7.75946
▁mihi	-7.76429
▁том	-7.76638
▁omnia	-7.76685
▁ipse	-7.77319
▁die	-7.77711
▁раз	-7.77879
▁ubi	-7.78292
▁была	-7.78543
▁году	-7.78855
ем	-7.79396
▁которые	-7.79633
".	-7.79766
▁всех	-7.79933
▁nisi	-7.80571
▁modo	-7.80888
▁omnes	-7.81109
▁будет	-7.81667
▁Et	-7.81687
▁sine	-7.82031
▁«	-7.82089
▁Я	-7.82668
▁haec	-7.83068
bus	-7.83331
▁apud	-7.83639
то	-7.83763
▁e	-7.83945
▁себе	-7.84411
▁сам	-7.84489
▁после	-7.85109
▁'	-7.86088
▁L	-7.86329
ого	-7.87638
ами	-7.87926
ый	-7.89564
▁erant	-7.90393
▁post	-7.92388
▁тот	-7.93103
▁сказал	-7.93149
▁tibi	-7.94724
it	-7.94761
at	-7.95441
▁P	-7.96093
▁этом	-7.97921
▁sub	-7.9793
▁castra	-7.98067
▁который	-7.98166
▁день	-7.98255
▁inde	-7.98467
c	-7.98648
tus	-7.98946
▁больше	-7.9927
▁bellum	-7.99517
ь	-7.99735
or	-8.00161
tum	-8.00663
ей	-8.00992
ла	-8.01034
▁есть	-8.01897
▁rem	-8.02565
▁quem	-8.02764
▁На	-8.02821
▁быть	-8.02976
▁sua	-8.0306
▁magis	-8.03128
▁перед	-8.03529
▁своих	-8.03946
▁ob	-8.03959
▁tum	-8.04194
as	-8.04771
ный	-8.04841
▁своей	-8.05198
▁tam	-8.0529
▁causa	-8.05747
orum	-8.06704
▁против	-8.07176
▁По	-8.07891
но	-8.08198
▁где	-8.08367
▁более	-8.08568
лись	-8.09838
▁eos	-8.10172
▁над	-8.10536
▁нас	-8.10737
ные	-8.11088
'	-8.11213
▁omnibus	-8.11498
▁deinde	-8.12048
▁illa	-8.12147
▁может	-8.1234
▁Sed	-8.12834
▁eorum	-8.13457
▁между	-8.13565
ий	-8.13788
с	-8.14164
▁eam	-8.14495
▁quos	-8.15929
▁потому	-8.16059
▁те	-8.16282
ам	-8.16301
▁tu	-8.16439
ют	-8.16511
ка	-8.16993
▁hostium	-8.17078
unt	-8.17315
vit	-8.17633
uit	-8.17641
n	-8.18233
▁ним	-8.18656
▁через	-8.18944
▁ei	-8.19237
▁своего	-8.19289
▁haud	-8.19639
▁tantum	-8.19641
▁A	-8.19668
et	-8.19865
▁Romani	-8.20285
▁urbem	-8.2052
▁illi	-8.20841
▁Non	-8.20871
ne	-8.20928
▁quas	-8.21158
▁nos	-8.2164
▁человек	-8.2193
ns	-8.22255
▁simul	-8.22656
▁super	-8.22756
tis	-8.23177
▁ille	-8.23498
▁один	-8.23559
▁Не	-8.23845
ntur	-8.23863
▁нет	-8.2394
mus	-8.24702
▁nunc	-8.24984
▁rei	-8.25091
му	-8.25468
ant	-8.25584
ter	-8.25687
▁тогда	-8.26105
▁ибо	-8.26536
▁vel	-8.26599
▁тебе	-8.26718
▁там	-8.27032
▁тех	-8.27515
▁Цезарь	-8.27614
▁cui	-8.27747
▁an	-8.27815
▁potest	-8.28752
▁con	-8.28771
ия	-8.28915
ие	-8.2897
▁тебя	-8.29442
ных	-8.29641
▁dies	-8.2965
▁ego	-8.29678
ной	-8.29925
bat	-8.30376
▁Cum	-8.30507
▁Так	-8.30532
на	-8.309
▁ведь	-8.31081
ых	-8.3116
▁Anno	-8.31632
▁satis	-8.31958
▁лет	-8.31962
▁cuius	-8.32053
▁вот	-8.32101
▁primum	-8.32248
u	-8.32291
▁про	-8.32337
r	-8.3295
▁всем	-8.33468
ется	-8.34213
▁his	-8.3429
▁всего	-8.34366
»	-8.34886
▁tempore	-8.35145
ен	-8.35793
ло	-8.36067
▁можно	-8.36116
▁omnium	-8.36169
▁rerum	-8.3637
▁suis	-8.36495
▁которых	-8.36775
▁этот	-8.36849
▁essent	-8.37657
▁город	-8.3773
▁хотя	-8.3778
▁ergo	-8.37796
▁Когда	-8.37959
н	-8.38007
ного	-8.38568
▁войско	-8.38573
▁людей	-8.38782
ni	-8.38927
▁лишь	-8.39128
за	-8.39275
▁populi	-8.39926
ах	-8.4002
▁также	-8.40544
г	-8.40576
р	-8.40588
ки	-8.40702
▁эти	-8.41097
▁prae	-8.4117
▁Quid	-8.41398
▁К	-8.41536
▁--	-8.42182
▁milia	-8.42231
▁sic	-8.42538
▁пусть	-8.42584
▁quis	-8.43323
▁О	-8.4333
▁много	-8.43882
▁У	-8.4448
to	-8.44692
ere	-8.44943
ые	-8.45207
▁свою	-8.4542
▁senatus	-8.45532
▁militum	-8.45772
ret	-8.45786
▁жизни	-8.45952
▁contra	-8.46057
▁ничего	-8.46896
ии	-8.47002
▁Itaque	-8.4711
▁свое	-8.47575
▁свои	-8.47619
▁suo	-8.47638
▁consul	-8.47938
▁castris	-8.48152
p	-8.48495
д	-8.48643
▁народ	-8.49116
▁Если	-8.49173
▁homines	-8.49218
▁arma	-8.4925
з	-8.49329
▁consules	-8.4961
▁да	-8.49896
ясь	-8.49981
▁loco	-8.50284
▁iis	-8.50393
▁nobis	-8.50773
ная	-8.50795
te	-8.50865
▁ibi	-8.51141
io	-8.51142
▁стал	-8.51211
▁tempus	-8.51552
▁Haec	-8.51563
er	-8.51661
▁города	-8.51815
▁exercitus	-8.52049
▁пока	-8.52115
▁своим	-8.52223
▁нам	-8.52469
▁belli	-8.52587
лся	-8.5287
",	-8.52912
▁De	-8.53139
▁minus	-8.53405
▁urbe	-8.53973
▁hominum	-8.54046
▁unum	-8.54073
▁parte	-8.54086
▁sicut	-8.54095
▁posse	-8.54456
▁hostes	-8.54524
▁Ad	-8.54729
лась	-8.54764
quam	-8.55219
▁bello	-8.55331
bant	-8.55352
rent	-8.55493
им	-8.55549
▁этой	-8.55558
▁alia	-8.55596
).	-8.55665
▁Nam	-8.5578
▁usque	-8.56576
ться	-8.56703
▁Тебя	-8.57266
▁очень	-8.57275
ись	-8.57317
▁Si	-8.57412
сти	-8.58052
▁вместе	-8.58082
▁ipsa	-8.58193
▁rebus	-8.582
▁inquit	-8.58287
ce	-8.5882
▁однако	-8.58907
▁primo	-8.59077
▁Это	-8.59287
▁publica	-8.5932
▁оно	-8.59374
▁Caesar	-8.59842
▁тому	-8.59901
ит	-8.59909
▁habet	-8.60321
▁Q	-8.60501
▁времени	-8.6061
ым	-8.6088
▁nomen	-8.61062
▁magna	-8.61131
нибудь	-8.61202
ным	-8.61204
ci	-8.6124
▁чего	-8.61286
ое	-8.61313
▁люди	-8.61646
▁illum	-8.62061
▁dum	-8.62505
к	-8.62683
▁annos	-8.62748
▁pars	-8.62972
▁среди	-8.63365
ens	-8.6373
▁мог	-8.64021
ue	-8.64276
▁потом	-8.6428
▁Romanis	-8.64305
▁multa	-8.64531
▁prope	-8.65019
▁дело	-8.6532
▁facta	-8.65662
▁animo	-8.66578
ное	-8.66678
▁prius	-8.67307
▁Его	-8.67547
▁теперь	-8.67746
▁которого	-8.67749
▁fecit	-8.6783
▁sum	-8.67868
▁жизнь	-8.681
▁illis	-8.68484
▁народа	-8.68696
▁suum	-8.69153
▁nam	-8.69173
ются	-8.6923
▁год	-8.69401
▁praeter	-8.69723
▁maxime	-8.70257
п	-8.70336
▁человека	-8.70467
▁locum	-8.70971
▁одного	-8.71033
▁два	-8.71069
▁milites	-8.71081
▁sui	-8.71222
▁этих	-8.71225
▁tua	-8.71377
▁exercitum	-8.71383
▁ними	-8.71568
▁plus	-8.71687
y	-8.72038
▁aliud	-8.72365
▁circa	-8.72626
▁S	-8.72749
▁ipsi	-8.7284
▁propter	-8.72862
ч	-8.72899
ia	-8.72997
▁войска	-8.73319
▁пред	-8.73497
▁quorum	-8.73534
▁eis	-8.73597
▁suam	-8.73683
▁лагерь	-8.73788
▁будто	-8.73789
tio	-8.73883
▁di	-8.73906
▁aliquid	-8.74028
▁сенат	-8.74856
▁ista	-8.74923
▁omnis	-8.75004
▁I	-8.7506
▁смерти	-8.75235
▁При	-8.75467
▁signa	-8.75585
▁место	-8.76362
▁dixit	-8.76406
sse	-8.76551
▁fuisse	-8.76617
сь	-8.76651
▁ipsum	-8.76704
▁quantum	-8.76951
▁несколько	-8.77029
▁Все	-8.77095
▁T	-8.77381
▁patres	-8.77402
▁illo	-8.77695
▁posset	-8.7775
▁hostem	-8.77875
▁кого	-8.77882
▁г	-8.78305
▁нем	-8.78382
si	-8.78443
▁тысяч	-8.78904
▁diem	-8.78957
ию	-8.79074
та	-8.79216
ную	-8.79405
ок	-8.79443
▁Рим	-8.79486
▁plebis	-8.79531
▁войны	-8.79725
▁mea	-8.79872
▁Цезаря	-8.80473
▁стали	-8.80528
▁слова	-8.80625
▁Они	-8.81124
▁duo	-8.81129
ndi	-8.81333
ил	-8.81647
▁tamquam	-8.81803
▁exercitu	-8.81945
▁anni	-8.82175
▁omni	-8.82178
▁bonum	-8.82283
▁At	-8.82461
▁Что	-8.82675
▁dis	-8.82755
▁всегда	-8.82828
▁другой	-8.82868
▁una	-8.82965
▁такой	-8.83025
▁образом	-8.83087
▁unde	-8.83148
ve	-8.83223
▁дела	-8.83278
».	-8.83486
▁часть	-8.83515
▁тут	-8.83627
▁Hoc	-8.83646
▁столь	-8.83851
▁intra	-8.839
alis	-8.83934
▁Romam	-8.83966
ны	-8.83986
ку	-8.8422
▁Quod	-8.84257
ра	-8.84324
▁urbis	-8.84335
ее	-8.84486
▁saepe	-8.85005
▁hic	-8.85013
▁затем	-8.85198
▁одно	-8.85287
▁других	-8.85471
▁annum	-8.85479
▁solum	-8.85556
▁Как	-8.85853
ешь	-8.86176
▁римлян	-8.86226
▁Да	-8.8643
▁которой	-8.86548
▁eadem	-8.8656
▁свой	-8.86665
in	-8.86747
▁factum	-8.86839
ntes	-8.86846
▁illud	-8.8709
▁Тебе	-8.87107
лось	-8.87543
d	-8.87691
▁suos	-8.88025
ca	-8.88053
▁facere	-8.88308
▁semper	-8.88467
ndo	-8.88595
▁terra	-8.88678
ndum	-8.89415
▁senatum	-8.89427
▁нему	-8.89962
na	-8.90076
retur	-8.90358
те	-8.90382
▁legiones	-8.9054
▁самого	-8.90572
ев	-8.9059
▁uel	-8.90654
ж	-8.90692
▁deus	-8.90765
▁Nec	-8.91002
▁лагеря	-8.91088
le	-8.9113
ntibus	-8.91136
x	-8.91167
di	-8.91327
sset	-8.91708
▁equitum	-8.9173
▁этим	-8.9191
▁nulla	-8.92012
же	-8.92303
▁ait	-8.92309
▁prima	-8.92339
▁fortuna	-8.92419
▁почти	-8.92484
▁partem	-8.92493
▁ей	-8.92643
▁vero	-8.92932
их	-8.92985
▁которая	-8.93006
▁другие	-8.93026
ium	-8.93167
▁adhuc	-8.93307
f	-8.93426
▁animi	-8.93571
▁quoniam	-8.93616
▁пере	-8.9371
▁fieri	-8.93923
▁postquam	-8.93934
sti	-8.93965
sque	-8.93981
▁За	-8.9443
▁sint	-8.94551
не	-8.95024
▁мой	-8.95083
tas	-8.9515
▁habere	-8.95202
▁либо	-8.9523
▁cura	-8.95718
▁populo	-8.95849
▁es	-8.95998
▁Ita	-8.96225
▁дней	-8.96273
▁сколько	-8.96491
▁кроме	-8.9658
▁at	-8.966
▁terram	-8.96716
▁три	-8.97085
▁Марк	-8.97105
▁которым	-8.97108
▁ней	-8.97269
▁власти	-8.97271
▁aduersu	-8.97616
▁имя	-8.9777
▁metu	-8.97822
▁Бог	-8.97856
▁idem	-8.98294
▁Qui	-8.98331
▁eodem	-8.98397
ntem	-8.98497
▁dedit	-8.98556
▁appellantur	-8.98687
▁pugna	-8.98815
▁itaque	-8.98846
▁ради	-8.99054
▁сами	-8.9907
▁какой	-8.99468
▁здесь	-8.99605
▁Romae	-8.99717
▁Господи	-8.99955
▁дал	-9.00143
▁никто	-9.00243
▁надо	-9.00329
▁armis	-9.00437
bantur	-9.00458
▁земли	-9.00546
▁senatu	-9.00575
rentur	-9.00891
б	-9.00956
▁bona	-9.00999
▁animos	-9.01038
no	-9.01105
▁tunc	-9.01178
▁nomine	-9.01197
li	-9.01256
batur	-9.01456
."	-9.0157
▁благо	-9.01571
да	-9.01662
g	-9.01758
▁прежде	-9.0178
ius	-9.01788
▁После	-9.0184
ui	-9.01865
ва	-9.0195
▁будут	-9.02165
▁nemo	-9.02241
ив	-9.02329
▁multis	-9.02419
▁которое	-9.02431
▁populum	-9.02436
▁Ab	-9.02478
cumque	-9.02524
ris	-9.02827
ни	-9.02843
▁hanc	-9.03076
▁собой	-9.03082
▁adeo	-9.03288
ре	-9.03788
▁hac	-9.04092
▁ipso	-9.04128
▁publicae	-9.04312
▁нужно	-9.04368
▁римского	-9.0437
C	-9.04412
▁diu	-9.0447
▁E	-9.04479
▁alii	-9.04524
▁Tum	-9.04624
▁igitur	-9.04694
▁Ганнибал	-9.04718
▁vita	-9.04905
ят	-9.04988
▁factus	-9.05111
▁Ex	-9.0535
▁власть	-9.0558
▁aliis	-9.05594
ш	-9.05699
▁войну	-9.05704
▁suae	-9.05754
vi	-9.05796
▁солдат	-9.05995
▁mox	-9.06011
▁врагов	-9.06034
ra	-9.06118
▁uno	-9.06346
▁Ibi	-9.06351
nam	-9.06375
atur	-9.06424
▁fore	-9.06748
вер	-9.06851
ebat	-9.06961
▁Ведь	-9.07004
▁erit	-9.07739
al	-9.07822
▁magno	-9.07982
▁Quae	-9.08197
▁стороны	-9.0844
ля	-9.08541
▁отца	-9.08622
▁таким	-9.08859
▁государства	-9.0908
▁quidam	-9.094
▁вам	-9.09429
ал	-9.09767
▁своими	-9.09804
▁эту	-9.10061
nis	-9.10094
?"	-9.10184
ent	-9.10185
ить	-9.11211
▁земле	-9.11414
▁tot	-9.11493
▁П	-9.11632
▁должен	-9.11791
▁дня	-9.11794
▁столько	-9.11827
▁этому	-9.11874
▁O	-9.11948
ти	-9.12134
▁Romanos	-9.1219
▁нельзя	-9.12494
▁aciem	-9.12519
ном	-9.12739
▁opera	-9.12794
▁двух	-9.12837
▁quattuor	-9.12848
▁наконец	-9.12848
▁imperium	-9.13222
▁раньше	-9.13229
▁consulem	-9.13252
▁quisque	-9.13287
▁мир	-9.136
▁ко	-9.13808
▁quamquam	-9.13875
▁meum	-9.13883
словно	-9.14146
▁meus	-9.14173
▁fere	-9.14228
ась	-9.14234
▁huius	-9.14255
▁Тогда	-9.14274
▁animum	-9.14277
че	-9.14617
▁equites	-9.14691
▁mortem	-9.14885
сть	-9.14915
▁Romanum	-9.14998
▁врага	-9.15223
ut	-9.15231
erat	-9.15282
де	-9.15467
по	-9.15627
entes	-9.15645
tos	-9.15675
▁omnem	-9.157
▁около	-9.15755
▁Риме	-9.15976
▁душа	-9.16208
ну	-9.16213
▁sese	-9.16497
▁силы	-9.16535
▁говорил	-9.16604
▁dicere	-9.16656
▁proelio	-9.16867
▁Romano	-9.17037
ebant	-9.17335
▁такое	-9.17373
▁fuga	-9.17438
▁opus	-9.17668
▁bene	-9.18125
co	-9.18259
▁manu	-9.1828
ar	-9.18294
▁iussit	-9.18357
ro	-9.18374
▁spe	-9.18554
▁сказать	-9.18689
▁жить	-9.18832
▁p	-9.18897
▁circum	-9.19012
▁Поэтому	-9.19054
▁никогда	-9.19059
▁друг	-9.19225
▁римляне	-9.19278
▁summa	-9.19309
▁своем	-9.19396
▁туда	-9.1982
▁animus	-9.19825
ными	-9.19897
▁лучше	-9.20132
l	-9.20145
num	-9.20268
га	-9.20429
▁Г	-9.20435
▁trans	-9.20532
▁tres	-9.2058
▁которую	-9.20601
▁могли	-9.20682
▁ui	-9.20778
▁uelut	-9.2097
▁nocte	-9.21188
▁fama	-9.21283
▁consulibus	-9.21461
de	-9.21498
▁ius	-9.21535
an	-9.21775
ст	-9.21783
tu	-9.21832
▁консул	-9.21941
▁tanta	-9.22031
или	-9.22088
▁сына	-9.22281
▁potius	-9.22521
▁приказал	-9.22559
▁Romanus	-9.22897
vis	-9.22914
▁illam	-9.22973
▁оружие	-9.23039
▁месте	-9.23065
▁многих	-9.23285
▁fuerat	-9.2329
▁получил	-9.23462
ою	-9.23466
▁turba	-9.23662
▁Romana	-9.23729
ру	-9.24565
tae	-9.24799
▁Incola	-9.24875
▁vitae	-9.24944
▁своему	-9.25169
▁domum	-9.25283
▁hostibus	-9.25291
он	-9.25466
▁вас	-9.25529
▁наших	-9.25574
▁An	-9.25638
▁каждый	-9.25679
чи	-9.25815
▁tui	-9.25833
▁co	-9.25964
▁Quo	-9.25995
▁наши	-9.26065
▁postea	-9.26086
▁хотел	-9.26142
▁quando	-9.26643
▁multo	-9.2667
!"	-9.26715
▁uos	-9.26715
▁quinque	-9.26848
▁numquam	-9.26892
▁manus	-9.27228
▁causam	-9.2753
▁смерть	-9.27606
▁часто	-9.27719
ской	-9.27955
▁Inter	-9.2803
▁именно	-9.28131
ле	-9.28138
ось	-9.28239
▁Кто	-9.28325
▁страх	-9.28472
▁quidquid	-9.28542
ch	-9.28582
▁acie	-9.28592
▁mortuus	-9.28602
erunt	-9.28686
▁От	-9.2883
▁His	-9.28929
▁secundum	-9.28944
▁должны	-9.28944
▁procul	-9.28944
▁fuerit	-9.29069
ния	-9.29283
▁donec	-9.29361
▁memoria	-9.2941
▁сената	-9.29586
▁Inde	-9.29822
ского	-9.29976
▁fidem	-9.30142
▁unus	-9.30205
▁locis	-9.30205
▁multum	-9.30206
▁Per	-9.30232
ке	-9.30452
▁tribuni	-9.30462
▁Тиберий	-9.30621
▁могут	-9.3066
▁tuum	-9.30809
▁corpus	-9.30913
ыми	-9.30995
▁Из	-9.31008
▁hunc	-9.31045
tionem	-9.31089
А	-9.31278
▁кому	-9.31459
▁деле	-9.31476
▁дома	-9.31554
▁extra	-9.31712
la	-9.31756
▁tuo	-9.31857
▁Id	-9.31946
lis	-9.32077
▁pater	-9.32267
▁maior	-9.32374
▁ответ	-9.32536
▁nondum	-9.32619
untur	-9.32711
▁землю	-9.3276
▁patrum	-9.32784
▁случае	-9.32878
▁сделал	-9.3303
▁Вот	-9.33095
ан	-9.33164
▁Гай	-9.33262
▁мало	-9.33265
▁граждан	-9.33505
▁самое	-9.33521
A	-9.33604
▁сделать	-9.33646
▁воинов	-9.33656
nus	-9.33673
▁vobis	-9.34053
▁quicquam	-9.34065
ди	-9.34299
▁habuit	-9.34517
▁consilium	-9.34522
▁места	-9.34564
▁нее	-9.34571
▁numero	-9.34688
nda	-9.34701
cum	-9.34874
▁alios	-9.35071
▁руки	-9.35084
▁lege	-9.35149
▁Рима	-9.35149
▁Мы	-9.3517
▁Caesaris	-9.3518
▁agrum	-9.35385
▁domine	-9.3541
▁куда	-9.35415
▁imperio	-9.35421
ari	-9.35518
▁forte	-9.35561
▁Iam	-9.35616
▁Во	-9.35628
▁говорит	-9.35681
▁Ea	-9.3576
▁её	-9.35832
▁seu	-9.3595
▁quin	-9.35983
▁imperii	-9.36001
ков	-9.36011
▁одной	-9.36301
▁следует	-9.36317
▁другого	-9.3632
▁spem	-9.3635
▁uero	-9.36402
bo	-9.36421
▁народу	-9.36658
тся	-9.36699
▁многие	-9.36723
▁весь	-9.36732
▁accepit	-9.36738
▁V	-9.36885
▁моей	-9.36999
▁habent	-9.37011
.'	-9.3711
▁Италии	-9.37173
en	-9.37197
▁The	-9.3728
bit	-9.37346
▁Hannibal	-9.37548
▁suas	-9.37597
▁некоторые	-9.37637
▁repente	-9.37653
▁пор	-9.37853
▁consilio	-9.37938
▁natura	-9.38073
▁possunt	-9.3808
▁богов	-9.38094
▁сразу	-9.38099
▁хорошо	-9.38147
▁praesidio	-9.38156
▁cur	-9.38179
▁Post	-9.38238
▁signum	-9.38537
▁legati	-9.39034
ль	-9.39112
▁той	-9.39186
хоть	-9.39202
▁дом	-9.39246
verunt	-9.39248
▁мое	-9.39291
▁помощь	-9.39359
▁iubet	-9.3946
▁слишком	-9.39479
▁mei	-9.39525
nte	-9.39843
▁illos	-9.39899
▁речь	-9.39961
▁facile	-9.40304
▁Cn	-9.40345
▁дать	-9.40522
▁partes	-9.40734
▁ni	-9.40785
▁самом	-9.4088
S	-9.40935
▁говорить	-9.41041
▁possent	-9.41051
▁Затем	-9.41322
▁моя	-9.41323
▁publicam	-9.41334
▁Deus	-9.41428
▁части	-9.41613
tione	-9.41685
ко	-9.41763
▁is	-9.41774
▁proelium	-9.41811
▁Луций	-9.4186
▁cetera	-9.42152
▁мои	-9.42212
▁детей	-9.42267
are	-9.42321
ssent	-9.42528
ние	-9.42606
▁domi	-9.42664
▁души	-9.42747
▁supra	-9.42749
▁почему	-9.4278
▁iter	-9.42809
▁является	-9.4283
▁М	-9.42928
▁эта	-9.42953
ин	-9.42958
▁F	-9.42964
▁значит	-9.4299
▁менее	-9.43225
▁multi	-9.43247
▁войне	-9.43322
англ	-9.434
▁рода	-9.43551
lo	-9.43555
▁G	-9.43661
▁vi	-9.4375
▁filium	-9.43758
▁legatos	-9.43867
▁послал	-9.43894
▁vis	-9.44166
ту	-9.44211
▁стало	-9.44579
тель	-9.44629
▁omne	-9.44893
▁hostis	-9.45117
▁decem	-9.45138
▁особенно	-9.45147
▁patribus	-9.45181
ду	-9.45224
▁Пусть	-9.45247
▁делать	-9.45276
ebatur	-9.45391
tam	-9.45403
ча	-9.45417
dum	-9.45479
▁iterum	-9.4552
вшись	-9.4561
nti	-9.45623
▁первый	-9.45662
▁Italia	-9.45783
uerunt	-9.45883
id	-9.46261
▁разве	-9.4636
▁cuncta	-9.46634
▁profectus	-9.46663
▁моего	-9.46734
▁praeda	-9.46766
per	-9.46898
ому	-9.46981
▁copias	-9.47015
▁maiore	-9.47018
entibus	-9.47132
▁extemplo	-9.47134
▁скорее	-9.47134
▁собою	-9.47134
entem	-9.47194
h	-9.4726
▁долго	-9.47328
▁сражение	-9.4738
ри	-9.47385
▁Ne	-9.47406
▁meam	-9.47527
▁capta	-9.47601
▁сторон	-9.47609
▁iure	-9.47658
ному	-9.47661
едва	-9.47703
▁quaedam	-9.47727
etur	-9.47759
▁corporis	-9.47781
iae	-9.47822
uerat	-9.47843
▁meae	-9.47848
▁имени	-9.48002
▁сын	-9.48021
▁nomina	-9.48042
▁longe	-9.48137
▁undique	-9.48138
▁quomodo	-9.48143
tionis	-9.48172
▁homo	-9.48184
▁Ac	-9.48215
▁другим	-9.48318
▁рас	-9.48435
sa	-9.48483
isse	-9.48535
bam	-9.48573
▁такого	-9.48648
▁знаю	-9.48677
▁statim	-9.48735
tem	-9.48804
▁п	-9.48834
▁меньше	-9.4899
ge	-9.49357
k	-9.49505
▁котором	-9.49507
▁meo	-9.49557
▁alter	-9.49654
▁tanto	-9.4966
▁Однако	-9.4966
▁deos	-9.49834
вший	-9.49959
▁plebem	-9.50054
▁nostra	-9.50108
▁militibus	-9.50185
▁консула	-9.50204
▁консулы	-9.50353
▁знал	-9.50581
▁D	-9.50598
ать	-9.50615
▁adversus	-9.50688
▁благодаря	-9.50689
ро	-9.51129
▁говорят	-9.51245
ения	-9.51261
▁ferme	-9.51352
▁враги	-9.51411
▁Re	-9.51437
▁facit	-9.51541
▁взял	-9.51589
ры	-9.51713
▁legionibus	-9.5173
▁всю	-9.51736
▁таких	-9.51922
▁nullo	-9.52034
ntium	-9.52046
▁Pro	-9.52098
ul	-9.52218
▁data	-9.52258
endi	-9.52396
▁Romanorum	-9.52404
▁э	-9.52547
▁начал	-9.52564
▁Novi	-9.52566
▁filii	-9.52619
▁море	-9.52671
от	-9.52747
▁caelum	-9.52777
▁всадников	-9.5279
▁воины	-9.52816
▁vos	-9.52915
▁nostri	-9.53063
▁Eo	-9.53084
▁fines	-9.53501
▁ipsos	-9.53503
erit	-9.53585
▁та	-9.53593
▁domo	-9.53649
▁ira	-9.53806
▁две	-9.53814
ец	-9.53926
▁быстро	-9.54025
▁dictator	-9.54143
▁secum	-9.54182
ями	-9.54238
▁possit	-9.54373
▁aliquando	-9.54393
▁сейчас	-9.54437
▁H	-9.54462
▁potestate	-9.5448
▁Итак	-9.54482
▁hinc	-9.54498
▁modum	-9.54513
▁Гая	-9.54514
ут	-9.54642
▁умер	-9.54692
▁fide	-9.5483
▁tandem	-9.5491
▁Сципион	-9.54911
▁quippe	-9.54977
▁fit	-9.55008
endum	-9.5505
ги	-9.55091
▁ту	-9.55127
▁regem	-9.55197
▁consule	-9.55278
▁potuit	-9.55487
▁самой	-9.55494
▁Она	-9.55537
▁пути	-9.55563
▁mala	-9.55604
▁отправил	-9.55651
▁tota	-9.5568
▁diebus	-9.55687
▁Se	-9.55829
ndam	-9.5596
▁habita	-9.55962
▁populus	-9.55994
▁Eboraci	-9.55995
би	-9.55996
▁Галлии	-9.55999
▁temporis	-9.56048
pi	-9.56183
▁R	-9.56228
cus	-9.56251
antur	-9.56307
▁Сам	-9.56356
▁alterum	-9.56361
▁poterat	-9.56543
▁остальные	-9.56543
ский	-9.56622
▁ipsis	-9.56638
gi	-9.56688
▁Is	-9.57025
▁U	-9.57084
▁oppidum	-9.5709
▁agro	-9.57169
▁решил	-9.5721
▁ulla	-9.57226
ство	-9.57332
вшие	-9.57431
▁война	-9.57478
ием	-9.5754
С	-9.57541
▁forma	-9.57563
▁acies	-9.57584
▁Т	-9.57645
▁другое	-9.5767
▁par	-9.57876
endo	-9.58161
▁одна	-9.58193
▁caput	-9.58201
▁genus	-9.58353
▁rex	-9.58439
▁мира	-9.58454
ости	-9.58521
▁vitam	-9.58576
▁uis	-9.58584
bi	-9.58744
▁Fabius	-9.58812
▁duce	-9.58823
па	-9.58874
▁дни	-9.58875
▁войском	-9.59065
▁городе	-9.59086
▁medio	-9.59225
▁легко	-9.59308
▁Die	-9.59418
tra	-9.59474
▁eas	-9.59479
▁государство	-9.59646
▁patris	-9.59741
▁Caesarem	-9.59742
▁agmine	-9.59883
▁провинции	-9.59883
ве	-9.59962
▁видел	-9.60028
▁terrae	-9.6009
nos	-9.6011
▁послов	-9.60231
щ	-9.60299
tor	-9.60332
P	-9.60339
uere	-9.6042
▁Augusti	-9.60452
▁путь	-9.60475
▁loca	-9.60484
ше	-9.60786
▁дел	-9.60893
▁тело	-9.60898
▁т	-9.60946
▁regnum	-9.61023
▁следующий	-9.61028
▁coepit	-9.61054
▁multos	-9.61141
жи	-9.61217
▁солдаты	-9.61259
▁стать	-9.6137
▁Italiam	-9.61541
ici	-9.61541
▁agmen	-9.61598
▁множество	-9.61758
▁принял	-9.61766
▁которому	-9.6178
▁utrum	-9.61795
▁создал	-9.61877
▁agros	-9.61962
▁animis	-9.62211
▁deum	-9.6229
▁finem	-9.62295
▁tribunos	-9.62411
▁annis	-9.62669
▁вдруг	-9.62757
▁конницы	-9.62758
ты	-9.62858
ши	-9.62957
са	-9.63
do	-9.63066
▁pugnam	-9.63097
ились	-9.63142
▁suorum	-9.63146
▁друга	-9.63179
▁здоров	-9.63306
im	-9.63344
▁peditum	-9.63345
▁ecce	-9.63346
▁Д	-9.63472
ac	-9.63571
вал	-9.63697
▁До	-9.63746
▁оставил	-9.6381
▁Вы	-9.63826
▁uix	-9.63851
▁сначала	-9.6393
▁rursus	-9.63931
ает	-9.63951
▁pugnae	-9.64062
uis	-9.64128
mur	-9.64147
▁царя	-9.64178
▁каким	-9.64184
жа	-9.64238
лу	-9.64324
▁Sic	-9.64328
▁Con	-9.64521
▁spes	-9.64525
▁tuae	-9.64525
ol	-9.64539
▁duas	-9.6454
▁vir	-9.64557
▁говорю	-9.64567
▁tribunis	-9.64583
▁fuerunt	-9.64643
▁Марка	-9.64667
ья	-9.647
▁отец	-9.64766
▁illius	-9.6479
▁ire	-9.64817
▁pati	-9.64843
▁сражения	-9.64936
▁ими	-9.65114
▁hoste	-9.65124
об	-9.65126
▁душу	-9.65133
▁tuam	-9.65288
нее	-9.65356
▁известно	-9.65362
▁страха	-9.65383
▁сама	-9.65449
▁venit	-9.65507
▁такие	-9.65541
met	-9.65574
▁habebat	-9.6566
ек	-9.65686
▁тотчас	-9.65716
▁certamen	-9.65721
enti	-9.65797
▁легионы	-9.65806
▁alias	-9.65863
ad	-9.65982
али	-9.66087
ова	-9.66187
ua	-9.66264
▁ночь	-9.66287
▁copiis	-9.66318
▁ultra	-9.66319
▁oculis	-9.66502
▁всеми	-9.66685
z	-9.66698
▁uti	-9.6672
▁of	-9.66754
▁имеет	-9.66805
▁четыре	-9.66876
▁другом	-9.66934
▁Тем	-9.66936
▁ceteris	-9.66956
▁aliqua	-9.66974
▁nullum	-9.66992
cit	-9.66998
ится	-9.67089
▁выше	-9.67092
▁cor	-9.67468
▁paene	-9.67534
▁certe	-9.67539
▁душе	-9.67613
▁morte	-9.67719
ость	-9.67753
▁самым	-9.6777
▁Ap	-9.6783
ru	-9.67847
▁plebi	-9.67961
▁hi	-9.68016
▁La	-9.68118
▁quemadmodum	-9.68148
▁primus	-9.68149
▁quanto	-9.6815
▁римский	-9.68151
ing	-9.68256
▁бой	-9.68256
▁interim	-9.68258
▁сил	-9.6828
▁natus	-9.68295
▁mi	-9.68314
▁знает	-9.68321
▁corpora	-9.68352
▁Про	-9.68399
v	-9.68399
enses	-9.68491
▁ferre	-9.6877
ение	-9.68801
▁закон	-9.68812
--	-9.68835
▁paucis	-9.69038
▁duces	-9.69065
▁сердце	-9.69137
▁huic	-9.69386
▁вообще	-9.69386
▁septem	-9.6939
▁снова	-9.69435
▁свет	-9.69573
▁hominem	-9.69624
▁моих	-9.69651
ина	-9.69695
▁Августа	-9.69704
▁римлянам	-9.69728
си	-9.69833
▁consulis	-9.69871
▁тела	-9.69946
лен	-9.69948
▁certamine	-9.70014
▁пришел	-9.70026
▁amplius	-9.70028
▁памяти	-9.7003
▁конечно	-9.70044
▁impetu	-9.7006
ат	-9.70079
▁Квинт	-9.70088
▁Луция	-9.70092
▁consilia	-9.70099
▁силу	-9.7018
ства	-9.70184
▁велел	-9.70285
▁ideo	-9.70333
el	-9.70441
ver	-9.70587
▁media	-9.7063
▁назад	-9.70641
▁locus	-9.7066
▁generis	-9.70795
▁comitia	-9.70823
▁Публий	-9.70856
▁liberos	-9.70878
ний	-9.70961
▁течение	-9.71018
ье	-9.71062
▁gratiam	-9.71074
▁sex	-9.71101
▁haberet	-9.7119
▁чему	-9.71234
▁male	-9.71235
▁трибунов	-9.71313
▁filius	-9.71314
ente	-9.71321
▁насколько	-9.71405
▁зло	-9.71423
▁голос	-9.71504
▁матери	-9.71651
▁alio	-9.7169
res	-9.71692
▁сенату	-9.71695
▁Тиберия	-9.7191
▁Фабий	-9.7191
▁malum	-9.71912
tes	-9.7221
▁parum	-9.72322
▁gratia	-9.72343
ag	-9.72549
▁plures	-9.72551
▁наш	-9.72553
во	-9.72556
▁centum	-9.72556
▁alius	-9.72616
▁pace	-9.72792
▁нашего	-9.72872
▁more	-9.72876
pe	-9.72948
▁говоря	-9.73148
eret	-9.73177
▁uobis	-9.73188
▁настолько	-9.732
▁mari	-9.73201
▁leges	-9.73215
▁Nihil	-9.7329
▁обо	-9.73326
▁passim	-9.73332
▁право	-9.73424
▁должно	-9.73488
▁одном	-9.73632
▁paucos	-9.73846
▁одним	-9.7385
▁союзников	-9.73854
▁всякий	-9.73963
▁datum	-9.73998
вшихся	-9.74084
▁увидел	-9.74148
ani	-9.74272
ebantur	-9.74303
▁tribus	-9.74343
▁пять	-9.74413
w	-9.74462
▁Испании	-9.74499
▁иначе	-9.745
▁respondit	-9.74512
▁Hispania	-9.74521
▁равно	-9.74531
▁консульство	-9.74587
▁ingenti	-9.74679
ён	-9.74707
▁libertatem	-9.74724
▁hominis	-9.74832
▁dein	-9.74929
▁lingua	-9.75003
▁moenia	-9.75157
▁пришли	-9.75171
▁поставил	-9.75172
▁utique	-9.75177
▁Ma	-9.75356
eris	-9.75522
▁conspectu	-9.75533
▁Sp	-9.75557
▁поле	-9.7562
▁Tu	-9.75666
▁filio	-9.75686
▁какое	-9.758
▁стала	-9.7581
▁Ceterum	-9.75819
▁Ianuarii	-9.75819
▁царь	-9.75819
ма	-9.75847
▁genere	-9.75863
▁licet	-9.75886
▁caede	-9.75899
▁ночью	-9.75926
▁Там	-9.76014
▁sententia	-9.76174
ар	-9.76238
либо	-9.76246
▁То	-9.76306
▁flumen	-9.76486
место	-9.76486
▁dux	-9.76486
▁остальных	-9.76489
imus	-9.76567
▁nostris	-9.76808
▁оба	-9.76856
ности	-9.76872
ней	-9.76926
▁potestatem	-9.77049
▁ducem	-9.7705
▁Нет	-9.77083
▁помощи	-9.77157
▁fieret	-9.7716
▁Hic	-9.77182
▁рабов	-9.77202
▁domus	-9.77207
▁velut	-9.77207
▁скоро	-9.77226
▁duobus	-9.77261
▁род	-9.77282
бо	-9.77319
вшего	-9.77355
▁certa	-9.77395
▁sive	-9.77472
▁земля	-9.77494
▁periculo	-9.77534
▁нашей	-9.77609
вших	-9.77691
▁maxima	-9.77703
▁опасности	-9.77839
▁totum	-9.77914
▁самых	-9.78003
uerant	-9.78089
▁patrem	-9.78115
ишь	-9.78144
смотря	-9.78242
▁litteris	-9.78513
▁necesse	-9.7858
▁coram	-9.78589
▁сенаторов	-9.78593
▁triginta	-9.786
▁aliquot	-9.78627
▁partim	-9.78691
M	-9.78783
▁узнал	-9.78847
▁Боже	-9.78896
до	-9.79008
ior	-9.79166
▁bella	-9.79179
▁обычно	-9.79218
▁откуда	-9.79274
▁консулов	-9.79323
▁vim	-9.79354
▁легиона	-9.79413
вшийся	-9.79427
▁foret	-9.79596
ился	-9.79847
▁Цезарю	-9.79887
▁совсем	-9.7992
▁мной	-9.79924
▁verum	-9.80096
▁dicit	-9.80127
ata	-9.80142
▁вести	-9.80272
▁gloria	-9.80309
▁нами	-9.8035
mi	-9.80406
I	-9.80453
цы	-9.80563
ность	-9.80565
ф	-9.80588
▁caeli	-9.80591
▁деньги	-9.80627
▁Господь	-9.80635
▁Claudius	-9.80647
cu	-9.80679
ская	-9.80713
▁futurum	-9.80764
▁жил	-9.80827
▁самый	-9.8085
▁aetate	-9.80867
▁Hannibalem	-9.809
▁доме	-9.80928
▁какие	-9.80982
▁одни	-9.8109
▁ora	-9.81112
▁dico	-9.8118
▁corpore	-9.81254
▁paulo	-9.81283
▁обоих	-9.81296
▁временем	-9.81298
▁umquam	-9.813
▁fuisset	-9.81301
▁мать	-9.8133
▁quondam	-9.81375
▁сторону	-9.81506
tatis	-9.81509
▁dictatorem	-9.81566
▁дух	-9.81673
▁говорили	-9.81748
▁достаточно	-9.81793
mque	-9.81816
ад	-9.81895
▁urbs	-9.81985
▁вокруг	-9.81989
ба	-9.81991
▁auxilium	-9.82006
▁aliter	-9.82223
▁Между	-9.82249
▁misit	-9.82284
▁pacem	-9.82465
tores	-9.82511
▁facto	-9.82655
▁magistratus	-9.82687
▁иногда	-9.82695
▁идти	-9.82695
▁verba	-9.82697
▁дабы	-9.82706
▁делает	-9.82783
мо	-9.83012
les	-9.83041
▁Разве	-9.83054
▁auctores	-9.83138
▁вперед	-9.83146
rem	-9.83174
▁impetum	-9.83208
▁стоит	-9.83218
tiones	-9.8325
runt	-9.83251
▁op	-9.83259
▁идет	-9.83302
qui	-9.83334
▁Ли	-9.83374
▁боя	-9.834
▁ceterum	-9.83409
▁postremo	-9.83409
▁поэтому	-9.83411
▁omnino	-9.83443
ionem	-9.83556
▁сенаторы	-9.83616
юсь	-9.83768
▁Qua	-9.83791
on	-9.83872
▁хочет	-9.84009
▁слово	-9.84083
▁multitudo	-9.84129
▁людям	-9.84129
Italiane	-9.84179
▁dicitur	-9.84237
▁oculos	-9.84272
▁mare	-9.84292
atus	-9.84337
▁Ar	-9.84366
род	-9.84389
▁брата	-9.84402
V	-9.84409
▁facti	-9.84412
▁gesta	-9.84549
ha	-9.84742
▁ipsius	-9.84768
sit	-9.84829
▁diei	-9.84843
▁Iacob	-9.84854
▁periculum	-9.84854
▁знать	-9.84854
▁Eodem	-9.8486
▁dicens	-9.84861
▁altera	-9.84916
▁силой	-9.84937
ник	-9.8499
ают	-9.85024
▁missi	-9.8504
▁лагерем	-9.85097
ком	-9.8519
▁praesidium	-9.85236
вшиеся	-9.85296
▁письмо	-9.85332
▁число	-9.854
?'	-9.85428
ini	-9.8545
▁pecunia	-9.85486
▁iuxta	-9.85583
▁ratus	-9.85596
▁конце	-9.85598
▁вернулся	-9.85615
mo	-9.85624
▁mille	-9.85659
▁которыми	-9.85696
▁foro	-9.85715
▁urbes	-9.85725
pa	-9.85896
▁внезапно	-9.85908
▁глаза	-9.85925
ntis	-9.86038
ex	-9.86062
▁б	-9.86159
▁species	-9.86192
nem	-9.86267
T	-9.8628
▁numerum	-9.86318
▁ultro	-9.86318
▁magnitudine	-9.86319
▁ullo	-9.86322
▁конец	-9.86325
▁ipsam	-9.86335
▁Твоего	-9.86397
▁quisquam	-9.86404
ях	-9.86444
▁unius	-9.86481
▁fecerunt	-9.86484
▁речи	-9.86485
бе	-9.86501
иться	-9.86563
▁porta	-9.86728
ист	-9.8678
▁mori	-9.86811
зи	-9.86901
erant	-9.86924
▁вид	-9.86974
▁ratio	-9.87014
ер	-9.87017
▁римских	-9.87061
▁miles	-9.87066
ula	-9.87108
▁трибуны	-9.87149
cis	-9.87325
isset	-9.87404
nes	-9.87544
▁Italiae	-9.87634
ца	-9.87644
▁iura	-9.87681
dam	-9.87725
▁usus	-9.87814
▁hominibus	-9.87826
▁dicta	-9.87857
▁videtur	-9.87858
вы	-9.87954
ские	-9.88007
▁лагере	-9.8807
ud	-9.88116
du	-9.88131
▁uita	-9.88243
▁просто	-9.88276
▁объявил	-9.88484
▁magistratu	-9.88533
▁plebe	-9.88534
atum	-9.88547
▁бывает	-9.8856
▁легионов	-9.88616
▁Дл	-9.88637
▁человеку	-9.88653
ina	-9.88799
▁уж	-9.88844
ставить	-9.88876
▁sociorum	-9.8891
▁multitudinem	-9.88948
ел	-9.88983
ii	-9.8902
▁luce	-9.89144
▁сенате	-9.89151
tim	-9.89213
прав	-9.89243
▁antea	-9.89275
▁tria	-9.89278
▁Клавдий	-9.89315
▁Ipse	-9.89318
▁двадцать	-9.89325
▁Ca	-9.89325
▁второй	-9.8933
▁небо	-9.89355
▁pedes	-9.89358
▁manum	-9.89506
ав	-9.8954
▁гор	-9.89544
▁тысячи	-9.89607
▁само	-9.89639
▁toto	-9.89744
▁sumus	-9.90022
▁Е	-9.90039
▁nota	-9.90062
▁пришлось	-9.90084
▁Deinde	-9.90094
▁блага	-9.90106
▁anima	-9.90187
▁Бога	-9.90289
▁uxorem	-9.90296
rat	-9.90444
▁cons	-9.90499
▁н	-9.90602
▁ответил	-9.90662
▁Scipio	-9.90695
▁duos	-9.90805
▁plerumque	-9.90847
▁будешь	-9.9085
▁большой	-9.90855
▁неприятеля	-9.90859
▁ясно	-9.90887
▁Ни	-9.90889
▁fortunae	-9.9109
▁Ф	-9.91122
стью	-9.91175
▁тоже	-9.91248
▁мол	-9.91291
▁сто	-9.91295
iam	-9.91341
amus	-9.91357
ica	-9.91411
лю	-9.91425
ati	-9.91454
▁publico	-9.91519
▁agere	-9.91549
ё	-9.91601
▁добродетели	-9.91623
▁вновь	-9.91623
▁milibus	-9.91631
▁Со	-9.91684
▁mora	-9.91727
▁храм	-9.91754
▁считал	-9.91804
▁auctor	-9.91872
▁hos	-9.91879
erent	-9.91977
uc	-9.92051
da	-9.92147
pp	-9.92168
lu	-9.92177
▁Италию	-9.92404
▁loci	-9.92448
▁ingens	-9.92632
D	-9.92789
ских	-9.92954
▁Neque	-9.93045
В	-9.93047
▁память	-9.93094
▁magnum	-9.93192
▁конца	-9.93196
▁scripsit	-9.93209
▁Samnitium	-9.93214
▁кон	-9.93235
▁Под	-9.93244
▁Только	-9.93252
▁statu	-9.93272
orem	-9.93273
▁заставил	-9.93401
тов	-9.93543
▁Galli	-9.93614
▁opere	-9.93677
▁решение	-9.93734
ans	-9.93771
ис	-9.93825
▁оттуда	-9.93985
▁мною	-9.93992
▁Мне	-9.94007
▁Ему	-9.94013
лы	-9.94104
▁Ибо	-9.94114
▁hodie	-9.94194
▁quaeque	-9.94301
▁хлеб	-9.94303
▁самому	-9.94352
▁пре	-9.94439
▁стар	-9.94487
▁Vale	-9.94603
жд	-9.94611
▁scire	-9.94621
нов	-9.94768
▁далеко	-9.94797
▁Etiam	-9.94832
▁Р	-9.94857
кой	-9.94861
▁legatis	-9.94866
▁лица	-9.94874
ня	-9.94892
dem	-9.94896
▁возможность	-9.94943
▁clamore	-9.95024
ор	-9.95054
▁Э	-9.95096
verat	-9.95147
ali	-9.95158
▁speciem	-9.95164
▁II	-9.95181
пе	-9.95219
▁fortunam	-9.95247
таки	-9.95284
▁unam	-9.95325
▁Dei	-9.95365
arum	-9.95379
un	-9.95422
▁Те	-9.95426
▁суд	-9.95459
▁vix	-9.95495
▁itinere	-9.95591
▁Ego	-9.95602
▁naues	-9.95625
▁Londinii	-9.95656
▁item	-9.95672
▁Di	-9.95702
▁буду	-9.95707
ec	-9.95737
tate	-9.95742
▁tulit	-9.95786
прочем	-9.95864
th	-9.95865
onis	-9.95931
▁народом	-9.9605
▁большим	-9.96053
▁начали	-9.96113
▁c	-9.96359
▁tempora	-9.96365
▁totam	-9.96404
▁Dominus	-9.96405
▁spatio	-9.96405
▁iuris	-9.9641
bar	-9.96479
▁olim	-9.9655
▁принцепса	-9.96681
▁должность	-9.96711
▁могу	-9.96722
▁communi	-9.96907
▁sententiam	-9.96926
▁dare	-9.96928
▁consulum	-9.97133
▁Б	-9.97187
▁дальше	-9.97224
▁области	-9.97224
▁uiginti	-9.97224
▁virtus	-9.97271
▁N	-9.97618
▁Quam	-9.97693
▁трех	-9.97712
▁жив	-9.97722
▁tumultu	-9.97762
▁Публи	-9.97827
b	-9.9788
▁Или	-9.97889
uerit	-9.9796
▁Dioecesi	-9.9805
▁Co	-9.98055
▁третий	-9.98087
▁viri	-9.98193
▁помощью	-9.98231
▁вся	-9.9832
ум	-9.98355
▁principes	-9.98369
▁minor	-9.98414
мер	-9.9845
▁fugam	-9.98451
be	-9.98452
▁спор	-9.98775
▁pacis	-9.98849
turos	-9.98853
quaquam	-9.98894
▁equitibus	-9.98895
И	-9.98896
▁каждого	-9.98911
▁manibus	-9.9892
▁найти	-9.98946
eretur	-9.99003
▁срок	-9.99015
▁Этот	-9.9908
dit	-9.99218
ками	-9.99219
▁multitudine	-9.99291
ores	-9.99335
ще	-9.99378
▁etsi	-9.99389
hi	-9.99443
лет	-9.99446
ству	-9.99535
▁nulli	-9.99537
▁возможно	-9.99539
▁tribunus	-9.99731
▁честь	-9.99736
▁совершенно	-9.99752
▁Ba	-9.99753
▁Л	-9.99756
▁руках	-9.99818
▁десять	-9.99842
▁давно	-9.9986
▁дали	-9.99861
▁equitatu	-9.9989
▁Германика	-9.99904
▁мире	-9.99909
▁Твое	-9.99921
▁consulto	-9.99924
вид	-9.9998
▁ordinem	-10.0005
▁виду	-10.0005
▁нашел	-10.0009
▁auctoritate	-10.0013
▁arce	-10.0014
▁aliena	-10.0019
▁B	-10.0027
ora	-10.0035
▁готов	-10.0051
▁legem	-10.0054
▁Клавдия	-10.0057
▁новые	-10.0058
▁галлов	-10.0058
▁constat	-10.0058
▁принять	-10.006
H	-10.0063
▁довольно	-10.0065
▁mecum	-10.0067
ям	-10.007
▁Эти	-10.0072
▁совет	-10.0073
tibus	-10.0075
entur	-10.0079
▁rege	-10.008
▁Твоей	-10.0086
▁sola	-10.0087
▁слов	-10.0092
▁городов	-10.0093
tionibus	-10.0096
▁boni	-10.0096
▁hosti	-10.0097
▁плен	-10.0098
▁семь	-10.0102
▁patriam	-10.0105
pon	-10.0111
ore	-10.0114
E	-10.0117
▁dicam	-10.0126
il	-10.0131
▁postero	-10.0134
▁nostrum	-10.0143
▁fuerant	-10.0143
▁legibus	-10.0144
▁случай	-10.0149
▁союз	-10.0149
▁fecisti	-10.015
▁станет	-10.0164
▁сказали	-10.0166
▁угодно	-10.0173
▁aequa	-10.0178
▁n	-10.0182
▁via	-10.0182
сто	-10.0185
▁никак	-10.0194
▁regi	-10.0195
▁sacra	-10.0197
▁mors	-10.02
▁Ре	-10.0203
▁liberis	-10.0222
▁agri	-10.0224
▁любовь	-10.0224
ione	-10.0228
▁frustra	-10.0229
▁бою	-10.0231
▁demum	-10.0235
▁no	-10.0235
▁socios	-10.0237
▁mater	-10.0247
▁operam	-10.0252
▁властью	-10.0255
▁conscripti	-10.0255
▁litteras	-10.0258
гу	-10.0271
ram	-10.0277
▁словами	-10.0292
▁caelo	-10.0306
▁spatium	-10.0316
▁palam	-10.0318
▁голову	-10.032
ос	-10.0332
▁alium	-10.0338
▁nimis	-10.0343
бл	-10.0345
▁ворота	-10.0355
его	-10.0358
▁имел	-10.0362
▁Иисус	-10.0366
▁sociis	-10.037
▁всё	-10.0378
mini	-10.0384
скую	-10.0391
▁melius	-10.0404
▁причем	-10.0404
▁Ioseph	-10.0404
▁praesens	-10.0404
▁semel	-10.0404
▁казалось	-10.0404
лов	-10.0408
▁agris	-10.0408
▁немедленно	-10.041
▁немного	-10.0412
gu	-10.0417
lem	-10.0418
bis	-10.0424
ana	-10.0427
▁Будь	-10.0428
▁singulis	-10.0438
ndos	-10.0443
тер	-10.0451
▁враг	-10.0457
ск	-10.0457
▁назначил	-10.0457
ita	-10.0457
▁Africa	-10.0458
▁auxilia	-10.0463
▁воз	-10.047
enda	-10.0487
▁всему	-10.049
ена	-10.0491
▁duodecim	-10.0494
▁prouincia	-10.0497
▁добродетель	-10.0501
ющий	-10.0501
▁subito	-10.0505
▁uim	-10.051
ndis	-10.0519
▁видеть	-10.052
се	-10.0523
▁одному	-10.0523
▁solus	-10.0527
▁patriae	-10.0535
▁missus	-10.0535
▁quanta	-10.0542
ус	-10.0546
oni	-10.056
▁civitates	-10.0561
▁secunda	-10.0566
▁радость	-10.0572
▁начале	-10.0572
ющих	-10.0578
one	-10.0579
▁января	-10.0581
▁Тобой	-10.0581
▁начала	-10.0582
▁Тут	-10.0584
va	-10.0586
ешься	-10.0588
▁Tiberius	-10.059
▁deorum	-10.0604
ью	-10.061
▁spiritus	-10.0612
▁tuis	-10.0613
нию	-10.0613
нд	-10.0621
▁боги	-10.0628
est	-10.063
▁легион	-10.0632
▁motus	-10.0633
▁arcem	-10.0635
st	-10.0635
▁vivere	-10.0638
▁Gallia	-10.064
▁бегство	-10.0647
go	-10.065
▁quodam	-10.066
▁друзей	-10.0671
▁однажды	-10.0671
▁легче	-10.0671
▁будучи	-10.0673
▁longius	-10.0674
▁partibus	-10.0674
▁страны	-10.0678
▁regis	-10.0683
▁Ар	-10.0689
▁mortis	-10.0689
▁dictum	-10.0698
entis	-10.07
э	-10.07
ect	-10.0704
▁uenit	-10.0707
▁наше	-10.0711
▁al	-10.0735
ятся	-10.0739
▁sponte	-10.0762
▁utrimque	-10.0762
▁мою	-10.0763
▁bonis	-10.0764
umque	-10.0764
▁военных	-10.0766
▁neminem	-10.0767
▁Здесь	-10.0768
▁Samnites	-10.0768
▁игры	-10.077
▁vulgo	-10.0774
следствие	-10.0774
ine	-10.0774
▁uictoria	-10.078
▁воле	-10.0785
▁summo	-10.0786
▁cepit	-10.0791
▁patria	-10.0796
▁права	-10.0797
аль	-10.0799
▁Иаков	-10.08
nae	-10.081
▁can	-10.0813
▁nostros	-10.0815
▁открыто	-10.0817
нии	-10.082
▁No	-10.0829
▁мужа	-10.0834
ци	-10.0837
▁ma	-10.0852
▁memoriam	-10.0854
▁свободу	-10.0854
▁желая	-10.0854
▁octo	-10.0855
▁nata	-10.0861
▁поскольку	-10.0861
▁Sicilia	-10.0861
▁всякого	-10.0862
▁aetatis	-10.0866
▁mali	-10.0867
▁де	-10.087
▁Об	-10.0872
▁Hi	-10.0873
▁antequam	-10.0875
ensis	-10.0877
▁libertatis	-10.0878
▁вне	-10.088
▁отдал	-10.0883
▁consulatum	-10.0883
▁aqua	-10.0884
▁прибыл	-10.0885
▁uni	-10.0887
▁W	-10.0893
▁curia	-10.0907
▁первым	-10.0913
▁faceret	-10.0925
▁urbi	-10.0929
ten	-10.0935
▁publicum	-10.0947
▁заложников	-10.0947
▁ещё	-10.0947
▁finibus	-10.0949
icus	-10.095
▁твоего	-10.0953
▁Tiberio	-10.0958
▁imperator	-10.0959
▁разум	-10.0963
▁з	-10.0966
▁язык	-10.0967
avit	-10.0967
B	-10.0969
кс	-10.097
rit	-10.0971
atis	-10.0972
▁консулом	-10.0972
turum	-10.098
▁meis	-10.0988
ель	-10.0995
▁Август	-10.1001
раз	-10.1013
▁богам	-10.1014
str	-10.1014
емся	-10.1023
ран	-10.103
▁взять	-10.1031
▁ceteri	-10.1035
▁хочу	-10.104
▁oppido	-10.104
▁Multa	-10.104
▁legatus	-10.1041
▁Чтобы	-10.1041
tatem	-10.1042
▁спокойно	-10.1046
▁каждому	-10.1046
▁дочь	-10.1046
▁находится	-10.1046
▁futura	-10.1049
▁вышел	-10.1052
▁collega	-10.106
▁militem	-10.1061
▁мере	-10.1062
▁nominis	-10.1066
▁noctem	-10.1073
▁libera	-10.1081
▁Na	-10.1084
▁местах	-10.1085
urum	-10.1087
▁Fabio	-10.1087
▁mittit	-10.1089
▁tecum	-10.1089
▁specie	-10.1096
▁pari	-10.1105
▁condita	-10.1116
▁д	-10.1121
▁оружия	-10.1135
▁saepius	-10.1135
▁the	-10.1136
▁rediit	-10.1136
▁должности	-10.1137
▁quosdam	-10.1138
▁duae	-10.114
ven	-10.1157
aris	-10.1159
▁usu	-10.1164
▁Нерон	-10.1167
ров	-10.1167
▁uiam	-10.1193
▁прямо	-10.1202
▁aeque	-10.1212
bas	-10.1217
▁поля	-10.1222
▁Al	-10.1228
▁любви	-10.123
▁poterant	-10.123
▁получить	-10.1231
▁Cornelius	-10.1232
▁ducibus	-10.1233
▁principio	-10.1235
▁nescio	-10.1239
▁magister	-10.1242
▁моря	-10.1248
▁силами	-10.1248
ique	-10.1259
▁ночи	-10.1263
ик	-10.1265
щи	-10.1275
▁Galliae	-10.1277
су	-10.1283
▁honorem	-10.1292
К	-10.1294
ц	-10.1298
fer	-10.1301
▁толпа	-10.1324
isque	-10.1325
▁вскоре	-10.1326
▁тобою	-10.1326
▁кажется	-10.1326
▁tertium	-10.1326
▁singulos	-10.1326
▁portis	-10.1326
▁Gallorum	-10.1327
▁immo	-10.1328
▁pariter	-10.1329
▁Abraham	-10.1329
▁ворот	-10.1336
▁Ганнибала	-10.134
▁ambo	-10.1344
▁eram	-10.1347
▁tela	-10.1349
▁суда	-10.1353
▁obsides	-10.1354
йся	-10.1354
vere	-10.1356
▁флот	-10.1357
▁metum	-10.1363
▁u	-10.1366
▁жену	-10.1378
entium	-10.1384
▁принес	-10.1385
▁Ser	-10.1391
▁Ut	-10.1392
вор	-10.1417
▁diceret	-10.1422
▁foedus	-10.1423
▁numerus	-10.1423
▁passuum	-10.1423
▁signis	-10.1423
▁placuit	-10.1423
▁Ergo	-10.1431
▁пошел	-10.1431
▁горе	-10.1432
▁d	-10.1435
▁principis	-10.1439
▁Cur	-10.1443
▁мест	-10.1445
▁civitatis	-10.145
au	-10.1455
од	-10.1455
▁fides	-10.1469
nc	-10.1475
▁видя	-10.1477
▁pecuniam	-10.1484
▁Ti	-10.1489
▁Сын	-10.1496
раж	-10.1496
▁Таким	-10.1506
▁стоял	-10.151
vo	-10.151
onem	-10.1516
▁agit	-10.1519
▁Наконец	-10.1521
▁плебеев	-10.1521
▁temere	-10.1521
con	-10.1522
N	-10.1525
▁filios	-10.1532
▁меч	-10.1542
▁aliquis	-10.1546
▁consuli	-10.1547
▁выступил	-10.1548
▁copia	-10.1549
▁брат	-10.1555
▁magnam	-10.1556
▁Vide	-10.1577
▁consiliis	-10.1592
dic	-10.1599
▁proxima	-10.162
▁невозможно	-10.162
▁eundem	-10.162
▁faciunt	-10.162
▁умереть	-10.162
▁Nunc	-10.162
▁вовсе	-10.1622
▁pagina	-10.1623
▁мнению	-10.1626
▁стены	-10.1628
▁вступил	-10.1628
▁кое	-10.1629
▁Город	-10.1631
▁Марцелл	-10.1632
lia	-10.1632
▁руку	-10.1635
из	-10.1642
зна	-10.1665
ide	-10.1672
▁шел	-10.1678
▁словам	-10.1684
▁духа	-10.1692
▁Quis	-10.1699
▁положение	-10.17
▁делах	-10.17
non	-10.1702
▁longa	-10.1708
▁ненависть	-10.171
О	-10.1713
▁celeriter	-10.172
▁некоторых	-10.172
▁галлы	-10.1722
▁Valerius	-10.1724
▁римскому	-10.1725
▁пошли	-10.1725
▁tenuit	-10.1726
▁uiribus	-10.1727
▁portas	-10.1727
▁Quibus	-10.1734
▁capite	-10.1736
▁uia	-10.1738
▁труд	-10.174
▁gentis	-10.174
▁самые	-10.1742
▁aequo	-10.1743
▁ничто	-10.1748
uisse	-10.175
▁достиг	-10.1753
▁iussu	-10.176
▁народов	-10.1761
▁nullam	-10.1765
L	-10.1766
issent	-10.1773
▁главе	-10.1776
▁consensu	-10.1779
▁годы	-10.178
▁siue	-10.178
▁заявил	-10.1785
▁acta	-10.1792
▁каких	-10.1792
▁ужас	-10.1798
▁praetor	-10.1798
▁virtute	-10.18
▁сердца	-10.18
▁oratione	-10.1805
▁mense	-10.1808
ша	-10.1808
▁clam	-10.1819
▁posita	-10.1819
▁будущее	-10.1821
▁iudicium	-10.1821
▁summum	-10.1822
▁altero	-10.1827
▁verbis	-10.1832
▁отцу	-10.1832
кор	-10.1835
▁Почему	-10.1837
▁Capuam	-10.1843
▁отцы	-10.1853
▁forum	-10.1857
вали	-10.1867
чен	-10.1877
▁patri	-10.1878
▁оружием	-10.1885
▁всяк	-10.1893
ma	-10.1895
▁creati	-10.1895
▁пользу	-10.1917
▁publice	-10.1923
▁людьми	-10.1923
▁счастье	-10.1923
▁tergo	-10.1923
▁denique	-10.1923
▁кораблей	-10.1926
▁regni	-10.1926
▁Romanam	-10.1933
▁Omnes	-10.1933
▁всадники	-10.1936
▁primi	-10.1942
тор	-10.1943
ed	-10.1947
П	-10.1954
▁civitatem	-10.1964
ска	-10.1969
▁illic	-10.197
▁скот	-10.1977
gra	-10.1982
▁gloriam	-10.199
▁familia	-10.199
▁Caesare	-10.1995
▁uera	-10.1996
ман	-10.2006
▁трудно	-10.2007
ским	-10.201
▁Твоим	-10.2014
alia	-10.2017
цев	-10.2018
▁одну	-10.2026
▁initium	-10.2026
▁иметь	-10.2027
▁civium	-10.203
ении	-10.2034
▁totius	-10.2035
▁сюда	-10.2037
▁metus	-10.2044
▁fuere	-10.205
▁вполне	-10.2051
▁impetus	-10.2054
▁Тит	-10.2061
▁действительно	-10.2069
▁virtutem	-10.2069
▁curam	-10.2072
▁добра	-10.2074
▁числе	-10.2075
nd	-10.208
ber	-10.2081
bunt	-10.2083
▁cuiusque	-10.2089
▁этими	-10.21
▁действия	-10.2101
▁mundi	-10.2113
▁Dum	-10.2115
▁ею	-10.2115
▁диктатор	-10.2126
▁debet	-10.2127
▁ferro	-10.213
▁область	-10.213
▁quotiens	-10.213
▁muta	-10.2133
мы	-10.2134
▁сказано	-10.2136
▁honesta	-10.2136
▁quibusdam	-10.2136
▁меры	-10.2138
▁весьма	-10.2139
circiter	-10.2147
▁будь	-10.2148
▁contione	-10.2157
▁dato	-10.2158
▁familiae	-10.2175
▁такую	-10.2179
▁сих	-10.2181
▁opes	-10.2187
▁liber	-10.219
▁earum	-10.2194
▁falsa	-10.2196
М	-10.2206
▁portam	-10.2209
▁duxit	-10.2211
▁имущество	-10.2212
▁раб	-10.2214
erint	-10.2224
▁patre	-10.2229
▁uallum	-10.2236
▁duabus	-10.2236
▁Maii	-10.2245
▁dici	-10.225
▁accepta	-10.2253
▁maioribus	-10.2254
▁amicitia	-10.2257
atio	-10.2258
▁Iunii	-10.2258
▁Ко	-10.2266
▁fratres	-10.2279
▁какая	-10.2281
ebam	-10.2298
▁отряд	-10.2298
nu	-10.2301
▁таком	-10.2305
▁tribu	-10.2306
▁любил	-10.231
ria	-10.2318
▁нескольки	-10.2321
▁самих	-10.2321
▁la	-10.2322
▁виде	-10.2327
▁noua	-10.2333
rius	-10.2337
ившись	-10.2339
▁Vbi	-10.234
▁наибол	-10.2342
▁Теперь	-10.2342
▁Помпея	-10.2342
▁впоследствии	-10.2342
▁качестве	-10.2342
▁римские	-10.2342
▁nauibus	-10.2343
▁Ubi	-10.2343
▁основан	-10.2345
hel	-10.2346
▁istis	-10.2348
▁silentio	-10.2349
▁большую	-10.235
▁славу	-10.2353
▁воды	-10.2355
▁aliquo	-10.2356
вин	-10.2359
▁гнев	-10.236
▁Тот	-10.2362
▁бежать	-10.2367
▁мая	-10.2376
▁привел	-10.2379
▁частью	-10.2382
▁слух	-10.2393
▁Roma	-10.2407
▁agi	-10.242
▁лично	-10.2421
▁ordine	-10.2425
▁militari	-10.2427
▁civitate	-10.2431
▁Их	-10.2431
▁f	-10.2437
▁Romanae	-10.2446
▁Est	-10.2448
▁Корнелий	-10.2449
▁гибели	-10.2449
▁Есть	-10.2451
▁dei	-10.2454
▁equo	-10.2454
▁навстречу	-10.2454
▁Некоторые	-10.2456
▁придется	-10.2457
▁впервые	-10.2458
Б	-10.2466
▁внимание	-10.2468
▁interdum	-10.2469
сс	-10.2475
▁reges	-10.2477
ели	-10.2479
▁poena	-10.2481
▁morbo	-10.2484
вести	-10.249
▁amicitiam	-10.2498
▁Твои	-10.2504
rium	-10.2512
ces	-10.2519
▁самим	-10.2523
▁первых	-10.2528
▁voce	-10.254
▁senatui	-10.2544
▁считать	-10.2548
▁укрепления	-10.255
versum	-10.2554
▁городу	-10.2554
▁Marcellus	-10.2558
▁заранее	-10.2558
▁повсюду	-10.2558
▁uerba	-10.2558
▁правда	-10.2559
▁ранее	-10.2559
▁тридцать	-10.2559
▁недавно	-10.256
▁Germanici	-10.2561
bul	-10.2562
▁Capitolium	-10.2562
▁Гне	-10.2566
нут	-10.2567
▁реки	-10.2568
йте	-10.2574
▁alteri	-10.2585
▁делал	-10.2587
▁причина	-10.2592
▁нечто	-10.2598
▁Me	-10.2602
▁provincia	-10.2612
▁abs	-10.2617
rus	-10.2621
▁late	-10.2621
▁готовы	-10.2622
▁жены	-10.2633
▁претор	-10.2636
▁письма	-10.2638
dis	-10.2639
ское	-10.2642
▁ratione	-10.2647
▁petere	-10.2654
▁quare	-10.2655
▁государстве	-10.2656
▁вопрос	-10.2667
men	-10.2667
▁Gallis	-10.2668
▁Augusto	-10.2668
▁castrorum	-10.2668
▁spolia	-10.2668
▁princeps	-10.2668
▁oportet	-10.2668
▁extrema	-10.2668
▁состоянии	-10.2668
▁большие	-10.2668
▁naturam	-10.2668
▁Кром	-10.267
▁praeterea	-10.2672
▁Septembris	-10.2676
▁eiusdem	-10.268
▁вспомогательны	-10.2691
▁alterius	-10.2692
▁смертью	-10.2694
ori	-10.2699
▁неожиданно	-10.2701
ды	-10.2701
G	-10.271
ionis	-10.2715
▁мысли	-10.2722
ед	-10.2724
▁договор	-10.2727
▁дает	-10.2732
▁трибун	-10.2734
▁ос	-10.2741
ила	-10.2745
▁послан	-10.2755
▁словах	-10.2758
▁Па	-10.2774
▁oppida	-10.2775
▁корабли	-10.2779
▁спустя	-10.2779
▁servi	-10.2781
▁послы	-10.2782
▁medium	-10.2782
▁Антоний	-10.2782
op	-10.2782
▁рядом	-10.2782
▁обратился	-10.2788
▁могло	-10.2791
▁Decembris	-10.2793
▁ceteros	-10.2797
▁quemquam	-10.2798
▁noster	-10.28
cula	-10.2803
▁haberent	-10.2805
lla	-10.2809
ском	-10.2813
▁classem	-10.2813
▁misericordia	-10.2817
▁collegae	-10.2824
inde	-10.283
▁рук	-10.2838
▁твои	-10.2838
▁lucem	-10.2842
▁humani	-10.2843
ndae	-10.2843
cta	-10.2851
▁пример	-10.286
▁filia	-10.2861
▁человеком	-10.2863
▁назначен	-10.2865
▁pe	-10.2866
▁solet	-10.2876
▁взят	-10.2879
▁homine	-10.288
▁Aegypti	-10.2882
▁ver	-10.2887
▁ferunt	-10.2889
шего	-10.289
▁arte	-10.289
Т	-10.2891
▁сентября	-10.2891
▁становится	-10.2892
▁осталось	-10.2892
▁толпы	-10.2893
▁победы	-10.2896
▁des	-10.2902
▁priore	-10.2909
▁моим	-10.2915
▁salutem	-10.2916
▁fratrem	-10.2919
ющие	-10.292
▁Consul	-10.2922
ски	-10.2924
▁Нерона	-10.2936
▁nega	-10.2941
▁сила	-10.295
▁du	-10.2965
pu	-10.2966
ян	-10.2968
▁cuique	-10.297
▁annorum	-10.2974
▁причине	-10.2974
▁honore	-10.2977
▁Car	-10.2979
▁такая	-10.2979
anum	-10.2985
▁profecti	-10.2993
▁officio	-10.2997
▁genera	-10.3002
▁praedam	-10.3003
▁deo	-10.3004
ba	-10.3004
▁habeat	-10.3005
▁aegre	-10.3005
▁хочешь	-10.3005
она	-10.3005
▁eques	-10.3006
▁никого	-10.3006
▁genuit	-10.3007
▁audita	-10.3007
torum	-10.3009
▁настоящее	-10.301
▁com	-10.3011
▁начало	-10.3011
▁законы	-10.303
фа	-10.3046
▁consilii	-10.3047
шь	-10.3047
▁Iesus	-10.3048
▁крайне	-10.3053
▁мнение	-10.3055
сп	-10.3059
▁humana	-10.3069
▁animam	-10.3069
ph	-10.3071
▁римским	-10.3085
▁римлянами	-10.3085
▁scriptor	-10.3086
▁praedae	-10.3094
▁кем	-10.3094
▁название	-10.3097
▁преступления	-10.3099
▁пос	-10.3099
U	-10.3105
нул	-10.3107
▁получили	-10.3107
▁какого	-10.3117
▁удалось	-10.312
▁legionum	-10.3121
▁mane	-10.3121
▁Martii	-10.3122
▁clamor	-10.3124
▁facilius	-10.3125
▁дорогу	-10.3128
▁вернуться	-10.3128
▁deditionem	-10.3129
▁боль	-10.3129
▁Ба	-10.3132
▁Эта	-10.3133
▁vide	-10.3136
▁finis	-10.3137
▁sedes	-10.314
▁aliam	-10.3142
eri	-10.3144
нос	-10.3146
▁studio	-10.315
▁глазах	-10.3154
▁жена	-10.3154
▁gentes	-10.3158
▁summam	-10.3158
▁случайно	-10.316
▁foris	-10.3162
▁надежда	-10.3162
uri	-10.3163
▁Nemo	-10.3179
▁женщин	-10.3184
F	-10.3185
бер	-10.3196
▁honores	-10.3203
verit	-10.3204
itas	-10.3204
▁Иосиф	-10.3211
▁cornu	-10.3215
om	-10.322
▁Потом	-10.3223
▁вызвал	-10.3223
▁auxilio	-10.3229
▁moenibus	-10.3236
▁Сицилии	-10.3236
▁порядок	-10.3236
▁опять	-10.3236
▁остался	-10.3237
▁глаз	-10.3238
▁дороге	-10.3252
▁Ка	-10.3255
▁capere	-10.3256
ensi	-10.3257
▁лиц	-10.3259
▁думал	-10.3264
▁строй	-10.3265
▁Sub	-10.3266
▁fo	-10.327
под	-10.3273
▁capi	-10.3274
▁legis	-10.3279
▁ста	-10.3279
▁вынужден	-10.3284
▁городски	-10.3284
бу	-10.3289
O	-10.3301
ста	-10.3315
▁hora	-10.332
▁usum	-10.3322
▁mira	-10.3323
stis	-10.3329
▁terror	-10.3339
▁memoriae	-10.3344
visse	-10.3344
▁maiores	-10.3345
▁позор	-10.3349
ros	-10.3349
▁племена	-10.3352
ены	-10.3353
▁gaudium	-10.3354
▁quinquaginta	-10.3354
▁декабря	-10.3354
▁сильнее	-10.3354
▁Press	-10.3354
▁nuper	-10.3354
▁Samnitibus	-10.3354
▁твой	-10.3355
▁философии	-10.3355
▁eandem	-10.3355
▁одновременно	-10.3357
ice	-10.3359
▁Н	-10.336
▁erunt	-10.3361
▁gentium	-10.3365
▁uerum	-10.3368
▁isti	-10.3372
стве	-10.3372
▁Fabium	-10.3374
▁principem	-10.3375
▁magnis	-10.3382
▁uestra	-10.3384
▁знак	-10.3387
▁хотят	-10.3388
▁могла	-10.339
▁другому	-10.3409
▁petit	-10.3412
▁Galliam	-10.342
▁tuus	-10.3423
▁Квинта	-10.3425
Я	-10.3426
▁solis	-10.3426
▁coepta	-10.3434
tri	-10.3435
▁другими	-10.3437
▁oratio	-10.3442
▁uxor	-10.3446
▁диктатора	-10.345
▁militiae	-10.3453
▁вел	-10.3454
entia	-10.3455
ones	-10.3457
▁nox	-10.346
▁пе	-10.3461
▁regione	-10.3468
жен	-10.3468
ир	-10.3472
▁minime	-10.3473
▁pluribus	-10.3473
▁написал	-10.3473
▁confestim	-10.3473
▁alieno	-10.3473
▁случилось	-10.3473
▁произошло	-10.3476
▁первой	-10.3479
▁трудом	-10.3486
▁Claudio	-10.3488
▁повел	-10.3508
▁шли	-10.3512
▁classis	-10.3514
▁Газдрубал	-10.3528
▁collegam	-10.353
nibus	-10.3534
po	-10.3548
▁Hac	-10.3548
▁tertia	-10.3551
▁sanguine	-10.3552
▁сильно	-10.3553
Д	-10.3553
нье	-10.3554
вшегося	-10.3556
▁провел	-10.3559
▁войск	-10.356
der	-10.3568
ъ	-10.3568
▁моему	-10.357
ими	-10.3571
▁одинаково	-10.3573
▁принято	-10.3573
зе	-10.3577
уд	-10.3579
▁consulari	-10.3581
▁Бо	-10.3581
osque	-10.3583
▁occulta	-10.3587
▁болезни	-10.3594
▁quadraginta	-10.3594
▁животных	-10.3594
▁vitia	-10.3595
▁надежды	-10.3598
▁предков	-10.3598
▁Quinctius	-10.3599
▁днем	-10.3601
▁Ме	-10.3603
▁ore	-10.3607
▁женщины	-10.3608
▁col	-10.3608
ёт	-10.3609
▁холм	-10.3609
▁именем	-10.361
▁духом	-10.3612
▁sequi	-10.3616
▁pugnatum	-10.3617
▁Sunt	-10.3618
▁bono	-10.3628
▁odio	-10.3629
▁plena	-10.3629
▁imperatorem	-10.363
це	-10.363
▁меж	-10.3632
▁Da	-10.3635
▁domos	-10.3637
▁egit	-10.3641
▁magni	-10.3642
▁operis	-10.3643
▁para	-10.365
▁Africam	-10.3653
том	-10.3653
▁imple	-10.3656
▁mentem	-10.3661
tius	-10.3679
▁дар	-10.3682
▁постоянно	-10.3682
рон	-10.3683
▁Te	-10.3683
▁laeta	-10.3684
иль	-10.3688
кр	-10.3695
turus	-10.37
▁видели	-10.3708
▁facerent	-10.371
ab	-10.3714
ак	-10.3715
▁голод	-10.3715
▁exemplo	-10.3715
▁Rhenum	-10.3715
▁знаешь	-10.3715
▁конницу	-10.3716
▁praeses	-10.3716
▁propius	-10.3716
▁вещи	-10.3718
▁munere	-10.3722
▁discordia	-10.3727
▁and	-10.3728
▁действовать	-10.3729
▁dixerunt	-10.3731
▁искать	-10.3737
▁книги	-10.374
▁никакой	-10.374
▁ingressus	-10.3741
ика	-10.3743
▁occupa	-10.3744
твор	-10.3747
▁sane	-10.3751
▁memor	-10.3752
▁materia	-10.3765
▁rationem	-10.3771
▁imperatoris	-10.3774
▁твое	-10.3774
▁uitae	-10.3782
mon	-10.3784
▁приказ	-10.3788
▁fi	-10.3789
▁nova	-10.3792
▁ultima	-10.3797
вар	-10.3798
сы	-10.3802
leg	-10.3812
▁желание	-10.3814
▁uiri	-10.3814
man	-10.3815
▁хотели	-10.3822
▁сколь	-10.3831
пол	-10.3832
▁habebant	-10.3833
▁Augustus	-10.3839
▁principum	-10.3839
▁paulatim	-10.3839
▁марта	-10.3839
▁preces	-10.3839
▁hiberna	-10.384
▁comitiis	-10.3842
▁двинулся	-10.3843
▁Novembris	-10.3843
▁paroeciae	-10.3843
cae	-10.3844
▁например	-10.3844
▁находился	-10.3845
ол	-10.3846
▁Ecce	-10.3853
▁credere	-10.3853
▁Юпитера	-10.3855
▁Quirites	-10.3857
▁закона	-10.3859
▁fecerat	-10.3867
▁избран	-10.3872
▁консулам	-10.3873
▁timor	-10.3873
lus	-10.3883
▁profecto	-10.3892
▁orta	-10.3893
▁filiam	-10.3894
ул	-10.3897
▁comp	-10.3897
▁сказала	-10.3902
▁curiam	-10.3903
▁magistratum	-10.3908
R	-10.3908
▁fecisse	-10.3918
▁Hannibale	-10.3925
▁proba	-10.3925
нет	-10.3928
▁primis	-10.3941
▁virum	-10.3944
anus	-10.3953
▁гибель	-10.3954
▁maximum	-10.3964
▁relicto	-10.3964
▁гораздо	-10.3964
▁temporibus	-10.3965
antes	-10.3965
▁будем	-10.3965
▁шесть	-10.3965
▁касается	-10.3965
▁Pater	-10.3966
▁equestri	-10.3967
▁Hannibali	-10.3967
про	-10.3971
▁tumultus	-10.3972
▁когорты	-10.3973
ющего	-10.3975
▁некогда	-10.3977
▁врагом	-10.3979
▁litterae	-10.3981
▁famam	-10.3984
▁similis	-10.3989
ест	-10.3992
▁tantam	-10.3993
▁Vi	-10.3994
▁легионами	-10.3996
▁лицом	-10.3998
▁имеют	-10.4001
▁ре	-10.4012
▁b	-10.403
▁uirtute	-10.4033
▁corona	-10.4036
▁linguae	-10.4037
бра	-10.4048
▁Atque	-10.4049
пер	-10.4062
▁Авраам	-10.4077
▁domini	-10.4079
▁считает	-10.4081
▁счет	-10.4083
кон	-10.4083
▁praesentia	-10.4083
▁глубоко	-10.4085
pro	-10.4089
▁cotidie	-10.4091
▁plebs	-10.4091
▁свободы	-10.4091
▁Lucili	-10.4091
▁Iulii	-10.4091
▁отправить	-10.4094
▁новых	-10.4094
▁зная	-10.4094
▁бояться	-10.4094
▁вал	-10.4095
▁uerbis	-10.4098
▁naves	-10.4101
▁Quare	-10.4101
▁напротив	-10.4102
▁причины	-10.4103
▁Сципиона	-10.4105
▁Gallos	-10.4106
▁casu	-10.4106
чит	-10.4106
▁uideri	-10.4112
▁горы	-10.4113
▁час	-10.4118
▁aeris	-10.4122
▁Multi	-10.4123
▁времена	-10.4134
▁provinciae	-10.4135
▁equis	-10.4143
des	-10.4143
▁хлеба	-10.415
вая	-10.4152
ено	-10.4152
▁has	-10.4154
▁большей	-10.4154
ции	-10.4155
▁теле	-10.416
▁ar	-10.4163
▁Hispaniam	-10.4175
ция	-10.418
▁ком	-10.418
▁uisum	-10.418
▁чуть	-10.4183
▁iu	-10.4183
▁lu	-10.4187
▁iniuria	-10.4192
нья	-10.4194
▁domino	-10.4196
▁большинство	-10.4197
▁какую	-10.4199
▁duci	-10.42
▁retro	-10.4201
ato	-10.4205
▁опасность	-10.4209
▁желания	-10.421
▁malis	-10.4217
▁insidiis	-10.4219
▁эдуев	-10.4219
▁aliquem	-10.4219
▁longum	-10.4219
▁otium	-10.4219
▁liberi	-10.422
▁clade	-10.4221
▁никому	-10.4221
▁captum	-10.4221
▁сегодня	-10.4222
▁пыта	-10.4222
▁Manlius	-10.4226
ssima	-10.4227
▁работы	-10.4228
▁точно	-10.4228
▁родился	-10.4228
nas	-10.423
▁ostendit	-10.4232
▁imperat	-10.4237
uo	-10.4241
▁цел	-10.4243
▁Res	-10.4244
▁qualis	-10.4245
▁Та	-10.4246
▁cogita	-10.4252
▁caedes	-10.4253
▁maris	-10.426
вшимся	-10.4265
▁societatem	-10.4265
▁illorum	-10.4271
фи	-10.4282
▁primam	-10.4283
▁Siciliam	-10.4284
▁miser	-10.4288
тя	-10.4295
▁добровольно	-10.4295
▁casus	-10.4297
▁iacta	-10.4297
▁отправили	-10.43
▁viam	-10.4301
▁па	-10.4304
▁libertate	-10.4306
libet	-10.4308
pos	-10.4312
▁tuta	-10.4317
▁potuisse	-10.4323
▁Caesari	-10.4328
▁ordines	-10.433
дер	-10.434
▁искал	-10.4341
▁dicunt	-10.4345
▁mon	-10.4346
▁Луцилий	-10.4349
▁денег	-10.4349
▁ноября	-10.4349
▁сестерциев	-10.4349
▁происходит	-10.4349
▁внутри	-10.4349
▁templum	-10.4349
▁жителей	-10.4349
▁жители	-10.4349
▁utriusque	-10.4349
▁крепости	-10.4349
▁huc	-10.4349
▁exercitibus	-10.435
▁diutius	-10.435
▁Один	-10.435
бы	-10.435
▁accidit	-10.4352
▁egressus	-10.4354
▁реку	-10.4354
▁nunquam	-10.4356
▁конницей	-10.4357
▁отряды	-10.4365
чь	-10.4371
▁consultum	-10.4372
▁viginti	-10.4379
▁Aut	-10.438
енные	-10.4386
▁matris	-10.4387
▁пяти	-10.4394
▁мятеж	-10.4401
▁animae	-10.4413
▁труда	-10.4422
▁audi	-10.4429
▁dolor	-10.4435
▁прошлом	-10.4436
ств	-10.4439
▁Bo	-10.4442
hodie	-10.4445
▁vera	-10.4451
▁чувства	-10.4453
ly	-10.4454
▁naturae	-10.4459
▁стороне	-10.4462
▁frater	-10.4468
▁utrumque	-10.4469
кл	-10.447
емые	-10.4474
▁потребовал	-10.4475
▁Консул	-10.4478
▁германцев	-10.448
▁aliquanto	-10.448
▁frumentum	-10.448
▁дочери	-10.448
▁ingenium	-10.448
▁Urbani	-10.4481
▁temporum	-10.4481
▁остается	-10.4482
Р	-10.4482
▁initio	-10.4482
▁природе	-10.4483
▁fugae	-10.4483
▁собственной	-10.4484
▁compara	-10.4485
▁понять	-10.449
▁существует	-10.4491
▁cohortes	-10.4492
ry	-10.4492
▁Твоему	-10.4493
▁ordinis	-10.4495
▁жен	-10.4497
▁aedem	-10.4502
▁debere	-10.4504
▁врагу	-10.4504
▁scilicet	-10.4506
ост	-10.4512
rio	-10.4522
▁разные	-10.4523
▁fratris	-10.4532
езд	-10.4534
вшим	-10.4538
▁quemque	-10.4543
pere	-10.4544
▁pre	-10.4544
▁правильно	-10.4546
ura	-10.4546
▁terrarum	-10.4548
пу	-10.4554
▁muros	-10.4557
▁императора	-10.4557
вед	-10.4557
▁Hispaniae	-10.456
▁posuit	-10.4562
▁Pompei	-10.4563
▁Su	-10.457
▁решили	-10.4576
tura	-10.4579
сенаторы	-10.458
нные	-10.4584
▁ap	-10.4584
▁долг	-10.4586
▁infer	-10.4597
▁Quin	-10.46
▁So	-10.4609
▁viro	-10.4611
▁бросил	-10.4613
▁plurimum	-10.4614
▁можешь	-10.4614
▁responsum	-10.4614
▁своё	-10.4614
▁studia	-10.4614
▁faciat	-10.4614
▁recepit	-10.4615
▁воли	-10.4615
▁corde	-10.4616
▁regno	-10.4616
▁возможности	-10.4617
▁Quamquam	-10.4617
▁поход	-10.4619
▁военные	-10.462
▁победу	-10.462
▁собрание	-10.4633
▁домой	-10.4634
▁ж	-10.4636
▁впрочем	-10.4637
quiquam	-10.4638
▁puer	-10.4641
▁recenti	-10.4645
бит	-10.4653
▁созвал	-10.4653
▁Им	-10.4653
▁amore	-10.4655
▁terrorem	-10.4661
▁restitu	-10.4666
▁Пока	-10.4674
▁aquae	-10.4675
▁contionem	-10.4682
cere	-10.4683
▁консулами	-10.4687
▁Cor	-10.4691
▁Друза	-10.4691
▁missis	-10.4695
usque	-10.4697
▁dixitque	-10.4702
альный	-10.4702
▁meos	-10.4705
▁scripta	-10.4709
▁adversa	-10.471
▁тайно	-10.4711
▁совершил	-10.4713
▁спросил	-10.4713
Anglice	-10.4713
рат	-10.4714
▁предложил	-10.4714
▁nostram	-10.4723
torem	-10.4733
uisset	-10.474
▁Li	-10.4741
▁ii	-10.4741
▁X	-10.4749
▁precibus	-10.4749
▁dubia	-10.4749
▁Хотя	-10.4749
▁Германии	-10.4749
▁вижу	-10.4749
▁bonus	-10.4749
▁положении	-10.4749
▁Галлию	-10.475
▁государству	-10.4752
▁li	-10.4752
▁степени	-10.4752
остью	-10.4752
▁победа	-10.4755
▁motu	-10.4755
▁отказался	-10.4757
▁tribunorum	-10.4757
▁знают	-10.4762
▁Филипп	-10.4765
▁regio	-10.4766
▁lux	-10.4777
▁actum	-10.4781
▁continua	-10.4783
стей	-10.4783
▁набор	-10.4784
▁breui	-10.4785
▁aquam	-10.4785
▁Друз	-10.4787
ника	-10.4788
▁dona	-10.4789
▁другу	-10.4797
▁племен	-10.4802
▁момент	-10.4804
пл	-10.4812
▁З	-10.4816
▁исход	-10.4816
▁острова	-10.4817
▁num	-10.4825
ники	-10.4826
▁Bar	-10.4826
▁оставив	-10.4828
▁ducis	-10.4831
▁clades	-10.4839
▁scit	-10.4839
▁триумф	-10.4841
▁decreta	-10.4851
▁Вер	-10.4855
▁fraude	-10.4856
▁возраста	-10.4868
▁iste	-10.4868
▁просил	-10.4872
▁полководца	-10.4877
▁aliae	-10.4879
tica	-10.4881
▁средства	-10.4884
▁Isaac	-10.4886
▁ciuium	-10.4886
▁dubium	-10.4886
▁flumine	-10.4886
▁praecepta	-10.4886
▁ближе	-10.4886
▁Фабия	-10.4886
▁armorum	-10.4886
▁unquam	-10.4886
▁природа	-10.4886
▁концов	-10.4886
▁конница	-10.4886
▁отовсюду	-10.4886
▁foedere	-10.4887
▁битвы	-10.4887
▁путем	-10.4887
▁beneficio	-10.4888
▁Среди	-10.4889
▁fiat	-10.489
▁Валерий	-10.4891
▁поражения	-10.4891
▁оказался	-10.4892
▁horum	-10.4893
▁жертву	-10.4897
▁славы	-10.4897
▁Значит	-10.4898
▁зимни	-10.4907
ана	-10.4909
port	-10.491
▁uellent	-10.4914
▁слава	-10.4918
▁ludos	-10.4919
▁reliquis	-10.4921
казалась	-10.4922
▁secuti	-10.4927
▁praetore	-10.4934
▁uictoriam	-10.495
тро	-10.4953
edi	-10.4955
▁занят	-10.496
ций	-10.4972
енный	-10.4975
▁широко	-10.4978
ите	-10.4984
▁sim	-10.4987
▁Mo	-10.4992
▁образ	-10.4992
▁давал	-10.4998
▁полном	-10.5006
▁As	-10.5008
тен	-10.5009
▁лицо	-10.5018
gat	-10.5018
ром	-10.5018
▁exemplum	-10.5025
▁стражу	-10.5025
▁пехоты	-10.5025
▁решения	-10.5026
▁Quem	-10.5026
▁Tunc	-10.5026
▁последний	-10.503
▁погиб	-10.5045
▁fle	-10.5048
▁твоих	-10.505
бор	-10.5051
▁mores	-10.5053
▁Latini	-10.5069
▁opem	-10.507
▁узнав	-10.5075
▁войске	-10.5075
abat	-10.5075
▁Ди	-10.508
нием	-10.5088
шая	-10.5089
▁mulier	-10.5094
▁Ганнибалу	-10.5094
▁vidit	-10.5094
кий	-10.51
▁partis	-10.5103
▁перешл	-10.5105
фр	-10.5117
ге	-10.5123
▁conscientia	-10.5126
▁остров	-10.515
▁versa	-10.5154
▁противника	-10.5154
▁ru	-10.5158
нуть	-10.5159
▁inquis	-10.5165
▁должна	-10.5165
▁провинцию	-10.5165
▁февраля	-10.5165
▁itineribus	-10.5166
▁coeperunt	-10.5166
▁utraque	-10.5166
▁Твой	-10.5166
▁июля	-10.5166
▁новый	-10.5166
▁Tamen	-10.5167
▁Ille	-10.5167
▁maius	-10.5167
▁animalia	-10.5168
▁вопреки	-10.5169
▁Где	-10.5169
▁судьба	-10.517
▁Nova	-10.5179
ntia	-10.5182
▁hae	-10.5182
▁scio	-10.5183
iis	-10.5184
▁Eius	-10.5186
▁occasionem	-10.5187
▁cunctis	-10.519
▁pervenit	-10.5192
▁daret	-10.5196
▁aliorum	-10.5196
▁стране	-10.5199
▁перв	-10.5201
▁mente	-10.5205
▁dierum	-10.5205
▁tempta	-10.5208
▁верность	-10.5211
▁decus	-10.5214
▁дороги	-10.5217
▁думаю	-10.5219
rae	-10.5219
ог	-10.5221
стра	-10.5222
▁caesi	-10.5224
▁homini	-10.5232
енного	-10.5232
▁Volscis	-10.5237
▁fidei	-10.5238
▁видим	-10.5239
▁vocem	-10.5241
▁impedi	-10.5245
com	-10.5245
▁labor	-10.525
▁gens	-10.5253
▁faciem	-10.5254
▁habitu	-10.5254
▁bis	-10.5254
▁animal	-10.5254
▁crimina	-10.5255
виду	-10.526
▁necessaria	-10.5266
▁missa	-10.527
▁caedem	-10.527
▁сделали	-10.5272
tul	-10.5283
▁Мо	-10.5284
(	-10.5286
фе	-10.5294
▁damna	-10.5297
▁ум	-10.5301
eram	-10.5302
▁corporum	-10.5308
▁добычу	-10.5308
▁защиту	-10.5308
▁восемь	-10.5308
▁оказалось	-10.5309
▁большая	-10.5309
▁месяцев	-10.5309
▁Saep	-10.5309
▁Postea	-10.5309
▁первое	-10.531
▁ausus	-10.5311
▁praesidia	-10.5313
▁целью	-10.5314
▁dignum	-10.5317
▁iudicio	-10.5318
▁societate	-10.5322
▁nuntiatum	-10.5323
▁приговор	-10.5323
▁labore	-10.5325
▁Illi	-10.5326
▁causas	-10.534
bitur	-10.5342
▁причин	-10.5343
▁вами	-10.5344
▁разных	-10.5347
▁firma	-10.5347
вшая	-10.5348
▁покой	-10.5353
▁каком	-10.5353
▁ipsorum	-10.5361
▁ноги	-10.5362
▁graui	-10.5362
ke	-10.5362
носить	-10.5363
▁copiae	-10.5364
▁audire	-10.5364
▁dicat	-10.5364
▁prior	-10.5369
▁жизнью	-10.5371
flu	-10.5377
▁sapientia	-10.5377
urus	-10.5378
▁стояли	-10.5381
▁pecuniae	-10.5385
▁lauda	-10.5387
▁gloriae	-10.5387
▁armati	-10.5389
▁impetra	-10.5389
▁consulatus	-10.5395
▁auctore	-10.5396
нь	-10.54
▁слышал	-10.54
▁полу	-10.5408
▁iussi	-10.541
▁искусства	-10.541
rer	-10.5413
tium	-10.5414
uer	-10.5417
▁alteram	-10.5419
▁insula	-10.543
лом	-10.5431
овал	-10.5433
▁показать	-10.5441
▁тайны	-10.5445
кам	-10.5446
▁insuper	-10.5446
▁ныне	-10.5449
перва	-10.5449
▁dubie	-10.5453
▁maximo	-10.5453
▁отсюда	-10.5453
▁природы	-10.5453
▁erga	-10.5453
▁incolarum	-10.5453
▁magistrum	-10.5453
▁полностью	-10.5453
▁Hannibalis	-10.5454
▁Prima	-10.5454
▁большое	-10.5455
▁уйти	-10.5457
▁следовало	-10.5459
▁Меня	-10.5459
▁creatus	-10.546
decim	-10.546
▁двумя	-10.5461
▁Ра	-10.5461
▁annus	-10.5462
▁царско	-10.5462
▁tali	-10.5463
▁вышли	-10.5464
▁считают	-10.5468
▁Vol	-10.547
▁monte	-10.547
▁твердо	-10.5472
▁войску	-10.5473
▁Пре	-10.5474
▁Claudium	-10.5474
▁relictis	-10.5475
issime	-10.5476
▁родила	-10.5483
▁varia	-10.5488
▁плохо	-10.5492
▁sol	-10.5499
▁antiqua	-10.5506
▁убит	-10.5507
▁superiore	-10.5508
▁nostro	-10.5508
шей	-10.552
▁cursu	-10.5521
▁врагам	-10.5523
▁prouinciam	-10.5528
ero	-10.5532
▁мимо	-10.5534
▁molli	-10.5536
▁Tur	-10.5536
▁inopia	-10.5536
чив	-10.554
▁Ra	-10.5543
▁interroga	-10.5543
▁montes	-10.5546
▁муж	-10.5547
▁tumultum	-10.5547
▁женщина	-10.5548
▁цвет	-10.5553
▁карфагенян	-10.5554
▁отдельны	-10.5555
▁propria	-10.5559
tia	-10.556
▁nostrae	-10.5562
кры	-10.5591
▁неба	-10.5595
▁бежал	-10.5599
▁назвал	-10.5599
овой	-10.56
▁Veios	-10.56
▁ненависти	-10.56
▁обычаю	-10.56
▁сражении	-10.56
▁fortasse	-10.56
▁momenti	-10.56
▁прочих	-10.5601
▁ничем	-10.5601
▁старости	-10.5601
▁никаких	-10.5603
▁Sal	-10.5603
▁Her	-10.5605
▁нового	-10.5606
▁ciues	-10.5606
▁opibus	-10.5612
▁страну	-10.5613
▁скажет	-10.5614
▁напасть	-10.5614
▁ter	-10.5618
▁uide	-10.5621
▁Tiberium	-10.5624
▁Omnia	-10.5625
▁III	-10.5626
rumque	-10.5628
▁Твоих	-10.5628
▁locutus	-10.5629
▁спас	-10.5629
▁conatus	-10.5631
▁обратно	-10.5633
▁uellet	-10.5636
▁племени	-10.5638
▁singula	-10.5643
▁colonia	-10.5643
ndas	-10.5643
нем	-10.5645
▁stare	-10.5648
▁dolorem	-10.565
▁libros	-10.5654
▁disciplina	-10.5658
▁fa	-10.5663
▁praeside	-10.5666
▁New	-10.5668
▁da	-10.5671
▁reliqua	-10.5672
▁aetatem	-10.5689
▁velle	-10.569
цен	-10.5694
ается	-10.57
▁коль	-10.5702
▁Ver	-10.5703
▁expedi	-10.5706
▁tempestate	-10.5707
▁consulatu	-10.5709
▁videri	-10.5716
▁Germania	-10.5717
▁Сенат	-10.5728
со	-10.5732
aria	-10.5732
▁vol	-10.5735
▁отвечал	-10.5735
ников	-10.5738
qua	-10.5739
▁обоз	-10.5741
рев	-10.5747
ала	-10.5747
▁incerta	-10.5749
▁пользы	-10.5749
▁terga	-10.5749
▁твоя	-10.575
▁чаще	-10.575
▁pertinet	-10.575
▁pax	-10.5751
▁Антония	-10.5751
▁Februarii	-10.5752
▁ingenio	-10.5752
▁certum	-10.5753
▁первого	-10.5754
▁statuit	-10.5755
▁надежду	-10.5756
▁He	-10.5756
▁signo	-10.5756
▁loqui	-10.5759
▁tecta	-10.576
▁aures	-10.5764
▁вернулись	-10.5766
▁сынов	-10.5767
▁po	-10.5767
ступает	-10.5768
▁храма	-10.5773
▁нечего	-10.5774
▁числа	-10.5779
▁небес	-10.5779
стер	-10.578
▁classe	-10.5781
▁консульства	-10.5782
▁дано	-10.5784
сл	-10.5785
▁оставить	-10.5786
▁вз	-10.5787
▁закону	-10.5789
▁раба	-10.579
cas	-10.5796
▁взяли	-10.5798
▁сыну	-10.5798
▁stationes	-10.58
▁periculi	-10.58
▁spera	-10.5804
▁provinciam	-10.5807
▁многое	-10.5817
▁fur	-10.5818
▁знаком	-10.5829
▁talis	-10.5832
▁sententiae	-10.5836
▁neu	-10.584
▁excita	-10.5848
▁прав	-10.5849
▁Po	-10.5849
жели	-10.5857
▁воинам	-10.5874
▁чьи	-10.5875
▁преступление	-10.5876
oribus	-10.5878
▁potes	-10.5882
ndus	-10.5882
▁mens	-10.5889
▁Ch	-10.589
rup	-10.5891
issima	-10.5895
▁способ	-10.5896
▁praefectus	-10.5901
▁Испанию	-10.5901
▁Huic	-10.5901
▁покуда	-10.5901
▁почести	-10.5901
▁negotium	-10.5901
▁civitas	-10.5901
▁Imperi	-10.5901
▁обязанности	-10.5901
▁Furius	-10.5902
▁думать	-10.5902
▁principibus	-10.5902
▁основании	-10.5904
▁magistro	-10.5904
▁Х	-10.5906
▁Ta	-10.5906
▁passus	-10.5907
▁войной	-10.5907
▁aequum	-10.5907
▁сделано	-10.5907
▁Postumius	-10.5908
▁uidit	-10.5908
▁liceret	-10.5908
▁moribus	-10.591
▁Consules	-10.591
▁uideretur	-10.5911
▁полной	-10.5912
▁выборы	-10.5912
ell	-10.5915
▁всячески	-10.5915
▁военной	-10.5917
▁noui	-10.5918
▁такими	-10.592
▁нею	-10.5922
▁spei	-10.5925
▁целы	-10.5929
▁lex	-10.5933
▁кор	-10.5936
▁honoris	-10.5937
▁форуме	-10.5938
▁Ю	-10.5938
▁Ante	-10.5941
▁казни	-10.5942
▁Sa	-10.5945
▁leui	-10.5951
▁tutum	-10.5953
menta	-10.5958
▁IV	-10.596
▁пытался	-10.5963
▁nuda	-10.5968
▁сенатом	-10.5968
▁modi	-10.597
▁os	-10.5971
▁Etruria	-10.5972
▁Par	-10.5975
ulo	-10.5976
▁uisa	-10.5977
▁igni	-10.5978
▁dolore	-10.5983
▁dictatoris	-10.5983
▁храме	-10.5986
▁populos	-10.5988
▁uelle	-10.5989
▁venire	-10.5989
verant	-10.5991
▁imp	-10.5994
▁ч	-10.5996
iones	-10.5998
▁вред	-10.6006
▁близ	-10.6008
▁regna	-10.601
▁im	-10.602
▁находя	-10.602
шие	-10.6021
▁назван	-10.6023
имся	-10.6026
▁предложение	-10.6031
▁possum	-10.6034
pta	-10.6036
ug	-10.6039
ard	-10.604
▁Раз	-10.6042
▁требует	-10.6043
▁видит	-10.6046
▁удар	-10.6046
▁merito	-10.6048
▁отпустил	-10.605
▁gaudio	-10.6055
▁plerique	-10.6055
▁relicta	-10.6055
▁uallo	-10.6055
▁ultimum	-10.6055
▁позже	-10.6055
▁отцом	-10.6055
▁magistratibus	-10.6055
▁терпеть	-10.6055
▁concilio	-10.6055
▁praecipue	-10.6055
▁вещей	-10.6055
▁писал	-10.6056
▁Postero	-10.6056
▁Фульвий	-10.6057
▁uidebatur	-10.6057
▁veste	-10.6058
▁Fuluius	-10.6059
▁admodum	-10.606
▁uires	-10.6063
▁лишен	-10.6064
▁слав	-10.6064
▁fluminis	-10.6064
▁успех	-10.6065
▁quadam	-10.6065
▁Magna	-10.6065
▁milium	-10.6065
▁certo	-10.6065
▁показал	-10.6067
▁noctis	-10.6072
▁uiuere	-10.6074
цами	-10.6075
▁industria	-10.6075
▁видом	-10.6077
▁нашли	-10.608
▁venerunt	-10.6086
▁голоса	-10.6089
▁Ob	-10.609
▁cognomen	-10.6091
▁serui	-10.6092
ха	-10.6093
▁virtutis	-10.6095
▁взгляд	-10.6102
▁uenerunt	-10.6104
▁capti	-10.6106
norum	-10.6106
▁верх	-10.6107
culum	-10.6113
▁rati	-10.6114
▁socii	-10.6114
▁h	-10.6118
▁работа	-10.6118
▁Ним	-10.6118
▁proximo	-10.612
▁instituit	-10.6122
▁словом	-10.6128
▁muro	-10.613
▁явился	-10.6133
▁ш	-10.6135
▁sc	-10.6137
▁Can	-10.614
tine	-10.6142
став	-10.6144
emus	-10.6149
▁леса	-10.6153
▁нашим	-10.6155
дум	-10.6159
▁Sex	-10.6162
▁consuetudine	-10.6166
▁великим	-10.6167
▁ме	-10.6173
▁mo	-10.6175
▁Mar	-10.6185
▁tracta	-10.6186
▁formam	-10.6187
▁nihilo	-10.6189
▁illas	-10.619
▁Carthaginiensi	-10.6195
▁пар	-10.6196
ложен	-10.6196
▁novi	-10.6198
▁вольсков	-10.6211
▁хуже	-10.6211
▁армии	-10.6211
▁братьев	-10.6212
▁artibus	-10.6213
▁двенадцать	-10.6213
▁ма	-10.6213
▁всюду	-10.6213
▁caesa	-10.6214
▁сыновей	-10.6215
▁служил	-10.6215
▁Capitolio	-10.6216
▁пленных	-10.6216
▁собственному	-10.6216
▁placet	-10.6218
▁consulta	-10.622
▁abiit	-10.6222
▁сон	-10.6223
od	-10.6227
▁Cuius	-10.6231
▁охраня	-10.6238
▁videre	-10.6239
▁обещал	-10.6239
▁силах	-10.6245
▁чтоб	-10.6254
▁mentis	-10.626
▁смог	-10.6263
▁берег	-10.627
▁invenit	-10.6271
▁имена	-10.6272
▁man	-10.6273
▁согласно	-10.6274
пис	-10.6275
▁peti	-10.6275
▁Был	-10.6276
inus	-10.6286
uerint	-10.6292
▁aedifica	-10.6295
ван	-10.6301
ший	-10.6302
рез	-10.6305
Г	-10.6306
изм	-10.6312
▁adventu	-10.6315
▁roga	-10.6316
▁victoria	-10.6318
▁близко	-10.632
ll	-10.6325
▁multae	-10.6329
▁scis	-10.6332
▁pene	-10.6332
▁крик	-10.6334
▁amo	-10.6338
ale	-10.6341
▁игр	-10.6343
▁maiorum	-10.6343
ас	-10.6343
▁состояние	-10.6344
▁muni	-10.6346
lum	-10.6346
▁отсутствие	-10.6347
isdem	-10.6352
▁солдатам	-10.6355
▁dic	-10.6357
▁indu	-10.6362
▁dictatore	-10.6363
▁произнес	-10.6367
▁malo	-10.6367
▁ума	-10.6367
bili	-10.6368
▁Господа	-10.637
▁Тиберию	-10.637
▁величия	-10.637
▁царей	-10.637
▁valde	-10.637
▁стольких	-10.637
▁Спури	-10.637
▁Praeterea	-10.637
▁огонь	-10.637
▁praesertim	-10.637
▁concilium	-10.637
▁пехотинцев	-10.637
▁utroque	-10.637
▁apparuit	-10.637
▁sapiens	-10.637
▁aetas	-10.6371
▁оставалось	-10.6372
▁soli	-10.6372
▁subinde	-10.6375
▁Erat	-10.6375
▁silentium	-10.6375
▁eosdem	-10.6376
▁Volscos	-10.6383
▁proeliis	-10.6384
при	-10.6385
▁constituit	-10.6385
dus	-10.6388
▁tuos	-10.639
▁iugum	-10.639
▁gratias	-10.6392
▁ciuitatis	-10.6393
ano	-10.6395
▁первые	-10.6396
▁вошел	-10.6396
▁serua	-10.6397
▁количество	-10.6399
cia	-10.6399
oli	-10.6403
lium	-10.6403
рен	-10.6404
▁matrem	-10.6404
▁proconsul	-10.6411
▁делу	-10.6416
▁insigni	-10.6419
antem	-10.642
▁печаль	-10.6422
▁ueri	-10.6425
вать	-10.6427
▁Hasdrubal	-10.6427
▁часа	-10.643
▁vestra	-10.6439
▁Volsci	-10.6449
▁philosophia	-10.6452
▁rec	-10.6455
stant	-10.6461
tro	-10.6464
влечь	-10.647
ales	-10.6473
▁filias	-10.6475
▁inrita	-10.6478
енное	-10.6479
▁uana	-10.648
▁sorte	-10.6489
▁externa	-10.649
▁век	-10.6495
рис	-10.6524
▁eg	-10.6528
▁Gra	-10.6529
▁Illud	-10.6531
▁possint	-10.6531
▁добиться	-10.6531
▁deinceps	-10.6531
▁Poenus	-10.6531
▁мудрости	-10.6531
▁останется	-10.6532
▁plura	-10.6532
▁увидев	-10.6532
▁прочие	-10.6532
тра	-10.6532
▁recens	-10.6533
▁форму	-10.6533
▁молва	-10.6534
▁Interim	-10.6534
▁необходимо	-10.6534
▁Sempronius	-10.6537
▁securi	-10.6539
▁vixit	-10.6539
▁редко	-10.6539
▁Lutetiae	-10.654
жу	-10.6541
▁скажу	-10.6541
▁радости	-10.6543
▁состоит	-10.6544
▁приходится	-10.6544
quid	-10.6545
▁уверен	-10.6545
▁рождения	-10.6547
▁Aprilis	-10.6547
▁imaginem	-10.655
▁зачем	-10.6552
▁Idem	-10.6554
▁глазами	-10.6555
br	-10.656
▁spiritum	-10.6564
▁другую	-10.6567
▁fas	-10.6572
▁timore	-10.6573
▁militi	-10.6575
X	-10.6577
▁capita	-10.6577
▁amicos	-10.6588
▁Гнея	-10.6592
▁Rem	-10.6593
▁accipere	-10.6595
▁leni	-10.6596
▁parta	-10.6598
кт	-10.6598
▁годах	-10.6602
▁стен	-10.6606
▁впереди	-10.6611
стро	-10.6614
▁теми	-10.6615
▁доступ	-10.6615
▁vere	-10.6618
овать	-10.6618
cat	-10.6619
▁Nero	-10.6625
▁Num	-10.6628
▁оставили	-10.6629
▁viros	-10.6637
endam	-10.6638
▁Пизон	-10.6641
fi	-10.6643
▁Ла	-10.6649
▁многим	-10.666
▁Ni	-10.6664
▁brevi	-10.6665
▁гарнизон	-10.6668
▁poenas	-10.6671
▁pi	-10.6681
являются	-10.6682
tulisse	-10.6686
▁dicebat	-10.669
▁discrimine	-10.6695
▁hibernis	-10.6695
▁Твоя	-10.6695
▁апреля	-10.6695
▁истории	-10.6695
▁солнце	-10.6695
▁спросишь	-10.6695
▁aperta	-10.6695
▁magnus	-10.6695
▁местности	-10.6696
▁относительно	-10.6696
▁одежду	-10.6697
▁obuiam	-10.6697
▁murum	-10.6698
visset	-10.67
▁Le	-10.67
▁наша	-10.6701
▁ortum	-10.6702
▁Римляне	-10.6702
▁dari	-10.6704
▁reliquum	-10.6704
▁Который	-10.6705
▁constituta	-10.6707
▁привести	-10.6708
▁Cui	-10.6708
▁основания	-10.6709
dica	-10.6711
▁suarum	-10.6711
▁отрядом	-10.6712
▁cito	-10.6713
▁doce	-10.6715
▁uere	-10.6718
▁Or	-10.6729
▁Verum	-10.6731
▁твоей	-10.6733
▁conci	-10.6736
▁religione	-10.6737
▁dura	-10.6742
ход	-10.6744
▁accusa	-10.6746
▁пору	-10.675
▁humanae	-10.675
▁dubita	-10.6754
▁uidere	-10.6755
▁сорок	-10.6757
▁продолжал	-10.6764
тр	-10.6765
▁amici	-10.6769
▁inveni	-10.677
▁libris	-10.6774
▁epistula	-10.6775
▁Vt	-10.6775
he	-10.6777
коло	-10.6788
▁uitam	-10.6796
bra	-10.6797
▁car	-10.6797
нных	-10.6803
▁scriptura	-10.6804
▁заключен	-10.6814
▁bib	-10.6817
▁друзья	-10.6828
▁maiora	-10.6833
▁ed	-10.6833
▁delecta	-10.6842
▁Ro	-10.6842
сты	-10.6843
▁неизменно	-10.6844
▁su	-10.6847
▁крас	-10.6852
▁мудрость	-10.6852
У	-10.6856
▁Га	-10.6857
▁бел	-10.686
▁сыновья	-10.6861
▁подобно	-10.6861
▁германцы	-10.6862
▁ingentem	-10.6862
▁ullum	-10.6862
▁legum	-10.6862
▁legatum	-10.6863
▁остаться	-10.6863
▁templo	-10.6864
▁propositum	-10.6864
▁dominus	-10.6865
▁seque	-10.6865
▁maiestatis	-10.6865
▁выборов	-10.6868
▁serva	-10.687
▁положения	-10.6871
▁Гаю	-10.6871
▁populari	-10.6871
▁melior	-10.6872
ались	-10.6872
toribus	-10.6872
ir	-10.6873
▁притом	-10.6874
▁поводу	-10.6874
▁videretur	-10.6874
▁меру	-10.6877
▁держал	-10.6878
▁пол	-10.6879
▁cladis	-10.6879
▁parti	-10.6883
▁Ven	-10.6883
▁ducit	-10.6883
уп	-10.6884
▁pl	-10.6886
▁крови	-10.6887
▁всяком	-10.6887
ющая	-10.689
▁refert	-10.6893
▁воду	-10.6896
▁negat	-10.6898
▁страхом	-10.6905
▁нужным	-10.6908
▁tale	-10.6909
▁publicis	-10.691
▁terrore	-10.6913
▁вида	-10.6914
libus	-10.6914
▁scriptum	-10.6919
▁iniuriam	-10.6919
▁cena	-10.6925
▁консулу	-10.6932
▁amicis	-10.6934
▁моем	-10.6936
▁Pa	-10.6936
▁Лу	-10.694
ck	-10.6945
▁стихи	-10.6947
▁торгов	-10.6949
▁pone	-10.6949
ило	-10.6951
▁Авл	-10.6952
▁увидели	-10.6952
lin	-10.6957
▁isto	-10.6958
▁делами	-10.6959
▁referre	-10.6961
▁отвел	-10.6965
▁рабы	-10.6965
▁Се	-10.6968
▁expugna	-10.6978
▁народы	-10.6985
оз	-10.6989
▁deser	-10.699
▁Уже	-10.6991
▁Магон	-10.6995
ания	-10.6995
▁приходит	-10.6995
▁Кон	-10.6996
оп	-10.6998
▁Cal	-10.6999
▁cont	-10.7002
▁persona	-10.7004
▁cre	-10.7006
▁transire	-10.7009
▁Liber	-10.7013
ella	-10.7013
▁сверх	-10.7015
▁случая	-10.7018
▁видно	-10.702
▁называют	-10.702
▁цели	-10.7022
▁зла	-10.7024
ka	-10.7024
▁scelere	-10.7031
▁Африке	-10.7031
▁увидеть	-10.7031
▁Primum	-10.7031
▁spectaculum	-10.7031
▁желает	-10.7031
▁cohortibus	-10.7031
▁Haud	-10.7031
▁состав	-10.7032
▁vox	-10.7032
▁initia	-10.7032
▁faciendum	-10.7032
▁дети	-10.7034
▁нигде	-10.7035
плоть	-10.7035
▁любой	-10.7035
▁novo	-10.7036
▁officium	-10.7039
▁Многие	-10.7039
▁auro	-10.7039
▁обращен	-10.7039
▁raptim	-10.7042
▁ortus	-10.7043
тел	-10.7044
cl	-10.7047
▁реке	-10.7047
▁начать	-10.7049
▁causae	-10.7054
▁претора	-10.7055
▁Carthaginem	-10.7057
▁вернуть	-10.7058
▁exspecta	-10.7061
▁Han	-10.7061
▁odium	-10.7063
ид	-10.7066
biles	-10.7066
▁subita	-10.7069
▁шум	-10.7069
▁птиц	-10.707
▁роду	-10.7072
▁sensu	-10.7073
▁insulam	-10.708
▁давать	-10.7091
▁привели	-10.7091
▁amicitiae	-10.7093
▁ludi	-10.7095
▁ход	-10.7096
▁простой	-10.7101
bu	-10.7102
▁Dic	-10.7103
▁recta	-10.7105
▁auctorem	-10.7105
▁другая	-10.7108
▁Cap	-10.7108
▁dat	-10.7112
▁сего	-10.7118
дел	-10.7119
как	-10.7121
ando	-10.7127
▁вина	-10.7128
▁неприятельски	-10.7144
▁mediam	-10.7145
▁au	-10.7147
▁recipi	-10.7151
za	-10.7152
qu	-10.7152
рос	-10.7153
ско	-10.7153
▁находи	-10.7154
ался	-10.7155
▁disce	-10.7158
▁постановил	-10.7168
дели	-10.7173
▁menses	-10.7174
▁exempla	-10.7178
▁iram	-10.7178
▁Ho	-10.7179
овый	-10.7182
▁eu	-10.7191
▁adesse	-10.7192
▁благодарность	-10.7194
▁обвинения	-10.7196
▁держать	-10.7197
▁века	-10.7198
▁communis	-10.7198
▁honestum	-10.7204
▁mortua	-10.7204
▁stipendium	-10.7204
▁Африку	-10.7204
▁связи	-10.7204
▁узнать	-10.7204
▁foeda	-10.7204
▁Primo	-10.7204
▁милях	-10.7204
▁pedibus	-10.7204
▁обеих	-10.7205
▁необходимости	-10.7206
иф	-10.7206
рес	-10.7207
▁dominum	-10.7207
▁двадцати	-10.7208
▁primores	-10.7209
▁подряд	-10.721
▁Цезарем	-10.721
каз	-10.7211
▁имущества	-10.7212
▁тобой	-10.7212
▁amicum	-10.7212
▁ушел	-10.7213
▁оказались	-10.7213
▁dicuntur	-10.7213
▁общее	-10.7214
▁libertas	-10.7214
▁diversa	-10.7216
▁спасение	-10.7217
▁важно	-10.722
чный	-10.7221
▁Консулы	-10.7222
▁законов	-10.7222
▁parat	-10.7224
ebar	-10.7224
▁bonorum	-10.7224
▁Cornelio	-10.7225
▁parentes	-10.7226
енных	-10.7228
son	-10.7231
▁cal	-10.7232
▁vulnera	-10.7234
▁moli	-10.7239
▁adf	-10.7247
q	-10.7252
▁uocem	-10.7258
aret	-10.7265
▁sermone	-10.7265
▁серебро	-10.7273
▁обрати	-10.7274
▁нес	-10.7274
▁commeatus	-10.7276
▁fecisset	-10.7277
▁заговор	-10.728
oque	-10.729
ork	-10.7291
▁врагами	-10.7294
▁do	-10.7299
▁libri	-10.73
▁sensus	-10.73
тур	-10.7301
лон	-10.7306
▁sana	-10.7308
▁света	-10.7309
▁imperatore	-10.7311
▁помог	-10.7316
▁обратил	-10.7316
ax	-10.7319
▁Германик	-10.7319
▁integra	-10.7327
▁propinqua	-10.7327
▁силе	-10.7327
▁Пол	-10.7328
▁суде	-10.7329
▁locorum	-10.7337
▁вели	-10.7337
▁uoluntate	-10.7338
дет	-10.7339
ред	-10.735
лат	-10.7352
▁equos	-10.7356
которое	-10.736
▁пожелал	-10.7361
▁Рейн	-10.7364
uls	-10.7367
▁болезнь	-10.7369
дов	-10.737
uli	-10.7371
▁период	-10.7375
▁придет	-10.7376
▁плоти	-10.7378
▁Hodie	-10.7379
▁варваров	-10.7379
▁дочерей	-10.7379
▁царем	-10.7379
▁Манлий	-10.7379
▁страсти	-10.7379
▁сделает	-10.7379
▁protinus	-10.7379
▁предпочел	-10.7379
▁causis	-10.7379
▁ferrum	-10.7379
▁будущего	-10.738
▁римское	-10.738
▁fuerint	-10.738
▁Hunc	-10.738
▁добился	-10.738
▁прошел	-10.7381
▁миллионов	-10.7381
▁согласия	-10.7381
▁faciebat	-10.7381
▁истины	-10.7381
▁haberi	-10.7381
▁solem	-10.7382
▁твоим	-10.7382
▁толпу	-10.7382
▁августа	-10.7384
▁выборах	-10.7386
▁Сколько	-10.739
овых	-10.739
▁счел	-10.7391
▁волю	-10.7394
▁centuriones	-10.7394
правился	-10.7397
▁interest	-10.7398
▁уме	-10.7398
три	-10.7399
▁любит	-10.74
▁sin	-10.7401
▁Ci	-10.7405
ho	-10.7408
▁позволил	-10.7408
▁книг	-10.741
arium	-10.7411
▁родил	-10.7413
sae	-10.7415
▁imagines	-10.7416
▁traditur	-10.7417
▁положил	-10.742
▁Де	-10.7421
▁nullius	-10.7423
нный	-10.7429
riis	-10.743
▁мост	-10.7442
▁iube	-10.7443
ева	-10.7443
▁stat	-10.7445
▁redit	-10.7448
▁en	-10.7449
ющей	-10.745
ecta	-10.7451
▁Бр	-10.7456
▁обе	-10.7457
▁забот	-10.7461
▁confirma	-10.7461
▁Com	-10.7468
rip	-10.7469
▁St	-10.7473
▁времен	-10.7475
▁campo	-10.7475
▁форум	-10.7476
▁recepta	-10.7477
ес	-10.7485
▁socia	-10.7485
▁uxore	-10.7497
▁сограждан	-10.7506
plex	-10.7508
▁factae	-10.7509
▁Esa	-10.7513
▁culpa	-10.7516
▁Ариовист	-10.7519
▁зато	-10.7523
▁datur	-10.7524
▁dixi	-10.7526
▁ваши	-10.7527
▁постановление	-10.7534
▁licentia	-10.7535
▁Man	-10.754
▁занял	-10.7548
▁немало	-10.7551
bilis	-10.7555
▁Samnio	-10.7558
▁proximum	-10.7558
▁Аппий	-10.7558
▁действий	-10.7558
▁добычи	-10.7558
▁obiecta	-10.7558
▁secundo	-10.7558
▁Азии	-10.7558
▁praemium	-10.7558
▁ferri	-10.7558
▁facinus	-10.7558
▁variis	-10.7558
▁posterum	-10.7558
▁сражаться	-10.7559
▁девять	-10.7559
▁покоя	-10.7559
▁ueritas	-10.7559
▁comitiorum	-10.7561
▁armatorum	-10.7563
▁крепость	-10.7563
▁осаде	-10.7564
▁расположил	-10.7571
▁parua	-10.7572
▁условиях	-10.7573
▁открыл	-10.7578
▁turbam	-10.7579
учи	-10.7582
▁Было	-10.7584
▁insidias	-10.7586
▁talia	-10.7587
▁Dis	-10.7587
▁for	-10.7587
▁accipi	-10.7588
▁благ	-10.7591
вшейся	-10.7591
▁Lingua	-10.7591
erim	-10.7591
▁существо	-10.7594
▁destina	-10.7595
andi	-10.7598
▁viris	-10.7599
▁parem	-10.7599
▁ежедневно	-10.76
▁populis	-10.7603
▁humili	-10.7608
ox	-10.761
▁pauci	-10.7611
▁Fer	-10.7611
▁стран	-10.7614
ty	-10.7617
▁facies	-10.7619
ap	-10.762
▁muris	-10.7622
▁расположен	-10.7625
▁Марцелла	-10.7626
▁берегу	-10.7628
вшаяся	-10.7629
▁должностны	-10.763
▁tolera	-10.7633
▁plebei	-10.7638
▁uirum	-10.7638
▁oppugna	-10.7642
▁ducere	-10.7644
▁exercitui	-10.7646
▁Fa	-10.7655
fu	-10.7659
igna	-10.7661
▁simile	-10.7672
▁artes	-10.7675
▁sermo	-10.7675
▁sole	-10.7677
mina	-10.7678
▁fini	-10.768
▁va	-10.768
▁pasc	-10.7681
▁выбор	-10.7681
▁заняты	-10.7682
ряд	-10.7685
▁tenere	-10.769
▁minore	-10.7697
▁laetitia	-10.7699
лег	-10.77
леп	-10.77
ним	-10.7701
▁захотел	-10.7703
▁dormi	-10.7709
▁scientia	-10.7715
▁fund	-10.7716
▁augur	-10.772
▁quot	-10.7721
▁приняты	-10.7732
зы	-10.7735
▁ope	-10.7735
▁когорт	-10.7738
quo	-10.7739
▁статуи	-10.7739
▁царю	-10.7739
▁matrimonium	-10.7739
▁июня	-10.774
▁alibi	-10.774
▁целиком	-10.774
▁Igitur	-10.774
▁putant	-10.7742
▁recte	-10.7742
▁facturum	-10.7742
▁honoribus	-10.7744
▁gessit	-10.7745
▁став	-10.7745
ea	-10.7746
▁Ма	-10.7747
▁кровью	-10.7747
▁страхе	-10.7749
▁latere	-10.775
▁optimum	-10.7751
▁рукой	-10.7751
▁carnis	-10.7752
▁решительно	-10.7755
▁Потому	-10.7765
▁uasta	-10.7765
▁запретил	-10.7768
anno	-10.7769
▁всяко	-10.777
▁feminae	-10.7771
▁здоровье	-10.7772
▁iudicat	-10.7773
илась	-10.7776
▁земель	-10.778
▁Кор	-10.7786
▁aurum	-10.7788
▁направился	-10.7791
▁uirium	-10.7797
▁четырех	-10.7801
▁praesenti	-10.7804
▁ciuitate	-10.7809
▁tri	-10.7813
▁убил	-10.7815
▁vellet	-10.7818
ших	-10.7818
жит	-10.7819
▁знали	-10.7828
▁выбран	-10.783
▁trepida	-10.783
▁ф	-10.7832
доль	-10.7832
▁пьян	-10.784
▁Ле	-10.7845
▁abire	-10.7853
▁praesidii	-10.7853
бить	-10.7854
▁возрасте	-10.7859
▁Nu	-10.786
▁habitus	-10.7862
▁militaris	-10.7865
зор	-10.7865
▁ру	-10.7872
ему	-10.7875
▁uir	-10.7886
▁услышал	-10.789
вшееся	-10.7895
▁даст	-10.7895
▁Germani	-10.7896
fa	-10.7897
hor	-10.7898
ras	-10.7901
▁Богу	-10.7902
ывает	-10.7905
anis	-10.7906
иев	-10.7907
▁защищать	-10.7912
▁консульски	-10.7914
averunt	-10.7914
▁morem	-10.7918
▁потерял	-10.7922
▁обязан	-10.7922
▁граждане	-10.7924
▁contentus	-10.7925
▁integro	-10.7925
▁uerbum	-10.7925
▁лошадей	-10.7925
▁октября	-10.7925
▁последние	-10.7925
▁постепенно	-10.7925
▁пятьдесят	-10.7925
▁юноша	-10.7925
▁prospera	-10.7925
▁maximus	-10.7925
▁nullus	-10.7925
▁rursum	-10.7925
▁atrox	-10.7925
▁движение	-10.7925
▁dimisit	-10.7925
▁fierent	-10.7925
▁tertio	-10.7927
▁принимать	-10.7927
▁наказания	-10.7928
▁боялся	-10.793
▁собственных	-10.7931
▁двести	-10.7932
▁начальником	-10.7935
▁nauium	-10.7935
лин	-10.7936
▁nostrorum	-10.7938
▁суше	-10.7938
ang	-10.7939
▁больших	-10.7943
▁Plus	-10.7943
др	-10.7944
▁пал	-10.7946
▁бес	-10.7946
▁expecta	-10.7947
▁somno	-10.7948
▁обраща	-10.7952
▁cordis	-10.7954
▁великое	-10.7955
▁американски	-10.7962
▁речью	-10.7964
ставляет	-10.7965
Ты	-10.7968
▁Первы	-10.797
▁legionem	-10.7971
▁feri	-10.7974
▁рабство	-10.7974
▁одних	-10.7979
▁indica	-10.798
▁карфагеняне	-10.798
гра	-10.7982
▁план	-10.7983
▁ostenta	-10.7985
▁лице	-10.7986
▁VI	-10.7986
▁предлага	-10.7986
енно	-10.7987
ton	-10.7987
▁тр	-10.7988
▁ближайши	-10.7989
ctus	-10.7992
▁gravi	-10.7993
▁proelia	-10.7995
▁несомненно	-10.7997
▁прибыли	-10.7998
▁письме	-10.7999
▁poenam	-10.8001
▁positis	-10.8001
▁неприятель	-10.8003
▁putas	-10.8003
цам	-10.8004
сен	-10.8006
▁нашу	-10.8006
воз	-10.8007
▁Nomen	-10.801
дав	-10.8011
icere	-10.8017
▁милости	-10.8021
▁чрезвычайно	-10.8024
▁лес	-10.8028
▁estis	-10.8031
▁tanti	-10.8033
▁solo	-10.8039
▁справедливо	-10.8041
кто	-10.8041
▁semen	-10.8042
▁правил	-10.8043
▁городом	-10.8045
▁conspectum	-10.8046
▁minister	-10.8047
▁Бе	-10.8048
торого	-10.8049
▁peregrina	-10.8054
▁Исаак	-10.8058
▁digna	-10.8062
▁vult	-10.8063
▁fiducia	-10.8066
▁бед	-10.8066
▁часов	-10.8071
▁amissa	-10.8074
мимо	-10.8075
▁infra	-10.8076
вен	-10.8076
▁Domini	-10.8076
pha	-10.8078
щего	-10.8079
rii	-10.8082
что	-10.8085
▁пят	-10.8086
▁предан	-10.8088
▁разврат	-10.8089
▁богатство	-10.8094
▁forti	-10.8096
bile	-10.8098
рин	-10.8102
▁вождя	-10.8104
und	-10.8107
▁коня	-10.8108
▁Ну	-10.8109
▁процесс	-10.8111
▁патрициев	-10.8113
▁порядке	-10.8113
▁провинций	-10.8113
▁солнца	-10.8113
▁непременно	-10.8113
▁frumenti	-10.8113
▁prospere	-10.8113
▁nusquam	-10.8113
▁племя	-10.8113
▁paulum	-10.8114
▁potuerunt	-10.8114
▁населения	-10.8114
▁безопасности	-10.8114
▁uox	-10.8114
▁contendit	-10.8115
▁имея	-10.8115
▁расстоянии	-10.8116
▁добычей	-10.8116
▁остались	-10.8116
▁navibus	-10.8116
natus	-10.8117
▁находятся	-10.8118
▁Seruilius	-10.8118
▁сможет	-10.8118
▁Aemilius	-10.8121
▁appellatur	-10.8122
▁habeo	-10.8123
geni	-10.8126
▁insequenti	-10.8128
твоему	-10.8136
▁acceptis	-10.8138
овые	-10.8138
▁великой	-10.8139
▁лучшее	-10.8141
▁armatos	-10.8141
▁согласие	-10.8143
▁inf	-10.8156
▁potestas	-10.8157
▁обстоятельства	-10.816
ден	-10.816
▁pu	-10.8162
▁произ	-10.8163
дил	-10.8165
▁Etruriam	-10.8168
▁montem	-10.817
▁redire	-10.8171
▁negotio	-10.8172
▁горяч	-10.8172
▁cessa	-10.8177
▁fratre	-10.818
▁redi	-10.8183
▁мед	-10.8185
auit	-10.8186
ov	-10.8188
▁отверг	-10.819
▁Iesu	-10.8191
идный	-10.8193
▁главным	-10.8194
▁Omni	-10.8198
▁duorum	-10.8203
▁войсками	-10.8206
▁viv	-10.8207
▁Am	-10.8207
uber	-10.8208
▁Тарент	-10.8209
▁позволя	-10.8211
▁всеобще	-10.8213
▁Ор	-10.8214
▁tuorum	-10.8215
inum	-10.8216
▁pretio	-10.8218
▁oppidi	-10.8223
зов	-10.8224
▁кол	-10.8225
▁приняли	-10.823
▁ведет	-10.8231
▁imperatores	-10.8238
▁For	-10.8239
сон	-10.8242
▁volunt	-10.8243
▁Deum	-10.8243
▁to	-10.8243
вшее	-10.8244
▁всяки	-10.825
▁вес	-10.8251
▁делают	-10.8253
▁какими	-10.8263
▁Ei	-10.8264
pud	-10.8265
▁делам	-10.8268
▁заметил	-10.8271
▁nimia	-10.8272
▁желал	-10.8274
▁называл	-10.8277
ует	-10.8285
▁принимал	-10.8288
▁manda	-10.8292
▁accidere	-10.8293
▁удержать	-10.8293
▁saeculo	-10.8295
cal	-10.8297
ёр	-10.83
▁Camillus	-10.8306
▁scelus	-10.8306
▁помочь	-10.8306
▁Tarentum	-10.8306
▁cognita	-10.8306
▁смотреть	-10.8306
▁двое	-10.8306
▁secutus	-10.8306
▁praemia	-10.8306
▁неужели	-10.8306
▁regum	-10.8306
▁пищи	-10.8306
▁pericula	-10.8306
▁старался	-10.8306
▁egressi	-10.8306
▁Никто	-10.8307
▁одежды	-10.8308
▁fortiter	-10.8308
▁служить	-10.8309
▁auribus	-10.831
▁сохранить	-10.831
▁прочь	-10.8311
▁supplicium	-10.8311
▁плебеи	-10.8312
▁amicus	-10.8312
▁общего	-10.8313
▁societatis	-10.8315
▁solent	-10.8316
▁studiis	-10.8316
▁summis	-10.8319
цу	-10.8321
▁dicerent	-10.8323
▁глав	-10.8324
▁Quomodo	-10.8324
▁честно	-10.8325
▁надежде	-10.8327
▁ваших	-10.8329
▁iussus	-10.833
щие	-10.833
cut	-10.8331
▁пороки	-10.8333
дать	-10.8335
▁agitur	-10.8337
▁работ	-10.8339
Л	-10.8339
▁брак	-10.8341
▁amor	-10.8342
▁ciuitatem	-10.835
▁Пизона	-10.835
▁uoce	-10.8352
▁угод	-10.8356
няя	-10.8356
▁государственны	-10.8366
▁secus	-10.8368
▁proximis	-10.837
▁multorum	-10.8371
нув	-10.8372
▁multas	-10.8373
▁Ag	-10.8376
▁вину	-10.8377
tat	-10.8377
▁мнения	-10.8378
▁народе	-10.8379
▁fr	-10.8384
▁comple	-10.8384
нг	-10.8385
▁начальник	-10.8388
▁Ав	-10.8388
ante	-10.8396
▁призвал	-10.8399
▁factis	-10.84
▁ла	-10.8404
the	-10.8404
atim	-10.8405
▁узнали	-10.8406
▁alieni	-10.8411
ела	-10.8414
▁fabrica	-10.8414
▁Риму	-10.8431
▁отцов	-10.8432
gent	-10.8433
up	-10.8433
▁provincias	-10.8435
▁oram	-10.8438
▁responde	-10.844
iorum	-10.844
xit	-10.8443
▁exp	-10.8444
▁Него	-10.8451
▁Maria	-10.8451
▁excipi	-10.8454
вой	-10.8458
▁открыт	-10.8459
mentum	-10.8459
▁мер	-10.8461
▁visum	-10.8471
▁события	-10.8472
▁ferret	-10.8475
▁мужество	-10.8476
▁стану	-10.8479
▁возле	-10.8485
gen	-10.8489
▁доблесть	-10.8492
▁tantae	-10.8498
▁dedi	-10.85
ношению	-10.8502
▁неизвестно	-10.8502
▁следовательно	-10.8502
▁Punica	-10.8502
▁quartum	-10.8502
▁crimen	-10.8502
▁услышав	-10.8502
▁службу	-10.8502
▁твою	-10.8502
▁Numquid	-10.8502
▁идут	-10.8502
▁Domine	-10.8502
▁Germanorum	-10.8502
▁illuc	-10.8502
▁покинуть	-10.8503
▁справедливости	-10.8504
▁римской	-10.8504
▁верить	-10.8504
▁usquam	-10.8505
▁Отец	-10.8505
▁владения	-10.8505
▁acerrim	-10.8506
▁fiunt	-10.8506
▁Germanico	-10.8507
равн	-10.8507
lam	-10.851
▁Valerium	-10.8513
▁Неужели	-10.8514
▁eruptione	-10.8515
▁liberorum	-10.8515
▁adeptus	-10.8517
gni	-10.8517
▁каждой	-10.8522
▁oppugnare	-10.8523
▁флотом	-10.8524
▁долю	-10.8524
▁любовью	-10.8524
▁убить	-10.8526
ющее	-10.8527
▁cuiquam	-10.8527
▁El	-10.8527
▁reliquos	-10.8528
▁daretur	-10.8528
▁artis	-10.8528
▁издали	-10.8528
▁concursu	-10.8528
▁обвинение	-10.8528
ribus	-10.8531
▁gentem	-10.8534
▁insignem	-10.8546
▁habeant	-10.8548
▁бежали	-10.8549
▁делается	-10.8554
цион	-10.8555
рус	-10.8556
▁каса	-10.8556
▁exitum	-10.856
▁просить	-10.856
▁указ	-10.856
rant	-10.8561
▁habetur	-10.8563
▁Campani	-10.8565
mine	-10.8568
▁бр	-10.8569
▁materiam	-10.857
▁tuas	-10.8571
▁urbium	-10.8572
ida	-10.8572
▁dextra	-10.8572
▁scribere	-10.8572
▁milite	-10.8573
▁filiae	-10.8573
▁Ново	-10.8575
▁condicione	-10.8577
▁celebra	-10.858
▁вер	-10.8581
▁sustinere	-10.8586
▁нап	-10.859
▁Карфаген	-10.8591
▁praetoria	-10.8595
уш	-10.8609
лей	-10.861
▁...	-10.8613
▁Agrippina	-10.8621
▁Ман	-10.8625
▁сей	-10.8626
phi	-10.8628
icae	-10.863
вшему	-10.8634
▁linguam	-10.8636
▁Latinis	-10.8639
ностью	-10.8645
ilia	-10.8646
▁imita	-10.865
▁irae	-10.865
▁Hos	-10.8662
▁exaudi	-10.8664
гляд	-10.8664
▁полны	-10.8668
ках	-10.867
Не	-10.8672
ou	-10.8675
ступить	-10.8675
▁interuall	-10.8676
▁ваше	-10.8676
quod	-10.8682
▁Аврам	-10.8686
лик	-10.8687
▁effici	-10.8689
▁Du	-10.869
ssi	-10.869
▁otio	-10.8692
▁боли	-10.8693
eo	-10.8694
▁intus	-10.8696
▁aere	-10.8696
ению	-10.8698
▁проходит	-10.87
▁образу	-10.8701
▁Агриппина	-10.8702
▁Вскоре	-10.8702
▁корабль	-10.8702
▁постановления	-10.8702
▁сословия	-10.8702
▁территории	-10.8702
▁extremum	-10.8702
▁деяния	-10.8702
▁numquid	-10.8702
▁оттого	-10.8702
▁Germanicum	-10.8703
▁infesta	-10.8703
▁primoribus	-10.8704
▁aliquod	-10.8704
sed	-10.8706
▁Sulpicius	-10.8707
▁eff	-10.8707
▁выступить	-10.8708
▁думают	-10.8709
▁ряды	-10.8709
▁милость	-10.8711
▁amicorum	-10.8711
▁языка	-10.8711
шим	-10.8711
▁accessit	-10.8711
▁sequitur	-10.8713
▁sentire	-10.8717
▁darent	-10.8718
▁certaminis	-10.8719
▁vivit	-10.8721
▁государственных	-10.8724
▁fac	-10.8729
▁рассказал	-10.8729
▁addidit	-10.873
▁добавил	-10.873
▁Americae	-10.8731
▁Syracusas	-10.8734
▁брату	-10.8735
cos	-10.8737
▁суду	-10.8743
iens	-10.8747
unc	-10.8751
▁decreto	-10.8752
▁всякое	-10.8754
щая	-10.8757
▁uictor	-10.8763
▁делом	-10.8766
▁motum	-10.8768
ук	-10.877
▁Bu	-10.8771
ng	-10.8773
▁segni	-10.8775
▁Би	-10.8775
▁casum	-10.8779
▁praetorem	-10.878
▁indigna	-10.8781
кан	-10.8786
кра	-10.879
▁pauca	-10.8791
это	-10.8798
щую	-10.8798
▁Eu	-10.88
▁maximi	-10.8801
пуск	-10.8802
▁счастлив	-10.8803
ковый	-10.8804
▁praesidiis	-10.8806
▁Тита	-10.8815
рд	-10.8817
bilem	-10.8817
мя	-10.882
били	-10.882
itis	-10.8822
▁су	-10.8823
▁Луци	-10.8825
▁Anni	-10.8827
▁cibo	-10.8832
▁iusta	-10.8835
▁ран	-10.8836
▁вкус	-10.8839
енным	-10.8841
граф	-10.8841
▁To	-10.8842
▁aliquam	-10.8843
чные	-10.8843
▁царство	-10.8843
▁narra	-10.8845
▁устроил	-10.8846
скому	-10.8852
▁потеря	-10.8859
▁st	-10.8862
ун	-10.8863
▁сигнал	-10.8866
▁Mi	-10.8869
▁вывел	-10.8874
ант	-10.8875
▁conc	-10.8877
▁ссыла	-10.8878
▁сад	-10.8879
▁Duo	-10.888
евой	-10.8882
▁prouincias	-10.8882
▁понял	-10.8885
вшей	-10.8888
pl	-10.8889
▁Ц	-10.8892
▁мысль	-10.8896
эн	-10.8898
▁врач	-10.89
▁bellis	-10.8903
▁первом	-10.8905
▁разу	-10.8905
▁ancilla	-10.8906
▁неприятелей	-10.8906
▁присутствии	-10.8906
▁распоряжения	-10.8906
▁партии	-10.8906
▁дольше	-10.8906
▁отчасти	-10.8906
▁nonnumquam	-10.8906
▁дважды	-10.8906
▁aliquantum	-10.8906
▁cecidit	-10.8906
▁приблизительно	-10.8906
▁ordo	-10.8906
▁Alpes	-10.8906
▁templa	-10.8906
▁ждать	-10.8906
▁нём	-10.8906
▁pretium	-10.8906
▁credo	-10.8907
▁lecto	-10.8907
▁правду	-10.8907
▁Insula	-10.8907
▁явились	-10.8907
▁donum	-10.8908
▁Germanos	-10.8908
▁выйти	-10.8908
▁душой	-10.8908
▁истину	-10.8909
dicentes	-10.8909
▁миль	-10.8909
▁corporibus	-10.8909
▁ductu	-10.8909
▁uaria	-10.891
▁Licinius	-10.891
▁называется	-10.8911
▁ушли	-10.8911
▁Капитолий	-10.8912
▁Ал	-10.8914
▁interretialis	-10.8916
▁senator	-10.8916
▁nationes	-10.892
▁нужда	-10.892
▁Ан	-10.892
▁benigne	-10.892
▁Appius	-10.8921
▁явно	-10.8921
▁древне	-10.8924
▁agerent	-10.8924
▁reliquit	-10.8924
▁получив	-10.8924
▁собрал	-10.8925
fici	-10.8926
▁legionis	-10.8928
hy	-10.893
▁defectionem	-10.8931
▁nuntiata	-10.8932
▁reus	-10.8935
▁напали	-10.8936
▁praecipit	-10.8943
▁custodia	-10.8947
▁проник	-10.8949
▁essem	-10.8959
чин	-10.896
телей	-10.8964
▁наук	-10.8965
▁cogitare	-10.8966
ишься	-10.8968
▁скота	-10.8971
▁различ	-10.8972
▁adire	-10.8981
▁habitum	-10.8981
▁diff	-10.8982
▁тщательно	-10.8987
▁Ста	-10.8987
▁pal	-10.899
▁Ха	-10.8995
▁manet	-10.8996
▁rapi	-10.9002
▁uinci	-10.9006
nia	-10.9007
▁телом	-10.9007
▁сообща	-10.9007
▁шла	-10.9008
▁Sy	-10.9009
▁pellicula	-10.901
▁cultu	-10.9014
▁auctoritatem	-10.9015
▁войн	-10.9018
▁знамена	-10.9018
lat	-10.9018
▁mos	-10.9018
▁битве	-10.9018
▁Хо	-10.9019
▁edita	-10.9024
▁memini	-10.9026
▁Вмест	-10.9027
osa	-10.9027
▁tradita	-10.9028
▁Capua	-10.9032
▁singuli	-10.9036
abant	-10.9045
шему	-10.9048
▁поручил	-10.9049
▁покор	-10.905
▁стыд	-10.9051
▁natu	-10.9053
вис	-10.9053
▁намерен	-10.9059
vin	-10.9063
▁равны	-10.9063
ion	-10.9066
▁пост	-10.9067
▁commune	-10.9068
▁salute	-10.9071
▁вино	-10.9073
▁obsidione	-10.9073
▁Флакк	-10.9076
емый	-10.9078
▁praetores	-10.9078
tic	-10.9079
▁Aequi	-10.9083
▁Au	-10.9084
▁timere	-10.9086
inis	-10.9094
▁Long	-10.9094
▁matura	-10.9097
ющихся	-10.9101
▁твоему	-10.9102
▁Tiberi	-10.9103
▁Piso	-10.9108
▁sinu	-10.911
▁summi	-10.9111
▁печали	-10.9112
▁американск	-10.9114
▁премьер	-10.9114
сквозь	-10.9114
▁acceptum	-10.9114
▁argenti	-10.9114
▁exprobra	-10.9114
▁incertum	-10.9114
▁integri	-10.9114
▁omissa	-10.9114
▁vestrum	-10.9114
▁вещь	-10.9114
▁звания	-10.9114
▁очередь	-10.9114
▁роскоши	-10.9114
▁золота	-10.9114
▁дерево	-10.9114
▁novum	-10.9115
▁Huius	-10.9115
▁пройти	-10.9115
▁охотно	-10.9115
▁ordinibus	-10.9115
ики	-10.9116
▁командовал	-10.9116
▁Капую	-10.9117
▁tenet	-10.9117
▁памятник	-10.9119
▁захват	-10.9119
▁pudore	-10.9119
▁представить	-10.912
▁videbatur	-10.912
▁dicimus	-10.912
▁consularibus	-10.9121
▁возвратился	-10.9121
▁operibus	-10.9123
▁cau	-10.9123
▁империи	-10.9126
▁praeerat	-10.9127
▁великий	-10.9127
▁юношей	-10.9128
▁поражение	-10.9129
▁regionis	-10.913
▁ранен	-10.9132
▁gerere	-10.9133
▁dicis	-10.9133
▁Sc	-10.9133
▁можем	-10.9134
▁мечом	-10.9137
▁fructum	-10.9142
▁мудрец	-10.9143
▁viribus	-10.9143
»)	-10.9145
▁господина	-10.9146
▁стоявши	-10.9148
▁воевать	-10.9148
▁uetere	-10.9149
▁Iouis	-10.9149
▁exci	-10.9152
▁uenisse	-10.9157
▁Перед	-10.9158
Ф	-10.9159
Е	-10.9159
▁месяца	-10.9163
йтесь	-10.9175
endos	-10.9182
▁nuntios	-10.9183
▁passi	-10.9184
▁liberum	-10.9184
▁Кар	-10.9184
los	-10.9186
▁fuissent	-10.9186
▁matre	-10.9187
▁tor	-10.9187
▁toga	-10.9189
щий	-10.919
ница	-10.9191
цию	-10.9191
▁нашем	-10.9191
▁fame	-10.9192
▁plebes	-10.9192
рия	-10.9193
▁legione	-10.9194
▁Са	-10.92
▁просили	-10.9201
▁natum	-10.9205
тельно	-10.9205
▁filiis	-10.9207
▁Americana	-10.9208
▁языке	-10.9213
ством	-10.9213
▁color	-10.9213
▁Чем	-10.9214
▁sci	-10.9218
▁insignis	-10.9226
▁Marci	-10.9227
▁средств	-10.9227
▁Fabi	-10.9231
кая	-10.9233
гал	-10.9234
оль	-10.9237
дин	-10.9239
tumque	-10.924
▁libro	-10.924
▁salv	-10.924
▁славе	-10.9243
▁munus	-10.9245
▁audacia	-10.9247
▁marique	-10.9248
▁совершен	-10.9249
▁soror	-10.9251
▁clara	-10.9251
▁futuri	-10.9252
▁повод	-10.9254
▁оставлен	-10.9255
▁statua	-10.9256
нюю	-10.9263
▁Умер	-10.9263
▁нужны	-10.9268
itatem	-10.9268
▁civili	-10.9271
▁Исав	-10.9271
▁разбил	-10.9276
▁dignitate	-10.9277
▁р	-10.9277
elli	-10.9281
▁posside	-10.9286
tract	-10.9286
▁остальным	-10.9292
int	-10.9294
▁Super	-10.9294
▁почет	-10.9295
▁сообщил	-10.9295
▁explicat	-10.9297
▁неё	-10.9298
жн	-10.93
▁divina	-10.9301
▁bi	-10.9302
▁vici	-10.9303
▁numera	-10.9306
▁abesse	-10.9307
▁голода	-10.9307
сколько	-10.931
▁propere	-10.9312
▁instructa	-10.9315
▁добро	-10.9318
▁ce	-10.9318
прос	-10.9319
▁собира	-10.9321
▁tradunt	-10.9321
▁Marcellum	-10.9327
▁accepto	-10.9327
▁ciuitas	-10.9327
▁flamma	-10.9327
▁impedimentis	-10.9327
▁laudibus	-10.9327
▁mortuo	-10.9327
▁Прежде	-10.9327
▁Сицилию	-10.9327
▁навсегда	-10.9327
▁подошли	-10.9327
▁nouum	-10.9327
▁Зачем	-10.9327
▁desiderium	-10.9327
▁composita	-10.9327
▁Carthaginienses	-10.9327
▁родину	-10.9327
▁Сирии	-10.9327
▁Iulius	-10.9327
▁saltem	-10.9328
▁detracta	-10.9328
▁дальнейшем	-10.9328
▁видишь	-10.9329
▁укреплений	-10.9329
▁триста	-10.9329
▁Latinorum	-10.9334
▁restituit	-10.9335
▁пределы	-10.9336
▁пойти	-10.9336
▁urbibus	-10.9336
▁награду	-10.9337
▁regibus	-10.9337
▁истина	-10.9338
▁пришла	-10.9339
▁auctoribus	-10.9343
▁Filius	-10.9343
▁книгу	-10.9346
▁принесли	-10.9347
▁видов	-10.9348
▁parva	-10.9349
▁mandata	-10.9351
▁quoad	-10.9354
▁misera	-10.9354
▁сме	-10.9354
▁seditionem	-10.9355
▁Hae	-10.9356
▁descendit	-10.9358
▁amnis	-10.9359
▁назвать	-10.936
▁salutis	-10.9362
▁Capuae	-10.9366
▁прошлое	-10.9369
▁десяти	-10.9371
шись	-10.9373
▁custodiam	-10.9375
▁supplicio	-10.9385
▁forent	-10.9386
"?	-10.9386
ять	-10.9387
▁consuetudinem	-10.9388
писан	-10.9388
▁Germaniae	-10.9389
▁classi	-10.9389
▁встал	-10.9391
▁пир	-10.9392
▁saltus	-10.9392
▁страш	-10.9395
▁совету	-10.9396
▁Ганнибалом	-10.9398
▁Scipionem	-10.9398
▁tuto	-10.9402
▁Богом	-10.9403
▁plane	-10.9406
ложить	-10.9409
ssimo	-10.941
▁богатства	-10.9411
▁ager	-10.9411
▁similes	-10.9414
▁пожар	-10.9414
▁упорно	-10.9414
▁orare	-10.9417
лан	-10.9418
▁universa	-10.9418
▁река	-10.9418
▁Tra	-10.9419
▁fine	-10.9427
счет	-10.9429
▁отлича	-10.9434
▁принцепс	-10.9436
▁Har	-10.9439
рий	-10.9441
▁censor	-10.9443
osus	-10.9444
▁modis	-10.9444
▁occidit	-10.9448
▁incendio	-10.9449
▁legi	-10.945
▁lud	-10.945
▁fratri	-10.9455
▁сел	-10.9456
▁Contra	-10.9457
▁Vis	-10.9459
▁ludis	-10.9459
▁veni	-10.9459
▁отряда	-10.9459
▁animorum	-10.9463
cedunt	-10.9464
▁Tri	-10.9468
▁prodi	-10.9468
▁vires	-10.9469
▁звук	-10.9471
cor	-10.9472
▁coniugi	-10.9476
тели	-10.9482
▁начина	-10.9484
▁вода	-10.9485
rg	-10.9489
▁обет	-10.949
▁Adam	-10.9493
trix	-10.9495
▁imperia	-10.9496
▁взяв	-10.9499
▁hasta	-10.9502
▁Latina	-10.9506
▁опасно	-10.9511
▁opportun	-10.9513
енной	-10.9515
▁соседни	-10.9515
mento	-10.9517
▁отношения	-10.9523
▁Civitat	-10.9524
▁faciam	-10.9524
▁плод	-10.9524
ведя	-10.9526
▁pecca	-10.9527
▁верховн	-10.953
мени	-10.9534
мысл	-10.9537
▁сайт	-10.9539
▁puni	-10.9541
▁просит	-10.9543
▁Ge	-10.9543
▁coeptum	-10.9544
▁inermes	-10.9544
▁porro	-10.9544
▁несчастье	-10.9544
▁протяжени	-10.9544
▁титул	-10.9544
▁человеческого	-10.9544
▁mundo	-10.9544
▁Официальн	-10.9544
▁Юлий	-10.9544
▁alienum	-10.9544
▁saeculi	-10.9544
▁frumento	-10.9544
▁libenter	-10.9544
▁вслед	-10.9544
▁дружбы	-10.9544
▁Bellum	-10.9544
▁порядка	-10.9544
▁скончался	-10.9545
▁приказывает	-10.9545
▁перейти	-10.9545
▁nuncupa	-10.9545
▁nobiles	-10.9545
▁велено	-10.9545
▁перешел	-10.9545
▁оставаться	-10.9545
▁concilia	-10.9545
▁наслаждения	-10.9546
▁tribunum	-10.9546
▁осады	-10.9547
▁войти	-10.9547
▁captus	-10.9547
▁Дело	-10.9548
▁приказано	-10.9548
▁мужей	-10.9549
▁любить	-10.9549
▁Квинкций	-10.955
▁decretum	-10.955
▁воскликнул	-10.9551
▁обратиться	-10.9551
▁общины	-10.9554
iit	-10.9554
▁sedem	-10.9555
▁uigilia	-10.9555
▁стремиться	-10.9556
▁общей	-10.9556
▁корм	-10.9556
▁обыкновенно	-10.9556
▁занимался	-10.9556
buntur	-10.9557
▁союзники	-10.9558
itatis	-10.9559
▁modus	-10.956
▁сует	-10.9561
▁perfici	-10.9561
▁забыв	-10.9561
▁пишет	-10.9565
▁диктатором	-10.9567
▁преследовал	-10.9567
▁бу	-10.9568
▁iustum	-10.9569
▁изгнание	-10.957
▁potestatis	-10.9571
itum	-10.9572
▁portum	-10.9572
▁laboris	-10.9574
▁труб	-10.9582
▁предмет	-10.9583
val	-10.9583
▁воля	-10.9586
▁смысл	-10.9587
▁срока	-10.9589
▁имели	-10.959
▁сыном	-10.9591
▁munitiones	-10.9592
▁sollicita	-10.9592
▁цен	-10.96
▁exim	-10.9602
nn	-10.9603
▁доста	-10.9603
енье	-10.9606
жива	-10.9607
▁iniuriae	-10.961
ур	-10.9612
ион	-10.9613
ena	-10.9621
▁Города	-10.9628
▁fugit	-10.9628
▁populorum	-10.9629
▁первыми	-10.9629
▁Иакова	-10.9635
▁novis	-10.9641
▁живет	-10.9644
▁egredi	-10.9646
▁перемен	-10.9651
▁источник	-10.9656
▁выход	-10.9659
▁золото	-10.966
ationes	-10.9661
пустить	-10.9663
▁tribuno	-10.9666
▁Ру	-10.967
▁ferrent	-10.9673
лез	-10.9675
▁возвраща	-10.9676
ведет	-10.9679
▁рука	-10.9684
ulum	-10.9692
▁ingenii	-10.9692
itate	-10.9702
▁парфян	-10.9704
▁regiones	-10.9705
▁statum	-10.971
tr	-10.9712
аться	-10.9713
▁poeta	-10.9713
мир	-10.9716
▁sal	-10.9719
▁скорби	-10.9721
▁voluntate	-10.9722
▁reliqui	-10.9727
▁ущерб	-10.9728
▁вала	-10.9729
▁вод	-10.9729
▁дан	-10.9729
▁manifest	-10.973
▁Рас	-10.973
▁specta	-10.9731
▁instru	-10.9732
▁Много	-10.9732
▁Op	-10.9735
▁берега	-10.9736
let	-10.9744
▁понимал	-10.9749
▁фильм	-10.975
емых	-10.9752
▁гроз	-10.9754
▁авторитет	-10.9756
▁известие	-10.9763
▁рассе	-10.9766
▁discrimen	-10.9766
▁matrimonio	-10.9766
▁доблести	-10.9766
▁помню	-10.9766
▁трёх	-10.9766
▁характер	-10.9766
▁командование	-10.9766
▁expertus	-10.9766
▁Африки	-10.9766
▁защиты	-10.9767
▁звание	-10.9767
▁eripi	-10.9767
▁tradidit	-10.9767
▁nuntium	-10.9767
▁lumen	-10.9767
▁ждет	-10.9767
▁чужой	-10.9768
▁Еще	-10.9768
▁ven	-10.9768
▁Eadem	-10.9769
▁montibus	-10.9769
▁aduersa	-10.9769
▁стоят	-10.9769
▁summae	-10.9769
▁Abram	-10.977
▁Praemi	-10.977
▁maturi	-10.977
▁evenit	-10.977
▁recessit	-10.9771
▁разница	-10.9771
▁coegit	-10.9772
▁Сиракузы	-10.9772
▁parentibus	-10.9773
▁Illa	-10.9775
▁рассвете	-10.9776
▁погибли	-10.9777
net	-10.9777
▁жертвы	-10.9778
▁пита	-10.9778
▁вооруженных	-10.9778
▁далее	-10.9778
▁перебили	-10.9779
▁exilium	-10.978
▁Фурий	-10.9781
▁pergit	-10.9782
▁pedem	-10.9782
▁выбрал	-10.9783
▁legio	-10.9784
▁membra	-10.9784
▁книгах	-10.9786
isti	-10.9786
▁раза	-10.9787
▁orbem	-10.9788
▁получал	-10.9788
▁versus	-10.9788
▁радостью	-10.9792
▁примет	-10.9793
▁выс	-10.9794
▁fate	-10.9794
▁тяжело	-10.9796
льный	-10.9798
ico	-10.9807
▁прошло	-10.9808
▁uen	-10.9809
▁Agrippinae	-10.9809
▁caedis	-10.9811
▁Tiberim	-10.9811
▁bina	-10.9812
▁trahere	-10.9815
шки	-10.9819
▁Кас	-10.982
▁potentia	-10.9821
▁уши	-10.9825
▁insulae	-10.9826
▁peruenit	-10.9828
▁Claudi	-10.9829
eant	-10.983
uissent	-10.983
▁mirum	-10.983
ulus	-10.9837
▁taedio	-10.9838
▁laborem	-10.9845
стоит	-10.9847
стан	-10.9854
По	-10.9855
▁confer	-10.9865
▁actis	-10.9866
▁ле	-10.987
pen	-10.9877
▁ro	-10.9878
▁uiros	-10.9881
▁onera	-10.9882
▁negotia	-10.9895
▁officia	-10.9895
red	-10.9899
▁tribunal	-10.9901
▁luxuria	-10.9903
▁captis	-10.9905
▁gratiae	-10.9905
▁le	-10.991
▁оста	-10.9913
▁ecclesia	-10.9914
▁spectat	-10.9919
▁grandi	-10.9919
▁amant	-10.9928
git	-10.9933
▁istam	-10.9936
▁ullam	-10.9938
нк	-10.9943
▁Лондон	-10.9949
▁чье	-10.995
▁набрал	-10.9951
ати	-10.9952
▁substantia	-10.9952
▁большее	-10.9954
▁осужден	-10.9957
▁mittunt	-10.9957
▁Су	-10.9959
▁superior	-10.9959
сил	-10.9961
▁lit	-10.9964
rios	-10.9965
▁mitti	-10.9972
▁успеха	-10.998
▁захватил	-10.9981
▁рыб	-10.9983
▁жестокость	-10.9985
брасыва	-10.9988
ску	-10.9988
▁Ч	-10.9989
▁Dictator	-10.9989
▁pudor	-10.9989
мор	-10.999
▁богат	-10.999
▁свободе	-10.9991
▁пришло	-10.9992
▁Augustum	-10.9994
▁Однажды	-10.9994
▁Сначала	-10.9994
▁событий	-10.9994
▁соответстви	-10.9994
▁огня	-10.9994
▁Ганнон	-10.9994
▁auspiciis	-10.9994
▁службы	-10.9994
▁вторг	-10.9994
▁Druso	-10.9994
▁недалеко	-10.9994
▁sermonibus	-10.9995
▁stationibus	-10.9995
▁кампанцев	-10.9995
▁курии	-10.9995
▁stetit	-10.9995
▁сражались	-10.9996
▁foedera	-10.9996
▁Aequos	-10.9997
▁civitatibus	-10.9997
▁Isra	-10.9997
▁единственный	-10.9997
▁praedica	-10.9998
▁acceperunt	-10.9998
▁itineris	-10.9998
▁серебра	-10.9999
▁понимает	-10.9999
▁ventum	-10.9999
▁России	-11.0001
▁factionis	-11.0001
dens	-11.0001
▁videntur	-11.0003
▁Мария	-11.0003
▁императором	-11.0003
ler	-11.0004
▁первая	-11.0005
▁участие	-11.0005
▁подал	-11.0006
onia	-11.0008
▁прочим	-11.0008
▁новое	-11.0011
▁руками	-11.0011
▁impera	-11.0014
▁сказав	-11.0016
▁слез	-11.0016
duxit	-11.0017
▁opinionem	-11.0018
▁взяты	-11.0019
▁похвал	-11.0023
▁Сеяна	-11.0023
▁приказу	-11.0024
▁acrius	-11.0024
▁uterque	-11.0026
▁carcerem	-11.0026
▁pares	-11.0027
▁Зна	-11.0028
▁Nulla	-11.0029
▁pra	-11.0029
▁ictum	-11.003
▁Ioannes	-11.003
▁virorum	-11.0032
▁uelit	-11.0034
▁placere	-11.0036
▁avi	-11.0038
▁nimi	-11.0041
▁stipendia	-11.0044
▁gentibus	-11.0048
▁puerum	-11.005
ios	-11.0053
▁кров	-11.0057
чуть	-11.0058
ensem	-11.0059
▁прибавил	-11.0061
▁philosophiam	-11.0062
▁uxoris	-11.0062
▁cap	-11.0063
oide	-11.0065
▁пуст	-11.0065
▁committere	-11.0068
▁bonam	-11.0071
▁носил	-11.0072
▁mota	-11.0072
ителя	-11.0075
▁horre	-11.0075
▁exple	-11.0078
▁ca	-11.0083
▁дорога	-11.0083
▁vidi	-11.0084
▁occulto	-11.0084
▁accusator	-11.0084
▁всадника	-11.0085
▁curae	-11.0086
нер	-11.0087
ers	-11.0089
▁familiari	-11.0089
▁весть	-11.0089
▁внес	-11.0091
далек	-11.0094
bor	-11.0096
▁dilectu	-11.0097
▁perfecta	-11.0098
etis	-11.0099
▁Кал	-11.0108
▁equite	-11.0109
рем	-11.011
▁бог	-11.0111
▁Pr	-11.0111
▁холма	-11.0112
▁Pi	-11.0114
▁spiritu	-11.0114
▁facie	-11.0119
▁v	-11.012
▁Prae	-11.0125
illi	-11.0126
▁reperi	-11.0127
▁barbaris	-11.0128
cam	-11.0129
▁nati	-11.0136
▁сер	-11.0136
тельный	-11.0137
дор	-11.014
▁visa	-11.0143
▁Poeni	-11.0143
▁Египет	-11.0144
▁iustitia	-11.0145
лед	-11.0145
▁denuntia	-11.0146
▁сан	-11.0151
дошел	-11.0155
▁malle	-11.0155
айт	-11.0159
▁auri	-11.016
▁рассказ	-11.0161
▁dele	-11.0162
ticus	-11.0164
ubi	-11.0174
ense	-11.0182
▁namque	-11.0182
▁запрет	-11.0182
▁цари	-11.0183
▁Александр	-11.0184
щих	-11.0188
▁телесно	-11.0189
▁praeterita	-11.0193
▁quaerere	-11.0193
▁vinc	-11.0195
бал	-11.0196
▁значительно	-11.0199
▁factam	-11.0202
▁humano	-11.0206
▁сенаторам	-11.021
▁moritur	-11.0218
▁кровь	-11.022
сов	-11.022
юдь	-11.022
▁nequi	-11.0221
▁никако	-11.0222
▁Chana	-11.0224
▁очевидно	-11.0226
▁Quemadmodum	-11.0226
▁egregie	-11.0226
▁necessarium	-11.0226
▁necessitas	-11.0226
▁septuaginta	-11.0226
▁triumphum	-11.0226
▁Тобою	-11.0226
▁борьбе	-11.0226
▁квириты	-11.0226
▁переговоры	-11.0226
▁судьбы	-11.0226
▁уничтожить	-11.0226
▁убийство	-11.0226
▁писать	-11.0226
▁novem	-11.0226
▁детьми	-11.0226
▁iniussu	-11.0226
▁spectaculo	-11.0226
▁vallum	-11.0226
▁felix	-11.0226
▁достоинства	-11.0227
▁сестра	-11.0227
▁общим	-11.0227
▁Говорят	-11.0227
▁ordinum	-11.0227
▁принадлежит	-11.0227
▁слонов	-11.0227
▁знатных	-11.0227
▁остальное	-11.0227
▁sis	-11.0227
▁(«	-11.0228
▁доставил	-11.0228
▁totiens	-11.0228
тар	-11.0229
▁strepitu	-11.0229
▁donis	-11.0229
▁complures	-11.023
▁живут	-11.023
▁levi	-11.0231
▁uentum	-11.0231
▁Валерия	-11.0231
▁охраны	-11.0231
▁провести	-11.0232
▁волосы	-11.0232
▁inueni	-11.0232
▁находились	-11.0232
▁собирался	-11.0232
▁будущем	-11.0233
▁iisdem	-11.0233
▁тесно	-11.0233
▁Flaccus	-11.0234
▁философия	-11.0234
▁нравы	-11.0236
▁началась	-11.0236
▁дошли	-11.0236
▁Item	-11.0236
▁повелел	-11.0237
▁progressus	-11.0237
ита	-11.0238
▁военным	-11.024
дра	-11.024
▁строя	-11.0241
▁говорим	-11.0242
▁quietem	-11.0243
▁uicem	-11.0244
▁sup	-11.0244
▁любим	-11.0244
▁pedites	-11.0245
▁Галл	-11.0245
▁высоко	-11.0245
▁mut	-11.0247
▁порыв	-11.025
▁отдать	-11.0256
lli	-11.0256
oma	-11.0258
▁Audi	-11.0259
▁aduentum	-11.0259
▁условия	-11.0259
▁gladiis	-11.026
▁доброй	-11.0261
▁Пар	-11.0261
▁absente	-11.0263
▁некоторо	-11.0263
мина	-11.0264
▁обман	-11.0265
▁agenda	-11.027
▁dilectum	-11.0272
▁порой	-11.0272
▁scientiae	-11.0277
нно	-11.0283
▁similem	-11.0285
▁мужчин	-11.0285
▁praebe	-11.0287
▁Ми	-11.0288
▁prioris	-11.0289
▁убили	-11.0292
▁sapientiae	-11.0293
▁fructus	-11.0294
▁раздел	-11.0294
riam	-11.0295
первых	-11.0296
ением	-11.0297
▁нашему	-11.0303
▁sanguinem	-11.0308
▁sapientiam	-11.0309
▁gradus	-11.0317
▁Hispani	-11.0319
▁существа	-11.0319
▁fortis	-11.0319
▁decora	-11.0324
пал	-11.0326
▁postulat	-11.0327
дан	-11.0328
▁изо	-11.033
▁встреча	-11.0334
▁religio	-11.0337
▁son	-11.0338
▁стих	-11.034
▁вечно	-11.034
▁magistratuum	-11.0344
▁teneri	-11.0344
▁приятно	-11.0344
▁necessitate	-11.0347
▁ausi	-11.0351
atione	-11.0357
▁praefecto	-11.0359
▁ageret	-11.0361
▁Aequis	-11.0362
ama	-11.0363
nium	-11.0364
▁поспешно	-11.0367
▁uersa	-11.0368
▁semi	-11.0376
andum	-11.0377
чик	-11.0377
▁праздник	-11.0377
▁Catilina	-11.0383
▁Agrippa	-11.0383
▁invidia	-11.0384
▁ars	-11.0385
▁proximi	-11.0385
▁Го	-11.0388
чал	-11.0388
▁pertinent	-11.0391
▁окружен	-11.0391
tori	-11.0394
▁Котор	-11.0398
▁exerce	-11.0399
▁x	-11.0405
ации	-11.0407
▁отн	-11.0408
▁занимал	-11.0409
▁meorum	-11.0413
▁позволяет	-11.0415
▁согласны	-11.0421
▁aestate	-11.0422
▁villa	-11.0423
▁смут	-11.0424
▁встретил	-11.0427
▁приступ	-11.0428
▁Брут	-11.0428
▁venisse	-11.0428
▁попросил	-11.0428
▁покинул	-11.0429
▁Сабин	-11.0429
via	-11.0431
▁сне	-11.0431
▁praetura	-11.0433
▁carne	-11.0436
▁Francia	-11.0436
▁postula	-11.0438
▁Мал	-11.044
▁влияние	-11.044
▁dixisse	-11.0442
▁frumenta	-11.0445
▁admir	-11.0455
станут	-11.0456
▁трибунам	-11.0459
▁Секст	-11.0459
▁начинает	-11.0459
▁запас	-11.046
▁чисто	-11.046
▁Do	-11.046
▁Катон	-11.0464
▁Academia	-11.0464
▁Hiberum	-11.0464
▁dextro	-11.0464
▁itinera	-11.0464
▁liceat	-11.0464
▁молодежь	-11.0464
▁позиции	-11.0464
▁нередко	-11.0464
▁prodest	-11.0464
▁сочли	-11.0464
▁Далее	-11.0464
▁Marcello	-11.0464
▁persevera	-11.0464
▁пищу	-11.0464
▁знаем	-11.0465
▁dubio	-11.0465
▁родителей	-11.0465
▁socium	-11.0465
▁beneficium	-11.0465
▁honos	-11.0465
▁близких	-11.0465
▁большого	-11.0465
▁mansit	-11.0465
вторых	-11.0465
▁пользовался	-11.0465
▁quindecim	-11.0465
▁regionibus	-11.0466
▁решено	-11.0466
▁stabili	-11.0467
▁внимания	-11.0467
▁appellavit	-11.0467
▁respondens	-11.0468
▁proficisci	-11.0468
")	-11.0468
▁Mars	-11.0469
▁mouit	-11.0469
▁центурионов	-11.0469
▁пользуясь	-11.0469
▁solebat	-11.047
иц	-11.047
▁pleraque	-11.047
▁ulli	-11.047
▁захватить	-11.047
▁бросились	-11.0471
тив	-11.0471
▁profectum	-11.0471
▁legere	-11.0473
▁сильный	-11.0473
▁voluit	-11.0474
▁головы	-11.0475
▁принести	-11.0475
▁disputa	-11.048
▁Antonius	-11.048
▁exitu	-11.048
▁заслуги	-11.0482
▁Fuit	-11.0482
▁заняли	-11.0482
▁apta	-11.0483
▁Iulia	-11.0483
▁отнял	-11.0483
тал	-11.0483
▁окончательно	-11.0484
tiva	-11.0486
▁установил	-11.0487
▁валом	-11.0487
▁большом	-11.0487
▁называть	-11.0489
▁consulares	-11.049
▁избраны	-11.0491
▁крест	-11.0493
▁Var	-11.0495
▁чьей	-11.0495
▁En	-11.0496
еб	-11.0496
▁possumus	-11.0497
ющиеся	-11.0497
▁apparatu	-11.0498
▁Силан	-11.05
▁datus	-11.0503
▁multitudinis	-11.0503
▁ripam	-11.0504
▁сообщили	-11.0504
fr	-11.0507
▁спокойствие	-11.0509
дали	-11.0514
▁militiam	-11.0515
▁amare	-11.0516
ющим	-11.0523
слав	-11.0524
▁книге	-11.0524
▁talem	-11.0525
▁necem	-11.0526
▁судить	-11.0528
▁prohibere	-11.053
▁требовали	-11.0532
▁praestare	-11.0533
▁cursum	-11.0535
▁alto	-11.0535
чувств	-11.0537
▁uictis	-11.0538
▁telis	-11.0539
▁solita	-11.0539
idis	-11.054
▁tradit	-11.0542
чно	-11.0545
▁Be	-11.0546
▁femina	-11.0547
▁miserunt	-11.0549
▁poenae	-11.055
▁Etruscis	-11.0552
▁годов	-11.0554
▁sacerdot	-11.0555
▁veter	-11.0558
▁громко	-11.0559
▁слог	-11.056
▁Оба	-11.0561
▁tribunali	-11.0564
▁fames	-11.0565
▁приход	-11.0566
▁tantis	-11.0568
tabat	-11.0568
▁Africae	-11.0569
▁principe	-11.0571
issimum	-11.0573
▁государством	-11.0574
▁meminisse	-11.0575
▁procura	-11.0576
▁insigne	-11.0579
▁сход	-11.0583
▁maioris	-11.0586
▁vocat	-11.059
hoc	-11.0591
▁Null	-11.0592
▁situm	-11.0594
▁состоя	-11.0599
▁cupi	-11.0602
▁Min	-11.0603
▁conserva	-11.0605
▁reuoca	-11.0609
нских	-11.061
▁Ia	-11.0613
▁domina	-11.0615
▁уничтожен	-11.0616
▁тур	-11.0616
▁legato	-11.0623
▁ignora	-11.0624
мар	-11.0628
▁выбрать	-11.063
▁Sabini	-11.0635
▁quies	-11.0637
▁Ali	-11.064
cedat	-11.0642
▁faciet	-11.0642
Circa	-11.0643
ron	-11.0648
▁congrega	-11.0649
▁верно	-11.065
▁celeritate	-11.0652
▁aucta	-11.0652
▁tribunicia	-11.0656
чер	-11.0663
▁ueritate	-11.0667
ложив	-11.0668
▁отправля	-11.0669
▁Эпикур	-11.067
▁велик	-11.0671
▁praetori	-11.0672
▁новым	-11.0673
lae	-11.0674
тан	-11.0675
▁matri	-11.0678
шу	-11.068
▁crede	-11.068
▁observa	-11.068
▁расположение	-11.0686
▁Пере	-11.0687
eundum	-11.0691
▁tra	-11.0692
▁uerbo	-11.0692
▁вниз	-11.0692
реш	-11.0692
▁Urb	-11.0693
▁считая	-11.0695
▁дому	-11.0697
гер	-11.07
жил	-11.0708
▁пожалуй	-11.0708
▁плащ	-11.0708
▁discipuli	-11.0708
▁edicto	-11.0708
▁electus	-11.0708
▁plerisque	-11.0708
▁societas	-11.0708
▁могущество	-11.0708
▁побережье	-11.0708
▁subsidio	-11.0708
▁жертвенник	-11.0708
▁Philippus	-11.0708
▁vallo	-11.0708
▁Сервилий	-11.0708
▁озера	-11.0708
▁Люди	-11.0709
▁решению	-11.0709
▁studium	-11.0709
▁поверить	-11.0709
▁praebuit	-11.0709
▁Нью	-11.0709
▁везде	-11.071
▁creari	-11.071
▁довольству	-11.071
▁damno	-11.071
▁собрании	-11.071
▁potissimum	-11.071
▁peperit	-11.071
▁manere	-11.0711
▁pondo	-11.0711
▁прийти	-11.0712
▁лагерю	-11.0712
рит	-11.0712
▁ветер	-11.0713
▁fratribus	-11.0713
▁избегать	-11.0713
▁quandoque	-11.0714
▁miseri	-11.0715
▁ищет	-11.0716
▁sceleris	-11.0717
▁mortalium	-11.0718
▁участь	-11.0718
▁Hor	-11.0719
▁представлен	-11.0719
▁единственным	-11.072
илось	-11.072
▁обиды	-11.0721
tar	-11.0721
▁iacere	-11.0721
итал	-11.0723
▁malorum	-11.0724
▁играх	-11.0724
▁намерения	-11.0727
▁saluta	-11.0727
▁pertinere	-11.0728
▁penetra	-11.073
▁знамен	-11.0731
verte	-11.0731
▁finitimis	-11.0731
▁стену	-11.0733
▁хвалят	-11.0734
ставался	-11.0735
▁обстоятельствах	-11.0736
есть	-11.0737
▁подошел	-11.0738
▁утверждает	-11.074
▁Tiberii	-11.0741
селение	-11.0742
▁посольства	-11.0743
▁Situ	-11.0746
▁Кв	-11.0747
▁храмы	-11.0752
▁trium	-11.0752
▁dole	-11.0752
▁семейства	-11.0755
▁управление	-11.0755
▁стр	-11.0758
▁commenda	-11.076
▁многими	-11.0761
▁определен	-11.0763
▁ir	-11.0766
cubi	-11.0768
uros	-11.0768
▁Etruriae	-11.077
▁гр	-11.0778
задолго	-11.078
▁различны	-11.078
▁Суд	-11.0781
▁судов	-11.0784
▁exitus	-11.0785
▁usurpa	-11.0786
▁вос	-11.0786
▁cladem	-11.0789
quidem	-11.0794
▁обвиня	-11.0798
▁боево	-11.0801
▁Dies	-11.0802
stern	-11.0803
▁служит	-11.0805
ею	-11.0805
дар	-11.0805
▁datis	-11.0808
▁praedi	-11.0809
▁блажен	-11.0812
▁большими	-11.0816
▁seditioni	-11.0817
▁ambula	-11.0819
ff	-11.0822
▁ignis	-11.0826
▁uenisset	-11.0828
▁praefer	-11.0829
▁Campanis	-11.0837
▁gradu	-11.0837
▁император	-11.0838
▁наруша	-11.084
▁повели	-11.0847
▁desidera	-11.0853
▁creata	-11.0854
▁трудов	-11.086
▁склон	-11.0864
бил	-11.0871
ult	-11.0872
ивает	-11.088
▁corpori	-11.088
▁oculi	-11.0882
▁соглас	-11.0883
▁meas	-11.0883
▁месяц	-11.0884
▁appellata	-11.0885
▁r	-11.0889
▁господин	-11.0893
▁barbari	-11.0893
▁Etrusci	-11.0894
▁reum	-11.0895
▁предоставил	-11.0896
▁созна	-11.0897
▁дают	-11.0899
arius	-11.0902
▁напал	-11.0908
▁magnae	-11.0909
▁Cla	-11.0916
▁terras	-11.0916
▁приближа	-11.0917
▁refer	-11.0918
▁Vnd	-11.0918
▁Ecclesia	-11.0919
ige	-11.0921
▁parata	-11.0922
▁требования	-11.0924
чат	-11.0925
ham	-11.0928
▁пр	-11.093
▁certior	-11.093
mittere	-11.0932
▁вражеско	-11.0933
▁неудач	-11.0933
аф	-11.0934
▁del	-11.0936
▁гражданско	-11.0939
▁порок	-11.094
▁собрания	-11.0942
▁календ	-11.0944
▁ingenia	-11.0946
▁Unioni	-11.0947
▁uestigi	-11.0947
▁Чере	-11.0947
▁бедность	-11.0949
▁получает	-11.0949
▁холод	-11.0949
ays	-11.0955
▁собра	-11.0955
▁писатель	-11.0958
▁немногих	-11.0958
▁сотворил	-11.0958
▁юноши	-11.0958
▁коротко	-11.0958
▁Капуи	-11.0958
▁Drusus	-11.0958
▁spatia	-11.0958
▁minimum	-11.0958
▁possis	-11.0958
▁говоришь	-11.0958
▁diligentia	-11.0959
▁sexaginta	-11.0959
▁impedimenta	-11.0959
▁praeceps	-11.0959
▁obsidibus	-11.0959
▁Hinc	-11.096
▁aliquamdiu	-11.096
▁вернее	-11.096
▁confecto	-11.096
▁собственного	-11.0961
▁adiuu	-11.0961
▁censuit	-11.0961
▁Великобритании	-11.0961
▁propterea	-11.0961
▁тремя	-11.0962
▁vivunt	-11.0962
▁Именно	-11.0962
▁edidit	-11.0962
ona	-11.0964
кие	-11.0964
▁iussisset	-11.0965
нести	-11.0966
▁крепко	-11.0967
▁sensit	-11.0968
▁perpetuum	-11.0969
▁lectica	-11.0969
▁живых	-11.0973
коп	-11.0974
▁провинциях	-11.0974
▁линии	-11.0974
▁театр	-11.0974
▁dederunt	-11.0974
ибо	-11.0976
▁беды	-11.0976
▁официально	-11.0978
▁собственные	-11.0978
▁honora	-11.098
▁vigilia	-11.098
▁поток	-11.0981
▁gestis	-11.0982
▁inquam	-11.0983
▁Marcius	-11.0984
▁lacrimas	-11.0984
▁tyranni	-11.0989
▁считается	-11.0991
▁numeri	-11.0991
щему	-11.0992
ulis	-11.0993
▁equorum	-11.0993
▁spectare	-11.0996
▁благословил	-11.0996
▁Albano	-11.0997
▁захватили	-11.0998
▁занять	-11.1
▁тогу	-11.1002
▁invidiam	-11.1003
ibusque	-11.1005
▁militaria	-11.1008
▁Gaium	-11.1009
▁Tre	-11.101
▁Gu	-11.101
▁народные	-11.1011
Может	-11.1016
▁Твоем	-11.1017
▁diuina	-11.1018
▁ful	-11.1021
▁l	-11.1022
дес	-11.1023
▁Il	-11.1023
▁sortem	-11.1024
▁aedes	-11.1025
▁мальчик	-11.1026
▁philosophiae	-11.1027
▁бегством	-11.1028
▁казн	-11.1033
ступают	-11.1037
▁создания	-11.1037
мент	-11.1037
ix	-11.1038
▁consci	-11.1039
▁aff	-11.1039
▁iusto	-11.104
телем	-11.1042
▁Institut	-11.1043
▁cit	-11.1046
▁Ту	-11.1046
▁Пред	-11.1046
моему	-11.1047
▁commeatu	-11.1048
▁luna	-11.1049
▁noli	-11.105
▁mul	-11.1051
▁misericordiam	-11.1055
▁ceteras	-11.1056
значить	-11.1057
▁fossa	-11.1058
Quid	-11.1058
▁venisset	-11.1058
▁receptu	-11.1059
▁целом	-11.1059
▁vetus	-11.1065
▁quaecumque	-11.1069
▁Без	-11.1071
▁moles	-11.1071
раду	-11.1076
▁мятежа	-11.1077
оставляет	-11.1082
рик	-11.1082
▁строго	-11.1087
▁чувств	-11.1088
▁maximis	-11.1088
▁перестал	-11.1088
▁жили	-11.1089
▁iubent	-11.1089
▁tabula	-11.1094
▁проход	-11.1094
▁трибуна	-11.1094
▁дик	-11.1095
▁impar	-11.1098
▁euentu	-11.1098
▁veniam	-11.1098
tionum	-11.1103
▁turpi	-11.1103
▁incipit	-11.1106
▁insulas	-11.1113
▁utuntur	-11.1116
▁triumpho	-11.1119
▁planeta	-11.112
▁возраст	-11.1121
кв	-11.1124
▁мальчика	-11.1127
▁царства	-11.1129
▁fict	-11.113
▁superbia	-11.1131
▁воин	-11.1132
▁рядов	-11.1134
▁Th	-11.1134
▁постиг	-11.1134
ган	-11.1135
▁historia	-11.1135
▁usi	-11.1135
▁opinio	-11.1135
▁quaeris	-11.1137
▁morbi	-11.114
▁marito	-11.114
cli	-11.114
▁mortui	-11.114
▁gladio	-11.1141
▁справедливость	-11.1141
▁certi	-11.1142
▁освободить	-11.1143
▁pauor	-11.1148
▁eae	-11.115
дель	-11.1151
▁Alii	-11.1157
dia	-11.1158
▁dec	-11.1159
▁Лепид	-11.116
▁расп	-11.116
▁жестоко	-11.1163
▁aegro	-11.1166
орк	-11.1168
▁vasta	-11.1168
▁захвачен	-11.1169
▁pauper	-11.117
▁Дух	-11.1172
▁quarta	-11.1172
▁Iaponia	-11.1176
mor	-11.1181
▁militia	-11.1182
▁ruina	-11.1182
▁начальника	-11.1182
▁Scipione	-11.1185
▁тяжко	-11.1185
▁Цицерон	-11.1188
▁Божие	-11.1189
▁India	-11.1189
▁vale	-11.119
▁fugere	-11.119
pra	-11.1191
▁гнева	-11.1192
▁учит	-11.1193
▁наказание	-11.1195
▁позволял	-11.1196
▁участвовал	-11.1197
endis	-11.1198
▁лад	-11.1201
▁братья	-11.1201
▁милосердие	-11.1201
vel	-11.1203
▁pulsa	-11.1204
▁бесформенн	-11.1206
▁incipi	-11.1206
ert	-11.1214
▁Sententia	-11.1215
▁magnifica	-11.1215
▁pridie	-11.1215
▁simplici	-11.1215
▁titulo	-11.1215
▁ualde	-11.1215
▁uerecundia	-11.1215
▁Агриппины	-11.1215
▁Катилина	-11.1215
▁Отсюда	-11.1215
▁Франции	-11.1215
▁накануне	-11.1215
▁отечества	-11.1215
▁отношении	-11.1215
▁убийства	-11.1215
▁фортуна	-11.1215
▁вождей	-11.1215
▁Юлия	-11.1215
▁praemiis	-11.1215
▁камень	-11.1215
▁гонцов	-11.1215
▁laetus	-11.1215
▁Simul	-11.1215
▁дружбу	-11.1215
▁движения	-11.1215
▁Papirius	-11.1215
▁дружбе	-11.1215
▁желать	-11.1215
▁юности	-11.1215
▁posthac	-11.1215
▁просьбой	-11.1216
▁turpe	-11.1217
▁Каждый	-11.1217
▁спасения	-11.1217
▁оставались	-11.1217
▁pedum	-11.1217
▁жестокости	-11.1217
▁выходит	-11.1217
▁terris	-11.1217
▁прошу	-11.1217
▁successit	-11.1217
▁отказаться	-11.1219
▁concessit	-11.1219
▁заниматься	-11.1219
▁слезами	-11.1219
▁шло	-11.1219
водить	-11.122
▁приходилось	-11.122
▁perpetua	-11.1222
▁второе	-11.1222
▁appareret	-11.1223
▁водой	-11.1223
▁librum	-11.1224
▁senatores	-11.1225
▁награды	-11.1225
▁verborum	-11.1225
▁толпе	-11.1227
▁deserta	-11.1227
▁нападения	-11.1228
▁legatorum	-11.1229
▁Сто	-11.123
▁propior	-11.123
▁aperto	-11.123
sen	-11.1232
▁Quinctium	-11.1233
▁dedisti	-11.1233
▁lapidem	-11.1235
▁веры	-11.1237
▁uictorem	-11.1237
▁principium	-11.1237
▁молчание	-11.1238
▁congru	-11.1238
▁negare	-11.1238
inae	-11.1239
▁perniciem	-11.1239
▁sacris	-11.124
носят	-11.124
▁instituta	-11.1241
▁Ге	-11.1241
▁copiarum	-11.1242
▁влиянием	-11.1242
cet	-11.1243
▁vic	-11.1243
▁Neronem	-11.1243
▁dimica	-11.1244
▁Фа	-11.1244
▁всякому	-11.1246
▁вопросы	-11.1247
ator	-11.1248
▁рожден	-11.125
▁легат	-11.1253
▁подверга	-11.1256
▁Силана	-11.1256
▁pueri	-11.1256
▁родов	-11.1258
▁volo	-11.1258
▁ignes	-11.1259
▁vino	-11.1259
onum	-11.1259
▁друзьями	-11.1261
elle	-11.1266
▁equitem	-11.1266
▁Poenos	-11.1267
▁избрал	-11.1267
▁груди	-11.1268
▁Neronis	-11.1268
▁высшее	-11.127
▁portus	-11.127
▁aestima	-11.1271
▁uindica	-11.1275
▁oper	-11.1275
▁agrorum	-11.1278
▁positum	-11.1278
▁facienda	-11.1279
▁перенес	-11.1281
▁benedic	-11.1287
▁reditus	-11.1288
▁сохранил	-11.1289
▁Antonio	-11.1289
▁nuntiis	-11.1291
▁equitatus	-11.1294
▁laudem	-11.1294
▁erra	-11.1295
▁острове	-11.1296
▁передать	-11.1297
▁XX	-11.1298
▁Graecis	-11.1301
▁significat	-11.1301
▁ictus	-11.1304
venit	-11.1305
▁radi	-11.131
▁Вар	-11.1312
Как	-11.1312
gar	-11.1315
▁sciret	-11.1317
▁мужи	-11.1319
▁семьи	-11.1322
▁rari	-11.1324
eth	-11.1325
cle	-11.1327
▁разда	-11.1327
▁зрелища	-11.1327
ile	-11.1332
▁liberali	-11.1332
нн	-11.1332
▁пить	-11.1332
ting	-11.1336
▁возник	-11.1342
▁equi	-11.1342
ений	-11.1343
▁privata	-11.1344
мон	-11.1349
▁peteret	-11.135
▁ali	-11.1351
ienses	-11.1356
▁Sta	-11.1365
▁Regi	-11.1365
▁profer	-11.1377
▁Пр	-11.1377
▁требовал	-11.1377
▁тыла	-11.1379
▁canta	-11.1382
▁ingredi	-11.1384
ire	-11.1388
▁videret	-11.1389
▁templi	-11.139
▁strat	-11.1393
▁obsess	-11.1394
▁Fu	-11.1394
▁разбит	-11.1394
▁веру	-11.1394
▁armata	-11.1396
▁Gr	-11.1401
▁Graeca	-11.1402
▁восстановил	-11.1403
▁testa	-11.1404
▁effectu	-11.1405
▁habuisse	-11.1405
▁открытом	-11.1414
▁рано	-11.1418
▁поставлен	-11.1421
▁virtutes	-11.1423
▁считали	-11.1425
ступать	-11.1426
▁antiqui	-11.1426
amur	-11.1431
▁переправ	-11.1431
▁patientia	-11.1432
▁ров	-11.1436
▁семья	-11.1436
гнать	-11.144
▁transi	-11.1441
▁последовал	-11.1442
anenses	-11.1451
▁captam	-11.1452
▁Ru	-11.1455
err	-11.1457
aeque	-11.146
▁сохраня	-11.1461
итесь	-11.1465
▁страсть	-11.1468
▁Ga	-11.1468
▁voces	-11.1468
▁uolunt	-11.147
enter	-11.147
?»	-11.1471
▁uiu	-11.1473
▁uolu	-11.1474
▁Cy	-11.1474
▁aeternum	-11.1478
▁ancipiti	-11.1478
▁campum	-11.1478
▁identidem	-11.1478
▁muliebri	-11.1478
▁necessario	-11.1478
▁nuntius	-11.1478
▁suffragium	-11.1478
▁supervacua	-11.1478
▁Этрурии	-11.1478
▁гавань	-11.1478
▁захочет	-11.1478
▁приближении	-11.1478
▁фортуны	-11.1478
▁шестьдесят	-11.1478
▁этрусков	-11.1478
▁amisso	-11.1478
▁optime	-11.1478
▁uestrum	-11.1478
▁детям	-11.1478
▁надеяться	-11.1478
▁сестры	-11.1478
▁equum	-11.1478
▁нужен	-11.1478
▁читать	-11.1478
▁пригласил	-11.1478
▁octoginta	-11.1478
▁безумие	-11.1478
▁Samnium	-11.1478
▁правления	-11.1478
▁чести	-11.1478
▁выслал	-11.1478
▁Варрон	-11.1478
▁опасностей	-11.1478
verbum	-11.1478
▁Против	-11.1479
▁arbitrium	-11.1479
▁umbra	-11.1479
▁боится	-11.1479
▁смятение	-11.1479
▁divitias	-11.1479
▁чья	-11.148
▁роман	-11.148
▁Drusi	-11.148
▁Капитолии	-11.148
▁merita	-11.148
▁Lu	-11.148
▁поддержку	-11.1481
▁Loth	-11.1481
▁Iulio	-11.1481
▁Unione	-11.1481
▁громким	-11.1482
▁iudices	-11.1482
▁docet	-11.1482
▁obiit	-11.1482
▁божественного	-11.1482
аны	-11.1482
▁oculorum	-11.1484
▁Одно	-11.1485
▁Человек	-11.1485
▁munera	-11.1486
▁толпой	-11.1486
▁superioribus	-11.1487
▁Эмилий	-11.1487
spectus	-11.1487
anda	-11.1488
▁произвел	-11.1488
▁прошлого	-11.1489
▁Cornelium	-11.1489
lan	-11.149
▁приступом	-11.149
▁pot	-11.1491
▁причиной	-11.1491
▁tectis	-11.1492
▁каждым	-11.1493
ём	-11.1494
▁единственное	-11.1494
▁наоборот	-11.1495
▁успехом	-11.1496
▁слышать	-11.1497
▁известии	-11.1499
▁вечер	-11.15
▁знание	-11.1502
displ	-11.1504
iores	-11.1505
▁aderat	-11.1507
▁modico	-11.1507
▁кара	-11.1509
cedebat	-11.151
▁uol	-11.151
▁praesentem	-11.151
abatur	-11.151
▁utitur	-11.1511
▁aditus	-11.1514
▁uniuersa	-11.1515
▁praef	-11.1519
▁concita	-11.1519
эт	-11.1519
▁Новы	-11.152
▁servos	-11.152
▁habes	-11.1522
▁inuidiam	-11.1522
▁президент	-11.1523
▁голосом	-11.1523
gna	-11.1524
▁parvu	-11.1524
▁науки	-11.1525
▁Fili	-11.1527
▁Aemilio	-11.1527
дом	-11.153
▁laudare	-11.153
▁составлен	-11.1532
▁interfici	-11.1534
▁aperi	-11.1536
▁Troia	-11.1537
▁cogit	-11.1538
▁думает	-11.1539
резать	-11.1539
нную	-11.154
▁fato	-11.1544
▁discere	-11.1545
цов	-11.1547
▁gradum	-11.1548
▁мор	-11.1549
▁defendi	-11.155
icis	-11.1551
▁triumphali	-11.1554
▁minorem	-11.1555
▁America	-11.1555
▁миром	-11.1559
Carthaginiensium	-11.156
бив	-11.1561
▁боевом	-11.1561
▁Газдрубала	-11.1562
чет	-11.1563
нес	-11.1563
▁genu	-11.1564
cedit	-11.1564
▁utram	-11.1565
▁слухи	-11.1565
▁оп	-11.1566
▁adsue	-11.157
▁делали	-11.1571
лета	-11.1572
▁разделил	-11.1576
▁vocant	-11.1576
▁Quidam	-11.1577
▁называли	-11.1579
▁молча	-11.1581
▁contentione	-11.1582
Non	-11.1584
▁recti	-11.1586
▁artem	-11.1587
▁началом	-11.1591
▁Noe	-11.1591
▁поэт	-11.1591
▁sermones	-11.1591
▁ponere	-11.1593
▁благом	-11.1595
▁lata	-11.1595
▁tristi	-11.1596
нят	-11.1598
▁Mus	-11.1599
▁Gen	-11.1602
luc	-11.1607
ito	-11.1607
▁secundam	-11.1613
diu	-11.1614
▁Tam	-11.1619
▁совета	-11.1619
▁iussis	-11.162
▁бога	-11.162
▁своею	-11.1621
▁Graeci	-11.1623
▁Джон	-11.1623
▁separa	-11.1623
▁открыты	-11.1623
▁случаю	-11.1624
asse	-11.1624
аются	-11.1624
▁lo	-11.1627
▁ueni	-11.1628
fect	-11.1631
arentur	-11.1632
▁Ло	-11.1635
faci	-11.1635
▁colonias	-11.1642
▁incolumi	-11.1643
▁св	-11.1648
▁горожан	-11.1649
▁груз	-11.1652
De	-11.1654
суди	-11.1655
▁iug	-11.1657
aretur	-11.1659
▁Os	-11.1662
▁milita	-11.1664
▁nouis	-11.1664
▁пара	-11.1664
▁pugnare	-11.1665
▁publici	-11.167
▁тверд	-11.1676
▁каждо	-11.1683
eg	-11.1683
endae	-11.1684
▁uicti	-11.1691
▁praecipua	-11.1692
▁laeti	-11.1692
ходить	-11.1692
▁fronte	-11.1697
▁armatis	-11.1697
▁Ти	-11.1699
▁visu	-11.1699
▁Mago	-11.1704
▁Carthagine	-11.1706
▁mercede	-11.1706
▁жене	-11.1709
▁известны	-11.1709
oris	-11.171
▁полагал	-11.1715
▁след	-11.1717
▁iuuen	-11.1718
▁волн	-11.1719
▁лето	-11.1719
▁величие	-11.1723
▁семи	-11.1723
▁appella	-11.1726
▁знач	-11.1726
▁Дж	-11.173
▁легата	-11.173
▁сравнени	-11.1733
▁плоть	-11.1734
▁origine	-11.1736
▁чувство	-11.1737
▁considera	-11.1737
▁принимает	-11.1738
▁сведения	-11.1739
▁capit	-11.1742
▁Гер	-11.1742
▁замуж	-11.1746
▁распространи	-11.1746
ворачива	-11.1747
▁adulescens	-11.1748
▁sestertium	-11.1748
▁Аттал	-11.1748
▁наслаждение	-11.1748
▁настойчиво	-11.1748
▁последних	-11.1748
▁сомнения	-11.1748
▁Postremo	-11.1748
▁falso	-11.1748
▁нарочно	-11.1748
▁наставленья	-11.1748
▁tenebras	-11.1748
▁pridem	-11.1748
▁Остров	-11.1748
▁Marcelli	-11.1748
▁немногие	-11.1748
▁momento	-11.1748
▁спасти	-11.1749
▁Узнав	-11.1749
▁tenebris	-11.1749
▁exploratores	-11.1749
▁transfuga	-11.1749
▁родители	-11.1749
▁anceps	-11.1749
▁totidem	-11.1749
▁officialis	-11.175
▁пу	-11.175
▁читал	-11.175
▁обычай	-11.175
▁опасаясь	-11.1751
▁появились	-11.1751
▁просьбы	-11.1751
▁совершить	-11.1751
▁нападение	-11.1751
▁осаду	-11.1752
▁pacto	-11.1752
▁Сульпиций	-11.1752
▁nominibus	-11.1753
▁praesentibus	-11.1754
▁tumulo	-11.1754
▁notitia	-11.1755
▁напрасно	-11.1755
▁свободных	-11.1755
▁вынести	-11.1755
▁servorum	-11.1755
▁obscura	-11.1755
▁praefectura	-11.1755
▁tueri	-11.1756
actum	-11.1756
▁pestilentia	-11.1757
▁recipere	-11.1757
▁Fuluio	-11.1757
▁чей	-11.1759
▁славой	-11.176
▁Tarquinius	-11.176
▁цель	-11.176
▁поручено	-11.1761
▁nobiscum	-11.1761
▁огнем	-11.1762
▁Этим	-11.1762
▁материал	-11.1763
▁Octobris	-11.1763
▁litterarum	-11.1763
тый	-11.1764
ista	-11.1765
▁comes	-11.1767
▁Macedoniam	-11.1768
▁Senatus	-11.1768
▁schola	-11.177
▁Gaio	-11.177
▁carmina	-11.177
дается	-11.1771
▁Германику	-11.1773
▁беда	-11.1783
▁coniuges	-11.1783
▁medicina	-11.1784
▁успели	-11.1784
▁ближайше	-11.1784
▁crebris	-11.1785
▁insignia	-11.1785
▁примеру	-11.1788
▁uictores	-11.1789
▁хочется	-11.1794
▁beati	-11.1795
▁театре	-11.1795
ring	-11.1797
▁Сер	-11.1797
чных	-11.1798
▁законом	-11.1799
▁уз	-11.18
дж	-11.1801
▁скал	-11.1802
▁affectus	-11.1802
▁явля	-11.1807
▁признал	-11.1807
▁secta	-11.1807
▁interfectis	-11.1809
▁imperatori	-11.1811
▁recipit	-11.1812
▁сбор	-11.1813
▁потеряли	-11.1813
▁lacum	-11.1813
posuit	-11.1816
▁полагают	-11.1817
ент	-11.1817
▁expeditione	-11.1819
▁laudes	-11.1819
▁каков	-11.182
▁взято	-11.182
▁fecere	-11.1824
▁littera	-11.1824
▁избавил	-11.1825
▁переход	-11.1825
смотр	-11.1826
▁usui	-11.1831
▁nonne	-11.1832
▁ниже	-11.1841
▁novam	-11.1842
▁equitatum	-11.1842
▁reditum	-11.1843
изнь	-11.1844
▁deducta	-11.1845
▁сп	-11.1846
▁regionem	-11.1847
▁высше	-11.1849
▁eaque	-11.185
W	-11.1859
пар	-11.186
▁mutare	-11.186
▁nostras	-11.1864
вр	-11.1864
ера	-11.1865
▁prouinciae	-11.1867
▁prodit	-11.1867
▁popularis	-11.1869
▁старейшина	-11.187
ionibus	-11.1873
▁приносит	-11.1874
▁victor	-11.1877
▁велико	-11.188
▁error	-11.1882
▁храбро	-11.1883
▁велика	-11.1883
derunt	-11.1884
▁orationem	-11.1886
alem	-11.1886
▁dedere	-11.189
nde	-11.1893
▁statione	-11.1894
▁Vin	-11.1896
▁жертв	-11.1899
давая	-11.1902
овали	-11.1902
hort	-11.1906
imum	-11.1906
▁aes	-11.1906
sidere	-11.1906
▁aede	-11.1909
ину	-11.1909
бывших	-11.191
сия	-11.1911
▁Ангел	-11.1912
ola	-11.1913
▁pronuntia	-11.1917
эр	-11.1917
разум	-11.1917
▁offer	-11.1929
▁novas	-11.193
▁amico	-11.1932
▁главн	-11.1942
▁перевод	-11.1943
▁uiro	-11.1946
▁Syria	-11.1946
▁privat	-11.1946
▁Sem	-11.1947
▁iuberet	-11.1951
▁virtuti	-11.1953
▁Cre	-11.1954
▁объявлен	-11.1959
▁deduc	-11.1965
▁iusti	-11.1967
▁ge	-11.1969
▁Мор	-11.197
▁бедствия	-11.197
▁дед	-11.1972
▁умнож	-11.1973
▁politica	-11.1983
вай	-11.1983
▁puta	-11.1985
▁обход	-11.1985
▁Гракх	-11.1987
▁попал	-11.1987
▁союза	-11.1989
ki	-11.199
▁Pompeio	-11.199
▁ваш	-11.1992
▁credi	-11.1992
▁navig	-11.1996
▁occasione	-11.1998
▁стрем	-11.2
▁sollemni	-11.2
▁достоинство	-11.2001
▁шут	-11.2005
▁Благо	-11.2007
гг	-11.2008
gens	-11.2013
ende	-11.2017
▁ложь	-11.2017
▁agunt	-11.202
▁famae	-11.2024
▁подчиня	-11.2025
▁ciuibus	-11.2026
▁coactus	-11.2026
▁lacrimis	-11.2026
▁nonnulla	-11.2026
▁stipendio	-11.2026
▁subsidium	-11.2026
▁восхваля	-11.2026
▁некоторым	-11.2026
▁полководец	-11.2026
▁полномочия	-11.2026
▁предыдущи	-11.2026
▁преследовать	-11.2026
▁распоряжа	-11.2026
▁самнитов	-11.2026
▁свобода	-11.2026
▁счастья	-11.2026
▁ignarus	-11.2026
▁удастся	-11.2026
▁Sancti	-11.2026
▁Царстви	-11.2026
▁жалованье	-11.2026
▁beatum	-11.2026
▁contingere	-11.2026
▁Romulus	-11.2026
▁заслуживает	-11.2026
▁intentus	-11.2026
▁tenebrae	-11.2026
▁Poenum	-11.2026
▁nefas	-11.2026
▁уничтожил	-11.2026
▁лежал	-11.2026
▁обыкновению	-11.2026
▁лежит	-11.2026
▁Francisc	-11.2026
▁Books	-11.2026
▁осмелился	-11.2026
▁бегства	-11.2027
▁Cotta	-11.2027
▁ferox	-11.2027
▁cupiditas	-11.2027
▁поразил	-11.2027
▁edictum	-11.2027
▁состояния	-11.2027
▁altius	-11.2027
▁apparet	-11.2027
▁agendum	-11.2027
▁футов	-11.2027
▁utrisque	-11.2027
▁certamina	-11.2027
▁dabo	-11.2028
вшую	-11.2028
▁Постумий	-11.2028
▁нужды	-11.2028
▁подарки	-11.2028
▁латинов	-11.2028
▁возвращения	-11.2028
▁puto	-11.2029
▁intenta	-11.2029
▁верности	-11.203
▁quendam	-11.203
▁книга	-11.203
▁Семпроний	-11.203
▁друзьям	-11.2032
▁Провинции	-11.2033
▁боясь	-11.2034
▁представил	-11.2035
▁dixisti	-11.2035
▁adfectus	-11.2035
▁Род	-11.2036
▁следующим	-11.2036
▁морю	-11.2036
▁Prius	-11.2037
▁отправились	-11.2039
▁требовать	-11.204
▁предложения	-11.204
ara	-11.2042
▁коней	-11.2043
▁даровал	-11.2046
▁хватает	-11.2048
▁работу	-11.205
▁praeteritum	-11.2053
▁полное	-11.2053
▁видят	-11.2054
▁царск	-11.2054
▁fecerit	-11.2055
▁грехи	-11.2056
▁priuatim	-11.2056
tyle	-11.2056
▁мужу	-11.2057
▁триумфальны	-11.2058
▁Asiae	-11.206
▁XII	-11.206
▁заключил	-11.206
▁простого	-11.2063
ивший	-11.2064
▁гражданами	-11.2064
icum	-11.2064
▁agminis	-11.2064
▁uenerat	-11.2065
нцев	-11.2065
▁победе	-11.2066
▁conp	-11.2067
▁ночно	-11.2068
▁quaestione	-11.207
▁VII	-11.2071
▁vestris	-11.2075
▁conspici	-11.2075
▁admone	-11.2082
▁scribit	-11.2083
▁построен	-11.2083
▁названием	-11.2088
несли	-11.2089
▁culpam	-11.2092
▁учен	-11.2095
▁всадник	-11.2096
her	-11.2097
▁epula	-11.2098
▁битва	-11.2101
▁acciperet	-11.2103
▁inopiam	-11.2109
▁victoriam	-11.2111
▁interfecto	-11.2111
get	-11.2112
▁fabula	-11.2119
▁bo	-11.2121
▁буря	-11.2122
▁трав	-11.2122
▁сражениях	-11.2123
cessit	-11.2124
▁coloniam	-11.2124
▁числом	-11.2125
▁amorem	-11.2131
vol	-11.2133
▁успешно	-11.2133
▁подверг	-11.2138
▁сердцем	-11.2139
▁iniit	-11.2141
▁щедро	-11.2143
▁называем	-11.2145
▁Iunio	-11.2147
ставив	-11.2147
▁л	-11.2147
▁ostendere	-11.2148
▁укреплен	-11.2149
▁quaestu	-11.2153
▁dir	-11.2156
▁vultu	-11.2157
ете	-11.2158
▁лишил	-11.2163
rn	-11.2168
▁cursus	-11.2168
▁ictu	-11.2169
вез	-11.2169
agina	-11.217
▁кости	-11.217
ill	-11.2172
▁sancti	-11.2173
▁dicto	-11.2174
▁пора	-11.2177
cesserat	-11.2178
▁gente	-11.2178
анцы	-11.2181
▁aderant	-11.2192
▁libidine	-11.2195
▁pr	-11.22
▁plurima	-11.22
ыш	-11.2206
▁auxilii	-11.2209
▁sp	-11.2209
▁praepara	-11.2209
aque	-11.221
зу	-11.2213
gr	-11.2214
▁clamorem	-11.2215
▁рад	-11.2215
ины	-11.2216
▁san	-11.2216
▁nolit	-11.2217
емая	-11.2217
▁Филиппа	-11.2219
▁lacu	-11.222
▁враждебны	-11.2223
▁offens	-11.2223
▁правом	-11.2223
▁creator	-11.2224
▁Col	-11.2225
ner	-11.2226
duxerunt	-11.2228
▁civitati	-11.2229
▁dictatura	-11.2231
▁reliquas	-11.2232
▁убито	-11.2234
▁слушал	-11.2244
▁хорош	-11.2249
▁sequenti	-11.2249
асс	-11.225
▁Ромул	-11.2252
▁process	-11.2253
▁сие	-11.2254
▁transfer	-11.2256
▁Quos	-11.2259
▁яд	-11.2263
▁dolo	-11.2271
▁Anglica	-11.2272
▁Лентул	-11.2273
▁Юпитер	-11.2275
▁посланны	-11.228
▁признак	-11.2281
▁землей	-11.2283
▁veri	-11.2285
▁corrupti	-11.229
▁machina	-11.2293
▁humanis	-11.2296
▁неизбежно	-11.2297
▁uic	-11.2297
▁arcu	-11.2297
▁недо	-11.2299
▁люб	-11.2299
▁удобно	-11.2302
▁зрелище	-11.2304
▁казнь	-11.2306
▁нев	-11.2307
spice	-11.2308
▁exire	-11.2308
▁perconta	-11.2308
▁Hippocrate	-11.2312
▁Philippum	-11.2312
▁adiecit	-11.2312
▁dioecesi	-11.2312
▁egregium	-11.2312
▁loquor	-11.2312
▁publicus	-11.2312
▁pulchra	-11.2312
▁sanguinis	-11.2312
▁secretum	-11.2312
▁servus	-11.2312
▁Большинство	-11.2312
▁Корбулон	-11.2312
▁Эпикид	-11.2312
▁врасплох	-11.2312
▁молебствие	-11.2312
▁наслаждений	-11.2312
▁поступки	-11.2312
▁судьбу	-11.2312
▁incerto	-11.2312
▁quotannis	-11.2312
▁secreto	-11.2312
▁Более	-11.2312
▁подумать	-11.2312
▁sustenta	-11.2312
▁колонии	-11.2312
▁природой	-11.2312
▁сожжен	-11.2312
▁шести	-11.2312
▁Dominum	-11.2312
▁dabat	-11.2312
▁потери	-11.2312
▁факт	-11.2312
▁praesto	-11.2312
▁undecim	-11.2312
▁istud	-11.2312
▁ferociter	-11.2312
▁строю	-11.2313
▁aerario	-11.2313
▁certaminibus	-11.2313
▁geruntur	-11.2313
кобы	-11.2314
▁канал	-11.2314
▁acriter	-11.2314
▁receperunt	-11.2314
▁послать	-11.2314
▁Volscorum	-11.2315
▁удалился	-11.2315
▁Campanorum	-11.2316
▁трое	-11.2316
▁исключением	-11.2316
▁videatur	-11.2317
▁ciuem	-11.2317
▁примерно	-11.2317
▁status	-11.2318
▁таков	-11.2319
▁obvia	-11.2319
▁pollicitus	-11.232
▁Veientes	-11.2321
▁orto	-11.2321
▁значение	-11.2322
▁aspici	-11.2323
▁смогли	-11.2323
▁великих	-11.2323
▁Verginius	-11.2324
▁математик	-11.2324
▁соответственно	-11.2324
▁Decius	-11.2324
▁облик	-11.2325
▁утром	-11.2325
dul	-11.2326
▁orator	-11.2326
▁altitudinem	-11.2327
▁similitudinem	-11.2329
▁tantus	-11.2331
▁многочисленные	-11.2331
▁nominatus	-11.2331
▁птицы	-11.2335
▁paratos	-11.2335
▁composito	-11.2336
▁exercitatione	-11.2337
▁priuata	-11.2337
▁Valerio	-11.2338
▁indicium	-11.2338
▁Ча	-11.2338
▁успел	-11.2339
▁uult	-11.234
▁претором	-11.234
▁север	-11.2342
▁amissis	-11.2343
▁sustin	-11.2343
▁angustias	-11.2343
▁duceret	-11.2345
луш	-11.235
разному	-11.2351
▁боялись	-11.2351
▁Syriae	-11.2352
нц	-11.2354
▁стенами	-11.2355
▁facilis	-11.2356
▁caro	-11.2356
▁mercedem	-11.2356
▁Franciae	-11.2358
▁месту	-11.236
▁mediocri	-11.2361
▁берегов	-11.2362
▁перевел	-11.2363
▁capitis	-11.2363
▁ole	-11.2367
▁actiones	-11.2367
▁tenent	-11.2368
uimus	-11.2369
rsus	-11.2371
▁priuatis	-11.2371
▁ман	-11.2371
▁решился	-11.2375
▁suscipi	-11.2377
бар	-11.238
pat	-11.2383
▁quamdiu	-11.2385
рас	-11.2385
ющую	-11.2385
▁g	-11.2386
▁выбирать	-11.2386
▁obici	-11.2386
▁давали	-11.2386
▁воинами	-11.2388
▁сайте	-11.2389
▁aquila	-11.2392
▁intenti	-11.2393
▁Es	-11.2393
▁accipit	-11.2394
пытались	-11.2394
ицы	-11.2395
▁veteres	-11.2396
▁aestus	-11.2396
▁вернул	-11.2399
▁понес	-11.2401
▁думали	-11.2401
▁крики	-11.2405
▁uenire	-11.2405
▁misere	-11.2406
▁Universita	-11.2408
▁contumelia	-11.2411
▁adempta	-11.2412
▁continenti	-11.2414
дру	-11.2416
▁transit	-11.2418
▁lib	-11.2418
▁conati	-11.2419
▁выходил	-11.2421
▁adfer	-11.2422
▁возда	-11.2422
▁университет	-11.2422
▁ciuitates	-11.2427
рн	-11.2427
▁ведут	-11.2427
▁auxiliis	-11.243
▁привык	-11.2431
▁repet	-11.2431
nec	-11.2434
esque	-11.244
Qua	-11.2441
▁on	-11.2441
▁призыва	-11.2444
ведь	-11.2445
▁Sin	-11.2447
▁recorda	-11.2453
▁высш	-11.2456
▁aestu	-11.2459
▁portae	-11.2462
spici	-11.2466
▁двину	-11.2468
звать	-11.2468
ступили	-11.2469
ub	-11.2469
▁singulas	-11.2473
▁ipsas	-11.2475
▁ripa	-11.2476
▁iniurias	-11.2477
▁continent	-11.2478
▁velit	-11.2479
▁proximos	-11.2481
▁uiola	-11.2483
tuli	-11.2485
▁Ев	-11.2485
ставлять	-11.2486
DG	-11.2489
lag	-11.249
▁distribu	-11.2492
▁уст	-11.2492
▁sapienti	-11.2492
▁чт	-11.2495
▁custodi	-11.2498
▁тысячу	-11.25
▁gaude	-11.2502
nata	-11.2503
▁бег	-11.2504
bal	-11.2508
▁огромн	-11.2509
щу	-11.2517
▁плав	-11.2517
▁inuidia	-11.2518
didit	-11.2528
▁искусств	-11.253
▁молодо	-11.253
▁nonnulli	-11.2531
▁coacti	-11.2532
▁aliqui	-11.2532
▁неприятельско	-11.2533
▁redde	-11.2534
Х	-11.2534
▁vetere	-11.2535
▁credebant	-11.2537
▁nu	-11.254
▁Сеян	-11.2541
▁получила	-11.2541
currere	-11.2541
▁salutare	-11.2544
▁reverti	-11.2551
▁contemptu	-11.2553
▁moram	-11.2553
▁Galba	-11.2554
cra	-11.2558
▁увидит	-11.256
▁передают	-11.2561
▁caritate	-11.2562
уя	-11.2568
▁pul	-11.2571
▁жалоб	-11.2571
▁шаг	-11.2571
емое	-11.258
▁Европе	-11.2583
▁Aegypt	-11.2583
▁deesse	-11.259
▁жажда	-11.259
▁decre	-11.259
▁вверх	-11.2591
▁domestica	-11.2591
▁тягот	-11.2592
▁машин	-11.2592
▁утверждал	-11.2596
▁atroci	-11.2596
▁заслугам	-11.2598
▁двига	-11.2599
▁interesse	-11.2601
ioni	-11.2601
▁tenebat	-11.2601
▁pauore	-11.2601
стре	-11.2601
stitisse	-11.2603
▁relega	-11.2604
▁immortales	-11.2606
▁mortuum	-11.2606
▁pecora	-11.2606
▁relictum	-11.2606
▁Корнелия	-11.2606
▁Почти	-11.2606
▁благодеяния	-11.2606
▁замешательство	-11.2606
▁надеялся	-11.2606
▁надлежит	-11.2606
▁означает	-11.2606
▁окрестности	-11.2606
▁отечество	-11.2606
▁присутствовал	-11.2606
▁сопровождени	-11.2606
▁sacrum	-11.2606
▁возьми	-11.2606
▁мужества	-11.2606
▁статую	-11.2606
▁впредь	-11.2606
▁желанию	-11.2606
▁forsitan	-11.2606
▁замыслы	-11.2606
▁слушать	-11.2606
▁камни	-11.2606
▁crimine	-11.2606
▁aerarium	-11.2606
▁следовать	-11.2606
▁tormenta	-11.2606
▁чужих	-11.2606
▁iniquo	-11.2606
▁испанцев	-11.2606
▁papa	-11.2606
▁constabat	-11.2606
▁державы	-11.2606
▁infesto	-11.2606
▁longo	-11.2606
▁бедности	-11.2607
▁общества	-11.2607
▁пользоваться	-11.2607
▁Germanicus	-11.2607
▁arbitrio	-11.2607
▁курию	-11.2607
▁cornibus	-11.2607
▁величайши	-11.2608
▁показалось	-11.2608
▁храбрости	-11.2608
▁iuvenes	-11.2608
▁предзнаменовани	-11.2608
▁euenit	-11.2608
▁iudicia	-11.2608
▁появи	-11.2609
▁occurrit	-11.2609
▁основ	-11.2609
▁сдались	-11.2609
▁остановились	-11.2609
▁количестве	-11.2609
dium	-11.261
▁Серви	-11.261
▁utrique	-11.2611
▁uirtus	-11.2611
▁meruit	-11.2612
▁окончании	-11.2612
▁общество	-11.2613
▁высоты	-11.2614
▁proficiscitur	-11.2614
▁поздно	-11.2614
▁рассчитывая	-11.2615
▁подобных	-11.2615
▁usitat	-11.2616
▁permisit	-11.2617
▁каждом	-11.2617
▁aeger	-11.2617
▁истине	-11.2617
▁incendium	-11.2617
▁processit	-11.2619
▁великого	-11.262
▁cognovit	-11.2621
▁assidue	-11.2622
▁alicuius	-11.2623
▁стенах	-11.2623
▁petenti	-11.2623
▁скажешь	-11.2623
▁nutri	-11.2625
▁границ	-11.2626
▁направлен	-11.2628
▁civis	-11.2629
▁Левин	-11.2632
▁amnem	-11.2635
▁istum	-11.2635
▁inuenio	-11.2637
▁habebatur	-11.2638
они	-11.2639
щей	-11.264
▁языком	-11.264
▁primos	-11.264
▁новой	-11.2644
▁Manlio	-11.2646
▁mensis	-11.2646
цем	-11.2648
▁ограничен	-11.2648
шел	-11.2649
▁поспешил	-11.2649
▁voca	-11.2651
▁благополучно	-11.2653
▁tranquill	-11.2653
▁fertur	-11.2654
tiae	-11.2654
▁transitu	-11.2656
▁defendere	-11.2657
▁sperare	-11.2657
ич	-11.2658
прям	-11.2658
▁Альб	-11.2659
▁dixerit	-11.2659
▁alta	-11.2661
▁Bi	-11.2661
▁lau	-11.2661
▁cornua	-11.2662
▁Карфагена	-11.2662
▁offend	-11.2663
▁сда	-11.2665
▁existima	-11.2665
▁operum	-11.2667
▁Agrippinam	-11.2668
▁медленно	-11.267
▁potentiam	-11.267
og	-11.267
лёт	-11.2673
▁Три	-11.2675
▁Были	-11.2677
▁особо	-11.2677
▁Io	-11.2679
▁comita	-11.268
▁vocavit	-11.2683
▁источника	-11.2684
▁prudentia	-11.2686
▁doloris	-11.2686
▁веков	-11.2687
▁переправил	-11.269
▁figura	-11.2693
▁incessit	-11.2693
ким	-11.2693
▁Pompeium	-11.2693
pes	-11.2693
▁бросить	-11.2693
▁audito	-11.2697
▁velis	-11.2698
▁quieta	-11.27
▁mulierum	-11.2701
плыв	-11.2703
▁создан	-11.2704
atae	-11.2706
▁Val	-11.2707
▁владе	-11.2707
▁consistere	-11.2711
▁вызывает	-11.2714
▁завет	-11.2719
gno	-11.2719
▁вон	-11.272
ический	-11.2723
▁побудил	-11.2724
▁дала	-11.2724
ывают	-11.2724
▁putat	-11.2726
▁совместно	-11.2727
ало	-11.2729
▁наблюда	-11.2731
▁Sol	-11.2733
▁ставит	-11.2734
bimus	-11.2734
тори	-11.2735
▁посвятил	-11.2735
▁uictoriae	-11.2736
вшемуся	-11.2737
▁fauore	-11.2742
▁Albani	-11.2742
Si	-11.2743
▁campos	-11.2744
▁воль	-11.2744
▁exist	-11.2745
▁иное	-11.2748
енья	-11.275
▁моими	-11.2754
▁uiris	-11.2758
▁nuntia	-11.276
cy	-11.2761
▁vesti	-11.2774
▁flagra	-11.2776
▁latus	-11.2777
чная	-11.2778
arii	-11.278
уль	-11.2781
▁полей	-11.2781
ёл	-11.2782
▁вызывал	-11.2784
падает	-11.2786
▁administra	-11.2788
бан	-11.2789
▁imagin	-11.2789
▁mole	-11.279
art	-11.2791
gerat	-11.2793
▁aduentu	-11.2793
▁поднима	-11.2795
нимал	-11.2796
▁Alia	-11.2797
▁frequen	-11.2799
iva	-11.2799
▁mentio	-11.28
▁dicerem	-11.2804
▁periculis	-11.2805
тки	-11.2809
▁nuntio	-11.2809
▁Hanno	-11.2811
▁parere	-11.2811
▁мягко	-11.2813
▁ignominia	-11.2814
▁пространстве	-11.2814
Н	-11.2815
▁уменьш	-11.2816
▁parlament	-11.2817
▁tempera	-11.2819
▁nuntii	-11.2819
правляется	-11.2822
▁concessa	-11.2822
▁убежден	-11.2823
illa	-11.2824
▁Europa	-11.2825
▁подчинен	-11.2825
ора	-11.2826
▁звон	-11.2826
▁decemuiri	-11.283
▁comm	-11.2831
▁зап	-11.2833
▁молитв	-11.2833
▁высоки	-11.2834
▁exempli	-11.2834
▁uideo	-11.2834
▁oblata	-11.2835
▁captae	-11.2838
▁muri	-11.2838
▁дев	-11.284
▁fert	-11.2842
missum	-11.2843
▁uer	-11.2844
▁quaestor	-11.2844
▁плеч	-11.2846
▁вынес	-11.2848
▁Appi	-11.2854
министр	-11.2859
▁натиск	-11.286
▁обвинен	-11.2861
▁Sardinia	-11.2862
▁mentes	-11.2862
▁Ha	-11.2865
▁Bal	-11.2865
▁aeterna	-11.2866
шение	-11.2867
▁удержал	-11.2872
▁долгое	-11.2875
▁Wi	-11.2875
▁остр	-11.2875
▁musica	-11.2877
лер	-11.2881
▁carcere	-11.2882
▁относящи	-11.2884
aut	-11.2885
▁торжественно	-11.2886
▁уступил	-11.2887
▁dant	-11.2889
▁peri	-11.2889
▁держит	-11.289
▁operi	-11.2891
▁urbana	-11.2892
▁половин	-11.2893
ницу	-11.2893
▁долгим	-11.2893
▁приходил	-11.2893
▁capto	-11.2896
▁скорбь	-11.2899
нной	-11.2899
▁cr	-11.29
▁грудь	-11.2901
▁rettuli	-11.2901
▁двум	-11.2902
▁sarcin	-11.2905
▁uias	-11.2906
▁грозит	-11.2908
держав	-11.2908
▁Crassus	-11.2909
▁Gracchus	-11.2909
▁Hierusalem	-11.2909
▁cecidisse	-11.2909
▁cibum	-11.2909
▁cives	-11.2909
▁falsum	-11.2909
▁flagitia	-11.2909
▁hercule	-11.2909
▁Гальба	-11.2909
▁Господу	-11.2909
▁Оттуда	-11.2909
▁бедствий	-11.2909
▁зависит	-11.2909
▁молодежи	-11.2909
▁небольшой	-11.2909
▁нумидийцев	-11.2909
▁переговоров	-11.2909
▁посмотреть	-11.2909
▁художник	-11.2909
▁praefectum	-11.2909
▁propalam	-11.2909
▁robore	-11.2909
▁silvis	-11.2909
▁theatrum	-11.2909
▁Позже	-11.2909
▁знати	-11.2909
▁происхождение	-11.2909
▁написано	-11.2909
▁Drusum	-11.2909
▁юношу	-11.2909
▁veneno	-11.2909
▁Кассия	-11.2909
▁ornamenta	-11.2909
▁suspecta	-11.2909
▁proprium	-11.2909
▁cupere	-11.2909
▁бегстве	-11.2909
▁auxit	-11.2909
▁sancta	-11.2909
▁aedificia	-11.2909
▁Seiani	-11.2909
▁пятьсот	-11.2909
▁окажется	-11.2909
▁случится	-11.2909
▁нравится	-11.2909
▁Можно	-11.2909
▁pectus	-11.2909
▁Лициний	-11.2909
▁Primus	-11.291
▁poterit	-11.291
▁efficere	-11.291
▁auctoritas	-11.291
▁четыреста	-11.291
▁quisquis	-11.2911
▁сходку	-11.2911
▁iuvenem	-11.2911
▁habemus	-11.2911
▁montium	-11.2911
▁Вол	-11.2911
▁Numeru	-11.2911
▁осталась	-11.2911
▁Textus	-11.2912
▁convenit	-11.2912
▁tunica	-11.2912
▁Etenim	-11.2912
▁вошли	-11.2912
▁institutum	-11.2912
▁вершины	-11.2912
▁Quidquid	-11.2913
▁двери	-11.2913
▁dicendi	-11.2913
▁reliquias	-11.2914
▁sacrifica	-11.2914
▁деньгами	-11.2914
▁damnatus	-11.2916
оенную	-11.2916
▁Гаем	-11.2916
miserat	-11.2917
▁Americanus	-11.2917
уют	-11.2917
▁легатов	-11.2917
▁старые	-11.2917
▁prorsus	-11.2917
▁дав	-11.2921
▁Numidae	-11.2922
ители	-11.2922
▁loquitur	-11.2922
▁Tribuni	-11.2922
▁Christi	-11.2923
piam	-11.2924
▁относится	-11.2924
▁suspicione	-11.2924
▁uirorum	-11.2925
▁огромные	-11.2926
▁требуют	-11.2926
▁credunt	-11.2926
▁monstra	-11.2927
▁кораблями	-11.2927
▁слезы	-11.2927
▁человеке	-11.2928
▁amat	-11.293
▁приносил	-11.293
▁testis	-11.2931
▁habiturum	-11.2931
▁Ostia	-11.2931
▁раны	-11.2932
▁relinquere	-11.2933
▁беду	-11.2935
▁обруши	-11.2935
▁dignitatis	-11.2936
Да	-11.2937
▁dixisset	-11.2937
▁reddit	-11.2937
▁знамения	-11.2937
▁прочно	-11.2938
▁Secundu	-11.2938
▁obru	-11.2938
var	-11.294
▁ignem	-11.2941
▁saevi	-11.2941
▁впечатление	-11.2942
▁meliorem	-11.2943
▁maiestatem	-11.2948
▁Quidni	-11.2949
▁хлебом	-11.295
▁остановил	-11.2953
ath	-11.2953
▁libidinem	-11.2954
▁Europae	-11.2956
▁Iovis	-11.2956
бой	-11.2957
▁вашей	-11.2957
▁рабами	-11.2958
▁гражданство	-11.2959
▁irent	-11.2961
▁nobilis	-11.2962
▁Иакову	-11.2964
▁зас	-11.2967
▁regiam	-11.2967
▁сообщают	-11.2968
▁fecissent	-11.2969
▁navis	-11.2969
▁поняли	-11.297
▁Первым	-11.297
▁Пер	-11.2971
ват	-11.2971
▁побед	-11.2971
▁Оста	-11.2972
▁семье	-11.2973
▁форума	-11.2974
ывать	-11.2976
▁посты	-11.2976
▁dignitatem	-11.2981
уз	-11.2982
▁население	-11.2983
▁VIII	-11.2984
▁geri	-11.2984
▁moderat	-11.2987
▁suff	-11.2987
▁victoriae	-11.2987
▁religionem	-11.2988
▁queri	-11.2988
▁Руф	-11.2991
das	-11.2993
▁губ	-11.2994
▁несправедливо	-11.2996
▁искали	-11.2997
▁subi	-11.2999
▁cenam	-11.2999
▁счастливы	-11.3
▁Sabinis	-11.3001
▁провели	-11.3001
▁paria	-11.3006
▁perdit	-11.3007
▁Иосифа	-11.3009
▁adhib	-11.301
▁Quinctio	-11.3011
▁consola	-11.3011
▁боевы	-11.3014
▁чел	-11.3016
логи	-11.3018
▁обеща	-11.3022
▁Mens	-11.3023
▁гада	-11.3024
scribe	-11.3024
▁uter	-11.3026
▁consenti	-11.3028
▁видимо	-11.3028
▁mod	-11.3032
▁Петр	-11.3035
▁Has	-11.3039
▁предостави	-11.304
▁получен	-11.3041
▁San	-11.3041
▁oppidis	-11.3041
▁despera	-11.3044
lecti	-11.3047
▁Гу	-11.3048
▁uirtutem	-11.3049
▁держа	-11.3053
▁Er	-11.3055
шёл	-11.3056
▁quinta	-11.3057
▁прием	-11.3059
▁futuram	-11.306
▁doctor	-11.3063
▁aura	-11.3065
▁reddita	-11.3065
▁Dom	-11.3071
▁ду	-11.3071
▁factio	-11.3074
▁cogitation	-11.3077
▁замет	-11.3079
▁Буд	-11.308
▁несли	-11.3082
▁сем	-11.3083
▁принят	-11.3083
▁голов	-11.3085
▁доход	-11.3087
▁uet	-11.3088
▁censu	-11.3091
кую	-11.3091
▁признан	-11.3095
▁потеряв	-11.3095
сом	-11.3096
▁dextera	-11.3096
▁patent	-11.3103
▁meliora	-11.3103
данный	-11.3104
▁способны	-11.3106
▁Antoni	-11.3107
▁обид	-11.3108
veris	-11.3112
▁iras	-11.3113
▁longinqua	-11.3114
▁договора	-11.3115
вот	-11.3117
▁Больш	-11.3117
▁dictu	-11.3119
▁formae	-11.3122
ающий	-11.313
▁proditione	-11.3131
▁прекрасно	-11.3133
▁dimitte	-11.3134
ори	-11.3136
▁Britannia	-11.3137
▁uad	-11.3138
▁priores	-11.3152
▁Fund	-11.3153
▁divid	-11.3153
везли	-11.3154
▁Том	-11.3155
liga	-11.3156
▁noce	-11.3157
▁сред	-11.3159
▁patricii	-11.3161
▁iamque	-11.3161
▁pristin	-11.3163
▁домов	-11.3163
▁planta	-11.3163
▁Лаван	-11.3166
▁похорон	-11.3168
▁trucida	-11.3169
▁continuo	-11.3171
▁consum	-11.3172
▁laude	-11.3173
▁finita	-11.3173
▁расчет	-11.3177
▁Верцингеториг	-11.3182
▁multiplica	-11.3183
▁недавне	-11.3185
▁соблазн	-11.3187
дите	-11.3187
▁союзникам	-11.3187
▁полезно	-11.3189
menti	-11.3189
▁разреши	-11.319
▁стремительно	-11.319
▁восстановлен	-11.3191
latum	-11.3191
▁испански	-11.3192
▁убиты	-11.3193
▁отдыха	-11.3194
▁censura	-11.3194
дол	-11.3196
▁concupi	-11.3196
▁Одни	-11.3197
▁брать	-11.3197
enitus	-11.3205
pre	-11.3206
▁решить	-11.3211
▁наставления	-11.3212
▁копья	-11.3212
▁храбрость	-11.3213
▁домога	-11.3218
▁безнаказанно	-11.322
▁noctu	-11.3221
крылись	-11.3221
▁argentum	-11.3221
▁crebro	-11.3221
▁investiga	-11.3221
▁plerosque	-11.3221
▁prodigia	-11.3221
▁strenu	-11.3221
▁tormentis	-11.3221
▁Аппия	-11.3221
▁несчастья	-11.3221
▁последнее	-11.3221
▁происхождения	-11.3221
▁разрешения	-11.3221
▁собственную	-11.3221
▁удовольствия	-11.3221
▁saxa	-11.3221
▁Сервилия	-11.3221
▁список	-11.3221
▁статуя	-11.3221
▁daemoni	-11.3221
▁избрать	-11.3221
▁dederat	-11.3221
▁радоваться	-11.3221
▁senex	-11.3221
▁subiecta	-11.3222
▁reperta	-11.3222
▁надеясь	-11.3222
▁частей	-11.3222
▁socius	-11.3222
▁imago	-11.3222
▁adorti	-11.3222
▁abhorre	-11.3222
▁частных	-11.3222
▁linea	-11.3222
▁Castra	-11.3222
▁хватало	-11.3222
▁cladibus	-11.3223
▁civibus	-11.3223
▁подозрения	-11.3223
▁терпеливо	-11.3223
▁consedit	-11.3223
▁inventa	-11.3223
▁impigre	-11.3223
▁возвращении	-11.3224
▁placebat	-11.3224
▁подобает	-11.3224
ивать	-11.3224
▁мужественно	-11.3224
▁effusi	-11.3225
▁uoluntas	-11.3225
▁cohortium	-11.3225
▁saecula	-11.3225
▁третьего	-11.3226
▁uictus	-11.3227
▁principali	-11.3227
▁весел	-11.3227
▁выстроил	-11.3227
▁plenus	-11.3228
▁adfecta	-11.3228
▁Sam	-11.3228
▁reduxit	-11.3229
▁montis	-11.3229
▁оскорбление	-11.3229
▁ha	-11.3229
▁школе	-11.3229
▁vinum	-11.3229
narum	-11.323
▁мужем	-11.323
▁Maximus	-11.3231
▁прошли	-11.3231
▁exsilium	-11.3231
▁отличия	-11.3231
▁Iunius	-11.3232
▁magistri	-11.3232
▁excepit	-11.3232
▁попытки	-11.3233
▁sacerdotes	-11.3233
▁incredibili	-11.3233
▁Мин	-11.3233
▁высокого	-11.3234
▁свободно	-11.3234
▁incol	-11.3234
▁Ап	-11.3235
▁жалобы	-11.3236
▁praeceptis	-11.3237
▁vocatur	-11.3237
▁вашего	-11.3237
▁conloquium	-11.3238
▁допустить	-11.3238
▁Ian	-11.3238
▁cognitum	-11.3238
▁создать	-11.3241
▁принесет	-11.3242
▁rettulit	-11.3242
▁cedere	-11.3242
▁mundum	-11.3244
▁mulieres	-11.3244
▁находил	-11.3244
vir	-11.3245
▁держаться	-11.3245
▁infamia	-11.3246
▁cense	-11.3246
▁окружили	-11.3248
вил	-11.3248
▁Times	-11.3248
▁великие	-11.3249
▁cer	-11.325
▁изображение	-11.3252
▁operae	-11.3254
дела	-11.3256
иями	-11.3256
▁тел	-11.3257
▁иные	-11.3258
▁недостаточно	-11.3258
▁flor	-11.3259
▁admiratione	-11.3261
▁aquarum	-11.3263
▁Mer	-11.3265
▁отступили	-11.3266
ticae	-11.3267
▁potuisset	-11.3268
▁царски	-11.3268
▁coniunx	-11.3269
▁greges	-11.327
▁прихода	-11.327
етесь	-11.3273
▁silvas	-11.3274
▁Му	-11.3275
▁demonstra	-11.3283
▁Nos	-11.3289
▁diuis	-11.329
▁Рейна	-11.329
▁Vir	-11.3291
▁communem	-11.3291
ili	-11.3294
▁Latinos	-11.3295
▁Нему	-11.3295
issimis	-11.3296
▁sensum	-11.33
▁миг	-11.3301
▁cotidiana	-11.3303
▁раздач	-11.3304
▁uincere	-11.3305
▁долга	-11.3305
нт	-11.3305
▁Какой	-11.3306
кут	-11.3306
▁Тур	-11.3306
▁общин	-11.331
▁префекта	-11.3313
▁духов	-11.3314
▁rapta	-11.3314
▁lacus	-11.3315
▁приказа	-11.3316
▁обеспечи	-11.3317
▁illae	-11.3319
▁сенатор	-11.3321
▁брошен	-11.3321
▁обед	-11.3323
▁pleni	-11.3325
den	-11.3327
▁solu	-11.3329
лос	-11.333
nica	-11.3331
ates	-11.3335
▁автор	-11.3335
▁пола	-11.3336
▁такому	-11.3338
▁perire	-11.334
▁дорог	-11.3341
▁прозвище	-11.3343
▁выбрали	-11.3345
tico	-11.3349
iace	-11.335
▁вдали	-11.3351
аты	-11.3351
▁inane	-11.3353
▁continu	-11.3355
▁свойства	-11.3355
▁pueris	-11.3359
dendo	-11.336
▁dissimula	-11.3362
▁cultura	-11.3362
uisti	-11.3363
▁Vita	-11.337
▁copiam	-11.3371
шат	-11.3372
▁simus	-11.3372
▁specula	-11.3375
▁magisque	-11.3376
▁обряд	-11.3377
▁accepti	-11.3378
▁tales	-11.3379
▁sorti	-11.338
пан	-11.3384
▁возобнови	-11.3384
▁пожара	-11.3387
▁cela	-11.3389
▁главны	-11.339
▁propinquo	-11.339
падет	-11.3392
▁extr	-11.3393
▁divisa	-11.3394
che	-11.3398
▁dominis	-11.3413
▁pastor	-11.3415
▁Deo	-11.3417
▁cupiditate	-11.3418
▁maximam	-11.342
▁Пет	-11.3421
▁ног	-11.3421
▁consularis	-11.3422
нс	-11.3423
culis	-11.3425
bitis	-11.3428
▁seditione	-11.343
▁aequi	-11.3432
▁поднял	-11.3435
▁изменя	-11.3438
▁чер	-11.3439
▁oris	-11.3439
▁Mac	-11.3442
▁допустил	-11.3442
лит	-11.3443
latus	-11.3445
▁Mos	-11.3449
нев	-11.3449
▁Flamini	-11.3452
▁Эл	-11.3453
nat	-11.3454
ряду	-11.3459
▁укрепил	-11.346
▁стол	-11.3461
▁beata	-11.3462
▁puella	-11.3462
▁libertati	-11.3463
iorem	-11.3465
▁conser	-11.3467
▁сурово	-11.3469
▁praecipi	-11.347
▁misce	-11.3471
▁creatura	-11.3477
▁боев	-11.3478
менял	-11.3482
▁продолжали	-11.3483
▁трепет	-11.3484
▁тяжелы	-11.3484
▁uersi	-11.3485
▁разрушен	-11.3486
▁Mor	-11.3487
▁Тибр	-11.3488
▁корабля	-11.3489
▁провинция	-11.3489
▁дурно	-11.3489
lata	-11.3493
▁надежно	-11.3494
▁отправлен	-11.3497
▁мелки	-11.3499
latis	-11.3502
▁напере	-11.3502
▁Иоанн	-11.3505
ovi	-11.3506
▁сумел	-11.3507
▁умел	-11.3508
▁возвращен	-11.3511
▁carp	-11.3512
▁reddere	-11.3516
▁кур	-11.3517
скими	-11.3517
▁stimul	-11.3517
eundi	-11.3517
казав	-11.3518
олог	-11.3522
eas	-11.3522
▁uocant	-11.3522
▁vocabul	-11.3523
▁Luceria	-11.3523
иков	-11.3524
▁International	-11.3524
▁auspicio	-11.3526
▁передал	-11.3528
ода	-11.353
endas	-11.3531
▁стенам	-11.3532
▁найдет	-11.3532
▁verbo	-11.3533
ias	-11.3534
▁relinque	-11.3534
▁местность	-11.3535
▁убедить	-11.3536
▁timid	-11.3537
енная	-11.3538
рк	-11.3539
▁immola	-11.3541
▁привез	-11.3542
▁proprie	-11.3542
▁optima	-11.3543
▁Domino	-11.3544
▁Propter	-11.3544
▁castellum	-11.3544
▁improuis	-11.3544
▁magnitudo	-11.3544
▁paulisper	-11.3544
▁repentina	-11.3544
▁repentino	-11.3544
▁roboris	-11.3544
▁sollemne	-11.3544
▁Израиль	-11.3544
▁Испания	-11.3544
▁Клавдию	-11.3544
▁Нужно	-11.3544
▁Помпей	-11.3544
▁Японии	-11.3544
▁вдобавок	-11.3544
▁жребию	-11.3544
▁заявлял	-11.3544
▁неприятелем	-11.3544
▁обнаружен	-11.3544
▁пища	-11.3544
▁провинцией	-11.3544
▁продовольствия	-11.3544
▁хватит	-11.3544
▁человеческих	-11.3544
▁человеческой	-11.3544
▁Punici	-11.3544
▁pluris	-11.3544
dcirco	-11.3544
▁Sabinus	-11.3544
▁optimo	-11.3544
▁вожди	-11.3544
▁argumentum	-11.3544
▁пойдет	-11.3544
▁Denique	-11.3544
▁castella	-11.3544
▁reddidit	-11.3544
▁распорядился	-11.3544
▁dabit	-11.3544
▁досуг	-11.3544
▁Твою	-11.3544
▁adortus	-11.3544
▁vulneribus	-11.3544
▁частные	-11.3545
▁carmen	-11.3545
▁litore	-11.3545
▁Rahel	-11.3545
▁crimini	-11.3545
▁faciant	-11.3545
▁manifesta	-11.3545
▁apparebat	-11.3545
▁immortalibus	-11.3546
▁vitium	-11.3546
▁triumphi	-11.3546
▁школы	-11.3546
▁сословие	-11.3546
▁patricios	-11.3547
▁Vel	-11.3547
▁сообщает	-11.3547
▁generi	-11.3547
▁молния	-11.3548
тона	-11.3548
▁оратор	-11.3548
▁учиться	-11.3549
▁mensura	-11.3549
▁приобрет	-11.3549
▁Quando	-11.355
▁устроить	-11.355
iecto	-11.3551
▁peccata	-11.3551
▁объявить	-11.3551
▁proposita	-11.3551
▁формы	-11.3551
▁победой	-11.3551
▁хотелось	-11.3552
▁Правда	-11.3552
▁ostium	-11.3552
▁cohortis	-11.3552
▁raro	-11.3553
▁подняться	-11.3554
▁censores	-11.3554
▁одежде	-11.3556
▁бывало	-11.3556
▁члены	-11.3556
▁молодого	-11.3557
▁nesci	-11.3557
▁coniuncta	-11.3557
▁близким	-11.3558
▁moratus	-11.3558
▁велит	-11.3559
▁военный	-11.3559
▁telum	-11.3559
▁sapientem	-11.3559
▁pugnandi	-11.356
▁явиться	-11.356
▁островов	-11.356
▁вывести	-11.3561
▁поднялся	-11.3561
▁artium	-11.3561
▁скажи	-11.3561
▁выдать	-11.3561
▁важным	-11.3561
▁existimabat	-11.3562
▁стыдно	-11.3562
▁городской	-11.3562
▁услуги	-11.3563
▁defectionis	-11.3563
давалось	-11.3563
▁Seruilio	-11.3563
▁зимне	-11.3564
▁furor	-11.3565
▁video	-11.3565
▁deesset	-11.3565
▁Simon	-11.3565
▁Marti	-11.3567
▁Hu	-11.3568
▁voluptatem	-11.3569
▁Италия	-11.3569
▁избавлен	-11.357
ls	-11.3571
▁navium	-11.3571
opoli	-11.3571
▁донос	-11.3574
▁ascend	-11.3574
▁повторяю	-11.3575
▁coli	-11.3575
▁decima	-11.3576
▁прикрыва	-11.3577
▁facis	-11.3578
▁somnium	-11.358
▁commo	-11.3581
▁beneficiis	-11.3581
▁посоветовал	-11.3582
▁Августом	-11.3582
▁упомина	-11.3582
▁Bruttiis	-11.3583
▁morum	-11.3584
gam	-11.3585
▁imminente	-11.3585
▁beatam	-11.3586
▁послуша	-11.3587
▁поступил	-11.3589
▁Antium	-11.359
▁Asiam	-11.359
лист	-11.3594
▁scholam	-11.3594
▁снят	-11.3594
▁создание	-11.3597
▁избрали	-11.3597
▁dicenda	-11.3597
tiam	-11.3599
▁modica	-11.3599
▁Pompeius	-11.36
puli	-11.3602
▁torque	-11.3603
▁пира	-11.3604
▁рост	-11.3605
▁Dec	-11.3606
▁Russia	-11.3607
▁superbiam	-11.361
▁voluntatem	-11.3612
▁dono	-11.3612
▁доброе	-11.3612
▁посвящен	-11.3613
▁quingento	-11.3614
▁уступ	-11.3615
▁creditur	-11.3616
▁стоять	-11.3617
▁cumque	-11.362
undi	-11.3626
▁составе	-11.3628
▁miserum	-11.3629
alendi	-11.3635
▁Мон	-11.3636
▁Gallica	-11.3637
▁край	-11.3638
▁видите	-11.3639
▁гнусно	-11.364
▁quaestiones	-11.3642
▁familiaris	-11.3642
▁Сципиону	-11.3643
vimus	-11.3645
▁судебны	-11.3647
▁военачальника	-11.365
hen	-11.3651
▁uideret	-11.3651
▁iret	-11.3652
▁primae	-11.3652
▁ibat	-11.3655
▁quaerit	-11.3656
▁Poenis	-11.3662
▁uota	-11.3663
▁Вид	-11.3664
▁Максим	-11.3665
▁доверя	-11.3667
▁nosse	-11.3667
▁tertiam	-11.367
▁adici	-11.3671
toria	-11.3672
▁составил	-11.3673
▁центр	-11.3673
▁Pl	-11.3676
tque	-11.3676
▁стада	-11.3676
▁parare	-11.3679
▁Ae	-11.3679
▁прост	-11.368
фер	-11.3682
▁групп	-11.3683
▁pollice	-11.3684
работ	-11.3691
▁actu	-11.3694
▁alienis	-11.3695
ker	-11.3696
az	-11.3698
государственного	-11.3703
▁вед	-11.3704
▁морем	-11.3705
пон	-11.3706
▁nolle	-11.3706
▁вып	-11.3706
▁inferre	-11.3707
▁fructu	-11.3712
Что	-11.3712
▁забота	-11.3714
▁верны	-11.3717
▁exigua	-11.3719
▁Oc	-11.3723
▁priuato	-11.3723
истый	-11.3726
▁emi	-11.3727
▁docent	-11.3727
▁regina	-11.3728
фил	-11.3728
▁собирать	-11.373
cesserant	-11.373
кла	-11.3731
▁coi	-11.3737
▁servis	-11.374
▁transeunt	-11.374
вшуюся	-11.3744
ствовал	-11.3745
▁бор	-11.3746
▁галльски	-11.3746
▁certam	-11.3747
еш	-11.3748
▁исключительно	-11.3748
▁повода	-11.375
ставлен	-11.375
▁inferiore	-11.3751
ped	-11.3751
умер	-11.3752
▁pelle	-11.3752
▁Второ	-11.3753
▁auersa	-11.3754
шла	-11.3758
▁крупны	-11.3758
вел	-11.3761
▁provid	-11.3766
iciunt	-11.3769
▁crema	-11.3769
▁nouo	-11.377
▁turma	-11.3771
▁ra	-11.3771
▁грех	-11.3775
lab	-11.3776
ilio	-11.3777
▁decer	-11.3778
▁пребыва	-11.3779
▁удивительно	-11.378
▁изменил	-11.3781
нять	-11.3783
▁увеличива	-11.3785
▁бур	-11.3785
▁concordia	-11.3789
▁Sabino	-11.3791
▁Народ	-11.3792
▁actio	-11.3794
▁appellare	-11.3794
▁fili	-11.3796
▁centurio	-11.3797
▁семейств	-11.3798
За	-11.38
▁habitant	-11.3801
▁pulsi	-11.3804
deret	-11.3805
▁изгнан	-11.3807
▁отмен	-11.3808
▁aliarum	-11.3809
▁окончил	-11.3811
▁Graecia	-11.3813
▁contraria	-11.3816
той	-11.382
lici	-11.382
▁проб	-11.3821
▁оказать	-11.3821
▁appellat	-11.3823
▁nocturna	-11.3823
▁progredi	-11.3823
▁caue	-11.3824
▁казнил	-11.3825
▁заповед	-11.3826
▁cognoscere	-11.3829
ходил	-11.383
▁выда	-11.3832
▁Ци	-11.3834
▁hieme	-11.3835
ейчас	-11.3836
▁остава	-11.3837
▁жажду	-11.3837
my	-11.3837
сло	-11.3837
▁urbano	-11.3837
▁Красс	-11.3842
▁defectione	-11.3843
▁Terra	-11.3844
▁участи	-11.3845
▁имела	-11.3849
▁подража	-11.385
▁вспомнил	-11.3851
▁repeti	-11.3854
▁interior	-11.3858
▁пиру	-11.3858
▁hostili	-11.3858
▁oportere	-11.3859
▁повернул	-11.3859
▁предел	-11.3859
▁bienni	-11.386
▁conferre	-11.3864
▁coepi	-11.3865
tarum	-11.387
▁turbae	-11.387
▁искусство	-11.387
▁timet	-11.3872
▁исполнил	-11.3872
▁condicio	-11.3872
▁орган	-11.3873
▁жадно	-11.3874
▁щит	-11.3874
▁устремля	-11.3875
▁perit	-11.3875
▁castiga	-11.3876
▁coloni	-11.3876
▁штурм	-11.3877
▁Oceanum	-11.3877
▁experiri	-11.3877
▁pedilusor	-11.3877
▁professus	-11.3877
▁promissa	-11.3877
▁provinciis	-11.3877
▁sententiis	-11.3877
▁борьбы	-11.3877
▁варвары	-11.3877
▁деревья	-11.3877
▁достичь	-11.3877
▁патриции	-11.3877
▁последнего	-11.3877
▁самниты	-11.3877
▁судьбе	-11.3877
▁церковь	-11.3877
▁perterriti	-11.3877
▁принужден	-11.3877
▁sublato	-11.3877
▁партия	-11.3877
▁приобрел	-11.3877
▁эдуи	-11.3877
▁beatus	-11.3877
▁вспоминаю	-11.3877
▁знания	-11.3877
▁Истина	-11.3877
▁spatii	-11.3877
▁scaena	-11.3877
▁озеро	-11.3877
▁saxo	-11.3877
▁consuetudo	-11.3877
▁optimi	-11.3877
▁obscuri	-11.3877
▁носилках	-11.3877
insecu	-11.3878
▁полководцев	-11.3878
▁minima	-11.3878
▁poteram	-11.3878
▁singulorum	-11.3878
▁auspicia	-11.3878
▁предварительно	-11.3878
▁adsensu	-11.3878
▁XV	-11.3878
▁facturos	-11.3878
▁beneficia	-11.3878
▁кинулись	-11.3878
▁videbat	-11.3878
▁злодеяния	-11.3879
▁День	-11.3879
▁победить	-11.3879
▁прибытии	-11.3879
▁хорошее	-11.3879
▁треверов	-11.388
▁Asia	-11.388
▁similiter	-11.388
▁желают	-11.388
▁поселения	-11.388
▁исполнить	-11.3881
▁Forte	-11.3881
▁торопи	-11.3881
▁отвечает	-11.3881
▁compluribus	-11.3881
▁criminibus	-11.3881
▁любого	-11.3882
▁velint	-11.3882
▁Сенаторы	-11.3882
▁покое	-11.3883
▁урон	-11.3883
▁вызвать	-11.3884
▁пятый	-11.3884
▁solitus	-11.3884
▁uertit	-11.3884
▁установлен	-11.3885
▁собирались	-11.3885
▁oblitus	-11.3885
▁compar	-11.3885
▁множества	-11.3885
▁возвращается	-11.3885
▁собрались	-11.3885
▁Хе	-11.3887
▁universo	-11.3887
▁uictoribus	-11.3888
▁фунтов	-11.3888
▁interdiu	-11.3889
▁построить	-11.3889
▁cogitationes	-11.3889
▁избежать	-11.3889
▁ascendit	-11.389
▁somni	-11.389
▁crescit	-11.389
▁pietate	-11.389
▁караулы	-11.3891
▁измене	-11.3891
▁фараону	-11.3892
▁проект	-11.3892
▁вначале	-11.3892
▁frequentes	-11.3892
▁границы	-11.3893
▁ар	-11.3894
▁Primi	-11.3896
▁суть	-11.3896
▁похвалы	-11.3897
▁Aemilium	-11.3898
▁facultatem	-11.3898
▁общему	-11.3898
▁казну	-11.3899
▁Другие	-11.3899
▁криком	-11.39
▁feminarum	-11.3901
▁dispositis	-11.3901
▁tenui	-11.3901
▁cognosc	-11.3903
▁dicant	-11.3903
▁gestum	-11.3904
жертвоприношения	-11.3904
▁праву	-11.3904
▁открыть	-11.3905
▁показаться	-11.3906
▁Лабиэна	-11.3906
▁quintum	-11.3907
▁orbis	-11.3907
▁defend	-11.3908
▁хозяина	-11.3909
▁рабом	-11.3912
cher	-11.3913
▁Antonium	-11.3913
▁sororem	-11.3914
▁feminis	-11.3914
▁sineret	-11.3914
▁captiuis	-11.3915
▁Russiae	-11.3918
▁приходят	-11.3919
▁сенатора	-11.392
▁совершал	-11.392
▁iudica	-11.3921
чным	-11.3922
▁бывают	-11.3922
xerat	-11.3924
даны	-11.3925
▁contumeliam	-11.3926
носятся	-11.3927
▁Ph	-11.3928
▁pontem	-11.3929
▁tradi	-11.3929
stat	-11.3931
▁custodes	-11.3931
▁qualem	-11.3934
▁naturali	-11.3935
▁exitio	-11.3937
▁regiae	-11.3938
▁missos	-11.3939
▁номер	-11.3939
▁опустоша	-11.3941
▁perfecto	-11.3942
▁seni	-11.3942
▁frequentia	-11.3945
▁городах	-11.3945
▁берет	-11.3948
▁трибунами	-11.395
▁arbitra	-11.3952
▁Своим	-11.3954
▁взялся	-11.3955
▁propinquis	-11.3955
▁Обе	-11.3956
▁successu	-11.3958
▁ostendi	-11.396
▁diceretur	-11.3961
▁смертн	-11.3961
▁fe	-11.3963
▁ложе	-11.3964
▁pau	-11.3965
▁лицам	-11.3965
▁проконсула	-11.3965
▁ignota	-11.3967
▁area	-11.3972
tulerunt	-11.3972
▁suprem	-11.3972
▁устраивал	-11.3972
▁vendit	-11.3973
▁Belgi	-11.3976
corum	-11.3976
▁Кол	-11.3977
▁popula	-11.3977
▁quales	-11.3977
▁solito	-11.3977
вол	-11.398
▁поддерживал	-11.398
▁igno	-11.3982
mittat	-11.3982
▁Petru	-11.3983
▁реш	-11.3985
▁предоставлен	-11.3986
очка	-11.3986
▁haberetur	-11.3987
▁круг	-11.4
▁мечи	-11.4001
▁хвал	-11.4004
▁нрав	-11.4007
▁назначили	-11.4014
▁Sua	-11.4014
ходили	-11.4018
▁universi	-11.4019
▁infelici	-11.402
▁imperatorum	-11.4021
▁fugi	-11.4022
▁secreta	-11.4024
▁profici	-11.4024
▁Иисуса	-11.4024
mittit	-11.4026
▁Pars	-11.4032
▁alienae	-11.4032
▁Дом	-11.4032
▁освободил	-11.4033
▁eras	-11.4033
▁Цар	-11.4035
currit	-11.4036
два	-11.4036
forma	-11.4037
▁Spe	-11.4037
▁disser	-11.4038
▁университета	-11.4038
▁украшен	-11.4039
▁consulere	-11.4042
▁Таков	-11.4042
▁grauis	-11.4045
Э	-11.4045
▁potui	-11.4046
tion	-11.4046
веща	-11.4046
▁constantia	-11.4048
viola	-11.4049
▁fall	-11.405
▁dimicatione	-11.405
вёл	-11.4052
▁перейд	-11.4053
Если	-11.4054
▁направля	-11.4054
▁Germanis	-11.4055
emque	-11.4056
▁Ped	-11.4058
▁Iudae	-11.4058
щик	-11.4059
anae	-11.406
▁караул	-11.4065
▁minores	-11.4066
▁quieti	-11.4067
vectus	-11.4069
▁квестор	-11.4069
▁воинско	-11.4074
▁obside	-11.4077
▁incerti	-11.4081
▁militare	-11.4084
мест	-11.4086
▁Maior	-11.4092
▁laus	-11.4094
шими	-11.4099
▁красив	-11.4103
▁работал	-11.4103
▁уч	-11.4104
eu	-11.4105
▁appellati	-11.4106
▁crederent	-11.4107
▁eris	-11.4108
▁ambitu	-11.411
issimus	-11.4116
▁mirabili	-11.4117
▁Сан	-11.4117
тность	-11.4118
▁rumore	-11.4122
▁люд	-11.4123
▁Manli	-11.4124
▁Ск	-11.4133
▁rap	-11.4135
▁iuvenis	-11.4137
ueris	-11.4137
яют	-11.4137
▁похожи	-11.414
▁издан	-11.4142
▁grave	-11.4142
тав	-11.4143
явился	-11.4144
ndoque	-11.4144
▁divini	-11.4145
▁campi	-11.4148
▁aquas	-11.415
▁Наш	-11.4151
▁situs	-11.4155
стал	-11.4157
▁преврат	-11.4159
▁monet	-11.416
▁рассматрива	-11.4162
▁навлек	-11.4163
так	-11.4167
▁grad	-11.4169
▁ueste	-11.417
▁подня	-11.4182
▁народным	-11.4183
fecto	-11.4183
▁arca	-11.4183
▁Камилл	-11.4183
▁любы	-11.4184
▁resisti	-11.4185
▁стан	-11.4186
▁subduc	-11.4187
ruit	-11.4187
▁puero	-11.4191
vertit	-11.4192
▁praesente	-11.4193
▁semina	-11.4193
▁Капуе	-11.4193
▁принадлежат	-11.4196
▁eventu	-11.4196
скольку	-11.4197
▁ostende	-11.42
abit	-11.4201
▁глух	-11.4202
▁arbore	-11.4203
iz	-11.4204
▁проходил	-11.4206
▁самая	-11.4207
▁происходил	-11.4207
▁Iohanne	-11.4207
specta	-11.4215
▁удивля	-11.4216
▁приблизи	-11.4218
▁признать	-11.4218
▁слабо	-11.4219
▁посреди	-11.4221
▁Homines	-11.4222
▁Horatius	-11.4222
▁abstinuit	-11.4222
▁integrum	-11.4222
▁servum	-11.4222
▁syllaba	-11.4222
▁ualido	-11.4222
▁vulgi	-11.4222
▁Рахиль	-11.4222
▁Тарракон	-11.4222
▁башни	-11.4222
▁бедствие	-11.4222
▁бесконечно	-11.4222
▁заблуждение	-11.4222
▁нумидийцы	-11.4222
▁повиноваться	-11.4222
▁покончить	-11.4222
▁похоти	-11.4222
▁прежние	-11.4222
▁сопротивление	-11.4222
▁сословий	-11.4222
▁этруски	-11.4222
▁infinita	-11.4222
▁Божий	-11.4222
▁вождь	-11.4222
▁почестей	-11.4222
▁проклят	-11.4222
▁incolumes	-11.4222
▁collegio	-11.4222
▁пятнадцать	-11.4222
▁польза	-11.4222
▁iusserunt	-11.4222
▁venenum	-11.4222
▁diligenter	-11.4222
▁habito	-11.4222
▁праведн	-11.4222
▁Bostoniae	-11.4222
▁futurus	-11.4222
▁condicionibus	-11.4222
▁думаешь	-11.4222
▁aiebat	-11.4222
▁petunt	-11.4223
▁охватил	-11.4223
▁чужое	-11.4223
▁iumenta	-11.4223
▁восьми	-11.4223
▁согласился	-11.4223
▁наставник	-11.4223
gus	-11.4223
▁concedere	-11.4223
▁litora	-11.4223
▁Serui	-11.4223
▁отдельности	-11.4223
носили	-11.4223
▁спрашивать	-11.4223
▁clamita	-11.4224
▁прочее	-11.4224
▁услышать	-11.4224
▁надобности	-11.4224
▁вооруженные	-11.4224
▁осуществля	-11.4224
▁соседей	-11.4224
▁Sabina	-11.4224
▁радуется	-11.4224
▁capiunt	-11.4224
▁Фульвия	-11.4225
▁Оно	-11.4225
▁faciebant	-11.4225
▁pactum	-11.4225
▁тридцати	-11.4225
▁согласен	-11.4225
▁fiebat	-11.4225
▁vocibus	-11.4225
▁душевны	-11.4225
▁нуждается	-11.4226
▁любят	-11.4227
▁simili	-11.4227
▁Часто	-11.4227
▁custodibus	-11.4227
▁битву	-11.4227
▁Epicurus	-11.4227
▁tumulum	-11.4227
▁David	-11.4227
▁двенадцати	-11.4228
▁устроен	-11.4229
▁docuit	-11.4229
▁munimenta	-11.4229
▁supplicia	-11.4229
▁Optim	-11.4229
▁презирать	-11.423
▁равнине	-11.4231
▁laborat	-11.4231
▁военачальник	-11.4231
▁move	-11.4231
▁Lib	-11.4232
▁нынешни	-11.4233
овы	-11.4233
▁началось	-11.4234
ющими	-11.4234
▁независимость	-11.4234
▁aiunt	-11.4235
▁ча	-11.4235
▁notum	-11.4236
▁externis	-11.4236
▁легатом	-11.4236
▁местны	-11.4237
▁скуп	-11.4237
ленный	-11.4237
▁консульск	-11.4239
▁navem	-11.4241
▁foederis	-11.4242
▁nominatim	-11.4243
▁auditis	-11.4243
▁казнить	-11.4244
зывает	-11.4244
▁итоге	-11.4245
терпе	-11.4245
▁sero	-11.4246
▁indicio	-11.4246
▁mentionem	-11.4246
▁faciendi	-11.4246
▁форме	-11.4246
▁crescere	-11.4249
▁alioqui	-11.4249
▁Никогда	-11.425
▁cast	-11.425
▁felicitatem	-11.4251
▁институт	-11.4251
▁кар	-11.4252
▁Numidas	-11.4254
Laban	-11.4254
quae	-11.4254
вшими	-11.4254
iger	-11.4256
▁Час	-11.4257
▁adopta	-11.4257
▁sororis	-11.426
▁собственными	-11.4262
▁vicit	-11.4262
▁ageretur	-11.4263
▁Hasdrubalem	-11.4264
endus	-11.4264
▁несчастным	-11.4265
▁uirtutis	-11.4266
▁Ро	-11.4266
▁Philo	-11.4266
▁преторы	-11.4266
▁прислал	-11.4267
пил	-11.4268
▁подняли	-11.4268
▁вином	-11.4269
▁series	-11.4269
▁преступно	-11.427
▁indice	-11.4271
ходят	-11.4271
▁огромным	-11.4272
▁горд	-11.4272
▁suspicionem	-11.4272
▁предложен	-11.4273
▁законам	-11.4274
ницей	-11.4274
▁intellegere	-11.4274
▁creditum	-11.4275
▁истинн	-11.4276
▁Брута	-11.4277
▁подать	-11.4278
▁признает	-11.4278
▁veterem	-11.4279
▁edere	-11.4279
▁Марцеллу	-11.428
▁лук	-11.4281
▁comminu	-11.4281
▁socialis	-11.4285
▁rumor	-11.4285
▁potentiae	-11.4285
▁munia	-11.4286
▁palati	-11.4287
▁Мир	-11.4291
▁смысле	-11.4292
▁способность	-11.4295
▁Scipionis	-11.4297
▁бывшие	-11.4297
ran	-11.4297
▁necdum	-11.4299
▁увлек	-11.43
▁Mon	-11.43
▁profug	-11.4301
▁работе	-11.4302
▁epistulae	-11.4303
▁владел	-11.4304
▁закрыт	-11.4307
▁Че	-11.4309
▁index	-11.431
▁ceperunt	-11.431
▁Gai	-11.4311
родной	-11.4312
▁posteris	-11.4313
▁dictus	-11.4315
▁explora	-11.4316
▁стене	-11.4317
▁sermonem	-11.4318
▁бросили	-11.4319
fe	-11.4321
▁Sulpicio	-11.4321
▁Potest	-11.4322
▁effund	-11.4323
▁сосуд	-11.4323
▁tutior	-11.4328
▁иной	-11.4329
▁oeconomica	-11.4329
▁Ves	-11.433
idum	-11.433
▁ure	-11.4331
▁Городе	-11.4331
▁умеет	-11.4333
▁cognoscit	-11.4338
▁наград	-11.4342
▁сделан	-11.4343
▁mutat	-11.4345
▁horam	-11.4348
▁dilectus	-11.435
▁городам	-11.4351
▁опустош	-11.4351
▁disciplinam	-11.4354
cessu	-11.4356
▁флота	-11.436
rime	-11.4361
▁дай	-11.4362
▁aberat	-11.4362
▁credit	-11.4365
▁auertit	-11.4365
▁доказательство	-11.4366
цеп	-11.4366
▁округа	-11.4367
▁adgredi	-11.4368
▁философ	-11.4369
▁разума	-11.437
▁condiciones	-11.4371
▁Tarquinio	-11.4373
ировать	-11.4373
llis	-11.4377
▁назначение	-11.438
▁роз	-11.4381
нской	-11.4381
▁умоля	-11.4382
▁страда	-11.4383
▁консулах	-11.4384
▁vena	-11.4384
▁миру	-11.4385
▁coniuncti	-11.4389
▁воински	-11.439
▁Legati	-11.439
▁desiderat	-11.439
▁трибунал	-11.4393
▁incomposita	-11.4393
ava	-11.4397
▁выпущен	-11.4397
▁regia	-11.4398
▁призна	-11.4398
▁cis	-11.4399
▁enunti	-11.4404
▁locat	-11.4406
▁гром	-11.4409
казались	-11.4413
▁следующ	-11.4415
▁относи	-11.4417
▁Fact	-11.4417
Это	-11.4417
ationem	-11.4418
▁missum	-11.4418
истов	-11.4419
▁Эли	-11.4424
▁меньшей	-11.4424
▁дарован	-11.4425
▁min	-11.4425
gan	-11.4425
ившиеся	-11.443
▁cessit	-11.4431
▁вооруженно	-11.4431
ies	-11.4433
▁ago	-11.4433
▁vident	-11.4438
▁благу	-11.4441
▁parati	-11.4443
▁Африка	-11.4444
▁долгой	-11.4445
▁Мар	-11.4446
▁flore	-11.4447
▁vides	-11.4448
▁magnos	-11.4452
▁определенны	-11.4455
phe	-11.4456
▁соблюда	-11.4457
▁excidi	-11.4458
for	-11.446
вольноотпущенник	-11.4462
▁Гор	-11.4467
▁Наши	-11.4471
▁свете	-11.4472
▁служ	-11.4474
▁глубок	-11.4475
▁preca	-11.4479
▁totis	-11.448
▁следующем	-11.4481
▁снял	-11.4481
▁свято	-11.4482
▁uale	-11.4483
▁высказал	-11.4485
▁equiti	-11.4487
pic	-11.4487
▁haere	-11.4488
▁усерд	-11.4488
▁rapere	-11.4489
▁trecenti	-11.4489
plo	-11.4491
▁Иерусалим	-11.4494
▁purga	-11.4494
▁Ги	-11.4497
▁полагаю	-11.4498
▁inimici	-11.4498
▁готовить	-11.4499
дно	-11.45
▁miseria	-11.4506
damus	-11.4508
▁триумфа	-11.4509
▁ceterae	-11.451
тые	-11.4514
xisse	-11.4524
▁My	-11.4527
▁interpreta	-11.4528
▁temeritate	-11.4529
▁уговор	-11.4529
▁сабинян	-11.453
▁iuuentute	-11.453
▁Alexandri	-11.4531
quin	-11.4533
▁принадлежал	-11.4535
▁luc	-11.4537
tende	-11.4538
iri	-11.4538
фор	-11.454
▁aedili	-11.4542
▁действовал	-11.4542
▁погубил	-11.4543
▁освобожден	-11.4545
▁низко	-11.455
▁demonstrat	-11.4551
▁действие	-11.4553
▁принуди	-11.4554
▁удовольствие	-11.4557
▁взор	-11.4558
▁tabernacul	-11.4558
▁начинают	-11.4558
▁alicui	-11.4558
▁довел	-11.4559
▁собственным	-11.456
▁peterent	-11.456
▁adduc	-11.4561
▁спрашивал	-11.4562
▁refici	-11.4567
▁римском	-11.457
рь	-11.457
▁обещания	-11.4571
▁необходимость	-11.4572
▁praeterit	-11.4573
det	-11.4574
▁победил	-11.4576
▁уста	-11.4576
▁величайшим	-11.4577
▁dimissi	-11.4578
diderat	-11.4578
▁Ку	-11.4578
▁задач	-11.4578
▁правило	-11.4578
▁sagitta	-11.4579
▁argento	-11.4579
▁vulgus	-11.4579
▁Англии	-11.4579
▁борьбу	-11.4579
▁гельветов	-11.4579
▁лошади	-11.4579
▁молебствия	-11.4579
▁постановлению	-11.4579
▁сопротивления	-11.4579
▁человеческое	-11.4579
▁Veiis	-11.4579
▁repertus	-11.4579
▁восемьдесят	-11.4579
▁порядку	-11.4579
▁Latinum	-11.4579
▁nouem	-11.4579
▁стражи	-11.4579
▁nepotem	-11.4579
▁medicus	-11.4579
▁сзади	-11.4579
▁разумеется	-11.4579
▁активно	-11.4579
▁помощник	-11.4579
▁Seneca	-11.4579
▁uestibul	-11.4579
▁усмотрению	-11.4579
▁Archidioecesi	-11.4579
▁учеников	-11.4579
▁supplementum	-11.4579
▁надобно	-11.4579
▁Tandem	-11.4579
▁мыслей	-11.4579
▁дружба	-11.458
▁окрестны	-11.458
▁правителя	-11.458
▁службе	-11.458
▁люблю	-11.458
▁Свет	-11.458
▁sacramento	-11.458
▁scriptis	-11.458
▁creavit	-11.458
▁быстротой	-11.458
▁transgressus	-11.458
▁effusa	-11.458
▁значения	-11.458
▁dignitas	-11.458
▁позднее	-11.458
▁дворец	-11.458
▁бессмертных	-11.458
▁оказывается	-11.458
▁защитить	-11.458
▁constitit	-11.458
▁praecepit	-11.4581
▁ueritatis	-11.4581
▁шею	-11.4581
▁Метелл	-11.4581
▁pecunias	-11.4581
▁опасения	-11.4581
▁pacata	-11.4581
▁centurionibus	-11.4581
▁linguis	-11.4581
▁Caput	-11.4581
mittunt	-11.4582
▁французский	-11.4582
▁accepimus	-11.4582
▁disseruit	-11.4582
▁Civitate	-11.4582
▁жрецов	-11.4583
▁panem	-11.4583
▁mitterent	-11.4583
▁suscepit	-11.4583
▁Mu	-11.4583
▁боятся	-11.4584
▁восстания	-11.4585
▁sinistra	-11.4585
броса	-11.4585
▁погибло	-11.4585
▁рекой	-11.4586
▁прожива	-11.4586
▁eduxit	-11.4586
▁консульской	-11.4586
▁ceterorum	-11.4586
▁Альпы	-11.4587
▁vobiscum	-11.4587
▁solitum	-11.4587
▁Враги	-11.4587
▁servitutem	-11.4588
▁пределами	-11.4588
▁внимательно	-11.4588
▁insignibus	-11.4588
▁sacrorum	-11.4588
там	-11.4589
▁вышло	-11.4589
▁talibus	-11.459
▁связаны	-11.4591
▁cognitis	-11.4591
▁просьбе	-11.4591
▁сострадание	-11.4592
▁Благодар	-11.4592
▁надел	-11.4593
▁Тулл	-11.4593
▁собрать	-11.4594
▁группы	-11.4594
▁conlatis	-11.4594
▁собственное	-11.4595
ношу	-11.4595
▁вторично	-11.4595
▁действует	-11.4595
pte	-11.4595
▁pondere	-11.4595
▁socer	-11.4595
▁ludorum	-11.4596
▁minu	-11.4596
▁потребовали	-11.4597
▁некое	-11.4597
▁continet	-11.4598
▁fideli	-11.4598
olo	-11.4598
▁незачем	-11.4598
▁остальном	-11.4598
▁inprob	-11.4599
▁утеш	-11.4599
▁Юпитеру	-11.46
▁мечами	-11.4602
▁риск	-11.4602
▁преторов	-11.4603
▁invenire	-11.4603
▁Cannas	-11.4604
▁Марса	-11.4604
▁gereret	-11.4605
▁paenitentiam	-11.4606
▁nobilium	-11.4606
▁invita	-11.4607
▁ingressi	-11.4607
▁старались	-11.4608
▁Aegypto	-11.461
▁legit	-11.461
▁abesset	-11.4611
▁умом	-11.4611
▁достигли	-11.4612
▁suc	-11.4612
▁позором	-11.4612
▁sonus	-11.4612
▁Ualeriu	-11.4616
▁меча	-11.4618
▁часы	-11.4619
▁coll	-11.462
▁errorem	-11.4622
▁suus	-11.4623
действительности	-11.4623
▁immiss	-11.4624
▁success	-11.4624
▁secundis	-11.4624
▁dilig	-11.4624
▁утверждали	-11.4624
▁cog	-11.4626
▁duode	-11.4627
▁molem	-11.4631
▁dimicare	-11.4631
▁возможным	-11.4632
▁Цицерона	-11.4633
▁здание	-11.4634
▁Latine	-11.4634
▁невидим	-11.4634
▁Iter	-11.4635
ведении	-11.4635
рта	-11.4636
▁ordinat	-11.4636
▁uestris	-11.4637
toris	-11.4638
▁seditio	-11.4639
▁заверш	-11.4639
▁смотрел	-11.464
раю	-11.4641
▁tribuniciae	-11.4642
▁moueri	-11.4643
▁ignominiam	-11.4646
▁желали	-11.4646
▁fora	-11.4646
▁последовали	-11.4647
▁ввел	-11.4647
▁освободи	-11.4648
▁разуму	-11.4648
▁убежище	-11.4651
▁считаю	-11.4652
▁partium	-11.4652
formis	-11.4654
▁плач	-11.4654
▁нарек	-11.4656
▁Sci	-11.4657
▁ueniam	-11.4658
▁turmas	-11.4659
idem	-11.466
▁editio	-11.4661
▁placent	-11.4661
ductis	-11.4663
▁genti	-11.4664
▁licentiam	-11.4665
▁pelli	-11.4665
эй	-11.4666
▁Martis	-11.4666
▁правах	-11.4666
▁acti	-11.4667
▁fatiga	-11.4669
▁exemplar	-11.4671
▁взяти	-11.4672
▁подобное	-11.4675
▁inclina	-11.4676
▁сыны	-11.468
▁populatione	-11.468
▁minora	-11.4681
З	-11.4681
▁слышали	-11.4683
▁orna	-11.4684
▁Neroni	-11.4684
▁Habe	-11.4686
▁Pot	-11.4687
▁supplicatio	-11.469
▁tradere	-11.4691
▁largi	-11.4693
▁Tres	-11.4693
▁colles	-11.4696
▁dicenti	-11.4697
▁военном	-11.4697
▁пут	-11.4698
▁uocat	-11.47
▁surge	-11.4702
ческой	-11.4703
▁maria	-11.4706
care	-11.4707
▁aram	-11.4707
▁утрат	-11.4709
▁сторона	-11.4711
▁обнаружил	-11.4712
▁отозва	-11.4713
▁uidet	-11.4715
nch	-11.4716
▁выступили	-11.4718
▁войнах	-11.4719
▁фараон	-11.4721
▁vexa	-11.4723
▁veniunt	-11.4724
▁Ус	-11.4726
▁rogat	-11.4726
▁liberto	-11.4728
▁одержал	-11.473
телям	-11.4732
▁таковы	-11.4733
▁Фу	-11.4734
▁Римом	-11.4734
▁склад	-11.4735
все	-11.4736
ола	-11.4739
oll	-11.4739
▁menti	-11.474
▁ducenti	-11.4741
▁клин	-11.4741
▁гладиатор	-11.4746
нял	-11.475
▁uxores	-11.475
▁scelera	-11.4754
▁oc	-11.4758
▁открытое	-11.4759
▁каковы	-11.476
▁praetoris	-11.4763
зал	-11.4765
▁gem	-11.4765
▁Ponti	-11.4765
▁religiones	-11.4766
▁appet	-11.4769
▁внука	-11.4769
▁Dixi	-11.4772
▁гладиаторски	-11.4772
▁парламент	-11.4774
легковооруженных	-11.4775
учить	-11.4776
anos	-11.4777
▁intrare	-11.4784
duxerat	-11.4785
▁mittere	-11.4789
инг	-11.4789
▁преториански	-11.479
▁sumptu	-11.4793
▁sciat	-11.4793
пин	-11.4794
▁поста	-11.4794
▁saltu	-11.4796
ником	-11.4797
gal	-11.4797
▁religios	-11.4797
▁предать	-11.4799
льноотпущенников	-11.48
▁adest	-11.48
ko	-11.4804
▁бесед	-11.4805
▁luctu	-11.4808
▁coniura	-11.4808
▁propheta	-11.4809
▁modestia	-11.481
▁Societa	-11.481
▁regul	-11.4811
▁regula	-11.4812
▁забыли	-11.4816
▁Бер	-11.4817
▁Don	-11.4818
▁Loc	-11.482
▁основание	-11.4821
▁all	-11.4821
▁слухам	-11.4821
лам	-11.4821
▁Pan	-11.4821
▁устал	-11.4823
▁уби	-11.4825
▁звезд	-11.4827
▁Aetoli	-11.4827
▁Римско	-11.4828
omissis	-11.4828
▁такова	-11.4828
вели	-11.4832
▁dilat	-11.4832
traxit	-11.4834
▁противо	-11.4835
▁лета	-11.4838
ица	-11.4839
▁age	-11.484
▁visus	-11.484
иан	-11.4841
▁Пир	-11.4843
▁сорока	-11.4846
▁fusi	-11.4846
▁распространя	-11.4846
яться	-11.4848
▁приводит	-11.4849
▁удел	-11.4851
▁свиреп	-11.4851
чка	-11.4851
▁распространен	-11.4853
▁delectat	-11.4854
lica	-11.4856
▁Пи	-11.4859
▁rector	-11.4859
▁супруг	-11.486
▁fundamenta	-11.486
▁plurimi	-11.4862
▁interea	-11.4863
▁eli	-11.4863
▁Scipioni	-11.4865
▁retract	-11.4865
▁мертв	-11.4865
▁fluctu	-11.4866
▁colle	-11.4866
▁interfecti	-11.4869
порт	-11.4873
рок	-11.4874
▁ра	-11.4874
▁difficili	-11.4877
▁quique	-11.4877
▁nomini	-11.4878
eam	-11.4879
▁луч	-11.4879
▁gr	-11.488
▁peccati	-11.4881
▁располагал	-11.4882
ullius	-11.4882
org	-11.4884
▁quale	-11.4885
▁uitio	-11.4885
Nondum	-11.4885
▁разгром	-11.4887
▁laps	-11.4888
▁науч	-11.489
▁пи	-11.4891
▁Нас	-11.4892
▁Бу	-11.4896
▁XVI	-11.4899
▁носить	-11.4899
▁пренебрег	-11.4899
▁Chi	-11.4902
▁превратил	-11.4904
▁дорож	-11.4908
▁несчастн	-11.4909
▁subtili	-11.4909
▁secuta	-11.491
▁упал	-11.4912
▁largitione	-11.4913
XX	-11.4913
▁границе	-11.4913
▁поверил	-11.4914
▁предоставля	-11.4914
▁забыл	-11.4916
▁Гре	-11.4916
▁прожил	-11.4917
кою	-11.4918
▁указал	-11.4919
ота	-11.492
▁доложил	-11.4922
▁послам	-11.4924
▁superesse	-11.4924
уда	-11.4926
▁див	-11.4932
media	-11.4932
▁проч	-11.4933
▁obstinat	-11.4933
дент	-11.4935
▁исчез	-11.4936
▁сража	-11.4936
▁блеск	-11.4939
ya	-11.494
▁войскам	-11.494
▁circumdat	-11.4943
юда	-11.4945
▁tenebant	-11.4945
▁успокоил	-11.4947
▁adicere	-11.4947
дадут	-11.4948
▁Север	-11.4949
▁Familia	-11.495
▁Hispanorum	-11.495
▁Municipium	-11.495
▁discipulos	-11.495
▁immensa	-11.495
▁obtinuit	-11.495
▁pontifex	-11.495
▁scelerum	-11.495
▁stomach	-11.495
▁Иногда	-11.495
▁Кампании	-11.495
▁Откуда	-11.495
▁Церкви	-11.495
▁гавани	-11.495
▁гельветы	-11.495
▁наготове	-11.495
▁поддержал	-11.495
▁прежним	-11.495
▁пятидесяти	-11.495
▁секванов	-11.495
▁хотим	-11.495
▁Provincia	-11.495
▁accommoda	-11.495
▁proposito	-11.495
▁Лучше	-11.495
▁благоволение	-11.495
▁вдвое	-11.495
▁квинкверем	-11.495
▁обязанностей	-11.495
▁отношение	-11.495
▁сиракузян	-11.495
▁сразиться	-11.495
▁istuc	-11.495
▁каждая	-11.495
▁ualle	-11.495
▁Остальные	-11.495
▁inimicus	-11.495
▁mitiga	-11.495
▁nouus	-11.495
▁pectore	-11.495
▁почувствовал	-11.495
▁ведома	-11.495
▁заговорщиков	-11.495
▁memorabile	-11.495
▁хранил	-11.495
ohn	-11.495
▁propaga	-11.495
▁paucorum	-11.495
▁duplici	-11.495
▁испанско	-11.495
▁miraculo	-11.495
▁sufficere	-11.495
▁confecta	-11.495
▁possessor	-11.495
▁existime	-11.495
▁оскорблении	-11.495
▁attulit	-11.495
▁Павел	-11.495
▁Fidenas	-11.495
▁возникает	-11.495
▁Ливия	-11.4951
▁fugientes	-11.4951
▁казаться	-11.4951
▁добиваться	-11.4951
▁восток	-11.4951
▁commoda	-11.4951
▁помогает	-11.4951
▁добрые	-11.4951
▁уходит	-11.4951
▁рассказывают	-11.4951
▁должностей	-11.4951
▁залог	-11.4951
▁citra	-11.4952
▁божественный	-11.4952
▁iuniores	-11.4952
▁consedisse	-11.4952
▁отныне	-11.4952
▁двигаться	-11.4952
▁семьдесят	-11.4952
▁potitus	-11.4952
▁любое	-11.4952
▁Aequorum	-11.4952
▁probationem	-11.4952
▁arbitror	-11.4952
▁Brutus	-11.4953
▁habens	-11.4953
▁запах	-11.4953
▁Furio	-11.4953
▁aedilibus	-11.4954
▁здоровья	-11.4954
▁rite	-11.4954
▁Numidarum	-11.4955
▁наследником	-11.4955
▁Erant	-11.4955
▁смогут	-11.4955
▁petentibus	-11.4955
▁главное	-11.4955
▁nocturno	-11.4956
тон	-11.4956
▁diximus	-11.4956
▁Etruscos	-11.4956
▁tenebantur	-11.4956
▁stultitia	-11.4956
▁Эмилия	-11.4956
▁subsidiis	-11.4957
▁seruitutem	-11.4957
▁fugientium	-11.4957
▁единого	-11.4957
▁нравов	-11.4957
▁требование	-11.4958
▁угрозы	-11.4958
▁prohibe	-11.4959
▁ночам	-11.4959
▁включая	-11.4959
▁чужим	-11.496
▁глубины	-11.496
▁Usque	-11.4961
▁Греции	-11.4961
▁кругом	-11.4961
▁victores	-11.4962
▁полного	-11.4962
▁vitiis	-11.4962
▁Ariovistus	-11.4963
▁plenum	-11.4963
▁adhibetur	-11.4964
▁vota	-11.4964
▁pudicitia	-11.4964
даешь	-11.4965
▁хвалы	-11.4965
▁происходило	-11.4966
▁напор	-11.4966
▁ряд	-11.4967
▁молодых	-11.4967
▁Бар	-11.4967
▁acrior	-11.4967
▁свободные	-11.4969
▁член	-11.4969
нными	-11.4969
▁календы	-11.497
▁делаешь	-11.497
▁possem	-11.4971
▁занима	-11.4971
▁metuens	-11.4972
▁овладеть	-11.4972
▁радовался	-11.4972
▁Opera	-11.4972
▁естественно	-11.4973
кар	-11.4973
▁coniugem	-11.4973
▁tollere	-11.4973
▁occidi	-11.4974
▁exitium	-11.4974
▁Sarra	-11.4974
▁отрядов	-11.4975
▁палат	-11.4975
▁Кому	-11.4977
▁Numquam	-11.4977
▁оставлять	-11.4977
▁ero	-11.4978
▁vertit	-11.4978
▁Слово	-11.4978
▁questus	-11.4978
▁oneri	-11.4978
▁разговор	-11.4979
▁loquar	-11.4979
equita	-11.4979
▁appellatus	-11.498
▁regressus	-11.4981
▁отдых	-11.4982
▁mandatum	-11.4983
▁intellegi	-11.4985
▁temporali	-11.4986
▁дорогой	-11.4986
▁Bruto	-11.4987
▁страшно	-11.4988
pr	-11.4988
▁adgressus	-11.4989
▁небе	-11.499
▁communicat	-11.499
▁concessum	-11.499
▁effugere	-11.4991
ivo	-11.4991
▁Apuliam	-11.4991
▁vicem	-11.4993
▁дороже	-11.4994
▁роста	-11.4994
▁exstant	-11.4995
▁случаях	-11.4995
йдя	-11.4996
nalis	-11.4996
▁officina	-11.4997
▁собственность	-11.4998
▁Гар	-11.4999
mb	-11.5
▁calamitate	-11.5
▁soluti	-11.5001
▁captivis	-11.5001
▁habitat	-11.5003
▁Britanniam	-11.5003
▁gestarum	-11.5003
▁collem	-11.5004
▁Духа	-11.5006
▁возвратил	-11.5007
▁Syriam	-11.5007
▁тысячами	-11.5007
▁Gener	-11.5007
▁Sardiniam	-11.5007
▁stationem	-11.5009
▁советы	-11.5011
▁permissum	-11.5011
▁выхода	-11.5014
▁развод	-11.5015
currunt	-11.5016
▁docere	-11.5016
▁dictis	-11.5018
▁uiua	-11.5019
▁opiniones	-11.5019
▁pristina	-11.5019
▁venerit	-11.502
▁accedere	-11.5024
▁старинны	-11.5024
▁recitat	-11.5024
▁filiorum	-11.5026
▁effugi	-11.5026
▁построил	-11.5026
▁incertis	-11.5026
▁sepeli	-11.5027
▁uideat	-11.5027
▁uan	-11.5027
▁привлек	-11.5027
▁epi	-11.5028
▁известия	-11.5029
▁condicionem	-11.503
▁uaga	-11.5031
▁гору	-11.5031
▁Iesum	-11.5033
▁famem	-11.5033
звали	-11.5034
▁лжи	-11.5035
▁мил	-11.5035
▁Media	-11.5037
▁тревога	-11.5039
ливо	-11.504
▁dimissis	-11.5041
▁Bru	-11.5041
▁dimidi	-11.5042
▁praestat	-11.5042
▁rupe	-11.5043
▁материя	-11.5043
▁принимают	-11.5046
▁Крас	-11.5047
▁понимаю	-11.5047
iensis	-11.5048
▁vo	-11.5048
▁Квинту	-11.5048
▁Rh	-11.5048
▁говорится	-11.5052
▁необходимое	-11.5053
▁quidquam	-11.5053
▁effectus	-11.5055
▁отборны	-11.5057
▁educ	-11.506
▁пыл	-11.5064
▁легионам	-11.5064
▁Oppid	-11.5066
▁римскими	-11.5066
▁Urbe	-11.5067
▁comitatu	-11.5068
▁Go	-11.5072
▁uestrae	-11.5072
▁скрыва	-11.5075
▁egere	-11.5075
если	-11.5077
▁военно	-11.5077
▁ежегодно	-11.5077
▁фламин	-11.5079
▁universis	-11.5082
▁Vic	-11.5082
laris	-11.5082
uv	-11.5082
▁Ep	-11.5089
оло	-11.509
клонить	-11.5091
▁gaudere	-11.5091
missus	-11.5092
pse	-11.5095
▁вражески	-11.5095
▁divo	-11.5096
▁беспорядочно	-11.5098
▁снять	-11.5103
▁perlata	-11.5104
▁Factio	-11.5104
▁conloca	-11.5105
escent	-11.5105
▁sedecim	-11.5107
▁Ибер	-11.5114
▁imperare	-11.5115
gressus	-11.5115
▁спуска	-11.5115
▁Sovietica	-11.5117
▁equitumque	-11.5117
▁Augusta	-11.5117
▁топ	-11.5123
▁подкуп	-11.5124
▁ponte	-11.5125
▁возврат	-11.5128
▁непо	-11.5131
▁Сар	-11.5132
▁terroris	-11.5133
▁выгод	-11.5134
▁мера	-11.5134
▁программ	-11.5134
▁Южно	-11.5135
▁deserto	-11.5135
▁Эр	-11.5143
▁тыс	-11.5143
▁склонил	-11.5144
▁Мил	-11.5144
▁mensa	-11.5144
мене	-11.5147
▁exercituum	-11.5149
▁libere	-11.5149
▁renuntia	-11.5152
▁Pen	-11.5155
▁sociorumque	-11.5157
▁occurr	-11.5158
▁Servi	-11.5159
consul	-11.516
ура	-11.5166
xerunt	-11.5169
▁miserat	-11.5171
▁vigil	-11.5172
eras	-11.5173
▁Пу	-11.5174
ah	-11.5175
ющийся	-11.5176
▁ala	-11.5177
▁ministra	-11.5177
▁свежи	-11.5178
▁распустил	-11.5181
▁bonos	-11.5181
ierant	-11.5181
▁mariti	-11.5182
▁Посл	-11.5182
misisti	-11.5183
▁elephanti	-11.5183
▁предал	-11.5183
▁образа	-11.5185
audi	-11.5186
▁запад	-11.5186
nar	-11.5187
▁суши	-11.5187
eb	-11.5187
▁superat	-11.519
▁portu	-11.5192
▁вывод	-11.5192
▁дорого	-11.5194
▁Una	-11.5194
▁указывал	-11.5195
▁порт	-11.5196
▁eunt	-11.5196
▁ta	-11.5197
▁temptat	-11.5202
ошло	-11.5203
бел	-11.5204
▁Мак	-11.5205
▁tace	-11.5206
▁посылал	-11.5206
▁Кир	-11.5206
mma	-11.5211
▁Мало	-11.5212
▁vestro	-11.5215
▁тиран	-11.5215
▁пер	-11.5216
▁заговора	-11.5218
▁решив	-11.5219
▁familias	-11.522
▁Nola	-11.522
▁deduci	-11.522
▁pronuntiat	-11.5224
▁praesta	-11.5229
▁обита	-11.5232
▁обстоятельств	-11.5232
▁exanima	-11.5235
▁sile	-11.5238
▁Bello	-11.5241
▁situ	-11.5241
▁галльско	-11.5243
▁instare	-11.5244
▁conuert	-11.5245
▁Rus	-11.5247
▁iact	-11.5248
▁elu	-11.5253
ensium	-11.5254
▁Нем	-11.5259
▁negotii	-11.526
stans	-11.5262
▁Mut	-11.5262
ировал	-11.5263
▁resistere	-11.5264
▁Pal	-11.5264
▁retine	-11.5265
▁будущи	-11.5267
▁ministri	-11.5267
▁Каким	-11.5269
▁scriba	-11.5271
▁triste	-11.5271
▁collect	-11.5271
▁Воз	-11.5272
issimi	-11.5273
владеть	-11.5276
pote	-11.5277
▁занятия	-11.5277
pone	-11.528
чень	-11.5282
▁форма	-11.5283
▁confite	-11.5283
▁отбыл	-11.5284
▁возбужда	-11.5284
▁inclinata	-11.5284
▁разделя	-11.5289
▁increpa	-11.5292
огласно	-11.5293
▁Popul	-11.5294
ада	-11.5294
▁ответа	-11.5296
▁Anglia	-11.5296
▁плебеям	-11.5298
▁глупо	-11.5299
▁проводил	-11.5299
▁старым	-11.5303
▁сидел	-11.5304
▁feci	-11.5305
▁карфагенски	-11.5305
▁побежден	-11.5306
▁покров	-11.5308
▁frequenta	-11.5308
▁emp	-11.5309
▁significa	-11.5311
рма	-11.5311
▁systema	-11.5312
▁dedisse	-11.5312
▁remiss	-11.5313
▁Historia	-11.5313
▁оплакива	-11.5315
▁Cer	-11.5322
даст	-11.5324
▁Mel	-11.5325
▁convenire	-11.5325
▁командир	-11.5328
▁programma	-11.5328
▁sobri	-11.5329
▁latera	-11.5329
cularis	-11.5329
▁Cicero	-11.533
▁выполнен	-11.533
▁достойно	-11.533
▁общем	-11.5331
ssem	-11.5333
▁Neptun	-11.5334
▁Punico	-11.5334
▁dictitans	-11.5334
▁facultas	-11.5334
▁fefellit	-11.5334
▁iuuentutis	-11.5334
▁tempestas	-11.5334
▁uolnere	-11.5334
▁Арминий	-11.5334
▁СССР	-11.5334
▁Тарквиний	-11.5334
▁действующ	-11.5334
▁добыча	-11.5334
▁доспехи	-11.5334
▁здания	-11.5334
▁писателей	-11.5334
▁плакал	-11.5334
▁правление	-11.5334
▁прежнее	-11.5334
▁промежуток	-11.5334
▁свидетелей	-11.5334
▁тягостн	-11.5334
▁University	-11.5334
▁attinet	-11.5334
▁pompa	-11.5334
▁Нарцисс	-11.5334
▁благодеяние	-11.5334
▁дерева	-11.5334
▁дождь	-11.5334
▁ковчег	-11.5334
▁Манлия	-11.5334
▁coacto	-11.5334
▁Смерть	-11.5334
▁aperuit	-11.5334
▁зрение	-11.5334
▁позади	-11.5334
▁родине	-11.5334
▁suscipere	-11.5334
▁tabulis	-11.5334
▁aperte	-11.5334
▁растет	-11.5334
▁изобража	-11.5334
▁уйдет	-11.5334
▁gladium	-11.5334
▁насилия	-11.5334
▁catena	-11.5334
▁удачно	-11.5334
▁commeatibus	-11.5334
▁functus	-11.5334
▁dives	-11.5334
▁писем	-11.5334
▁Раб	-11.5334
▁Campanum	-11.5334
▁uirgis	-11.5334
падут	-11.5334
▁Schola	-11.5334
▁Марций	-11.5334
▁uincula	-11.5334
▁imposuit	-11.5335
▁quaerebam	-11.5335
▁доктор	-11.5335
▁роль	-11.5335
▁dederit	-11.5335
▁habuerunt	-11.5335
▁доверие	-11.5335
человеч	-11.5335
▁absurd	-11.5335
▁laetum	-11.5335
▁pondus	-11.5335
▁laurea	-11.5335
▁nobilem	-11.5335
▁осудил	-11.5335
▁лучших	-11.5335
▁новую	-11.5335
▁Ливии	-11.5335
▁tertius	-11.5335
▁responderunt	-11.5335
▁волнения	-11.5335
▁песни	-11.5335
▁погибель	-11.5335
▁заботился	-11.5335
▁суждения	-11.5336
▁Veientibus	-11.5336
▁iactura	-11.5336
▁patriciorum	-11.5336
▁impune	-11.5336
▁обратившись	-11.5336
▁Caecina	-11.5336
▁deponere	-11.5337
▁одобрения	-11.5337
▁огромное	-11.5337
▁barbarorum	-11.5337
▁изменения	-11.5337
▁ищут	-11.5337
▁двинуться	-11.5337
▁Туда	-11.5337
▁перебежчиков	-11.5337
▁confiteor	-11.5337
▁ambigua	-11.5337
▁frequenter	-11.5338
▁Causa	-11.5338
▁licere	-11.5338
▁биться	-11.5338
▁administravit	-11.5338
▁свободен	-11.5338
▁prohibuit	-11.5338
▁sensibus	-11.5338
▁пыткой	-11.5338
пускают	-11.5339
▁divitiae	-11.5339
▁Лишь	-11.5339
▁засады	-11.5339
▁km	-11.5339
▁Австралии	-11.5339
▁uidebantur	-11.534
▁decemuiros	-11.534
▁клиентов	-11.534
▁приехал	-11.534
▁испытать	-11.534
▁scias	-11.534
▁Quaedam	-11.534
▁incolae	-11.534
▁agebatur	-11.5341
▁надеждой	-11.5341
▁темницу	-11.5341
▁sequeretur	-11.5342
▁Египетской	-11.5342
▁rectum	-11.5342
▁Minucius	-11.5342
▁общий	-11.5342
▁iuuenem	-11.5342
▁Луцием	-11.5342
▁Гораций	-11.5343
▁Фор	-11.5343
▁minas	-11.5343
▁dehinc	-11.5344
▁угрозами	-11.5344
▁referri	-11.5344
▁negavit	-11.5344
▁главного	-11.5344
▁World	-11.5344
▁Poenorum	-11.5345
▁Cannensi	-11.5345
▁fasces	-11.5345
▁малых	-11.5346
нуты	-11.5346
▁старых	-11.5346
▁старейшин	-11.5347
▁Душа	-11.5347
▁подстрека	-11.5347
▁dilata	-11.5347
▁объяснить	-11.5347
мышлен	-11.5348
▁многочисленных	-11.5348
▁mensibus	-11.5348
▁уход	-11.5348
▁сочинения	-11.5348
▁существуют	-11.5348
enim	-11.5348
▁противников	-11.5348
▁звезды	-11.5349
▁inuenit	-11.5349
▁intro	-11.5349
▁столом	-11.5349
▁высшего	-11.5349
▁viderentur	-11.5349
▁foribus	-11.535
▁потомков	-11.535
▁instrumenta	-11.535
▁Sempronio	-11.5351
▁dimittit	-11.5351
nix	-11.5351
▁Нельзя	-11.5351
▁презира	-11.5351
▁пожела	-11.5351
▁планет	-11.5352
▁Америке	-11.5352
▁editum	-11.5353
ющему	-11.5353
▁superesset	-11.5354
In	-11.5354
▁temptare	-11.5354
▁провианта	-11.5354
▁отложил	-11.5354
▁religionis	-11.5355
▁казны	-11.5355
▁uolgo	-11.5356
▁проведен	-11.5357
▁знаменами	-11.5357
▁indignitate	-11.5357
▁Macedonum	-11.5357
▁способен	-11.5357
▁similia	-11.5358
▁начинается	-11.5358
▁decessit	-11.5358
▁анти	-11.5358
▁orientem	-11.5359
▁горах	-11.5359
▁вопросов	-11.536
▁orationis	-11.5361
▁Лот	-11.5362
▁святилище	-11.5362
itudo	-11.5363
▁принцепсу	-11.5364
▁Aliqua	-11.5364
▁результате	-11.5365
▁найдется	-11.5365
duntur	-11.5366
▁acerbi	-11.5366
▁украшения	-11.5366
▁посадил	-11.5366
▁mallet	-11.5367
gitur	-11.5367
▁conditum	-11.5368
▁Ати	-11.5368
▁остро	-11.5369
▁successor	-11.5369
▁доложили	-11.5371
▁oppugnanda	-11.5371
▁Campanos	-11.5372
▁моста	-11.5372
▁Manlium	-11.5372
▁ядом	-11.5372
tribu	-11.5372
▁использовать	-11.5374
▁Patres	-11.5374
▁скрывал	-11.5374
▁телу	-11.5375
▁Campaniam	-11.5375
cedant	-11.5376
▁patitur	-11.5377
▁Europaeae	-11.5377
▁новая	-11.5379
▁Atqu	-11.538
ведать	-11.5381
▁высокой	-11.5382
▁плоды	-11.5383
▁следу	-11.5383
▁comites	-11.5383
oth	-11.5384
▁погребен	-11.5384
▁смех	-11.5385
▁Хар	-11.5387
бери	-11.5387
▁solida	-11.5388
▁militarem	-11.5389
▁тылу	-11.5389
▁женщину	-11.5389
▁встретили	-11.539
ello	-11.5391
▁frui	-11.5392
▁претору	-11.5392
▁gratis	-11.5393
▁historiae	-11.5393
▁quer	-11.5393
▁замечательн	-11.5394
▁unica	-11.5394
▁дары	-11.5395
▁численность	-11.5395
▁officiis	-11.5395
роз	-11.5397
▁Кап	-11.5397
▁твоем	-11.5398
▁ibique	-11.5398
▁universita	-11.5398
eva	-11.5399
▁vive	-11.54
▁западн	-11.54
▁ingentibus	-11.54
▁годами	-11.5401
▁показывает	-11.5401
▁центурион	-11.5402
▁Августу	-11.5403
▁controversia	-11.5403
▁carnem	-11.5404
▁данным	-11.5408
▁предприятия	-11.5409
▁contion	-11.5409
▁таково	-11.541
▁гражданин	-11.5411
▁осмелива	-11.5411
▁aberant	-11.5411
▁abnu	-11.5412
▁q	-11.5412
uam	-11.5416
▁дворца	-11.5417
▁indici	-11.5417
ставь	-11.5417
▁Cens	-11.5419
nenses	-11.542
▁timent	-11.5422
▁pa	-11.5422
▁браке	-11.5423
▁безумн	-11.5425
▁Utrum	-11.5425
▁Summa	-11.5427
▁scientiam	-11.5427
▁aduentus	-11.5429
▁метательны	-11.5429
▁senem	-11.543
▁нынешне	-11.5434
▁оказывал	-11.5441
▁приговора	-11.5443
▁aditum	-11.5444
▁commuta	-11.5446
▁негодование	-11.5448
▁nouos	-11.5449
▁contempla	-11.545
▁integram	-11.5451
▁спросили	-11.5451
▁diuini	-11.5452
▁знаки	-11.5452
▁uo	-11.5454
▁Больше	-11.5456
▁pueros	-11.5456
▁вс	-11.5457
▁exulta	-11.5457
▁верным	-11.5458
▁проводить	-11.5459
▁didici	-11.5459
▁Маг	-11.546
▁he	-11.546
▁rata	-11.5461
стой	-11.5463
ивших	-11.5463
▁отрица	-11.5464
▁ruere	-11.5464
emur	-11.5465
▁небом	-11.5466
▁paratum	-11.5466
dy	-11.5468
▁курс	-11.5468
▁письмом	-11.5469
vide	-11.547
▁надежд	-11.547
▁neve	-11.547
llus	-11.5472
▁вины	-11.5473
▁Мой	-11.5474
SN	-11.5475
vic	-11.5478
лил	-11.548
▁occidere	-11.5483
▁adfici	-11.5483
▁славны	-11.5487
пускать	-11.5487
▁fu	-11.5489
dux	-11.5491
▁utile	-11.5493
▁coronam	-11.5496
▁радостно	-11.5497
▁vend	-11.55
▁Мен	-11.5504
▁опасны	-11.5507
▁praesentis	-11.5511
▁невероятно	-11.5511
▁incidit	-11.5513
▁бо	-11.5513
▁ласк	-11.5513
▁familiam	-11.5513
▁feminas	-11.5515
▁adhort	-11.5515
▁tendere	-11.5515
▁infantia	-11.5516
aginta	-11.5516
▁erudi	-11.5517
ducat	-11.5517
▁istos	-11.5518
vero	-11.5519
▁vet	-11.5519
▁овладел	-11.552
▁годом	-11.552
▁причинам	-11.5521
antium	-11.5523
▁уходил	-11.5524
▁поры	-11.5526
▁прекратил	-11.5526
▁cogitat	-11.5533
▁пролив	-11.5534
▁верн	-11.5535
▁lup	-11.5535
полне	-11.5536
▁клуб	-11.5537
ёв	-11.5537
acta	-11.5542
▁fundit	-11.5543
▁fract	-11.5544
▁comperta	-11.5546
ssimus	-11.5547
deri	-11.5556
▁Bur	-11.5558
▁amplior	-11.5558
нские	-11.5559
▁использует	-11.556
▁вера	-11.5563
▁нашими	-11.5564
▁sita	-11.5564
▁случаем	-11.5565
▁центуриона	-11.5568
▁caesis	-11.5571
▁porrig	-11.5577
ful	-11.5578
чную	-11.558
▁bellorum	-11.5582
posita	-11.5582
▁Petr	-11.5583
роде	-11.5585
▁univers	-11.5585
▁плат	-11.5587
▁гон	-11.5588
▁fon	-11.5589
ведение	-11.559
▁veniret	-11.5591
▁рез	-11.5592
▁побег	-11.5592
нин	-11.5592
▁английск	-11.5594
cessisset	-11.5595
▁кап	-11.5596
altum	-11.5596
▁accusat	-11.5597
▁префект	-11.5598
ида	-11.5599
▁Анти	-11.56
▁предыдуще	-11.5601
▁облада	-11.5603
▁munita	-11.5603
дя	-11.5605
▁Lac	-11.5606
▁рана	-11.5609
▁культур	-11.5611
несла	-11.5611
люд	-11.5614
▁команд	-11.5615
▁Vitelli	-11.5616
▁управлять	-11.5617
▁актер	-11.5619
rd	-11.5619
▁обеда	-11.5619
▁opinione	-11.5623
▁сидя	-11.5623
▁actae	-11.5625
▁созерца	-11.5627
▁Latino	-11.5628
▁осадны	-11.5628
▁Ira	-11.5628
▁sinum	-11.5628
▁Лен	-11.5632
елл	-11.5634
нного	-11.5634
ssis	-11.5635
▁absolu	-11.5637
бывать	-11.5637
▁разряд	-11.5638
ono	-11.5641
▁болота	-11.5641
▁истощ	-11.5644
йдут	-11.5644
пом	-11.5648
▁supplicii	-11.565
▁libero	-11.565
▁побежда	-11.5652
анный	-11.5653
▁Sulla	-11.5653
▁condi	-11.5654
llum	-11.5656
▁большего	-11.5657
▁могил	-11.5657
▁morti	-11.5658
▁misso	-11.5661
▁Apulia	-11.5661
▁futuro	-11.5661
ares	-11.5662
▁изображения	-11.5662
▁Sili	-11.5662
▁собран	-11.5662
▁Пан	-11.5663
▁мудр	-11.5664
▁strage	-11.5664
▁Люб	-11.5664
▁claud	-11.5665
изма	-11.5669
▁adsum	-11.5671
nov	-11.5673
лены	-11.5673
видимом	-11.5677
▁Romanas	-11.5678
▁Medi	-11.5678
▁detine	-11.5678
▁uolnera	-11.5682
▁ipsae	-11.5684
▁honori	-11.5684
▁compell	-11.5684
▁tuenda	-11.5685
▁хозяин	-11.5685
▁текст	-11.5688
▁красноречив	-11.5689
▁propera	-11.5689
▁внутренне	-11.569
▁procurator	-11.5691
ern	-11.5692
▁solitudine	-11.5692
▁coetu	-11.5692
▁nobilitate	-11.5692
▁Ри	-11.5693
▁последним	-11.5697
alibus	-11.5698
▁ожидал	-11.5698
▁perfidia	-11.5699
▁ponit	-11.5701
▁устраива	-11.5704
▁жесток	-11.5704
▁присоединил	-11.5705
▁следовал	-11.571
▁выступал	-11.5711
missione	-11.5712
▁cogno	-11.5714
▁pull	-11.5717
▁addere	-11.5717
▁страна	-11.5717
▁метод	-11.572
▁испытал	-11.572
▁живым	-11.5721
▁эдикт	-11.5723
▁attribu	-11.5726
▁turbati	-11.5726
▁уверенность	-11.5726
▁unc	-11.5727
▁dimittere	-11.5731
▁безоружн	-11.5732
▁полагая	-11.5732
▁Tibur	-11.5733
▁счастливым	-11.5734
▁Parthorum	-11.5734
▁Punicum	-11.5734
▁abyssum	-11.5734
▁bibliotheca	-11.5734
▁epocha	-11.5734
▁obserua	-11.5734
▁traiecit	-11.5734
▁triumphus	-11.5734
▁Агриппы	-11.5734
▁Кассий	-11.5734
▁Моисей	-11.5734
▁Октавий	-11.5734
▁дядя	-11.5734
▁жаловался	-11.5734
▁жребий	-11.5734
▁защитников	-11.5734
▁качества	-11.5734
▁наверняка	-11.5734
▁одиннадцат	-11.5734
▁окрестностях	-11.5734
▁позицию	-11.5734
▁прибытия	-11.5734
▁тюрьму	-11.5734
▁человеческие	-11.5734
▁человеческим	-11.5734
▁London	-11.5734
▁Tempor	-11.5734
▁recupera	-11.5734
▁scruta	-11.5734
▁Цетег	-11.5734
▁saxis	-11.5734
▁Действительно	-11.5734
▁статус	-11.5734
▁Exempl	-11.5734
▁aduerso	-11.5734
▁aspera	-11.5734
▁вселенной	-11.5734
▁посетил	-11.5734
▁desiderio	-11.5734
▁iusserat	-11.5734
▁diuersa	-11.5734
▁fortitudo	-11.5734
▁обвинитель	-11.5734
▁футболист	-11.5734
▁важных	-11.5734
▁Corbulo	-11.5734
▁emissa	-11.5734
▁extremo	-11.5734
▁Museum	-11.5734
▁seruus	-11.5734
▁Gallus	-11.5734
▁meritum	-11.5734
▁разгар	-11.5734
▁oves	-11.5734
▁retenta	-11.5734
▁Пилат	-11.5734
▁оружию	-11.5734
▁рассказывает	-11.5735
▁dulcedine	-11.5735
▁дружески	-11.5735
▁Numidis	-11.5735
▁опубликован	-11.5735
▁sustineri	-11.5735
▁freto	-11.5735
▁толку	-11.5735
▁Вителлий	-11.5735
▁сообщить	-11.5735
▁дальни	-11.5735
▁turres	-11.5735
▁чужие	-11.5735
▁coacta	-11.5735
▁удаля	-11.5735
▁allatum	-11.5735
▁наслаждаться	-11.5736
▁annua	-11.5736
▁Angel	-11.5736
▁Flor	-11.5736
▁деятельности	-11.5736
▁полагаясь	-11.5736
▁prodesse	-11.5736
▁iniquitate	-11.5736
▁experti	-11.5736
▁товарищей	-11.5736
▁речами	-11.5737
▁Multum	-11.5737
▁Etruscorum	-11.5737
▁increpans	-11.5737
▁uiderunt	-11.5737
▁uelint	-11.5737
▁молодости	-11.5737
▁debeat	-11.5737
▁следующие	-11.5738
▁praemio	-11.5738
▁приказания	-11.5738
▁precatus	-11.5738
▁школу	-11.5738
▁milliones	-11.5738
▁живот	-11.5738
▁серии	-11.5738
▁Куда	-11.5738
▁Царь	-11.5738
▁децемвиров	-11.5739
▁осуждения	-11.5739
▁facio	-11.5739
▁четвертый	-11.574
▁выйдя	-11.574
▁Casilinum	-11.574
▁Другой	-11.5741
▁числу	-11.5741
▁силою	-11.5741
▁квартиры	-11.5741
▁рассказать	-11.5741
▁командой	-11.5741
▁предлогом	-11.5741
▁collegis	-11.5741
▁медлил	-11.5742
▁petivit	-11.5742
▁туман	-11.5742
▁боюсь	-11.5743
▁привыкли	-11.5743
ающих	-11.5743
▁поддержки	-11.5744
▁fiet	-11.5744
lac	-11.5745
▁трибы	-11.5746
cesserit	-11.5746
▁заочно	-11.5747
▁cinematographic	-11.5747
▁perfectum	-11.5747
▁formas	-11.5747
▁ценой	-11.5747
▁Magno	-11.5748
▁accusatores	-11.5748
▁стражей	-11.5749
▁uiderentur	-11.5749
▁выходить	-11.575
▁тревоги	-11.575
▁особенности	-11.575
▁dimicandum	-11.575
▁незаметно	-11.575
▁величайшей	-11.5751
▁Писание	-11.5751
▁История	-11.5752
▁общественных	-11.5752
▁ho	-11.5753
▁схватить	-11.5753
▁собраться	-11.5753
▁участия	-11.5753
▁latius	-11.5754
▁merces	-11.5754
▁principia	-11.5754
▁audisset	-11.5754
▁gravior	-11.5754
▁пороков	-11.5755
▁доброго	-11.5755
▁доблестью	-11.5755
▁adduci	-11.5755
▁funus	-11.5755
▁упражнения	-11.5755
▁occasum	-11.5756
▁объявлено	-11.5756
▁appellari	-11.5757
▁coniecta	-11.5757
▁просьбами	-11.5758
▁площади	-11.5758
▁coniunct	-11.5758
▁особ	-11.5759
▁частным	-11.576
▁Adeo	-11.576
▁nudi	-11.576
▁fortuita	-11.576
▁недолго	-11.5761
▁Decium	-11.5762
▁обеты	-11.5762
▁нанес	-11.5763
▁iuuenis	-11.5763
▁совершено	-11.5763
▁резко	-11.5764
фф	-11.5765
▁заботы	-11.5765
▁Lucanis	-11.5766
▁creatum	-11.5766
▁большинства	-11.5766
▁capitur	-11.5766
▁пестр	-11.5768
▁revocat	-11.5768
▁Mira	-11.5768
▁accensi	-11.5769
▁Habet	-11.5769
▁восстановить	-11.577
▁размера	-11.5771
▁Аполлона	-11.5771
▁наказывать	-11.5771
▁possessionem	-11.5772
▁vidisset	-11.5772
▁Cassium	-11.5773
▁примером	-11.5773
▁feria	-11.5774
▁grati	-11.5775
▁Augustae	-11.5775
▁sententias	-11.5775
venere	-11.5779
▁sinistro	-11.5779
▁искусством	-11.5779
▁гражданина	-11.5779
▁Ter	-11.5781
▁intulit	-11.5781
▁купил	-11.5781
ющимся	-11.5781
▁Secund	-11.5782
овое	-11.5782
▁плодов	-11.5782
▁легионом	-11.5783
▁indicem	-11.5784
▁Marcio	-11.5785
▁Ду	-11.5785
▁creaturae	-11.5785
▁certatum	-11.5786
▁ignominiae	-11.5786
diae	-11.5787
▁litus	-11.5787
▁iuventa	-11.5788
▁галльские	-11.5789
▁развит	-11.579
павших	-11.579
▁поручен	-11.5793
▁habentur	-11.5793
▁известен	-11.5793
▁necati	-11.5793
▁знай	-11.5794
▁Лепида	-11.5794
▁карт	-11.5795
вляется	-11.5795
▁присутству	-11.5796
никами	-11.5796
▁soluta	-11.5796
▁система	-11.5796
▁saltum	-11.5797
▁auditum	-11.5798
▁originem	-11.5799
▁полон	-11.5799
▁Сабина	-11.5799
▁занимали	-11.58
▁родом	-11.58
▁confession	-11.58
▁Europaea	-11.58
▁горожане	-11.58
▁fasc	-11.5801
▁creare	-11.5801
родных	-11.5802
▁использу	-11.5802
▁habebit	-11.5803
▁traditum	-11.5803
▁лицу	-11.5803
▁баб	-11.5803
▁labe	-11.5803
▁palli	-11.5805
▁paratus	-11.5805
▁Martio	-11.5805
▁sequuntur	-11.5806
▁diversis	-11.5806
▁отступить	-11.5807
▁Флакка	-11.5808
▁команду	-11.5808
▁malitia	-11.5809
▁affectu	-11.581
▁timoris	-11.5811
уст	-11.5812
▁aquis	-11.5813
аш	-11.5815
▁patrio	-11.5816
certus	-11.5816
▁желанием	-11.5817
▁adiit	-11.5818
▁Hernicis	-11.5818
▁custodiae	-11.5819
нская	-11.582
▁Того	-11.582
▁privatis	-11.5822
US	-11.5823
▁ди	-11.5824
tamen	-11.5825
ER	-11.5825
▁langu	-11.5827
▁воротам	-11.5828
▁respondere	-11.5828
▁collis	-11.5829
▁reprehend	-11.5829
▁законами	-11.5829
▁improb	-11.5831
▁Philippo	-11.5832
▁игра	-11.5833
▁coetus	-11.5834
uenere	-11.5834
▁Bl	-11.5835
▁слуг	-11.5835
▁habuisset	-11.5835
▁Была	-11.5835
▁institu	-11.5836
▁ostent	-11.5836
▁строить	-11.5837
пред	-11.5838
▁Mons	-11.5839
▁foras	-11.5839
ерш	-11.5842
▁missae	-11.5844
▁salu	-11.5845
edere	-11.5846
▁antiquis	-11.5848
средством	-11.5849
▁землею	-11.5851
▁ложа	-11.5856
▁Авраама	-11.5857
▁пле	-11.5858
▁ambig	-11.5861
▁appell	-11.5862
▁supple	-11.5862
▁подтвердил	-11.5864
▁uteretur	-11.5865
йцы	-11.5868
▁mirari	-11.5869
▁Sch	-11.587
▁Книга	-11.5872
▁Reg	-11.5872
▁играл	-11.5873
▁mitte	-11.5873
▁obtempera	-11.5873
▁золотом	-11.5876
▁грозил	-11.5877
▁отнес	-11.588
▁Bre	-11.5883
▁Ama	-11.5884
▁пали	-11.5884
▁Quant	-11.5885
▁дам	-11.5886
gebat	-11.5887
▁exsul	-11.5887
▁Leg	-11.5887
bamus	-11.5888
▁завтра	-11.5889
▁Ей	-11.589
▁обращает	-11.5891
сер	-11.5893
▁получивши	-11.5897
ismi	-11.5897
▁руке	-11.5898
▁охвачен	-11.5901
▁opperi	-11.5902
▁urge	-11.5904
▁Твоими	-11.5908
▁circuitu	-11.5909
cubuit	-11.591
▁могущественн	-11.591
▁negant	-11.5912
▁Втор	-11.5913
▁auge	-11.5913
▁внушил	-11.5917
▁militis	-11.5921
misit	-11.5922
▁gravis	-11.5923
▁Эт	-11.5924
▁зверя	-11.5925
▁отврати	-11.5925
▁arguere	-11.5925
▁освящен	-11.5926
▁inferior	-11.5927
▁десят	-11.5927
sul	-11.5927
▁лиша	-11.5928
▁senes	-11.5929
▁molestia	-11.593
▁deerat	-11.5932
▁sexta	-11.5932
▁учил	-11.5932
▁confus	-11.5932
▁uident	-11.5933
▁домам	-11.5933
▁classes	-11.5935
enus	-11.5938
▁sollicitudine	-11.5941
ивается	-11.5943
нется	-11.5946
▁Вес	-11.5946
форм	-11.5948
▁ampl	-11.5948
▁iri	-11.5951
▁compon	-11.5953
▁dolores	-11.5954
▁cave	-11.5954
▁pervenire	-11.5956
имость	-11.5958
▁Cato	-11.5959
▁subsidia	-11.596
▁Anti	-11.5964
▁indicat	-11.5965
▁ferebant	-11.5968
▁брака	-11.5971
▁приняти	-11.5972
▁называемы	-11.5974
▁христиан	-11.5974
прежнему	-11.5977
▁navi	-11.5978
ссе	-11.5979
▁praesidi	-11.5982
▁esuri	-11.5983
▁frequenti	-11.5996
▁волк	-11.5999
▁continere	-11.5999
щё	-11.6
▁liberata	-11.6
pons	-11.6
▁враждебно	-11.6005
▁perferre	-11.6006
▁statuere	-11.6008
fariam	-11.601
▁вход	-11.6013
ывая	-11.6013
▁ueter	-11.6013
▁буд	-11.6014
▁traici	-11.6015
▁aduersari	-11.6018
▁aliquos	-11.6018
▁advocat	-11.6019
▁присоединя	-11.602
Но	-11.6021
пустив	-11.6023
▁grammatic	-11.6024
▁Вин	-11.6026
▁Nota	-11.6027
▁проконсул	-11.603
ley	-11.6031
▁cognovi	-11.6036
vocavit	-11.6036
▁др	-11.6037
▁notis	-11.6039
правившись	-11.6039
ься	-11.6041
▁cen	-11.6041
▁dictatori	-11.6044
▁Diu	-11.6044
▁lacte	-11.6045
чего	-11.6045
▁мудреца	-11.6046
▁quanti	-11.6048
ления	-11.6048
▁спрашиваю	-11.6049
▁сед	-11.6049
▁семя	-11.6051
нным	-11.6051
ducta	-11.6052
dom	-11.6052
пустился	-11.6054
▁справедливы	-11.6054
▁improba	-11.6056
[...]
